f6
00
00
00
00
00
00
00
00
00
00
00
00
00
00
00
d4
00
00
00
00
00
00
00
00
00
00
00
00
00
00
00
d7
00
00
00
00
00
00
00
00
00
00
00
00
00
00
00
e5
00
00
00
00
00
00
00
00
00
00
00
00
00
00
00
e8
00
00
00
00
00
00
00
00
00
00
00
00
00
00
00
09
00
00
00
00
00
00
00
00
00
00
00
00
00
00
00
cc
00
00
00
00
00
00
00
00
00
00
00
00
00
00
00
db
00
00
00
00
00
00
00
00
00
00
00
00
00
00
00
dc
00
00
00
00
00
00
00
00
00
00
00
00
00
00
00
0d
00
00
00
00
00
00
00
00
00
00
00
00
00
00
00
08
00
00
00
00
00
00
00
00
00
00
00
00
00
00
00
d6
00
00
00
00
00
00
00
00
00
00
00
00
00
00
00
03
00
00
00
00
00
00
00
00
00
00
00
00
00
00
00
04
00
00
00
00
00
00
00
00
00
00
00
00
00
00
00
0c
00
00
00
00
00
00
00
00
00
00
00
00
00
00
00
0a
00
00
00
00
00
00
00
00
00
00
00
00
00
00
00
db
00
00
00
00
00
00
00
00
00
00
00
00
00
00
00
d5
00
00
00
00
00
00
00
00
00
00
00
00
00
00
00
cb
00
00
00
00
00
00
00
00
00
00
00
00
00
00
00
d4
00
00
00
00
00
00
00
00
00
00
00
00
00
00
00
d2
00
00
00
00
00
00
00
00
00
00
00
00
00
00
00
d5
00
00
00
00
00
00
00
00
00
00
00
00
00
00
00
11
00
00
00
00
00
00
00
00
00
00
00
00
00
00
00
0e
00
00
00
00
00
00
00
00
00
00
00
00
00
00
00
05
00
00
00
00
00
00
00
00
00
00
00
00
00
00
00
d3
00
00
00
00
00
00
00
00
00
00
00
00
00
00
00
c2
00
00
00
00
00
00
00
00
00
00
00
00
00
00
00
07
00
00
00
00
00
00
00
00
00
00
00
00
00
00
00
c8
00
00
00
00
00
00
00
00
00
00
00
00
00
00
00
d7
00
00
00
00
00
00
00
00
00
00
00
00
00
00
00
e5
00
00
00
00
00
00
00
00
00
00
00
00
00
00
00
c9
00
00
00
00
00
00
00
00
00
00
00
00
00
00
00
d0
00
00
00
00
00
00
00
00
00
00
00
00
00
00
00
07
00
00
00
00
00
00
00
00
00
00
00
00
00
00
00
03
00
00
00
00
00
00
00
00
00
00
00
00
00
00
00
11
00
00
00
00
00
00
00
00
00
00
00
00
00
00
00
c0
00
00
00
00
00
00
00
00
00
00
00
00
00
00
00
06
00
00
00
00
00
00
00
00
00
00
00
00
00
00
00
0b
00
00
00
00
00
00
00
00
00
00
00
00
00
00
00
e6
00
00
00
00
00
00
00
00
00
00
00
00
00
00
00
0e
00
00
00
00
00
00
00
00
00
00
00
00
00
00
00
06
00
00
00
00
00
00
00
00
00
00
00
00
00
00
00
c3
00
00
00
00
00
00
00
00
00
00
00
00
00
00
00
d1
00
00
00
00
00
00
00
00
00
00
00
00
00
00
00
11
00
00
00
00
00
00
00
00
00
00
00
00
00
00
00
11
00
00
00
00
00
00
00
00
00
00
00
00
00
00
00
c8
00
00
00
00
00
00
00
00
00
00
00
00
00
00
00
08
00
00
00
00
00
00
00
00
00
00
00
00
00
00
00
cf
00
00
00
00
00
00
00
00
00
00
00
00
00
00
00
09
00
00
00
00
00
00
00
00
00
00
00
00
00
00
00
cc
00
00
00
00
00
00
00
00
00
00
00
00
00
00
00
0d
00
00
00
00
00
00
00
00
00
00
00
00
00
00
00
d7
00
00
00
00
00
00
00
00
00
00
00
00
00
00
00
08
00
00
00
00
00
00
00
00
00
00
00
00
00
00
00
f4
00
00
00
00
00
00
00
00
00
00
00
00
00
00
00
cb
00
00
00
00
00
00
00
00
00
00
00
00
00
00
00
d6
00
00
00
00
00
00
00
00
00
00
00
00
00
00
00
11
00
00
00
00
00
00
00
00
00
00
00
00
00
00
00
04
00
00
00
00
00
00
00
00
00
00
00
00
00
00
00
0f
00
00
00
00
00
00
00
00
00
00
00
00
00
00
00
cd
00
00
00
00
00
00
00
00
00
00
00
00
00
00
00
06
00
00
00
00
00
00
00
00
00
00
00
00
00
00
00
0b
00
00
00
00
00
00
00
00
00
00
00
00
00
00
00
0b
00
00
00
00
00
00
00
00
00
00
00
00
00
00
00
