df
ee
03
e9
e3
04
d6
e4
0c
eb
e4
d8
df
e8
f6
e5
fb
e5
01
f1
f4
f4
e1
f2
07
f7
00
d7
eb
d9
ce
d1
d6
eb
e0
db
e1
f0
f8
df
e8
00
e5
f3
f1
ff
ea
e6
f9
08
04
dd
f0
f5
f1
f7
0d
02
0c
03
12
14
0a
fd
f6
ee
0e
f5
fa
15
16
06
0d
1c
13
fe
0a
07
fe
f5
fb
04
fb
fd
19
02
ea
06
fa
ea
0c
0a
0a
0f
04
08
f7
f8
f4
09
08
16
0b
f5
f3
03
01
f6
eb
f0
ef
ec
0f
e7
09
06
ec
02
e6
f3
ff
04
ff
e7
e4
f4
0f
13
0d
f8
fe
fe
f8
07
f7
fb
f7
04
f4
fc
f3
fd
eb
f9
dd
ff
f1
d9
e2
dd
d9
ea
da
09
02
14
0d
16
08
15
1b
16
ea
ff
f8
e9
fb
09
f0
10
0e
08
10
1c
0c
0d
fc
1f
fc
ff
eb
0a
ff
f0
05
04
0e
0b
06
12
15
01
f9
0b
fa
07
02
0c
ec
ef
f0
e0
f7
f3
f2
e9
fa
0f
17
f1
df
0e
ec
0d
0a
00
e1
f3
f0
ee
e9
f8
f2
ff
f1
db
12
1b
f6
e1
f7
ef
e1
0b
d8
f6
fe
06
00
11
01
f0
06
d4
e3
09
fe
07
0a
19
f6
00
d3
02
26
c8
f4
0f
df
e7
fc
17
11
12
d4
f5
ea
f9
f8
f3
f7
03
d5
0f
0e
0a
13
0b
fe
cd
fd
11
ed
03
13
0c
f7
0a
04
fd
2c
f4
f1
10
ec
f6
f8
c8
01
f4
f0
12
fa
d6
00
d7
0d
09
0e
f7
dd
fe
00
ee
fa
e3
e0
ec
ed
0c
f3
e4
07
0f
e9
fe
f7
0c
ff
01
f5
e5
fc
dc
f2
02
eb
fe
01
e3
e1
fd
04
ff
03
00
f6
f6
09
f4
f0
10
0f
23
1e
12
13
ed
f7
03
f1
ef
ff
f5
f3
ff
01
04
02
ed
e5
ef
f3
f0
fc
fa
fa
ee
03
fb
fe
f4
f5
0a
ef
02
07
f6
ea
fd
fe
fe
fb
df
dd
e7
ed
12
08
02
06
ef
dd
f1
0a
0a
0f
08
00
f6
fe
fd
e9
03
1a
06
14
22
26
20
01
1d
11
ea
ea
ed
fa
f5
f8
06
00
15
d6
ef
ee
e1
f0
df
c8
da
ca
0b
0d
19
06
00
09
13
18
1a
06
fc
13
df
dd
fa
e1
fd
06
0b
1b
12
e9
15
19
1a
25
20
00
00
12
f5
00
08
0e
1b
04
fb
fc
02
fb
03
0a
08
f9
08
02
05
09
0b
10
17
fb
fe
05
01
f9
16
0c
02
f0
00
f6
0e
09
f4
f6
01
03
07
08
ff
0b
f8
fa
05
e4
f6
0c
09
07
0d
0a
08
01
fc
f1
f4
f8
f8
07
0a
0d
fc
f5
ee
01
eb
0d
ff
2e
26
1e
f1
11
05
02
09
01
10
00
0a
ff
fa
f9
e3
07
ff
04
fe
17
0e
f8
fd
07
fb
d0
fd
18
1a
09
07
d2
02
10
09
2a
0d
f7
1f
09
fa
2a
0c
0d
f7
0f
ef
1e
10
04
f1
fb
08
19
21
1f
06
19
2e
05
fa
fe
0c
f4
10
eb
0b
0a
f6
ed
c6
fa
1a
09
09
0e
0b
0d
0b
09
0b
fb
0c
08
02
f0
0c
10
0f
f0
e4
e7
ec
e0
e2
f1
e6
f3
f4
06
f4
05
f5
f4
ff
19
fa
e9
e6
e7
01
f6
fa
08
09
0e
02
05
f4
02
18
f9
03
1a
10
e7
f3
03
00
ff
0c
03
04
00
13
f5
f9
10
0b
0b
0e
06
13
02
04
08
f5
01
08
ff
ff
13
ea
f3
fc
ec
f6
e9
fd
08
e0
fc
f4
e4
12
f6
f9
06
05
fa
10
0c
f9
18
1c
00
0b
0b
17
0d
0a
04
fb
f7
07
fa
f6
07
ee
f7
05
eb
fb
0d
fa
11
10
dd
eb
fa
f0
f2
ef
14
f5
e4
06
06
13
0a
16
fc
01
e4
cc
ea
00
e0
fb
f7
f3
f4
f1
f6
ee
ef
e9
09
0e
fb
f6
08
0c
02
fe
e8
f2
02
f4
fc
01
fc
f4
13
fa
f1
00
fe
0a
f4
19
06
06
02
f5
06
f9
ec
f6
ea
0c
fb
f9
f9
00
f7
e8
eb
e5
02
f8
f9
05
04
fe
f6
f0
e7
e4
eb
eb
f3
0a
08
0e
17
08
ed
13
0c
fa
13
0d
fb
0d
e9
ff
fc
0c
00
10
00
fa
f9
e1
e8
fe
fd
df
e3
eb
cf
d0
28
1a
11
fd
0a
01
ed
e8
e4
f5
0f
09
f2
07
f6
f0
f5
f5
e3
d6
f6
e6
fe
19
0e
fc
01
fd
f8
03
0f
ea
f4
03
f9
ef
fa
e0
f6
e9
04
04
0b
09
ed
fc
f3
ed
ed
03
0c
05
04
08
09
eb
f4
f6
02
0d
08
0e
05
0d
fb
fd
fe
07
f5
f3
04
01
fa
dc
d5
0f
d4
e1
f9
dc
fb
f9
0d
11
04
15
12
00
fe
05
fd
18
f4
04
04
fb
07
f2
03
05
fd
f1
03
17
07
07
09
09
15
ef
fb
ef
df
08
f9
06
ff
03
f2
f3
e2
0b
fb
11
18
02
05
fe
e0
14
14
fa
0e
03
04
02
f6
0c
ee
04
0f
27
ea
c4
0b
04
06
f3
1b
13
f7
f9
f9
1b
f0
ed
e7
f2
ec
c0
e9
ff
d3
1b
2e
02
1d
0f
fd
0c
fb
f0
f7
fd
03
03
f2
01
07
1d
00
fa
1c
13
03
fb
e1
17
1c
23
02
02
fe
00
03
f4
e4
f0
21
11
ff
fe
08
12
0a
04
0f
0f
0c
fe
fa
02
01
fc
f9
f3
fe
00
f8
f1
ea
e4
0d
f6
d5
13
05
fd
01
f8
fa
01
ec
ef
f8
d8
03
06
d2
ee
f8
ce
d8
e6
0e
0d
10
08
02
0e
eb
f0
fd
f3
fb
05
13
0e
16
f2
f5
f2
0a
0d
1b
06
09
18
f8
23
0a
0c
00
f7
f1
ef
e3
f7
e8
f9
f8
09
fc
f3
fc
e9
f4
eb
f8
f8
fc
04
e1
f0
f8
07
fc
fe
03
f3
f3
07
07
01
03
03
1a
1d
19
02
09
24
26
19
23
0b
f7
fa
f6
fa
07
04
fc
07
f7
14
00
0e
18
0b
f5
26
2d
0e
0f
0a
1e
0c
1e
15
f1
fe
0b
0c
09
0d
0c
0c
0f
04
14
0e
ff
03
01
f5
ec
f8
f2
fb
f7
24
fb
e9
e7
f6
ed
fe
ee
fd
09
03
01
f8
fd
f9
05
02
fa
e5
ff
fe
fa
eb
fe
e6
d2
e6
ee
fe
11
f4
02
fe
06
07
f1
e9
e2
fb
f2
e5
fb
d9
ff
ef
1b
0e
14
0c
0b
22
09
22
20
ff
0e
e9
f0
f1
f4
01
f4
ee
0c
04
0a
13
0d
e7
03
13
ed
f2
e4
0b
08
0b
fd
09
11
19
de
ee
f9
fb
0e
01
f8
ef
06
ec
da
d5
dd
e8
cf
da
d9
ed
ff
07
fb
f7
fb
f2
0f
f5
00
dc
ed
f7
d0
e4
db
f2
09
f3
cf
e8
e3
eb
ed
d5
d7
ff
fb
ce
d0
df
db
e3
e6
c8
eb
e3
03
08
f6
01
01
fb
00
fb
04
02
03
f4
fc
fa
03
0e
0d
f7
07
0e
0d
f5
f6
f6
fb
f1
f7
0c
f4
f5
26
fb
ec
09
fe
ff
11
f5
f4
f8
f6
fc
09
01
00
f7
00
01
fa
00
03
f0
f3
00
e8
dc
d5
d8
e4
d4
c0
f1
f4
fd
0e
03
01
1e
0c
f2
17
01
15
0b
3c
13
10
1b
13
0a
15
f2
fd
ed
f9
f1
f4
e3
00
fc
05
f8
00
ff
fb
0a
07
09
1d
f4
11
ee
fd
16
de
db
f4
d6
09
ee
fb
fd
05
10
05
f0
1a
fe
0e
fd
f8
05
da
00
1e
fb
02
fd
06
08
ef
01
f8
f7
fd
f4
f8
f1
f9
0d
0c
ec
fb
fd
f3
f7
f8
04
fc
00
fe
ff
f9
0d
fc
fd
0f
1a
fb
1f
18
fb
08
11
0e
fe
f9
03
f6
ff
04
0c
e4
f6
fc
fe
ee
fe
12
09
0e
02
00
11
03
f0
ff
f5
fb
0d
0b
06
1d
ff
0d
0c
ff
fd
f8
19
09
05
17
f8
ea
0a
04
0e
f5
f8
03
fc
06
fe
f5
f8
00
10
01
ff
08
fa
f9
ff
fe
19
fe
f5
08
ff
e0
0c
04
f3
20
13
03
11
18
fd
01
01
f2
1f
1c
0d
08
0d
1e
10
07
09
ff
ff
ff
ed
d3
e8
f7
f2
e9
18
0e
0d
14
0e
fa
00
e8
fa
28
13
16
04
0e
16
ff
13
1b
12
10
11
0e
18
03
1d
04
16
fa
ff
01
fe
09
08
02
0d
05
f4
f7
e8
eb
0d
f2
15
06
15
05
f4
e9
fe
08
01
f4
f2
f3
09
11
1a
09
07
15
05
11
06
fc
eb
e7
f7
02
17
f9
01
05
09
fa
00
1a
1d
18
17
19
0e
17
25
0f
13
0b
1b
e7
0b
01
22
ef
06
07
f2
fe
02
06
03
10
09
d3
06
fd
e5
f4
23
0f
0c
08
05
10
18
21
fc
01
21
cb
f7
21
e2
de
eb
d1
e3
d5
f9
17
00
09
0f
10
f0
ef
fc
c0
df
cf
c3
e7
e2
ed
01
ee
2a
00
1b
17
0e
09
17
05
ef
ef
f1
e7
e7
01
f6
ed
e5
f8
00
04
f8
f6
f7
02
fb
f6
ef
ef
d5
f0
db
d9
e4
d2
c0
f4
ee
ef
fb
d0
e8
fa
ee
c0
1a
d6
cd
e2
c0
c8
ce
cb
c7
d9
13
f6
f9
ee
f0
e4
d7
e2
dc
dd
d5
d5
f1
eb
e4
f2
e2
d7
d1
ec
d6
ec
ef
f1
e0
f7
df
ed
f4
03
05
fe
fd
e4
f3
01
eb
f4
ec
e2
ec
e0
ec
e5
cd
05
05
db
11
0d
01
1c
f6
12
ea
d5
e2
dc
e6
db
c6
d7
d5
ff
01
fd
04
14
f9
1b
19
15
eb
16
d6
1a
03
fb
06
1b
1b
f3
06
ff
f5
f4
05
ef
ed
e7
1d
1f
13
05
1c
08
14
26
16
ef
03
fa
f6
08
03
17
0b
0b
fc
f2
fb
f7
05
ef
09
15
f6
f6
fc
f9
fc
f9
fe
ff
01
f9
15
fe
f3
f7
f6
17
15
ea
05
fb
f5
f5
f6
ff
00
f6
00
f2
ff
f1
03
ed
e9
e6
08
02
0a
e5
e4
fa
ff
ff
ff
06
0c
0e
f1
ef
e7
f6
00
f4
06
06
0b
05
19
fc
18
f9
0b
05
08
fe
f4
0b
10
fb
0a
13
15
10
02
0a
12
01
01
00
d0
ee
f3
e1
ea
ff
ce
f9
0a
e2
18
0c
f8
0b
14
0a
08
15
18
1c
1a
33
ec
02
f4
fa
0d
09
f7
fb
f0
05
0f
07
15
0f
13
0d
0f
0f
f4
07
f6
02
07
02
10
ee
f4
f8
0f
05
fd
10
f3
09
05
fa
f6
05
f5
02
fd
f1
05
f8
f6
f3
f7
ed
f0
f1
e9
f8
fb
fb
e7
f9
fa
f0
e1
0c
f2
ef
fa
f3
f9
f8
05
fd
0c
08
16
0d
04
04
f1
17
0a
11
0e
13
15
ee
fb
fa
09
0f
0f
0a
04
01
01
f4
02
0a
13
0b
08
f6
e9
f3
f5
09
e8
e7
03
e6
f4
e8
ef
03
04
ea
ff
f7
1b
28
0d
00
14
08
1c
16
08
0f
ef
0a
11
03
fe
14
0e
03
21
0e
09
fb
f0
06
fb
03
1a
15
17
17
f5
e6
e2
02
09
fc
08
0f
f8
fe
ef
fa
fa
fc
f3
f4
f5
e3
0c
13
02
01
15
04
f6
fc
e9
0a
e9
e9
05
fe
cd
17
04
cd
fd
f1
fc
03
f5
ea
13
09
f6
0e
ff
ff
0b
10
01
f3
05
f9
f9
e8
0d
e5
09
0c
f9
04
04
00
04
fb
04
0b
ff
fc
0e
0d
fc
02
15
f3
f1
13
00
0b
14
fe
fb
e8
0d
04
eb
04
fc
e0
f5
02
f1
11
08
f0
19
16
eb
f5
fa
fb
f9
12
e2
fb
16
ed
12
01
0a
0a
03
12
16
04
fd
03
0b
0c
f6
ef
0d
e1
01
0c
03
04
ce
09
04
ee
01
f8
f6
e4
ed
fc
e8
f8
fc
f9
e6
0b
ed
08
f3
e1
eb
fe
e4
e7
e6
0b
fa
ea
0d
f7
f1
0a
17
0b
03
f6
df
e1
f1
da
f5
eb
0a
ec
fe
f6
f4
ee
d6
f2
f2
f7
f3
fb
dc
e6
f1
e7
e8
e8
eb
05
0d
eb
18
06
ee
07
02
03
e5
02
e2
f1
f7
20
15
ed
f3
0e
17
13
f2
03
01
fa
fa
fb
fa
08
f0
1d
f8
04
0b
02
fb
00
02
fe
0e
13
f6
f1
04
f6
d5
05
04
05
0e
0b
05
ef
ea
e0
f2
d9
0c
f4
e5
e1
f2
e3
06
0f
fc
12
18
25
0f
08
ff
02
f9
f9
fc
f7
db
f7
ed
f2
ef
06
cc
e0
f9
f6
fd
f4
f6
f3
f1
e7
0d
fb
e4
00
e8
0e
f4
0d
d7
05
12
d8
16
19
f8
ea
e6
c5
f6
d8
c1
fe
ff
ea
11
0a
fc
f4
09
ef
02
f9
03
14
05
0b
09
f7
17
f6
0b
16
14
0f
fc
08
02
12
fd
0b
12
f4
fb
dd
f9
e5
e2
f8
e9
fb
e5
fd
e7
0b
eb
02
eb
db
04
03
03
ee
00
f2
f7
f0
f7
f9
f4
fd
ee
cf
de
e6
e1
d9
cf
f8
ff
f8
02
ff
f7
11
f7
eb
f8
06
0c
fe
08
0c
f8
06
fb
08
06
cd
13
fc
07
1a
15
05
f1
0b
eb
06
00
08
0c
fc
15
14
0b
f7
02
1c
11
06
fa
f5
0e
dd
02
0d
f7
fc
06
fd
fa
11
ff
e5
01
e9
fd
19
f6
f6
eb
f3
d9
d9
f2
e1
d4
02
e6
fc
fe
fc
f7
fc
01
02
05
f2
e6
ef
e0
01
f6
01
06
26
08
02
04
05
fb
0b
fe
f7
06
07
fd
07
fb
01
08
0d
f1
08
ef
0f
04
f2
08
f4
f6
00
f1
f6
fb
2b
f3
02
00
00
18
f8
03
f8
0b
01
f6
f9
f8
fa
f8
f8
01
f7
eb
0c
0f
00
0e
0e
f3
03
19
10
15
1d
1e
0b
fe
ff
fe
06
10
20
12
11
ec
e5
0e
e8
03
ff
f9
07
16
f5
1d
fd
09
02
f0
0f
ff
f0
08
0d
f5
e8
14
06
ec
10
f9
ed
0a
09
fa
04
fd
1c
06
02
29
2a
fc
f2
e7
14
fe
f1
08
04
10
27
db
f0
e0
e2
01
e6
01
0e
e2
f2
fc
fe
ea
f3
ea
04
06
19
f7
ff
02
06
05
fc
0c
0b
07
f0
f6
09
09
12
08
fd
f8
04
f8
f5
fd
00
0c
f7
03
08
f1
04
02
00
05
10
0b
09
02
0d
05
e6
dc
0d
f6
ed
05
03
03
04
08
fb
f8
f5
f8
eb
e2
e9
0d
0d
01
19
13
16
05
f8
05
ff
01
fa
04
07
fd
0e
02
f9
e5
ea
01
0d
12
01
11
fd
f9
e7
03
0b
f1
17
e2
dc
ff
f9
14
14
1f
26
1f
13
f6
06
10
0b
fc
f1
fb
dd
e0
11
fb
ff
ff
ec
ff
f9
fc
e3
f5
0b
11
0a
06
15
06
0b
f1
fa
11
08
da
0a
ff
fb
17
12
16
ff
02
09
08
16
03
15
0a
04
08
0b
fa
1a
05
18
ff
0f
f5
00
f5
f6
0b
f1
14
0a
07
0b
f8
0f
fd
f2
fe
08
05
18
f4
fa
fe
e3
f8
05
f2
fd
0d
fa
ff
05
1b
11
ec
ed
ea
f9
ed
fc
11
ed
f5
02
f0
02
05
08
14
11
28
03
00
08
eb
f9
fc
e2
f4
ed
ef
07
06
0a
03
fa
08
00
ed
f2
e8
eb
fd
06
f8
0b
f9
e9
09
fe
fa
09
18
ed
0c
0e
fa
f7
02
ea
f0
fb
ef
0a
ff
06
12
f3
fe
0d
02
ee
08
fc
f5
0a
04
01
01
fe
04
f1
fb
02
0a
1b
0d
15
0a
12
11
1d
e8
f7
e5
e7
fa
f3
e9
ff
d6
ff
01
ef
e1
f7
ee
04
01
09
e4
f7
fb
f8
f7
e8
eb
eb
e6
f0
fc
05
11
fc
f8
06
fa
02
f4
fb
f1
06
f5
00
ef
f1
f4
fa
f5
07
ea
ec
f7
04
f0
f9
f8
fb
f8
d7
e1
de
d9
e4
f9
0e
11
04
0d
0e
ff
0e
10
07
18
16
00
ec
f8
e4
ed
e4
e5
01
08
00
fb
09
03
fb
01
fa
f3
f9
04
0a
0f
18
04
0a
03
e8
fa
fe
f7
f1
09
f0
03
04
14
1e
08
0c
0e
04
fe
da
f0
ec
d9
fb
f6
fe
e6
e9
e5
ee
17
f0
06
15
ef
05
fe
13
02
05
1a
ea
ec
24
ee
f5
07
02
ff
f0
12
f6
10
04
db
02
0f
f4
04
f6
fb
e0
f9
11
1e
0c
e3
fb
0e
f3
04
17
0a
f8
ee
e5
08
0c
01
f7
11
e9
fd
01
02
11
1d
fe
f4
ef
00
eb
03
fc
e8
f0
ff
ef
de
00
e4
05
11
1e
02
20
03
ff
07
d5
28
f3
fd
02
f2
f8
fe
0b
01
fb
13
07
05
ff
f9
e8
f6
e6
f3
c3
c0
f0
e2
e7
eb
f0
e4
d2
e6
08
17
e4
01
01
0f
fc
07
07
e9
d2
02
fb
fa
c0
f1
ec
1c
fe
fa
f3
04
0c
f5
fd
0a
06
1f
0e
10
25
14
1d
21
07
08
fe
02
06
0c
04
01
06
fe
08
0c
01
15
20
20
19
13
23
f3
f8
06
20
03
ff
11
1c
11
f7
06
08
ee
00
0e
03
ee
ed
0d
f8
09
03
09
00
f8
0e
f9
07
06
04
ff
07
ff
0a
0b
05
06
fd
05
02
12
0e
0d
05
00
f3
f3
fd
e8
eb
fc
e8
f3
fa
11
f4
e3
e5
fb
fc
02
07
e8
f8
00
03
f6
00
06
0b
08
0b
13
01
04
05
f7
00
f7
fe
0b
e8
03
fa
fb
fd
f4
05
08
f2
e5
f6
e4
f4
01
0e
f3
0c
f4
04
fd
f3
01
1b
ed
f9
15
04
fc
0c
f9
0c
0a
04
fa
13
0a
fd
dd
d7
fc
fb
f3
e5
e5
04
02
0f
11
0e
0d
19
f5
fd
0a
fa
f5
0b
ee
fa
0e
0c
f7
07
ea
db
f8
df
02
01
d7
ef
e1
0c
fe
f0
f6
08
fc
15
06
0b
f8
f4
fb
0a
fd
03
fe
13
06
e6
f3
fb
04
05
fb
00
10
04
fd
e7
f1
01
f2
00
fa
f5
fd
fb
01
ff
fa
06
00
ef
01
f2
07
ec
28
fa
fa
e0
fa
e9
f6
ff
ff
01
f4
f9
fa
00
fc
01
0f
f8
00
15
01
fa
06
04
f6
01
f1
0d
06
fd
01
0e
13
fe
0e
00
f9
0e
00
fe
f8
0e
0e
f8
e6
ed
f4
03
ea
fa
0a
fc
ed
fa
13
f9
02
08
f1
e0
09
09
07
02
ef
d8
f7
07
06
09
fc
f3
f5
fc
09
0d
f4
14
02
df
f9
0b
d8
e8
02
fb
05
10
dc
e3
ee
f5
0a
10
e1
f1
f6
02
f2
0c
11
0a
02
fd
12
11
e7
f8
eb
fa
f4
f7
0c
ff
f4
e6
fc
fd
f4
07
13
dd
e6
13
08
f4
03
09
0e
fe
e1
ed
fa
f7
15
06
f7
06
f4
fa
02
09
ee
f3
f5
03
f2
03
0c
05
f1
f1
07
0b
f3
fc
0c
f9
f8
fa
1d
14
08
2a
16
0c
11
03
fc
0c
04
13
1a
04
06
fe
f4
08
d8
04
16
0d
0b
0c
f2
f9
ff
ef
02
0e
f9
ed
03
d8
f0
fc
06
0b
f8
14
19
0e
07
04
07
e5
00
01
ed
de
f6
03
f3
f5
f6
f4
ee
e1
f1
ef
f7
ff
0f
1a
16
14
0d
15
08
11
fc
10
2a
18
06
30
13
14
10
0b
08
11
03
08
ef
eb
f3
f6
f6
f2
17
20
15
0f
14
10
2f
40
24
0d
1a
0f
09
17
2f
03
fe
28
1e
0c
10
27
16
20
25
06
12
f6
01
04
f1
f5
ed
ec
f6
f7
0b
09
1a
f4
0d
ff
01
f1
00
e8
01
01
e8
f2
ee
f8
f2
e6
f9
04
f8
ef
fd
f3
ff
ed
dd
e6
f6
01
e5
ed
fa
f6
f3
e0
fb
d5
ed
07
f9
fe
f2
fd
02
1e
1c
37
11
1a
2b
1e
2d
3e
03
06
fd
f6
fd
f3
0c
02
02
1e
f2
05
10
fe
fb
13
0c
13
06
fd
1f
18
0e
12
2b
20
14
f6
f2
e0
0a
e0
e5
ff
ea
e2
19
26
30
26
1e
30
1e
2c
1e
dc
f5
e9
d5
e5
ef
e5
f0
e9
2d
14
22
1b
16
33
3a
30
24
1c
12
0e
08
16
16
01
0c
0f
01
0e
10
09
10
10
11
18
10
f8
cf
f4
ea
e0
f0
e1
d6
fa
03
f4
fb
d1
f3
f9
d8
e6
ed
09
f8
fa
04
fa
f9
f7
f3
f8
00
f6
fb
f5
e3
eb
eb
f5
f3
e1
f5
f0
11
07
17
0c
0a
fd
de
01
df
fa
ff
1b
0b
03
02
13
1b
2e
0d
23
2b
04
13
1e
ff
f0
ea
e9
ea
f6
f2
04
ed
ed
08
cb
00
14
fc
f0
fc
ed
05
fe
f8
16
08
20
0f
03
07
d3
eb
02
ed
df
f9
f4
f0
ef
ec
08
fa
db
dd
f5
00
e9
f9
f6
fd
f8
0a
02
00
e2
fe
03
f1
f6
15
f6
11
0f
15
0f
19
fa
0b
05
f6
f9
15
06
1b
12
fb
f2
00
ee
fb
fd
fd
06
0d
fb
ff
ff
0e
00
f3
ed
f8
ed
fd
00
0e
11
28
09
f5
04
e5
ea
f4
fa
e2
f2
fb
f6
e5
f9
0c
03
fb
15
0e
f3
22
1f
1b
1b
12
0f
09
ee
fe
03
fa
1d
10
0f
12
f9
fc
0d
19
fa
1a
14
f4
fb
01
fb
ec
fa
05
f9
0c
14
0b
fd
0d
03
1b
23
1d
08
08
38
fe
fd
23
09
09
01
07
13
08
e5
f9
df
f0
00
f0
02
01
0f
eb
ed
07
ff
17
40
ef
ee
e9
f3
18
0b
ee
f9
e8
f9
ef
06
f6
f6
f8
ff
05
ff
e1
03
03
fe
f2
f7
fe
28
1e
e9
fd
00
fc
00
18
0a
13
20
f4
fa
fd
0a
01
00
04
05
f7
01
fa
ff
09
fd
02
04
03
01
0e
f1
f9
1a
0d
06
1c
0d
08
fd
07
10
f8
0b
09
f7
f4
fa
ee
f9
f6
09
fb
ea
24
05
01
13
04
07
07
0d
0d
fd
fe
16
0c
0b
f7
f9
ec
12
eb
f7
0e
f1
f4
0e
f1
10
0d
fa
2c
0c
15
f9
fd
12
18
08
f7
12
0d
f8
04
0e
eb
e7
da
f7
da
ed
05
02
0b
03
f7
01
1f
1a
0f
ef
ee
00
f0
f9
0b
f6
06
f7
1f
2f
16
16
1d
16
15
0d
02
f8
fb
f9
01
0b
00
e8
fb
f1
08
16
22
0c
13
09
1d
fe
f7
08
19
0b
20
14
12
14
11
fd
ff
17
14
20
05
0d
13
1b
11
f7
fa
f8
fe
06
f7
fd
fe
07
00
e2
03
02
06
0a
ed
f7
f0
f7
07
03
f5
02
01
02
01
05
0f
f9
f8
e7
f5
03
f5
0c
ff
ff
04
f9
0e
07
04
f3
fc
f6
ee
14
03
e4
11
0c
02
0b
02
10
10
1e
1a
1f
36
e4
0a
17
ea
e7
dd
f9
e3
01
f3
03
e9
fa
06
ec
13
02
03
f6
fc
f2
fc
12
17
f9
0b
f8
01
04
15
0a
03
17
f9
f8
e3
16
0a
06
f7
f4
05
e8
f7
ea
df
f6
d6
19
13
10
1a
08
fa
18
01
02
0b
01
ee
ee
fb
ec
e4
01
fc
01
01
05
05
f8
1b
00
f6
f8
ff
0f
fe
03
f5
08
03
ec
ef
fe
f7
f7
0a
f7
f3
1a
0c
01
ea
00
0b
ea
fb
f1
f7
ff
fd
f5
03
ec
03
11
00
fd
08
02
f6
fd
ed
07
00
f0
12
fc
ea
00
05
14
08
0b
02
f8
fd
fc
18
0e
15
15
07
0b
0c
fc
08
00
04
f9
15
f9
ea
e3
f5
fa
ea
e5
02
fe
01
02
1b
0b
11
02
ea
07
f6
02
18
05
13
08
27
05
f6
f6
fb
f7
27
fd
07
0d
f4
e3
04
04
c9
0d
14
ed
f6
12
f0
e6
15
06
19
1a
03
f2
01
ee
01
05
f0
f2
f9
d6
f2
0f
ec
fb
0c
0c
19
05
28
08
08
21
0a
05
0a
09
04
0d
01
08
17
04
10
02
0f
11
01
e3
e7
eb
08
f1
f7
07
fa
f5
18
f9
dc
e5
cd
eb
f0
ec
f4
02
f8
ec
fa
01
f8
fe
01
0b
02
09
0a
f2
01
eb
0a
07
08
e2
f6
13
fa
03
f9
01
08
0f
fd
fd
e7
e6
e8
00
05
fc
f7
0c
17
e9
08
0d
0f
10
16
2c
00
f5
de
05
e5
d6
0b
06
06
f5
09
cb
f1
0c
c6
03
1c
de
10
f0
ca
13
02
ed
10
17
1c
13
f9
e9
03
f1
f6
08
10
17
2b
17
1d
0b
30
24
0f
fe
f5
fb
08
f9
00
03
0e
fa
00
00
14
22
12
05
16
15
0d
23
22
09
0c
19
17
18
0b
fc
f6
12
15
11
16
1e
1b
06
01
00
14
f1
f1
f5
f5
ea
ec
fe
fa
fd
08
f2
f7
e3
ee
f3
f7
ff
ff
fc
f7
06
08
0a
0c
10
0c
03
fd
08
f9
f0
ff
f1
fb
02
ee
f4
f6
0b
0c
12
02
fd
03
f1
0c
f6
03
fd
0a
f2
e3
f4
f7
20
23
1b
09
2a
26
0c
10
22
e9
fc
f9
f9
f4
f7
0b
fe
f1
ee
01
f6
fd
00
fb
f7
02
0f
f4
ff
fc
0f
fc
06
0a
05
0f
0c
f2
17
01
ec
1d
10
dc
0a
14
12
ea
08
0b
08
03
fd
08
0e
0f
fd
0c
fb
f4
0a
09
05
09
1f
1f
f9
18
05
e9
f3
00
02
fe
ce
0a
16
f7
0c
19
05
01
ea
c5
13
fe
e7
0e
05
06
00
ff
ef
fd
f3
ec
fc
f1
ea
19
fd
ee
f9
fb
fd
fe
fe
e7
fc
eb
d9
0f
fb
eb
06
0b
f5
fe
0e
14
0d
f6
fa
ff
ef
ec
00
f7
ed
0c
09
f8
05
f8
f9
0a
fd
cf
0f
0c
db
0c
00
de
13
1d
e6
03
27
ff
14
0f
fa
fe
03
1b
f4
ef
14
0c
f6
f9
00
f8
fc
ee
ee
ea
09
f9
ea
08
02
d2
07
0e
fd
0c
12
0c
05
0d
17
f6
fe
03
01
f1
0d
dc
e5
e4
f9
1c
f0
e9
0e
ff
02
fd
fc
0c
fd
05
1e
fe
fc
ff
06
fa
01
0d
f9
02
fd
e7
ef
ef
f9
01
01
17
04
0e
11
f0
e4
ea
f0
fb
05
04
01
0c
f8
f8
f0
f1
ee
fa
03
f0
00
e4
fa
f3
17
02
00
fb
02
fe
04
05
fc
f7
f1
f6
01
f4
f9
f5
f6
e5
ef
dc
d7
ee
ec
ec
fd
f8
f9
fc
fc
fd
f0
f3
08
e0
f0
f7
05
f3
07
07
01
01
05
fd
e1
f8
06
0c
fc
07
f6
04
0a
08
10
0c
0c
e7
ec
eb
fc
1a
2b
f6
fc
0f
09
fb
fd
f9
08
07
06
f1
f4
fa
0a
10
1d
0c
de
09
19
f5
16
02
ed
18
13
f6
13
1b
11
0b
15
f7
06
fe
ea
f7
f7
e9
de
fb
f9
06
0f
01
03
03
11
1b
13
ee
15
0a
f4
0e
15
fa
0a
04
00
0f
14
12
0f
0e
f8
17
0c
04
ff
f5
f6
fc
0c
f0
f5
ff
02
f8
fb
e0
eb
0d
03
fa
e9
d6
06
06
01
f8
05
ff
ff
fa
0a
06
f6
eb
f7
ec
ef
03
fe
e7
f3
02
0a
fc
fe
02
03
f2
fb
04
ee
01
1f
0d
07
13
00
f7
07
1d
15
15
0a
0c
12
19
13
0a
0e
e7
13
18
f6
0a
fe
e8
f2
02
d6
00
f3
e7
f3
f3
e5
21
0d
d2
1d
12
ce
0c
f5
c0
f9
00
f3
fc
f2
e2
00
f4
d8
18
04
04
13
0c
08
fa
03
fe
f1
f7
ed
f9
fa
fd
fa
09
e4
fc
fd
09
05
f3
10
f0
04
0f
0b
1e
0f
07
0a
12
04
00
1f
fb
11
0f
ff
f8
06
05
08
0e
07
f0
cf
fb
ec
e8
01
f6
1c
f0
e3
c0
fa
ec
ff
f4
e4
02
fd
fc
e8
ff
fe
f6
ea
f9
ef
f5
0c
ea
e2
e0
c0
ec
ed
d8
04
02
ff
f6
ff
f6
f8
09
e4
f7
02
f6
08
0f
f3
04
f6
07
fe
0a
01
07
05
17
f3
0e
fe
19
fc
f9
06
f8
04
08
00
fb
ed
01
ea
ff
fb
e5
f6
e7
f3
0c
02
c4
02
0e
02
0d
06
02
fd
f2
fc
02
06
fd
ff
f2
0b
0c
10
fa
f8
27
02
f3
f3
d6
fb
06
f8
f1
e2
e9
e8
ee
fb
eb
0d
ef
ef
0b
e2
e7
fb
f2
03
02
f9
fb
fd
e6
ef
f3
f4
fa
03
fb
ef
ff
02
e7
ec
f7
15
0a
02
03
f9
02
0e
0d
01
fb
0c
f5
f6
e7
10
10
0a
15
09
10
f7
0e
16
05
12
18
fa
f3
ff
01
ff
02
00
f7
f5
f5
fe
0b
f5
0b
0d
ff
08
f6
fd
f7
fa
f4
13
04
04
fa
fd
eb
ef
08
0d
f9
08
fd
ef
0d
e3
e4
ea
fa
e9
ef
0e
f1
f5
e8
08
0f
e7
04
20
dc
e2
f1
fc
02
09
ef
04
fe
f1
f4
06
fc
fd
03
1d
ff
04
0d
eb
e9
ea
1b
ff
00
22
ff
0f
00
f7
f9
fc
fb
fc
fa
00
e9
03
e8
db
02
0b
08
f9
ef
f1
13
1a
1e
19
01
0e
19
11
1f
10
fd
13
1c
01
19
11
06
11
ff
0b
1d
fc
06
0c
eb
f0
03
07
00
fb
e9
e3
f1
ec
f4
f2
e9
e0
fd
fe
f4
05
f8
ea
f5
f8
ea
e9
e2
f6
ea
fa
08
fb
f1
f2
e3
13
06
ff
12
04
fe
08
ee
0c
f3
e4
fa
0d
01
ec
f1
01
0e
12
25
1e
0b
22
2f
1c
1e
09
f6
fc
06
fb
fb
07
fb
e1
f2
10
ff
f5
fc
e7
fd
f3
fc
04
22
1b
00
0e
00
05
14
25
1f
ef
fd
db
e4
f8
e9
d4
c2
ec
1c
06
0c
f5
0c
1f
11
28
fe
07
fb
11
f9
fd
fa
db
f2
f9
0f
10
05
11
21
05
11
36
2a
01
05
f7
fe
f9
ff
f8
e5
14
17
03
0a
11
0b
11
14
09
11
0d
04
08
f8
f9
11
fd
f3
0c
06
03
0c
04
f2
0e
f7
e3
15
eb
f6
f2
e5
f8
01
ef
e8
f1
fe
e2
0e
f4
e3
2d
22
19
fe
03
f8
f7
04
0f
09
fd
ff
f6
ef
f0
ec
11
f0
ed
10
fb
fb
32
2f
11
12
1e
22
2f
1a
12
0d
e2
01
ee
c0
f1
c6
c5
e6
f8
15
39
2d
10
0c
0d
cf
f0
fa
f9
fd
09
eb
fc
08
1e
14
0a
f0
01
0e
04
04
07
f4
f9
0a
fd
e9
fc
16
08
e4
0f
e8
01
f2
f7
0c
08
04
f9
08
ef
df
fa
e6
01
21
07
f2
00
0f
f4
02
e7
0d
05
ec
f5
07
fb
e9
00
f0
05
f4
f2
06
f0
f6
fa
08
fd
05
fd
fa
05
06
fb
01
f7
f8
03
00
06
fd
06
08
f6
f6
01
f9
fa
fe
fb
fa
01
fb
f1
f9
f9
f7
00
15
06
04
f3
08
fb
01
0b
f6
f8
f9
fe
f8
e4
01
0a
fe
f1
fd
ff
e9
e6
06
fe
01
0c
0b
ff
fb
01
05
0d
ed
f3
fc
07
fa
02
11
00
10
e6
13
01
f6
fb
07
fd
fd
ef
d8
03
fd
f5
0b
f7
ff
01
13
06
eb
fb
f0
fc
19
fd
c0
d3
c7
dc
0c
ef
fc
03
09
ea
f4
ee
ec
fd
f6
f8
f1
fa
ef
fa
07
fa
06
fc
03
15
fc
e0
e0
ee
01
f4
03
02
fe
05
d6
d6
d8
e3
f6
e6
f2
03
06
f2
e9
f0
fd
f9
ef
04
03
ef
08
ff
05
16
05
f9
06
05
02
f2
f8
05
f2
fe
fe
fb
f0
f8
19
16
fb
0a
f8
f6
0b
04
01
f3
ec
fa
06
08
12
f7
10
0f
eb
de
f2
e6
f9
f7
fd
02
01
d9
e0
e4
0a
07
e7
fa
04
08
ee
fa
0e
f6
f7
08
fb
11
04
ff
10
16
0c
0d
13
fc
eb
fe
fe
07
fb
03
10
ea
fa
09
13
f5
17
db
17
07
ff
ff
16
fc
08
1f
16
06
18
12
04
18
0d
09
08
10
ef
f8
05
f8
10
0b
12
11
12
1c
15
f7
19
1f
19
f0
14
11
00
15
f8
ff
03
0e
f4
08
f8
0c
00
ff
06
15
0f
fe
fd
03
f1
fb
09
de
f0
02
05
00
00
f1
06
f4
07
ff
fd
f5
f9
fb
f5
f8
fe
f0
f2
e8
11
14
1e
07
09
18
ff
f3
0f
e9
f4
05
fc
fd
ff
0a
08
0a
de
eb
f2
f8
05
10
06
ef
02
f8
01
fa
ed
06
0e
0b
16
25
08
04
13
f8
fa
12
fa
0a
0a
fa
f2
df
0f
0f
f6
12
0a
0a
fc
f5
fb
05
fd
08
1d
fd
0f
12
f0
fc
f4
f9
00
d9
ee
fa
ea
ef
d6
ef
f8
fd
fb
02
df
eb
f3
e8
e6
ef
f0
e2
f0
e3
f2
e2
eb
f1
f5
f2
f4
f3
03
00
06
fe
fd
03
f8
f6
04
fa
f0
00
fe
00
fb
04
06
fb
fe
fa
fb
f9
05
05
f9
04
07
0c
04
fc
ef
f7
fc
19
02
11
18
08
03
00
fd
03
00
00
fb
f7
f7
04
f2
13
04
ff
ff
fc
fc
f3
02
f8
13
05
05
10
ee
02
09
ff
09
17
1a
f8
f7
fd
fd
ea
de
f4
fe
e9
fb
03
11
f7
fa
08
fa
f8
0f
0d
f2
07
02
0d
0b
f4
06
04
df
e6
07
fa
0f
f8
e6
ff
f2
f8
11
00
f9
08
06
3f
07
f7
1c
f9
13
1e
05
04
f7
0e
06
fe
fe
fc
fd
05
06
ff
08
09
0b
2c
22
06
14
25
0f
11
1e
05
14
de
e2
fa
0a
e2
0d
0f
fb
00
eb
e6
ff
03
ef
07
fd
01
f5
0a
fa
f2
f4
f3
e4
fd
f3
ec
e6
f1
db
e0
ed
d9
fd
f4
de
db
ef
ef
ef
f6
fe
fb
f6
13
16
0a
1a
e7
1a
00
f7
04
fc
f8
ef
e6
f7
da
02
0c
d7
e6
f1
dd
ef
f1
d0
fa
13
00
06
10
d4
f6
ff
f9
08
fd
fc
dd
00
05
0a
18
3f
02
04
1b
e2
f1
f2
dd
da
e9
c3
e2
f0
dc
f3
f4
ee
04
ec
00
00
fe
d5
d4
e1
d9
d5
ea
00
e2
08
e9
f4
f8
e6
15
f6
e9
ff
eb
d1
f3
f7
ee
df
ed
fb
ef
f6
fd
fb
f9
e7
00
f2
12
03
f0
f0
06
f0
07
f9
f8
f5
02
ec
e9
e5
e0
f4
04
f5
fb
f9
f9
f2
f5
e8
07
04
07
06
02
06
0c
05
11
0a
f9
ee
eb
ea
03
07
03
0a
03
04
06
fe
06
07
f1
f0
f3
f7
ff
fe
0a
0b
ff
11
0c
06
0b
14
fd
09
09
0c
02
02
05
14
0f
ff
0a
06
03
ff
0d
fd
fa
f8
0b
e1
e8
fb
e3
09
ef
0d
0d
fa
0a
ff
f6
f1
e7
f9
06
06
ec
fc
fe
f0
f6
e5
00
01
f4
f0
05
e5
f2
e7
ef
d2
fe
f8
e8
f4
f9
ff
17
06
fc
e9
f5
fa
f8
09
e6
f5
ff
d4
0d
0f
09
21
19
0e
16
23
0c
f7
fa
f5
f5
02
dc
fe
01
e0
f6
fd
06
f4
fc
01
03
0e
f3
00
0b
e9
ed
f5
f9
ea
00
e0
06
f6
fb
08
f6
f4
00
05
fb
2d
24
02
16
08
f0
1c
1a
07
08
ff
f3
ff
ff
fd
fb
0e
ff
fd
f7
06
f6
fb
e9
f7
f8
fc
0c
0f
13
fd
fc
ef
fc
ef
ec
fc
0e
08
ec
f8
f6
10
f7
eb
f6
11
ea
0f
20
f7
02
11
fb
d6
f1
06
ee
14
10
f9
10
f2
f0
fa
0a
fd
0a
0f
07
0a
15
0e
11
01
e0
ff
06
27
fd
0f
f3
fc
f0
fd
ef
ef
d2
f1
02
0f
1d
09
fc
19
01
28
11
e2
06
ff
fb
fc
f7
f9
fc
13
18
12
ff
0a
05
fe
dd
fa
2b
15
f8
fe
00
0f
0f
05
c0
e7
16
0c
10
0c
fd
0b
0b
0a
0a
fa
02
01
03
fb
fc
fd
fa
f0
11
f2
f9
da
0e
e7
0f
ea
e4
06
11
fd
fb
f6
e3
f3
f6
f5
f4
ec
ff
0b
e5
f0
f2
08
fe
f8
fb
02
01
f8
03
fe
fa
ee
f9
f9
fc
01
09
f8
f6
f4
ed
f7
fa
fc
0d
e1
f7
0c
0b
22
1e
01
ed
f5
eb
ea
f8
df
f1
ff
04
09
dd
06
fc
fa
f7
f7
10
08
0f
0f
ee
fd
14
fd
0e
06
06
fb
00
09
fa
0c
21
f9
fd
f4
ff
0d
0b
fb
f3
e9
03
01
0d
f9
0a
14
09
07
14
29
26
0f
14
0b
02
24
20
12
04
e9
fd
0e
00
11
16
fc
02
0c
fd
fa
0a
0a
0c
06
0a
f8
02
eb
f4
f8
fa
f5
f7
f1
f9
07
fb
fb
00
fb
07
19
01
f0
01
fa
fe
04
fb
04
0b
f4
0b
1e
00
05
10
0c
05
ff
f9
e5
e3
ed
ff
fa
0d
06
05
fb
fc
f9
fe
03
0b
14
17
05
0d
04
0a
03
fd
0e
09
f7
18
21
01
07
f1
e3
f4
f3
f6
fd
fd
f3
e6
e1
fa
f6
00
10
0c
0f
01
fb
ff
14
1c
07
11
1d
ef
f6
0e
03
f6
fb
10
fe
ff
ff
16
09
f1
f6
08
eb
f1
f6
e7
f0
0b
f0
18
0b
05
1f
ff
0b
0b
fb
fa
f0
f1
e5
d7
02
da
ed
f4
ea
07
14
fa
0a
16
02
0a
0f
10
f4
fb
ff
f9
f9
f7
02
fb
ef
08
0e
f8
1b
09
02
ff
00
04
f5
ec
f8
10
f8
11
03
ee
f5
02
07
f9
f7
09
08
f2
0c
fe
f6
f2
ef
14
1b
00
08
08
fc
12
07
0e
13
0e
f8
00
fd
f6
f9
04
f9
f6
02
f5
11
fc
09
e5
f8
eb
ea
f8
df
e5
04
fb
fc
ff
f3
08
f7
f2
fa
f2
de
ef
f3
02
0e
06
fd
fe
e1
f4
14
2b
10
0b
08
ee
09
0e
17
f1
f6
fc
fd
fe
22
04
0b
17
fd
17
fd
eb
f7
df
f1
f6
f2
f1
ff
ee
f5
ed
fd
e7
e7
f3
15
06
f6
18
10
0a
04
fc
05
09
03
eb
04
e8
e4
05
04
f6
f8
fd
08
e9
f9
e9
fd
f6
ea
01
f6
fe
14
11
13
ff
0f
05
16
f6
07
e7
06
1a
17
14
19
fd
0d
09
06
05
0c
f7
f2
f8
0c
23
18
04
05
05
fe
0a
07
14
0b
fe
fd
04
fa
02
fe
fc
04
04
06
02
fa
ea
09
05
14
10
19
f7
09
ef
fa
fc
03
ef
10
0d
f4
fe
f9
0b
f2
16
0d
f4
19
10
fe
f7
e9
ff
ff
14
ee
e6
da
07
eb
e8
fa
09
e1
f1
f2
f3
f8
fd
ed
f2
e9
e0
04
12
16
00
17
ff
f0
03
fb
00
fc
14
ec
eb
e0
f2
de
d3
04
11
07
06
0b
10
1d
12
07
01
09
0d
fd
11
1f
0c
06
02
ff
19
0d
03
05
fd
0b
f2
f4
11
14
16
eb
ec
ef
f4
01
f2
1d
14
33
0d
f8
d8
e1
f9
07
02
f1
00
ff
04
fe
00
f3
fd
0a
06
00
f3
fe
09
02
00
03
10
06
f7
d6
dc
f7
f9
fb
fa
15
2f
05
c0
df
ef
0f
10
fc
1d
1e
f0
08
19
0e
ed
de
09
2e
05
0a
22
1b
f1
06
fa
f0
1f
11
0d
fd
fd
e3
0c
05
e4
07
e7
ed
10
0e
fd
0a
fc
fe
f4
fa
d4
e5
db
d8
fa
cf
cb
ed
24
f9
f3
1e
11
eb
2d
fc
df
f0
f6
fa
0c
ff
f4
04
09
f5
1b
ff
0f
21
08
18
0c
05
e8
01
21
eb
13
03
f2
0e
07
ef
1e
0e
02
20
1a
0f
17
0e
fb
fd
16
f3
02
13
f2
fc
fe
08
fc
01
e8
f0
01
e1
d7
11
ee
f4
ff
f6
f8
f4
ed
f8
fe
f7
10
10
f3
0a
09
0a
0d
13
f8
ea
fe
01
07
10
05
06
0e
c8
0e
10
00
ee
1a
15
f7
0c
0b
2a
13
ef
14
1d
06
0f
00
fb
f6
f1
ef
f0
fe
ea
e9
ed
de
0c
da
f9
01
f5
e6
db
f2
dd
1c
0b
ee
09
07
eb
19
13
13
16
21
05
00
07
f2
03
08
f6
fb
ec
e8
18
04
f0
01
fb
f4
f3
fe
08
09
0d
1d
0a
06
fa
0a
fd
fb
0c
ff
f7
07
ee
f7
05
eb
0e
10
ff
f4
f5
ed
ee
06
f4
f4
0a
03
f9
f0
04
f7
f3
00
02
00
12
fe
03
fc
21
0a
e2
04
fd
ff
0a
23
03
f2
f0
ee
ec
f1
fe
f0
f5
f9
0c
07
03
0b
f7
03
02
0d
fe
eb
f8
f2
fb
00
02
fc
fa
f9
f6
ea
e0
fc
05
0a
02
03
ea
f7
fd
f1
16
13
fa
ec
03
f6
fc
18
20
f6
00
0d
e2
08
0a
0e
10
f5
0d
14
f9
16
14
24
0f
0b
e5
f9
00
f9
f3
f8
ec
e8
01
0d
fa
03
1d
ea
00
fe
fe
0e
0a
ef
16
fd
11
11
f7
06
f1
11
02
01
16
ff
13
1f
e7
fa
f3
07
0a
f4
fe
19
0b
f8
f9
04
12
16
18
11
1b
0e
f4
fb
06
fe
04
04
08
03
01
0e
11
0b
f1
00
00
f3
f1
05
0c
02
f2
20
17
20
f9
f2
f4
e7
f2
02
f4
e0
f0
ee
f3
f7
fe
f6
01
16
fc
06
f3
eb
09
0e
02
07
f5
f7
02
f8
f6
01
08
00
f8
07
e9
f1
f7
ed
f6
e8
f8
f8
f5
ff
fe
e9
fc
f6
06
fd
ee
f7
0d
f6
da
d7
ee
07
f6
fe
1e
0e
02
0b
0b
0b
eb
07
15
18
0b
08
f7
07
12
f6
cf
d5
02
f4
cf
10
f7
d0
ee
0a
f7
fd
11
fc
00
f8
0f
f5
09
05
03
fd
02
03
04
0c
f8
fd
06
06
09
e6
12
fd
08
0c
0d
09
0b
11
0b
0f
09
10
06
fd
fe
0d
14
11
0f
0f
0d
fd
04
07
00
fc
06
fd
07
0d
16
f3
0b
ed
13
06
05
1a
ff
05
09
f6
fc
0a
f6
e4
ed
ef
13
19
07
11
11
f9
00
03
09
ec
f1
04
f8
ff
13
ed
01
ff
fe
f9
ea
fa
13
08
e9
fb
16
fa
0e
fd
e3
0f
16
db
06
11
fe
ee
da
fe
ee
eb
fc
f8
ed
f8
d5
c1
ed
ff
c0
e9
05
eb
f4
0e
f3
fb
04
0b
f1
fd
02
1f
09
0c
fa
09
1d
17
14
0b
ea
02
d8
ed
28
ef
e8
12
fc
f4
fa
f9
05
ee
0b
0a
1e
16
d7
fc
e5
d8
0c
d2
df
0e
ef
e3
f2
f0
0c
f8
0a
f4
02
12
f8
f7
e1
f8
12
f6
f5
fd
fa
07
05
fc
09
f4
f5
06
f2
f9
f6
01
ea
00
d6
12
03
f2
02
01
05
0c
ff
04
04
06
0a
fc
fc
fd
02
03
08
05
e6
db
e1
08
f3
fd
fe
05
03
f4
f6
02
f2
06
02
07
0d
fc
f0
f9
fa
e5
08
f1
ec
f3
fe
df
00
f0
01
15
22
fe
0c
14
f7
f6
f2
eb
08
08
fb
08
ee
01
ec
ef
17
10
ef
fb
02
dc
22
2e
15
04
0a
22
04
02
12
1b
0a
1d
e5
da
d4
ee
fd
f8
f6
0e
f3
f1
eb
f0
07
ff
fc
0a
07
08
ed
db
db
f3
f9
07
05
33
18
ec
ee
f2
11
09
0c
07
03
2e
fb
ee
ec
fb
02
fc
05
06
08
ec
f0
f0
0a
0a
fd
08
03
fe
ef
e2
e5
e6
dd
30
00
05
00
03
07
04
fa
fd
f6
fb
f9
f0
03
09
f0
0c
00
f3
da
d9
e6
ee
f8
00
f8
0f
0f
07
0b
11
fd
da
f3
08
04
fc
f0
fc
0e
e1
f3
ed
fa
f3
f7
ff
20
20
f7
f7
09
fd
f0
0f
f4
d8
f2
f1
06
04
f3
dc
01
e0
d4
ea
0f
f8
e4
19
0d
fd
32
26
2f
21
05
00
19
08
fa
1c
15
0a
0c
05
00
05
0d
12
27
13
1c
f8
12
fa
f3
fb
04
f1
f9
f8
09
07
13
05
1e
0c
20
03
15
0e
04
f7
13
0d
f6
ff
07
fd
ff
05
01
09
11
f7
06
08
08
f5
e7
eb
f5
f7
f1
ea
f6
fe
fe
f0
03
cd
e4
fb
e3
cf
d8
04
0a
04
0b
ff
05
01
02
ff
0e
f6
14
f0
f2
ff
ef
ec
f7
ea
f7
f6
09
10
0b
0d
09
ed
eb
eb
e3
f7
f7
08
fd
08
fd
11
07
0e
14
ff
0e
fe
19
fd
10
fd
f2
f5
f3
ef
05
00
f5
f7
14
d7
f7
01
d1
db
e4
d9
f0
0d
fe
1e
1c
10
1e
05
08
f8
05
f1
ed
f7
fa
fe
10
f6
d8
d2
c6
e4
cf
e1
e7
f7
f4
f8
01
0c
00
04
03
f3
ef
f2
d9
d7
d0
f2
d7
da
e4
f5
e3
df
dd
d3
de
e0
ca
f0
00
ec
d2
d7
c0
de
d2
d0
ea
e5
f3
fe
f4
f7
fe
09
11
07
0c
fe
0b
10
16
01
fe
09
0b
27
03
fb
0e
06
03
23
1c
04
0b
07
07
f8
fa
f7
f5
f6
ff
00
f6
fc
e9
f7
02
0d
12
08
15
06
f8
d9
db
de
e8
e4
fa
03
fa
c7
c4
d1
e5
ed
db
f5
eb
ce
d9
ea
e4
f0
f1
f9
f9
05
05
f6
04
09
0e
f7
01
05
fa
1b
e0
e6
ea
f3
ea
f7
f7
07
f1
05
0e
ee
df
de
d1
f8
ec
f5
30
1c
d1
16
f4
e8
ef
11
ed
ff
11
01
0e
0f
06
02
01
04
11
07
0c
00
1e
0b
01
14
03
11
06
0c
f5
09
0e
13
ff
09
2f
1c
04
0f
11
fb
0e
0f
ff
f2
ef
08
f2
fb
f5
f6
0d
02
0e
e3
07
03
f7
10
05
15
fd
f1
e1
f4
02
01
f6
f7
f8
f3
0a
07
14
fe
f5
07
0d
04
03
fe
f9
06
f8
f7
f0
ea
fa
00
13
ed
fc
e6
f7
ff
13
fc
0a
2c
1f
fa
25
0e
03
01
fe
02
f1
f7
16
fe
fe
0f
09
1b
2c
0c
f6
cc
f2
ec
dd
03
f3
ee
1c
ff
e9
10
01
e0
0b
03
e2
09
12
03
1e
fe
e8
11
11
f1
03
05
00
07
05
10
19
0d
03
f5
fd
fb
f0
fd
fa
02
fe
eb
13
08
10
14
18
25
2d
03
12
0b
04
f9
0d
02
0d
07
f9
17
fe
08
0e
16
00
fc
12
0b
18
03
f1
f0
02
f4
f7
fd
fc
f9
f5
08
20
f9
f2
06
1f
04
0f
0b
0c
04
06
10
0a
05
06
fa
07
fb
03
00
00
14
f5
fb
02
fb
f1
f1
19
0d
18
fb
fc
f9
0e
12
f4
fc
f0
11
01
f4
f1
fd
fb
1d
1b
1b
33
0b
16
25
ec
ea
ec
00
f1
fc
fa
05
ee
17
11
1d
12
0c
17
25
e8
2f
ff
fa
f8
25
10
05
1c
16
1a
0b
e3
0e
13
e5
f5
09
f0
14
eb
f6
10
f3
18
17
04
03
09
14
12
fb
03
14
fa
06
f5
02
ec
f7
05
0b
f0
ef
05
11
e7
12
fc
ee
09
19
f2
04
11
ef
ff
03
f0
f9
f9
ff
04
fa
fe
00
01
ec
ee
f2
fd
f5
f8
f8
fd
e6
ee
eb
fa
fc
f7
08
fc
f9
f2
ef
f7
ef
ee
d8
df
f5
17
ee
f8
0c
08
fa
03
0b
f8
f5
07
fc
0a
15
02
f8
fa
e7
eb
f3
d6
0a
1c
02
04
15
fc
e6
0a
08
f1
ff
0b
10
0a
04
f7
ee
04
f5
f5
ec
fb
fb
fc
ef
ee
e8
0b
e2
ee
f8
fa
1f
0f
fa
0b
06
0c
0a
07
00
f0
f1
ea
eb
f1
ee
e8
f9
f7
f8
f4
00
f7
03
f9
ff
00
fe
e3
17
fb
e0
0a
f0
08
09
19
f8
f8
fe
ee
fd
0d
f2
00
05
15
fc
07
02
ed
eb
fb
10
16
f9
f7
14
fd
f8
f7
db
04
04
f1
e7
f8
fb
e4
f3
dd
e4
ee
f6
08
fd
e4
f7
fc
ec
fa
f3
ec
02
fa
f1
ee
ec
ea
e8
dd
e3
fe
f7
f4
e8
00
06
03
00
03
f9
f7
06
fd
11
08
0c
19
16
f7
00
fb
e9
e2
df
e2
dd
dc
16
14
01
14
ff
0d
f6
e2
fe
ea
f3
fe
e1
f6
f7
f4
e9
f8
19
f5
f8
e6
f7
db
e5
f9
db
04
fa
07
f7
fc
0b
f4
fa
02
07
f6
04
17
08
fb
0b
04
16
0a
05
fe
e3
f7
f9
e2
06
ff
17
ce
07
24
c9
ef
23
fa
f9
13
d5
fa
0c
d4
ec
13
f8
08
e4
05
04
f6
fe
f5
f4
f6
fe
05
c9
ff
0c
ff
0c
1b
fc
0b
20
01
07
22
04
04
02
0c
09
03
e9
0b
04
e2
0d
1e
d5
fd
fa
f7
18
20
01
11
1d
05
15
e8
e1
eb
f7
f6
f9
ea
d7
df
fa
02
f8
fc
f1
f2
da
ee
f0
18
07
fc
26
16
0e
34
04
14
f4
f9
1e
08
14
07
cd
10
02
df
fa
ed
e6
f6
e6
e6
e8
e0
da
f2
01
09
ff
19
10
0b
1a
fb
f9
03
c0
fe
13
c8
db
f1
00
ec
fc
09
00
fd
12
12
1a
1a
0e
fa
11
f0
09
1c
fe
0d
20
19
08
1e
30
1d
fe
ea
06
03
09
08
fd
05
d5
ef
fe
f7
f5
04
0d
fa
0d
06
01
02
07
f7
e5
e9
00
f2
f2
fe
f1
fa
ec
ec
ec
12
12
1c
e1
ed
fb
01
12
ff
00
0d
e4
f5
0c
ea
ef
0f
f8
00
0a
fc
eb
ed
eb
f8
fe
01
f1
f5
1d
f5
f2
0e
fc
fd
0f
00
f6
fe
f7
06
06
ee
e2
f5
0b
16
0b
f2
ea
f5
16
0f
15
e6
00
12
d8
e1
14
ff
07
20
f9
f6
fc
04
03
01
e2
ef
f4
fe
18
1b
d2
f9
fb
02
14
f8
0c
0f
07
02
fc
f7
f7
eb
fb
05
02
11
01
04
01
07
fc
0a
fc
e5
e8
f6
f1
ff
10
e7
0f
cf
f4
0c
14
ff
fd
07
1c
22
ff
ff
f7
01
fb
fa
fa
fe
06
f2
f6
04
eb
fa
e7
e0
01
fc
fd
c8
c5
ec
f6
0d
0c
09
fc
11
0c
0e
0c
f3
0f
fb
ff
16
02
f7
0f
f0
10
11
ec
02
03
ea
c0
c7
f7
07
14
fe
0e
0c
f3
00
f3
f7
ee
f5
02
00
00
ea
dc
e1
f5
01
eb
f7
fb
05
02
d7
cf
08
19
18
17
1d
f9
0b
04
ee
01
fb
0f
00
0e
04
0e
08
13
06
06
fc
fa
08
f5
e1
f3
0f
01
03
09
f3
09
00
03
eb
f8
07
14
04
06
1a
19
e9
0a
14
08
e7
fe
ff
ff
ff
08
0f
0b
fc
07
18
e6
f2
0b
ec
00
f7
f4
f6
fc
f5
e5
ed
04
fd
19
ec
f7
fe
05
f7
02
0f
0d
01
0c
1b
12
2e
fc
f9
1a
11
13
0d
04
00
15
f5
f5
ff
13
f1
f7
09
ef
04
14
f9
f6
23
0c
f8
13
07
07
10
f4
1e
08
12
fd
07
f2
01
fa
f4
13
01
19
0a
11
02
f1
ff
01
fd
f7
fd
fc
f3
f0
15
ff
e8
17
24
22
fd
f3
01
e2
e1
e6
0b
01
fe
f9
ea
01
1e
19
fd
0f
16
fc
07
ef
e5
02
f2
f1
1d
06
fe
12
18
f2
03
fc
ff
23
ff
08
09
f7
f5
c8
da
d5
df
c0
c1
0d
ef
02
f8
0f
1a
0b
ff
01
fd
f6
f1
e2
e9
db
fd
d2
e9
0c
12
17
f3
f1
f1
ea
fc
12
ef
ea
0e
12
09
09
03
f4
fd
02
f2
00
07
0b
14
15
17
05
00
00
fa
f5
fd
06
f2
ff
f3
0e
17
05
e8
08
03
d7
f8
04
df
fe
00
ef
0e
fa
00
10
00
e9
fd
ed
00
0a
f5
09
f9
0c
e9
e5
ef
07
f9
fa
ff
07
fd
e3
e3
f5
f6
05
f2
04
0e
04
ef
ea
02
f7
e7
e3
1a
10
05
0f
1c
f3
0a
04
04
07
09
08
03
03
20
f0
16
fc
f0
18
fb
02
15
f2
05
f2
f0
06
02
fa
f4
09
04
09
05
01
fc
08
e4
00
dd
ef
f3
08
0f
f8
07
17
ec
00
10
0f
ff
e4
ec
d2
d4
e6
e1
ee
0b
ef
dd
0c
f8
08
ed
ee
0b
ff
0e
09
14
0b
06
07
1a
10
03
f6
02
fd
09
0f
f2
dc
f8
f2
f0
de
0b
fe
f4
15
10
f5
f0
ed
04
02
02
05
0a
fe
17
07
0b
0c
0d
09
10
fc
f1
10
03
0d
01
fc
06
0d
f4
04
0d
05
eb
ef
04
04
e9
11
07
04
e4
f1
f4
0e
1a
16
eb
fc
ef
e5
02
05
fe
fd
f3
09
0a
07
05
04
18
14
f8
0c
04
fa
04
e1
01
02
0d
0a
f6
fa
fc
1a
05
fb
f6
0f
09
05
08
f6
03
fe
0e
07
06
f4
c9
f7
02
24
e9
ff
ed
00
04
f4
09
03
f5
e4
f5
05
0b
f4
da
02
05
23
1c
f6
08
04
f8
e1
f6
1d
0e
03
fd
ff
fa
f0
06
07
eb
ef
02
fe
1d
f3
f9
eb
04
06
02
1e
0e
08
0f
12
14
03
01
02
e8
fe
12
e2
09
08
15
0b
0d
16
1c
fb
0d
0d
06
fa
0d
ff
09
f4
09
f1
ff
0b
f4
e5
0f
e7
ef
df
ef
f5
e7
fc
fc
f3
0a
09
06
09
14
0f
17
15
dd
e2
19
14
04
04
17
f9
03
15
00
05
f7
f2
04
ee
eb
0c
ff
02
20
19
08
04
10
f3
16
15
17
10
03
fb
09
07
d2
d2
05
fb
06
ff
fb
f4
f7
06
fe
f0
e0
fb
fe
f3
f5
05
f2
ee
0b
05
0a
0c
f3
08
02
02
00
0b
f9
02
0f
f2
eb
f1
eb
f1
e1
00
07
08
f5
f5
f7
fa
fd
e6
0a
f5
f9
0e
00
fd
25
31
13
01
10
1b
0e
18
2a
0c
22
0d
0e
05
f0
f3
06
03
e9
03
f3
12
1a
15
11
3b
16
10
22
09
00
03
fc
15
fa
f3
08
f2
fa
08
0c
ee
07
04
04
f1
fb
ec
10
f6
08
23
29
14
01
0a
09
ed
e0
f9
f7
f3
eb
ed
f9
f5
fb
ff
00
f7
f1
f9
f9
f6
0a
f2
e5
ed
00
15
1b
0a
26
2f
00
f6
03
f1
f0
fe
02
f6
06
ee
e3
fb
e9
e0
e4
14
14
0b
f8
f5
f5
07
f6
e8
01
ec
e8
09
05
01
1d
14
20
0a
1d
2b
0a
f6
06
f5
f9
e9
02
ff
e6
09
08
f2
fc
01
f8
f8
fb
fe
fb
05
fa
14
15
15
1b
24
16
ec
fd
da
df
e1
e8
c0
fc
f1
10
03
f7
03
14
f9
f8
fd
06
e6
e7
dc
d7
ec
ed
e5
fa
fe
ee
f3
f8
fb
fa
fb
ef
f3
03
f9
13
10
f6
17
10
fc
0a
fe
d6
ec
ec
c0
f7
d7
e6
f8
ed
f5
fe
fd
15
13
f4
18
ff
fe
07
f6
fd
f6
f0
03
04
f5
00
f2
01
fc
c9
f8
ea
c0
f2
e1
fd
fd
ed
01
fc
fe
fe
0d
06
02
07
fd
ef
f6
05
0a
03
e7
f7
f3
f3
02
08
f5
0e
f3
f6
fa
09
01
12
04
19
f1
1c
ec
07
07
fe
0a
f9
02
05
08
1f
f6
f3
fa
fa
f6
01
0e
14
00
f6
f9
e0
f8
03
e9
08
19
02
02
00
fa
fb
07
0a
d8
eb
e7
00
09
05
f0
08
0c
ea
07
0e
f4
ed
eb
02
05
fb
e0
f6
f4
03
ff
f9
f6
07
02
03
fe
f3
02
f6
f3
10
03
fc
ed
e7
f9
0c
ee
ed
f1
f9
03
00
e8
f9
09
02
ff
0a
e6
ea
24
14
04
fb
f9
15
07
fd
0a
04
0d
1b
e3
f7
f3
f6
19
f6
e6
03
f8
10
ff
f0
11
0e
0e
01
fc
03
23
0c
06
05
0c
13
d2
01
fa
04
05
0c
f2
fd
ff
f1
0a
f3
0c
07
f2
df
ec
04
08
00
ef
f4
26
1f
07
0d
fd
05
0b
1a
0c
22
0c
17
05
01
09
f2
07
f6
ea
f4
fe
16
f5
f3
07
01
18
0f
18
08
fa
12
11
f2
05
e6
fb
08
f0
0f
fc
ef
0b
0e
f8
f9
00
1c
1e
0b
07
04
f5
f5
e4
e3
0c
0a
ff
ea
fa
fe
e4
da
e2
06
02
f0
ee
00
f9
13
1b
fa
20
29
22
01
07
06
f2
0c
13
fe
03
1e
fa
17
26
0c
12
fd
f8
04
f7
06
0f
f4
ed
fe
08
1f
fc
1c
1e
1e
16
0f
14
0e
0a
07
15
0a
f3
07
02
e8
f3
f6
da
e2
17
08
19
f3
e8
c4
f5
e3
dc
e3
da
ca
01
01
0c
21
f2
0e
23
e4
f7
31
0e
e9
0b
f7
e5
10
f1
02
da
d3
d2
d4
c0
ca
c4
c7
e0
0a
02
fa
01
fe
f3
e8
04
ed
14
21
06
08
16
1f
01
07
0d
e9
f2
ea
04
eb
f8
07
f3
f8
0b
f8
fa
0b
12
00
f4
07
f7
d3
ca
1d
e9
c5
01
f3
d6
03
e2
e2
d4
df
ce
d2
d2
c0
d6
f5
05
e4
0b
07
fd
fc
f3
04
ce
dd
f4
f8
e7
db
04
f6
ec
e3
e5
04
f2
eb
fd
e6
f1
fd
ea
02
05
fd
f3
18
ea
fb
f8
e4
df
d6
e2
f5
e9
da
ef
e6
fc
f6
f2
fc
08
fb
e9
e9
fd
f7
fd
ff
10
0d
16
19
04
0f
ed
ed
0f
0a
e7
f8
0b
0a
f2
fc
dd
f5
f5
ef
f5
f6
f5
e5
ff
04
ec
fd
07
ff
f9
f9
e7
ff
e1
e6
ea
f6
0e
05
f7
03
07
ef
01
06
e9
0e
f6
0b
00
0c
03
01
eb
f4
12
ec
f8
0e
ec
fe
f5
1e
27
18
ee
ff
fc
f0
f6
07
0d
06
12
0f
0f
f2
e2
f0
06
04
00
03
0d
0b
0c
fa
ea
db
1d
13
16
f8
06
07
d4
f3
f0
e3
f6
ee
21
04
08
02
f4
ff
09
13
11
18
13
0b
ef
fb
ff
03
00
ec
0f
17
12
00
f9
f9
07
15
06
01
02
0f
10
ff
06
03
fb
01
fe
e7
06
04
0e
09
0c
09
0f
1e
f5
09
0b
f8
09
14
f3
de
0b
f1
01
f8
f4
07
0d
f5
f3
08
e8
06
ed
fd
f7
ec
00
fa
fe
18
13
1f
1c
fd
0a
13
fc
21
16
f4
e3
f6
f9
fe
10
19
0b
11
01
0e
f8
09
f4
fb
11
f9
fc
03
ff
12
0c
08
06
1e
02
e8
f3
ee
f9
ef
08
0e
ff
01
06
e3
f3
f8
f7
f2
02
fc
00
05
05
18
05
f9
01
15
1e
09
fb
ee
fb
f7
f3
ff
fb
f2
ea
f1
ef
10
1e
20
f7
00
0c
f1
fc
05
01
17
10
24
07
0e
f5
0d
07
fe
fa
03
fb
fd
f1
f1
fa
eb
17
0d
07
fa
fa
eb
f3
ef
ec
d6
e6
dd
c0
f3
ea
d4
eb
f5
f3
12
2d
fb
02
ff
f8
19
23
e5
0f
e2
d9
ef
ef
cb
ee
37
06
0e
ff
07
01
fe
0b
16
26
f5
02
11
08
01
ef
22
01
e3
01
eb
0c
f4
fd
16
05
1a
fc
da
ff
fd
f5
00
0e
e9
10
00
1a
16
0d
1e
09
07
22
01
05
e2
eb
f9
02
e6
e3
f4
e0
ec
fa
f0
f3
f7
f0
f0
fe
f9
ef
f6
fa
f1
06
ff
f5
0c
05
f4
f9
12
f1
f0
0d
d9
f7
f9
e2
0c
13
19
08
17
24
0c
04
2d
f3
f3
e8
fd
08
02
1e
02
f3
01
f0
e5
16
f7
f0
09
04
e7
ee
f6
f5
f5
e8
db
fc
12
31
f9
0e
00
f2
fe
ff
06
f7
f0
00
06
fc
15
e8
e3
0a
0e
15
0f
c3
fd
13
f2
e6
f7
1d
f8
f4
fc
e9
ee
f6
f0
fc
fb
16
12
fb
f7
10
f9
f3
10
08
12
df
f8
ea
05
03
f3
f6
f3
f8
02
08
fd
f6
07
f7
f7
0a
e2
07
0b
fa
e8
ff
fd
f7
e9
f5
da
d4
02
e9
00
1a
fe
e2
0c
eb
04
0c
0d
15
17
f9
1b
fd
00
f6
e9
fc
f1
ec
f0
e2
e4
fe
0d
f7
1a
1b
f8
fe
09
f4
08
ef
08
01
f0
f5
ed
f5
04
e4
01
f5
ed
f6
f4
e4
f4
d8
f9
0b
f4
fd
07
f5
fd
fe
0b
03
17
10
08
02
dd
fc
05
f1
f3
ed
db
de
00
dd
c7
df
ec
03
18
e5
f9
f0
0b
ed
f2
de
0c
d7
ee
f6
de
ed
f2
f3
01
13
f0
e4
10
f4
e1
02
f3
03
f8
02
fa
05
0d
0c
f1
01
1a
f3
02
f2
fb
f9
1a
fb
08
fb
03
fb
ed
f0
17
ea
fd
15
fa
f4
0c
00
0e
14
0a
0f
fc
fb
f1
f7
06
f5
ff
15
06
e6
2d
0e
f5
fd
0f
08
e0
0f
f5
f6
f9
13
e3
16
20
fc
fd
f2
dc
fd
f5
e5
fd
d8
d4
0c
c5
fe
04
09
0d
07
0f
0f
02
0e
11
f8
0b
df
03
16
03
fe
14
17
02
e6
e8
10
df
e7
05
e5
f3
03
0a
11
04
14
0a
08
0f
0b
14
10
1c
16
01
fd
1e
fb
02
0a
07
03
fb
13
ff
fd
02
0f
0a
fe
29
fa
05
05
16
16
1b
00
15
0c
04
ed
f6
03
01
03
e6
db
06
f3
0c
f4
0d
15
09
eb
e7
e3
f8
ef
fc
f1
e8
fb
fd
08
f8
03
14
f9
f8
16
01
f5
05
f9
05
07
08
ef
00
f3
0f
0c
05
16
08
17
1c
12
1e
08
0e
04
0a
0a
04
00
06
06
e5
00
fd
0f
11
f8
01
ea
df
f5
0d
fe
02
f4
f2
f9
ee
00
10
f7
f8
f3
ec
01
0d
f7
0d
ef
e7
e1
1c
0d
f1
db
0c
fa
05
03
08
03
06
03
fd
09
01
ff
fb
f4
e9
07
e7
e5
03
08
f6
f7
0b
e3
0b
02
e9
06
e6
0a
01
ee
ff
07
15
e7
05
01
12
21
2a
06
ff
f4
0a
0c
09
06
05
02
f6
f7
fe
f9
fc
00
02
fe
07
0f
f4
ef
15
04
09
e0
f3
f4
f4
ff
0c
e4
f9
f6
fe
08
eb
ef
00
e9
f3
04
f9
f1
10
f2
fd
fe
f7
f9
f4
ed
05
ee
eb
01
00
f5
0f
fd
f8
fa
fc
0d
13
0c
0f
0c
03
ff
e0
02
ea
ff
fa
eb
fe
f4
fa
df
d4
06
07
f4
fd
f7
13
0d
00
ed
06
f0
ee
ff
09
f4
11
ec
ee
f5
e5
f8
f8
02
03
e2
ff
f5
05
04
fb
0c
ff
01
f3
ee
0b
fc
02
05
f9
13
12
f7
23
de
ef
01
e9
02
e8
f5
ff
fe
0e
f6
05
ff
05
07
10
f4
fd
02
f4
04
fa
f6
f6
f1
15
e9
e3
f8
03
0e
14
04
12
06
fc
16
0c
09
fc
08
12
08
f1
0b
02
18
06
14
06
14
0b
15
e0
ee
0b
ce
f8
0a
f7
fd
04
e5
02
17
04
16
08
07
fa
16
03
05
03
f5
f7
ed
ff
fa
ed
f4
f5
f2
f5
fb
fe
02
00
08
e4
00
03
fe
0e
1f
13
18
0b
f3
f8
fb
f6
09
fd
f9
fe
15
fb
06
1e
10
0c
00
0b
05
fe
ca
00
f2
e2
00
0b
f7
fd
16
f7
09
f6
04
0d
06
fe
fd
f8
fc
f8
fa
fc
f4
d8
ef
01
fa
fd
12
0b
fc
fa
04
0d
fb
f6
0f
08
fb
f8
06
ec
01
fc
de
ee
0d
fc
07
f6
e7
ff
06
08
02
f9
fc
f8
fe
fb
1e
05
0f
f6
01
ef
05
04
f6
0d
02
07
e7
f4
eb
0a
fc
00
fb
f7
f8
fa
05
ff
f3
ff
ff
eb
00
f0
df
f4
ec
fb
04
14
ed
e7
f1
0a
18
fb
ff
f5
07
12
ef
fe
0a
0a
fe
02
00
06
0a
fd
05
f3
f5
ff
03
0a
fe
e3
fe
e7
f5
00
f3
01
f9
f8
f7
05
e3
06
f6
05
05
f1
01
05
f4
01
ed
dd
de
fe
0a
18
e8
0b
03
0a
06
f4
14
05
00
f8
02
fc
12
14
13
f2
06
f2
f9
f6
f4
02
09
d0
f8
0a
f7
2a
ff
d9
fc
1c
22
f9
01
13
0e
cc
f4
21
df
08
0b
d1
e3
f9
04
e3
f1
ec
ed
fb
fe
ee
fb
f5
06
ee
e0
d1
f5
f7
ff
08
ff
0f
1c
12
15
02
f4
22
f6
08
ea
06
08
f7
10
12
0f
ee
08
0b
e4
e8
dc
e9
17
0a
ea
f1
e6
ee
e1
f5
e8
fc
00
00
dd
22
fe
00
f6
16
06
14
07
04
0b
00
f9
07
0a
f7
0c
ff
f7
d7
c1
e0
02
c9
d7
f3
db
e7
f3
ef
e3
f2
f1
e2
02
e9
05
0b
ea
04
fe
06
16
17
e6
0a
10
e6
cf
e3
de
ec
cb
c3
ce
dd
de
ff
11
ea
f5
e5
fc
fb
19
ed
d9
f0
f1
d8
09
03
ee
fe
e0
e7
0c
e4
f3
03
f1
e9
fc
e5
04
fe
cf
eb
03
df
d8
f6
03
01
0c
f5
08
07
fc
f4
05
e8
f6
ef
f7
0d
0d
e3
f0
fa
fb
02
13
18
03
10
08
06
fb
d2
e5
10
c0
e7
0f
db
e3
ef
ff
0f
15
fc
22
1a
00
01
0b
0e
11
00
05
0f
14
fb
04
01
09
0b
fd
fa
09
09
02
01
f9
f7
0f
12
15
0c
00
1a
1b
0e
09
e7
ea
0d
ec
0c
1f
ff
fb
0b
07
10
19
13
11
0a
0c
0a
00
04
ed
0d
15
fd
f5
09
0c
fe
0c
eb
08
0f
05
fb
0a
04
fa
1f
15
f2
f4
01
04
05
f9
1c
20
00
20
03
fb
36
15
11
12
09
00
f9
20
2c
00
f5
f1
0d
07
f8
09
f9
ee
05
ee
0d
f0
ff
e7
e8
ff
e8
f4
08
06
02
f6
05
f9
02
1b
f5
fa
03
e2
da
dd
f6
f1
e8
ec
e5
ef
0a
16
f8
04
0b
f6
ee
08
ee
01
00
f8
ee
0a
0d
da
e1
f7
fc
eb
f5
fb
e7
f6
f7
df
02
fa
eb
07
f0
fc
f9
f2
f4
f7
dd
f4
ec
04
0c
fc
eb
f4
e1
fb
03
03
eb
e0
ea
15
14
ff
fe
01
22
f8
fd
0c
0f
f9
1a
e8
e7
dc
eb
0f
f1
de
e6
e8
ed
ea
ef
fe
02
01
f8
fb
05
f5
fb
f8
fb
f1
dd
f8
e9
fe
ef
13
13
f3
17
f8
eb
f7
eb
06
dc
f4
25
0d
06
04
0b
17
0a
fa
1f
02
f3
f8
17
25
19
fd
0e
0c
f0
ea
f9
02
09
04
0b
0b
06
02
f6
e8
0c
fe
fb
ed
f5
e8
0b
11
04
f7
f4
f4
f9
05
e4
fa
f7
ef
07
fd
d8
f6
f0
fe
f9
09
04
df
dc
e9
0b
0b
f8
06
08
0c
09
ec
fd
fc
ff
f9
fb
1b
10
f6
0f
fc
e6
08
f2
e5
00
11
dc
ff
ee
ff
dc
08
0a
01
f2
f1
fc
02
e0
ef
fd
db
f3
ff
fb
05
f4
0c
14
f3
04
1a
06
e2
10
fc
fb
01
15
05
f2
0e
fc
00
08
07
fc
07
f5
fc
f8
11
18
1c
f1
0d
ef
f4
f1
fd
ed
e1
e0
0e
fe
ea
09
0c
17
0c
07
f8
f4
1f
1c
ea
00
f5
ed
fb
03
04
fc
fa
f4
f2
f1
e8
eb
f0
11
fb
06
04
ff
04
24
17
1e
0e
20
26
0c
10
0c
0c
0f
22
06
0e
ed
fa
11
eb
0c
01
fa
1f
2c
02
27
39
24
12
2b
2e
03
01
0a
05
f3
f7
f4
f9
06
ef
f3
ea
f0
f9
02
f4
00
ea
0b
0d
15
38
14
01
36
00
0a
e8
f2
fe
e6
f2
f4
fb
e4
ed
fd
04
07
fe
06
09
ff
03
00
fb
0c
f4
24
24
22
05
36
19
01
e7
fd
f8
ed
04
f4
e8
03
07
07
08
ec
ff
f9
f6
e8
f5
e8
f0
f1
d3
fd
f8
e8
d8
ef
ec
f2
0d
de
e8
e7
f1
c5
e3
f5
cb
c4
f4
c0
d1
fd
db
f9
03
fb
eb
f8
e0
ea
dc
e0
e5
f2
fa
04
0a
1f
14
09
0e
14
25
1f
29
27
05
39
20
1b
27
e3
f4
0c
d4
07
11
f3
11
07
12
2e
28
3e
26
1d
20
28
27
d1
ce
d2
de
da
e2
d9
d2
e7
f4
ee
dc
fc
e4
d4
f2
ea
e2
2b
24
1a
16
19
1f
22
26
14
e8
08
e3
fd
0f
08
00
05
13
f9
00
f5
02
03
fa
f4
fd
fb
eb
0c
0b
16
23
30
04
24
1e
f5
0d
f3
06
18
01
ff
fb
06
04
0b
0f
12
01
19
15
04
15
ef
f3
00
f4
fe
ff
04
15
05
21
03
fc
1a
1c
1c
0d
f8
f0
10
07
f9
1e
0e
04
26
02
ff
ef
f3
f5
e0
e6
f4
d8
e4
ea
eb
eb
f1
03
f6
f2
fa
08
f8
0c
03
07
f7
f4
14
f7
00
2b
1f
0a
07
19
f6
05
06
00
fb
e9
ce
f7
e8
da
01
05
e9
03
08
09
f9
ee
fa
ec
ff
20
f8
f0
f9
03
e7
00
fc
f1
05
f4
db
fa
07
f6
04
16
ec
16
2a
fd
fe
05
08
f8
f3
e4
de
13
ed
ed
06
f6
0b
14
fe
18
1c
ec
f1
f6
ed
e2
e3
e8
03
12
02
06
11
0b
f3
ed
f8
f9
fd
ed
f6
fe
02
f2
01
06
13
07
04
e2
f3
19
e4
ed
0b
ea
f7
f4
08
03
ee
04
04
ff
0d
05
f0
f2
0e
f3
00
ff
04
03
16
fc
02
0a
e1
f4
f9
e5
f3
ef
f9
1a
fa
03
08
e6
11
13
f5
ea
f3
f4
17
1b
10
ff
02
05
fe
06
0e
01
12
03
fa
06
05
e9
df
f6
01
f8
0f
ef
05
0e
02
1f
12
f0
10
04
0f
15
fc
05
0c
02
fc
0c
12
fe
05
06
e9
ee
01
f5
16
0b
f4
fa
0e
05
ff
08
16
fb
f6
00
01
08
ff
f9
f8
f6
f9
05
01
0b
11
f9
dd
de
03
05
f5
fd
09
02
0c
fb
07
0a
05
08
fe
05
09
ee
fd
08
08
00
fe
1e
21
0c
19
ee
f2
03
06
08
fc
f8
ed
05
eb
04
16
10
10
da
ff
ef
04
0c
df
fd
fd
f7
f4
00
28
08
fe
0d
ff
01
13
06
f7
03
ed
00
0d
e9
00
fb
fd
ff
fe
22
0f
18
fa
05
01
08
09
13
dc
e6
03
dc
fb
14
f7
e3
ff
fa
fd
1d
09
00
0f
04
01
04
fe
f6
fa
f9
f4
e5
ec
e6
e4
f6
f2
f6
f4
ee
f4
f0
f6
f8
ff
09
0d
09
1c
19
1e
0c
22
07
09
e3
00
13
01
00
06
fe
f9
f4
02
07
07
07
ef
f0
0d
f7
ff
0e
e9
fe
09
1b
1d
08
02
20
0b
0a
0a
0d
e9
ef
01
fc
ee
e5
0c
0f
fe
10
15
11
0f
0f
f4
04
26
0d
e8
05
00
39
1e
df
12
13
f4
01
fb
fe
f8
10
08
e2
28
25
f3
03
01
fe
f6
05
05
1c
09
14
17
16
1c
fa
01
e4
08
f4
1b
0e
fc
fa
0f
f8
08
07
01
fc
f3
fc
04
05
fd
14
14
e2
0f
17
ed
f3
09
fd
f5
01
09
f7
f3
e2
07
f9
f8
11
ec
13
10
05
27
ec
e7
fc
08
fb
03
16
0d
05
e6
f5
fc
fe
f0
0e
ef
fa
f9
1a
fb
08
1e
15
2a
fd
fd
fe
09
eb
05
f8
f4
fd
07
0a
f5
f4
14
eb
e6
08
fd
e2
0d
f2
03
12
11
14
f9
fe
18
ff
f5
16
1b
12
03
1b
1a
e1
f4
fc
db
e6
df
e1
ea
ef
f7
09
f7
fe
28
33
ee
df
e4
f7
ea
e5
f6
e7
de
02
f2
e4
ea
ea
dc
eb
e7
d9
04
0c
f3
f6
fe
ec
ea
f4
e1
f0
09
ff
fa
13
14
09
09
10
e9
e8
22
04
04
0a
fa
0e
e6
eb
0f
15
e2
03
17
fa
06
f2
fc
10
1a
11
07
18
ff
e4
e0
0c
f3
ff
fa
fa
0a
f9
fd
00
17
fc
ff
0d
03
f9
f9
f2
f3
03
14
0e
0e
0e
23
f8
e7
ec
ef
e5
d6
e0
e7
f4
fa
f1
f2
08
05
fc
01
06
fe
e5
34
09
f6
f9
e8
04
24
0a
f6
f6
09
fa
00
ed
08
0c
02
ff
02
f9
f6
fe
ff
eb
e6
f2
ea
f1
f4
02
0a
0a
f9
f1
f6
f3
03
06
f1
f0
e0
0b
07
13
ef
e6
fc
f0
de
01
db
f2
f4
f6
e7
f9
03
ee
00
00
fe
05
16
07
0c
12
fb
06
24
05
fd
1e
1c
1b
19
2a
22
fb
13
0c
ec
06
fb
f5
f9
0a
e7
0a
0b
22
28
21
15
39
2e
0b
02
02
f6
fa
f4
f9
fe
fc
fe
01
e6
fb
f6
01
04
fa
0c
11
0b
03
2e
09
1c
34
20
23
16
00
ef
ef
fd
0f
04
10
fa
ec
e9
e7
00
04
fe
fa
f5
f6
f6
fc
0e
0d
1c
23
1c
2f
08
14
23
1b
0e
0b
08
0a
04
0a
00
fe
f5
fe
13
0d
01
f5
ef
03
f7
f8
14
13
04
0d
18
04
05
18
0f
e6
02
1c
f3
fc
0e
f9
09
ec
f5
f6
05
f1
0a
0f
18
0d
03
f9
f9
fa
03
0c
03
fb
02
06
f3
00
0a
fa
01
09
04
02
fb
19
f4
f0
15
1f
da
00
0d
ef
f1
10
f5
ed
03
fe
eb
ec
08
0f
11
14
05
04
14
03
0b
0e
05
0e
f3
06
08
e6
0f
0b
ed
f7
f3
fa
0e
01
f3
08
0a
ec
0f
fe
d2
fc
15
08
01
17
ff
03
ec
d3
01
ef
e0
18
07
ea
fa
09
28
02
ed
07
f4
e2
f9
01
e0
e4
02
f2
07
11
13
fb
0b
ff
d2
0e
04
f6
fd
0c
ff
fa
f5
04
ed
f1
f5
fd
09
07
fb
f4
e9
fb
f2
f1
fd
ed
e9
03
10
fb
07
0a
0f
05
10
01
17
ef
f3
f9
f3
09
15
05
ef
01
fc
fb
02
f1
f9
f1
02
fc
1c
02
22
f7
fc
f6
18
0c
07
e8
f1
e8
ed
03
fa
0a
21
08
0b
15
ff
0d
0f
00
02
0a
03
f3
01
f2
f7
1a
03
ec
f3
03
07
03
02
f3
f7
f0
0a
fd
02
04
0c
fc
0a
f9
f3
0b
f7
05
d7
cf
e2
02
ff
0d
f0
fc
f4
f1
eb
fc
0d
10
fe
03
fd
fe
09
fd
00
06
fc
fe
0c
0b
06
d5
d6
df
fe
fc
e7
fc
09
f1
f8
fe
fb
01
ff
0e
fa
fc
f8
07
09
11
f7
02
12
ff
07
fa
de
dc
f2
d2
e4
e6
c8
e2
06
f4
05
05
01
f1
e1
ef
dd
ca
f9
f8
e1
ee
05
f4
d9
0d
1c
05
09
f2
02
07
04
fa
f6
fe
04
19
f0
08
0c
01
0d
07
fb
fb
22
fa
01
26
fb
04
15
f3
e4
08
07
ee
05
08
ce
0d
05
ff
03
fc
15
0a
0e
02
01
07
fb
08
f1
fd
04
f5
fb
fa
f3
03
0c
01
04
08
e9
ff
f3
e6
ff
1a
fa
05
07
10
1e
01
ed
e5
f2
fd
fa
fb
eb
0d
f8
d9
0c
0d
0d
08
09
fc
06
fe
00
0b
0e
1c
07
0e
01
fa
0e
f0
08
fa
f8
18
0b
ef
15
01
ef
0b
15
0e
0d
fc
fc
0b
1a
1b
ed
fd
e6
d5
ee
e9
d4
f7
f4
05
09
04
dd
fb
e8
e4
00
e0
0b
dc
e5
f0
ee
f0
fc
07
00
f9
ed
f4
f1
ef
06
fc
eb
f2
f8
0b
e0
02
0d
11
e7
05
09
f7
0c
f3
fd
10
12
05
12
24
f0
0e
0d
f5
0d
19
e9
1e
02
08
f8
07
0a
06
16
0c
13
1b
fb
e5
fe
f3
ef
10
fa
dd
fb
0f
09
00
08
03
fb
00
f2
ed
05
02
05
0b
03
09
08
06
fd
04
04
01
f4
0a
c0
10
f0
ef
f8
07
ff
05
f6
ef
f0
f5
ea
f3
01
13
17
0b
00
05
19
17
06
08
f5
0d
0c
d1
f2
00
f3
ff
01
01
e7
f5
e9
f6
f0
da
10
09
f1
05
f3
06
05
e4
ff
e4
12
0b
0a
f1
ed
04
ee
07
09
06
0c
f0
d7
e6
e3
ec
f3
0a
19
07
06
12
0a
16
12
01
e7
fa
ff
12
1d
1d
2e
10
0b
00
fb
e8
23
03
07
fa
f0
e7
e8
f0
0a
e7
f7
06
fc
ec
eb
06
22
08
0c
24
19
e1
e3
de
e6
e1
f7
ff
f1
e1
fa
e7
ee
06
00
12
15
f8
19
0f
fa
15
00
f5
fc
fc
04
10
f8
fd
f4
07
16
07
09
06
f6
fe
19
0f
0b
05
02
f4
f0
f8
e9
f3
fc
e8
f7
e5
fa
19
01
fc
04
e7
02
10
fa
00
19
06
ed
07
0b
f2
f6
fd
15
fd
f3
0e
0e
02
0e
fc
f5
07
07
ea
fa
f0
da
fc
f1
f5
e8
ff
06
fb
0a
ee
04
04
11
fa
02
fd
0d
fb
f9
12
07
14
f6
f1
05
f7
e1
e2
f9
0c
ef
07
fa
f3
fe
fb
f7
02
fc
07
f7
01
06
e6
01
0a
f6
03
fb
e2
0b
09
f4
f7
e1
08
06
01
02
09
1b
00
f9
1a
12
0b
00
fd
07
fb
f9
e5
e7
0d
06
fd
02
fd
06
fc
ef
f0
0b
23
0e
1f
02
11
0a
fc
0a
06
f2
09
ff
ff
fd
0e
18
0f
0e
06
1b
00
f3
f9
f6
f0
f7
03
0c
17
23
03
23
f6
17
11
0a
15
08
ff
0d
00
fd
0b
20
00
0d
08
21
f0
ca
2e
0c
0d
01
f7
ec
0e
18
0f
14
10
00
1a
40
40
15
d3
e3
14
2a
18
27
1a
09
16
f3
01
0b
0c
ec
02
ff
11
fc
ff
fb
f8
f3
01
f1
f9
11
f4
e8
f5
f9
fd
f2
23
0d
17
10
0e
f0
f8
26
fc
0e
04
12
f9
13
26
1e
00
14
1b
13
12
07
00
0b
00
29
0b
fb
01
00
e9
f9
f2
fa
d2
f1
fe
fe
01
f1
ec
e5
e2
c9
de
14
0a
01
08
04
fe
2c
0f
08
04
00
22
01
00
16
f2
1c
fc
eb
f2
ec
f7
00
f1
f0
f3
f3
ff
2a
05
0e
17
fe
f4
26
11
12
10
02
df
01
f7
da
df
0c
ee
0a
0e
fe
f2
f9
fe
f2
04
17
fe
04
14
00
f6
16
03
fb
0a
04
f6
05
06
ee
f4
fc
f8
14
e3
fd
0e
ee
ef
fa
12
04
f0
e7
fb
dd
ec
db
e9
f5
e9
f3
f8
0f
02
0e
fd
09
0d
04
ed
fc
eb
04
ff
07
ff
fa
f2
ed
f0
ed
fb
03
01
01
f7
f8
ee
07
07
ef
10
0f
f7
fb
fd
ec
f3
fe
ef
f2
f3
fb
f9
f6
f2
0a
fc
fe
f6
fe
fb
03
09
ee
f9
05
12
ff
01
f7
f8
fd
05
0a
f8
ef
f1
00
ec
07
f9
eb
ef
03
ed
fc
00
01
f7
12
dd
e9
e4
07
1d
05
e9
ed
f1
fa
fa
f2
fd
05
f3
fc
0a
f4
08
0e
0c
fd
f9
f9
00
13
2a
f9
fc
fb
fc
00
f4
0a
01
18
fb
01
03
12
1c
fa
04
06
1e
fc
ec
f7
09
e6
f8
15
f7
13
e1
f4
f9
ed
03
02
f7
09
11
17
0f
f7
fe
0a
09
f4
01
ed
e4
ee
f2
ed
0a
0e
f2
01
13
0b
06
0c
fc
fc
f8
0b
0b
0e
e8
f4
f5
00
f7
fc
fe
fe
f4
ee
02
00
ea
07
04
0a
0b
18
f1
ef
02
fa
17
03
0b
1b
0e
cf
d5
e8
f2
f6
07
f8
fc
17
eb
f2
ea
ec
e4
e7
ee
f7
f6
ea
f3
08
fd
ee
12
f9
0c
0c
c9
cc
d2
dd
0a
f7
e6
0c
ed
dc
ed
fc
f9
06
f8
ec
fc
05
f1
f6
f8
f9
f8
fa
e6
f3
0f
fd
0b
00
f6
f0
00
06
ef
0f
e5
f5
00
f1
fa
0b
eb
ec
e3
06
f9
15
f9
e8
e9
0b
fa
f7
07
10
19
03
17
0b
0d
0e
08
eb
e6
f2
12
f2
00
0d
16
19
0e
11
0b
fe
fb
0e
1e
11
11
f8
df
fa
d2
f2
0b
e3
06
08
ec
0e
0f
19
0a
fd
16
24
1e
e9
fd
e4
ef
fe
f9
e3
ed
ea
ed
eb
f1
ed
e6
e6
fe
ee
ee
0d
fc
f5
28
ff
07
2e
1e
0d
da
04
0b
e3
e2
05
f5
04
fc
03
1c
0d
09
13
06
09
13
fb
c7
ed
02
fb
10
11
16
15
11
e1
fb
05
ed
fa
f6
f0
f8
0a
12
19
ff
09
07
f3
06
0b
0f
f6
0f
fe
d9
04
ea
e1
ee
e2
e1
f0
0d
0e
09
08
ff
e3
f9
f4
02
05
08
fe
fd
04
08
fa
ef
f8
fb
fa
e6
e8
fc
f8
03
ea
05
0f
19
0e
22
06
1d
1c
f0
f4
f5
fd
06
05
f6
f1
e7
07
fc
f9
02
0d
fa
06
0c
01
05
09
e9
0a
fe
ef
ee
fd
fb
e3
f4
fe
f0
e7
02
f5
ec
01
fe
02
13
f9
0e
14
02
06
02
f0
f2
da
f4
12
ee
fb
06
00
fa
f8
ff
fe
07
fd
fc
0b
15
fa
0d
ff
f5
fe
05
04
fb
05
df
f5
de
19
0d
ff
ed
0a
f5
ed
00
f8
f7
07
07
00
f6
01
db
e9
eb
eb
d1
d9
3e
08
fc
2d
01
00
26
f8
02
2f
fe
fc
f6
e2
d9
dc
eb
da
f5
c8
f1
fb
0f
e3
07
ed
ec
e7
ea
fd
ea
03
fe
ed
f7
0e
f3
02
1f
e7
f4
fe
f9
14
08
d5
cd
c0
00
06
e3
00
01
fc
09
19
eb
f1
03
0d
f3
f8
fe
06
ed
df
02
0d
0f
f5
1c
14
e4
0a
07
e2
e8
e7
d7
dc
e0
d4
d7
d6
e4
e1
d4
ec
eb
d4
fe
f5
e6
0c
1a
fd
19
10
fc
00
f7
0c
f4
e9
d3
01
f8
e7
0a
0c
d5
fe
0d
2e
08
02
23
03
0b
36
f4
11
ed
f5
10
11
ea
01
e3
f5
02
dd
fa
ff
f4
ed
ed
e3
05
07
0b
ff
0d
f5
f2
f8
03
e8
ec
fa
f5
e8
f1
fb
e4
fc
d7
e6
0b
e6
fd
f6
f1
f3
f5
10
02
0f
0e
10
fa
19
fa
0a
ff
03
f1
e7
e2
ed
e9
ef
f4
ee
e9
f4
0e
05
fb
09
f9
00
e8
f0
ef
f6
f9
00
de
e1
ec
02
02
04
fd
fe
02
02
0e
09
fb
eb
01
f2
f5
ec
da
da
e4
ec
fc
0a
f6
ef
02
fa
f8
f6
fe
f8
0b
00
01
09
f0
f9
0c
f5
f0
fb
f9
e5
00
d1
ec
e3
22
03
19
07
07
11
0e
01
0d
fb
e3
f6
f0
ee
f2
03
ff
01
ea
ed
fd
ed
e9
e3
dc
f7
db
09
10
08
f9
ff
06
00
00
07
fc
e5
e0
24
20
26
0b
02
0a
1b
ff
f5
0b
01
04
ed
f2
0d
08
2b
19
fc
fb
1b
fa
fb
19
f4
e4
0e
e7
e8
10
02
f4
fa
0a
10
fb
0b
1d
0c
23
29
1a
09
05
0a
03
01
14
1e
1e
18
ea
10
da
0d
f8
f3
f4
fb
d9
12
fd
f4
0c
fa
00
0d
02
04
e1
fd
fd
12
0d
fe
fc
01
f6
f4
ef
f4
fe
17
f9
0c
29
0a
f7
f7
03
ff
f8
00
00
01
fa
fe
f8
d9
f9
0a
ea
e7
fb
f0
1b
00
06
05
ff
11
e4
d6
f8
0c
10
0e
04
ff
f9
13
02
f7
fc
14
00
f1
05
d6
f6
e9
c9
05
11
16
f7
03
0a
0a
fa
05
fd
08
01
03
1b
f7
ed
04
18
e6
08
ec
01
13
fd
e2
e8
cc
f2
03
ff
f5
e6
e4
f4
fc
0f
06
0c
16
02
06
01
0e
09
0b
07
05
09
15
10
fc
f6
e8
f3
ed
fb
08
f3
e8
ea
19
ea
07
0b
03
00
08
f9
10
eb
09
e3
f3
01
03
d1
ff
08
fb
fc
eb
f6
fd
03
f2
0e
03
ee
eb
fd
ff
e1
fc
09
fe
04
0a
c0
ef
f2
f0
e3
00
01
e6
dc
ec
f9
18
1b
18
1a
06
ee
fc
fa
db
f6
05
07
ea
f8
00
03
07
06
07
08
08
ef
f9
f5
dc
fa
03
05
0d
1a
0d
07
1b
f4
05
02
0c
12
fb
f2
f2
16
d1
ed
ed
f2
ec
f6
0e
02
ff
e6
ef
eb
0c
11
2a
12
09
05
06
0a
19
0c
12
20
14
04
f1
0b
f7
e7
15
0d
12
e3
dd
e4
f1
f5
f3
f4
03
e9
f9
fb
f6
11
25
16
05
14
f7
2a
0d
10
28
1d
08
00
fc
f7
01
12
05
0b
09
fa
03
e7
10
02
e6
16
05
f5
0f
ef
f8
08
14
0e
f9
f5
d3
ea
1b
11
fa
25
09
fd
1d
1d
fd
fa
05
f6
f9
f2
f2
10
ff
f6
fe
03
f2
0f
17
fc
e1
e1
f2
10
ff
0e
07
0a
10
ef
02
04
e9
f8
00
fd
f9
f2
fa
f3
f1
ef
f4
04
02
06
ee
07
f3
e0
ff
00
17
01
06
08
f6
fe
00
00
01
07
09
07
10
fa
ff
0d
01
05
14
f7
f5
05
ef
f0
0b
03
f7
04
f8
ea
fc
fb
f2
f8
19
fe
0d
ff
ef
ee
ef
ed
f9
0f
15
fd
1c
1a
03
18
19
16
05
f4
01
14
09
0b
17
11
08
fd
00
f2
ed
0e
01
e2
f1
06
f8
fa
16
f0
0d
18
ec
04
0a
f1
fc
f1
fe
00
fa
ea
04
fd
07
01
03
06
fd
fe
0f
0c
f9
0d
0b
0e
19
10
06
08
0b
f2
fa
e4
f5
02
0a
05
ec
0b
f6
04
10
16
f8
0e
0f
1c
f4
f9
12
f8
ee
02
ef
e8
fd
fb
f0
ec
fc
e1
00
f2
ff
02
11
14
ff
16
03
08
0a
f3
f5
00
07
ff
14
0c
07
0f
f0
f3
f5
fb
02
ee
f5
f0
f5
f6
ef
e9
f6
e1
00
fa
f5
f8
e6
f9
1a
10
04
0f
f8
f4
06
04
e2
e4
06
ff
f4
f2
eb
f0
ea
ed
f9
fc
0e
0b
f8
0f
0b
f4
ff
ff
f8
07
ff
1c
0d
04
0c
0a
f4
f2
ff
f5
0a
f5
03
04
f9
f4
0a
fb
fe
f3
ff
f2
11
f7
04
f1
ea
07
07
f5
01
f8
ef
f8
f2
e7
eb
f8
f8
07
0e
00
06
12
08
06
f7
f3
03
f0
f2
f7
0c
04
0b
0f
0f
0b
f6
0e
0f
14
fd
f4
00
08
06
04
10
11
0d
e2
0d
ec
08
08
ed
ef
ee
fe
fc
ec
f5
f7
f8
f0
f9
0a
06
01
fa
f2
fc
0a
06
12
05
ec
fb
fb
dd
c6
fe
eb
e9
fd
00
cf
fb
f7
f8
00
12
06
ec
de
fa
0d
f7
f3
e6
e6
fb
e9
d9
00
f7
0a
e8
fd
fb
f5
e6
e7
0e
c3
d9
db
1c
2b
11
06
11
3f
39
0c
05
f8
10
11
00
fd
0a
15
fa
02
0b
0a
ef
08
07
f7
f7
d7
04
13
18
08
0c
13
08
1d
1b
db
d8
e3
e9
f5
00
18
ff
04
f3
f0
f1
f6
0c
f8
e9
f3
ea
1d
05
f8
09
f7
ff
fc
fa
ea
d9
ed
da
e3
ef
e6
ee
fe
09
fc
f9
03
f5
fd
f1
ec
f3
fc
dc
05
19
15
f8
f8
f3
f4
df
f6
fa
ec
eb
fa
f4
f7
08
17
05
0b
f7
08
09
00
f8
f5
06
13
01
15
1a
f4
0a
ee
0e
0f
24
e0
07
18
fa
ea
3b
0a
04
2f
0f
02
30
08
fd
03
ff
05
f7
f7
fc
fd
f7
fb
f1
fd
ec
01
ff
ff
08
08
f3
f2
f8
10
1d
f7
16
0d
15
17
ff
03
0b
fc
03
09
22
0b
14
e6
fe
00
fb
18
23
04
06
0b
f5
fe
03
f9
f1
08
fe
f1
01
fe
f7
f4
f4
f9
f6
e1
eb
ed
e5
0c
0c
0b
2b
06
01
25
fe
ef
ff
fa
f9
ff
02
04
1d
06
ea
da
d9
f2
e4
d9
f4
ee
d5
d9
06
07
f8
11
0c
0b
0b
1c
0d
04
07
ff
0b
11
de
fb
09
12
03
f5
09
fb
05
fc
f0
07
fe
f4
07
0c
f8
fe
11
fe
00
12
11
08
23
f9
05
1d
10
07
03
ce
e2
08
d1
02
20
f8
f7
e9
d7
e8
e6
f7
f3
ef
f2
f7
ff
0a
fc
fc
01
f6
fa
f5
f7
f8
04
e7
01
0b
ef
ef
e8
dd
ed
f1
06
f9
fb
fc
f8
07
ff
e9
fd
f8
03
0a
0d
f0
f9
ff
ec
fb
ee
f5
05
f6
eb
f4
fa
fa
f3
fe
01
03
04
f1
f8
01
f2
f9
05
f2
13
f4
f0
08
ee
ee
f3
f9
03
0f
f2
09
08
0f
0e
fc
03
04
fd
01
fd
0e
14
f1
f3
e5
eb
00
ed
f5
e5
ee
07
f4
fc
06
07
0c
ee
07
05
09
f4
f5
09
11
06
04
0c
ff
1a
13
1c
10
ef
f0
fd
f9
01
03
e0
f6
f5
00
01
ee
f8
df
08
ee
0d
00
e9
e9
1b
15
fa
00
ff
09
ed
09
11
e7
04
fc
f1
f5
ed
0d
f1
05
18
0c
19
0b
f9
00
0d
0d
fa
02
10
f9
0d
fb
f6
0b
ee
00
ff
f8
f8
f6
eb
ff
f4
ef
f0
0b
05
fe
01
f9
02
f8
f7
03
0a
f6
0a
02
12
11
f0
12
12
f7
fc
f3
00
0e
0c
fc
f9
f8
1a
0c
13
04
0e
21
0a
09
0c
fa
ef
f1
fe
f3
f3
ea
f7
fa
e9
f5
fc
08
ff
ed
09
fb
10
01
05
12
f8
06
11
f0
00
06
02
f7
ed
eb
03
07
02
fa
e7
13
0e
11
06
13
21
11
1b
0b
07
15
0c
cc
fd
0f
f4
e6
f1
15
e3
00
dc
ea
fd
e2
ff
f9
0c
05
0b
00
00
02
08
01
f4
fa
f1
f6
dd
ed
fe
fa
ee
0f
00
f5
fe
f7
00
01
14
fd
26
13
f2
05
05
01
fd
f7
fb
0e
16
f4
0f
ce
00
01
e0
02
06
e3
fd
fb
e2
00
05
fa
09
f9
06
08
00
e8
01
0c
03
12
fb
fd
02
fa
08
03
09
f4
00
15
f9
16
05
f9
f7
07
f9
ff
1b
07
19
1c
fd
ee
cf
f3
ea
d1
f4
e3
c0
d2
07
f6
f7
08
fe
f0
06
11
09
01
f9
fc
09
07
e3
08
12
fa
09
f8
04
04
f7
f0
07
fa
1a
f8
11
09
ee
0e
0e
fd
01
12
1a
0b
19
ff
c6
05
09
10
15
df
0a
ff
d9
f4
1f
1c
fd
04
03
0a
08
03
0f
0d
22
12
19
19
f5
08
0f
f7
15
0b
05
e1
ea
fa
fb
fa
21
ef
0c
04
f9
02
ff
01
11
fe
fd
02
fb
eb
06
00
f7
0b
12
cf
ea
00
f6
ed
fe
00
f4
f3
ff
ed
ed
07
14
0d
14
0c
17
05
ed
00
f4
ef
f9
fb
ff
fc
e4
ef
03
fc
05
07
11
1e
fe
01
0d
f5
10
01
12
f3
f0
0a
f9
fa
11
de
f7
e3
08
fb
0d
fc
f3
ff
0b
0a
fe
f2
fc
05
01
11
02
fc
f9
02
f3
d8
e7
ef
ee
eb
f9
fa
12
0d
06
03
01
0d
0d
f4
f9
f0
16
f2
ea
05
0e
fe
f6
0a
00
0c
04
e1
18
0f
07
0d
0a
f2
03
fb
f8
1a
0b
04
0b
06
fc
fb
f6
01
08
1a
04
f3
de
d9
14
1b
f6
fc
0a
08
fd
06
fc
fb
0b
fb
f8
ff
00
fb
e5
fa
04
0d
fd
0f
fd
02
f3
fb
0e
1d
0f
06
0e
f6
14
f8
f5
10
16
fe
0e
06
ee
fa
de
d3
d6
f7
08
fb
0b
ff
ff
04
ee
fb
18
f5
eb
22
20
31
0a
f6
02
f9
f0
fe
06
f0
ee
f1
e6
e9
09
ef
f2
f4
fe
20
fe
db
ea
01
07
06
05
05
0a
0f
ff
0e
f0
f2
04
fd
da
ed
e3
fc
fd
e2
09
16
f1
f3
0e
ea
03
15
e3
e8
d9
e5
e9
f8
ed
e6
e5
f6
dd
d9
f0
e9
ee
01
0d
10
fe
0b
f5
f6
ff
06
f8
fd
f8
1d
06
0f
22
1d
0c
f9
0a
10
fc
05
0f
0a
05
15
e7
fd
03
e3
07
0a
e4
f5
13
11
0f
16
1b
16
11
22
24
1d
f4
ec
eb
02
f4
f3
f8
fa
e6
06
fa
f4
02
fd
f9
fd
11
00
1c
00
0c
2a
1b
0d
0c
13
07
e3
e6
dd
fe
07
fc
fe
02
07
0f
12
09
0f
11
05
19
12
0f
d4
f1
08
05
23
17
0a
22
2b
ff
09
e0
ff
0e
06
f6
0d
0a
ea
03
0c
e1
e9
f1
ef
df
f4
e3
f4
f7
eb
e2
04
fa
f5
19
f6
02
f3
fd
00
e5
02
10
09
fb
ee
04
e4
f1
ff
cb
dc
04
f7
04
ef
06
0d
01
1d
17
06
0d
06
ff
02
0a
0b
05
f1
f4
e5
e2
d7
dc
e0
db
e1
df
d2
f0
f5
f7
f1
e0
f6
f5
f6
fa
db
fd
d7
f8
0d
fb
dd
f1
db
fa
fd
fa
f4
fb
f1
0a
18
f6
e8
e8
ed
f4
ee
0b
0e
10
14
e3
de
c8
e8
e1
f0
d9
f1
e4
fe
04
0a
fc
eb
fa
24
16
18
f4
03
f6
01
fd
fe
05
05
ec
d4
c7
c5
ef
c9
c2
ef
f0
ea
f3
f6
f8
0c
10
00
1a
22
08
07
0c
fe
01
0b
f8
03
0a
03
f6
f6
09
0c
13
02
06
06
fa
09
0b
08
23
0e
0e
08
03
f1
f3
e7
11
fe
06
fc
fb
14
f4
dd
e1
fc
f0
fe
f8
f3
02
fe
fb
ff
e5
fc
f0
f1
08
fe
00
23
0f
0d
10
f0
fb
0f
03
fb
f5
23
e2
f5
10
08
00
02
0c
04
11
f6
03
f7
fd
0b
fe
00
fe
fc
12
fb
13
03
0d
20
15
fa
01
fd
e8
f7
02
fc
eb
fa
07
f9
eb
0f
04
00
ff
f7
05
fa
f6
03
02
fa
03
10
0f
02
e4
e9
f9
f4
f0
02
00
07
fe
07
28
07
f9
fd
f9
0c
0d
00
31
05
04
fe
0c
04
f8
16
01
fb
05
07
00
f7
f3
0a
f4
f7
ed
08
0b
f4
ff
0c
07
03
07
16
f9
fc
1d
ee
e3
1f
13
21
fd
fc
09
1a
0c
14
fb
ff
0c
f3
f8
fb
fb
f7
ee
f9
01
ee
11
0f
f3
1c
ff
14
0f
fd
ef
07
08
09
10
02
2f
00
08
ff
0b
02
18
fe
14
11
0b
12
0f
25
06
15
25
04
22
15
12
10
f2
fc
05
fa
03
f7
04
04
00
f2
f6
ee
0c
fe
e4
0d
f8
f5
15
09
ff
14
10
fd
13
04
ee
f0
16
13
01
0a
05
00
08
06
13
07
05
0a
0a
fb
06
fd
01
10
1b
0a
1c
0f
0d
0e
13
16
f9
fa
f8
f6
00
f8
ea
e9
04
10
f7
07
0e
f4
e8
2a
1f
16
20
1e
16
2c
25
11
19
11
0d
fe
09
17
16
ea
e9
fc
fa
14
0c
0e
0a
f4
14
06
fc
05
0d
09
ff
fd
09
01
f3
f6
f2
fb
f8
0d
06
0d
0d
07
25
fe
ed
fc
eb
da
08
fb
fa
05
f7
f0
ee
fc
fb
e5
f9
10
fe
fa
fa
0d
f7
14
0e
04
1a
11
fe
03
06
01
00
00
08
03
f7
fc
e6
06
03
f4
11
ff
fa
fc
03
02
0b
fe
f6
0d
0f
05
07
fc
f9
03
0d
ee
ef
04
ec
09
18
07
04
e8
f8
ff
e3
fc
ee
e9
22
df
e2
0e
19
15
18
0f
17
06
f3
05
eb
f4
09
06
e7
fe
e8
01
04
e2
f4
ff
e7
13
08
f9
0a
fa
0a
fa
f8
05
f9
f2
ea
fe
ef
ff
ea
de
e7
08
fa
fa
f6
ed
0a
f0
fd
00
eb
e6
f9
f9
ec
f8
fa
f2
ff
fe
fa
ff
e9
fd
df
e7
0c
03
fa
fc
de
e7
fb
1e
ed
f5
ff
eb
04
ef
02
09
02
f9
0f
06
fd
04
f9
ed
e3
e7
03
e9
fa
f8
f0
f5
db
f7
e5
15
2c
22
12
21
27
16
0c
fb
0c
00
06
f8
e8
fa
0f
f9
0b
02
fe
09
eb
11
fc
fc
10
14
19
09
12
08
ee
02
22
08
eb
16
0d
05
04
13
eb
f6
06
fa
00
f0
f8
fe
f9
ee
f1
00
f2
fd
fd
f0
15
14
0f
d7
c6
e5
d1
d4
e9
e8
ef
cb
04
e7
0e
db
e4
0b
0d
05
06
e5
e9
01
e9
f1
04
fb
f7
03
e5
1d
e7
d2
09
1b
ca
16
0a
f4
fc
0f
c0
fb
0c
ee
f7
09
03
dc
e9
f9
e0
ea
fd
e7
f8
ed
f0
f7
f9
0d
09
06
07
f0
d2
ee
04
ef
03
01
f8
fb
0d
f2
0e
0b
f9
17
0d
04
e8
eb
e4
fd
e5
ed
f7
ea
f5
05
f1
e7
ec
09
f8
f4
06
0e
f9
04
c0
ff
09
fa
f1
fa
fe
fd
02
e5
f7
e5
c0
08
f0
12
23
07
e9
f8
ec
da
e5
09
f3
de
00
fb
fe
fe
db
cf
dc
d6
f4
ee
fe
05
07
0c
08
12
ed
f2
fd
00
f2
ec
02
00
e5
00
fc
fd
f6
09
09
f2
ef
f5
fe
fd
03
09
0c
04
f9
f2
03
ef
f1
f6
fa
09
f4
01
05
15
e8
02
fa
0d
fb
00
02
07
02
01
ef
03
fe
dd
00
f5
e6
f4
0b
f8
0e
03
0f
fc
08
f8
f4
fc
f5
0c
18
09
08
06
f7
f7
06
ff
07
01
01
01
02
02
0a
06
06
01
03
16
1c
f3
fe
07
18
04
1a
03
06
19
f2
04
01
f0
ef
0c
04
fa
f4
ee
ea
e1
f1
00
fb
fa
fb
09
f2
04
f7
e0
d8
d9
13
19
05
0d
0d
06
07
0e
fb
0b
f3
0b
eb
f6
f5
fa
f1
ef
fe
00
02
13
fa
03
f0
fe
08
12
f1
fc
e8
f3
04
f9
01
0f
f5
14
13
f2
d1
df
04
11
f7
f8
04
07
f1
f7
07
f7
ee
f3
11
04
1b
01
e7
f8
10
06
0c
03
02
f9
fe
fb
08
ed
ff
09
09
ff
fc
fd
f5
eb
f9
04
0b
fe
00
ff
fb
e6
ea
0b
fa
e7
f8
fd
fc
fc
04
fb
f4
fd
00
ff
fd
f6
fb
ec
f7
f8
f9
ff
f2
e8
ec
e7
da
e1
db
e3
ef
f2
0c
1d
12
fe
ff
f7
0d
02
08
f1
07
01
11
fe
18
17
0e
06
08
10
02
08
08
06
19
f5
19
f8
0e
ef
eb
e8
05
10
12
fb
e3
09
0c
1c
e2
fc
0d
0f
04
f3
06
0b
06
fd
ea
04
0d
00
11
02
06
10
0f
fd
fd
05
14
f4
fc
10
07
12
0a
0d
07
f8
f4
02
f1
fe
09
f3
fd
f6
e1
05
02
07
09
f7
f1
04
fa
05
f3
fc
01
ea
f3
0d
04
06
17
0b
0f
01
1d
10
0f
0f
02
05
ee
f2
13
0a
0c
08
01
f2
f2
f6
06
05
10
0a
02
fc
0a
fe
12
ff
fd
fb
03
0f
06
e9
05
03
f1
f1
f2
fe
01
04
06
0d
10
f1
05
0b
07
fe
1f
14
fc
15
0e
01
0e
ff
1c
03
00
21
09
ed
ff
ff
03
0b
07
02
e6
f6
e4
0a
fa
fe
f1
06
14
12
13
eb
ee
fa
06
03
e5
e3
fe
f5
f5
eb
f9
03
f9
d5
e9
e1
0a
13
ca
ec
0d
0f
cb
c0
f7
ff
0c
03
02
00
f7
fe
ed
f5
ff
ef
db
f4
f6
fa
f6
f1
01
fc
01
04
18
05
09
fa
f0
f3
ff
ff
f4
01
ff
fc
0a
ed
10
11
12
15
11
05
07
ff
07
f5
ff
ed
fe
01
f4
d2
d2
ef
0b
03
09
0c
10
02
02
04
fe
f4
06
10
d8
ec
0a
e3
e3
0b
0a
02
f9
01
ff
fb
e7
f5
fc
03
fe
e8
08
07
f7
13
f9
fc
0c
01
00
12
0b
fd
f6
f8
ec
d9
e8
f8
f0
fc
0b
03
1f
25
03
eb
f5
f4
f1
0e
25
1a
15
19
2b
12
1c
16
ef
04
ee
d8
f0
f1
f0
10
ea
ff
34
29
12
10
06
04
0c
fa
0e
15
f7
02
ff
02
05
0a
1a
0e
19
fa
07
e8
e1
da
e3
f1
df
fb
fc
ff
ee
f8
e9
1a
09
f9
0c
fa
fb
f7
fc
f3
fe
fb
fb
02
04
07
03
12
29
fb
fa
f5
ee
ef
ec
11
01
f1
1d
0f
10
ee
fa
02
f9
fe
0f
01
0a
06
fb
05
ff
fe
0a
07
f4
05
02
e6
df
ed
ec
03
0b
f3
01
f3
fb
e2
0a
f0
12
09
02
0c
eb
f8
f0
f1
0a
1c
0e
0a
08
1b
06
f8
f8
f8
fe
fc
e1
cb
f0
27
04
ed
ee
ff
fd
02
02
fe
ee
f4
e3
ec
01
15
e7
f5
f4
03
f0
ff
f6
f6
02
f8
f3
fc
f7
fa
f1
ef
ef
08
f2
df
0b
05
fa
0c
eb
18
0b
fd
03
f1
f4
ff
fa
ee
f1
f3
fe
f7
ff
04
ee
04
1d
0e
d3
f4
13
18
07
f5
e6
0f
03
00
f0
13
0c
dd
0d
02
cd
c8
f5
fe
ec
e1
ed
e3
f6
0f
12
fa
ec
fb
f4
f4
05
fc
02
ee
f5
ed
e5
fb
f0
fe
fc
07
06
08
ef
01
f2
f8
ee
f6
03
f5
11
19
07
0a
13
1f
05
df
0b
09
f2
04
02
f9
f3
0b
ee
10
f6
dd
fc
f8
e0
04
fb
10
ee
00
11
0f
fb
19
0f
ff
1d
10
01
ed
f7
05
f1
e9
05
cf
db
c8
fe
d9
d9
d9
e5
dc
0e
1b
10
04
0b
f6
f6
d9
e6
fb
08
ff
e8
01
1c
e4
ea
0c
00
00
f6
01
f4
06
f5
08
02
f4
ef
f9
f3
fd
fe
02
ff
f7
fa
f7
fc
fd
07
f8
04
07
fd
f0
ff
0c
f9
02
07
f9
ff
00
fa
ef
00
f1
0f
1a
04
ff
0d
05
f8
f9
f8
fc
fc
09
13
0a
fb
fe
fe
00
04
03
08
08
ff
ec
f7
04
1a
1a
14
e4
e4
f9
0a
08
10
04
0b
15
20
16
0b
e7
e4
f6
f6
05
06
f3
ff
04
ef
f0
f2
f7
00
08
e3
f6
f1
fa
e8
ee
ec
fb
f8
d6
e3
ee
1f
06
11
e4
eb
f5
f7
ec
ea
fb
0b
13
fa
0d
15
fb
fe
09
fb
fe
06
f1
eb
05
0b
01
f3
e4
f0
f3
f8
0d
f3
fc
ff
f8
f7
f3
fd
fb
ff
eb
08
0f
06
08
16
08
f7
fe
06
fd
00
fc
fd
f8
f1
f8
fa
fb
0d
11
13
0c
00
f8
fd
fc
f3
ff
f5
f2
e7
df
f4
1b
22
0c
fc
0f
01
f0
fd
ef
f5
f4
11
f8
05
09
e9
f5
f1
06
fd
fb
0c
fe
ef
e3
e3
f7
fd
f7
00
15
17
14
07
00
07
0d
0d
1b
00
04
0f
19
fd
f8
1d
0f
e4
2d
24
0b
f9
08
f2
20
21
17
03
15
0d
02
03
23
17
11
01
ed
f2
10
0d
0c
f8
01
f3
04
fd
f5
f1
fc
fc
f5
00
0c
10
f6
f8
f7
16
00
02
05
02
12
1c
f3
f2
ea
20
06
fe
18
07
f4
fb
ed
03
08
fe
fa
08
ff
fe
0e
ff
08
f7
14
f9
de
fb
07
03
fe
01
ec
fc
00
04
fc
f4
f5
f6
05
08
fe
f3
00
02
00
ff
f3
f9
ef
e5
ea
ee
f6
11
1e
16
fa
fd
0c
fc
01
fd
07
05
0b
f0
ef
f8
f7
00
00
14
0b
03
0f
00
fc
04
00
f7
02
ef
eb
f3
ec
f7
fe
ea
0b
1c
06
01
f6
0f
f2
f0
04
05
0f
f9
fa
0e
05
ff
08
14
ee
f9
f7
07
04
0f
04
13
0e
f3
14
08
f9
06
04
fe
00
04
08
15
f2
02
f7
0c
fb
ec
f8
e7
04
18
ff
fa
f6
01
05
03
fb
09
0a
ff
05
0f
00
11
ff
10
01
f8
13
ff
00
fd
0d
04
05
02
06
03
01
f6
0a
f4
07
08
03
fe
09
f7
03
e2
19
12
07
12
ff
04
01
fa
0c
f8
0a
10
fd
04
09
00
f9
02
00
ea
e4
13
1c
09
07
fe
00
08
09
06
04
e8
fa
fd
f2
fa
ef
f5
05
06
1d
12
02
03
08
19
01
0c
e8
0d
f4
0a
fa
fd
06
05
fe
09
0d
04
df
05
09
f2
0c
03
ec
0d
fa
01
fc
ee
07
04
fb
21
0e
16
08
04
fb
10
0b
fc
07
09
05
ed
0f
f2
e9
ed
ea
f1
03
0b
04
0f
f0
ff
07
ee
0e
13
09
fa
fd
f7
f9
fc
f2
f2
18
07
f6
ec
da
06
e0
df
15
0e
dd
e6
f9
fb
ed
f0
f9
e6
eb
f0
d3
c5
cc
c0
d2
c2
e6
d9
e6
ec
ff
e3
f1
00
07
ea
f5
f6
fc
fa
f7
f1
07
07
e7
f9
03
fe
10
0f
ed
f3
f7
d7
e6
e3
ef
ec
eb
d6
e5
f8
c0
df
fc
12
fe
f4
01
fb
05
f8
ea
f7
01
06
0d
ff
09
04
08
e8
df
d5
d7
d6
d5
d4
de
c8
de
ea
ed
ea
09
fc
e3
f5
ed
f5
07
df
d9
ef
e7
de
e5
f1
e7
ec
f6
f0
dd
02
f7
10
08
11
0f
f8
ef
ee
dc
d3
fe
00
ea
15
dc
f1
0a
ea
00
f7
e0
e7
f3
e8
ee
f3
fb
e8
f0
1c
f8
0a
e3
f2
0a
02
00
fd
f2
f7
07
fb
f3
f4
07
11
00
01
0f
03
f7
03
02
09
13
0f
02
f3
fa
06
fc
e0
04
05
de
f6
18
02
07
05
0d
05
12
0a
fb
06
04
0c
13
16
02
f2
fe
09
07
04
ff
f8
e7
fc
02
f5
f4
ef
e4
08
02
fe
05
00
fe
13
02
08
08
09
07
0f
1e
fe
ea
f1
00
0e
11
1b
f7
f6
ec
ed
dd
dd
05
f2
00
f6
f5
03
0e
f3
07
04
0b
ff
ec
12
00
0e
1e
08
ef
f1
ea
06
f5
e2
02
fb
0c
09
f3
f8
f9
f5
e8
ff
f9
f0
12
26
08
15
11
01
1d
07
0b
ea
0c
06
f0
e5
01
1e
fc
f9
1d
fa
03
03
00
ef
f1
02
01
06
04
ff
ef
fe
07
0a
09
0a
f9
fc
00
f1
05
ff
f1
fc
f7
fb
06
0b
0c
fe
05
fb
ed
08
fa
f9
0a
ff
04
f7
fa
f4
f9
ff
f9
10
f1
ff
ff
f3
02
fe
0d
ff
fc
07
fb
00
06
02
11
01
06
03
01
ff
03
04
02
0b
03
0a
10
0b
12
05
e5
f4
ee
f3
05
f4
08
f3
03
fc
ed
f7
1b
1c
09
04
09
f8
05
ed
e4
f7
fd
eb
ef
e6
f0
fb
fd
04
f8
fd
f8
e6
11
20
ef
04
f8
f8
e5
e5
0a
1a
ff
04
fc
f5
03
f5
df
e5
f6
fb
e4
e6
f2
f1
03
f4
f9
f5
e6
ec
e8
e2
f2
0e
09
f4
00
0c
fb
07
0c
0d
f8
ef
00
fe
f6
14
04
e0
05
08
fe
f9
08
04
f8
02
07
fe
f5
f6
12
f2
ea
15
ea
de
fb
fa
00
0f
fe
ff
07
0a
ee
0e
0b
04
f6
fe
df
fb
e7
d5
f8
ee
f8
1c
fd
db
08
f5
e9
e6
f1
0d
dd
f5
0a
e9
00
fc
01
02
ef
09
12
14
e6
0b
f0
10
fc
fd
ee
f6
f8
f3
e1
f1
f2
07
f4
13
19
08
07
ee
d2
02
fc
14
f9
f8
e6
09
08
f0
13
fe
ff
05
10
10
10
1f
10
11
11
f1
11
04
0e
01
07
3f
02
06
fc
f4
04
f8
02
05
e8
f6
fd
f4
d5
fe
0a
d9
f7
32
f4
df
06
00
f4
ee
05
0b
f8
f9
09
fc
fe
00
f8
ff
0c
08
07
04
f3
fb
07
f7
f6
f3
f6
09
fe
fd
ff
09
f3
07
f4
ec
12
0d
f7
00
04
f1
ff
fe
fd
06
08
15
15
08
05
fe
f6
fc
f0
05
f5
fa
e5
fc
fa
f3
03
05
f7
fc
fd
fb
f4
0c
f4
ff
07
00
05
f7
05
fa
00
f8
fe
14
17
04
18
0d
26
13
15
20
f1
08
fd
16
01
f9
16
f0
f8
ff
20
14
06
fc
02
18
13
0e
12
f5
0c
0f
14
fa
0e
e4
ec
09
fd
ee
12
fc
fe
f8
fb
f5
17
0e
0a
1a
0d
13
08
f5
e8
f8
f4
f4
f8
ef
f1
fe
f0
0b
f3
08
d5
f9
fd
c7
f1
0f
e6
ff
ef
df
0c
09
ee
0d
0d
fd
f9
d9
f9
ff
dd
f4
01
e0
fa
0c
d1
de
0b
da
fc
15
d6
d6
00
fc
f9
00
ec
03
04
e6
02
06
ee
ed
06
e5
cd
07
ec
e9
f4
f1
03
03
f4
1d
fd
fb
12
f2
f0
fc
ec
df
fa
eb
f3
ef
02
0e
03
05
06
09
f7
e9
05
ff
e0
db
fd
dd
d2
e2
fc
07
ee
01
fb
fd
07
ef
ed
df
10
09
d9
17
fe
ea
11
ff
00
05
00
fe
f7
11
ee
00
0c
f1
16
02
f2
ff
f3
00
07
f1
fd
f8
ef
fb
fa
03
04
fe
02
ff
fc
0e
f5
03
0a
fc
fc
06
ec
fe
15
13
0d
0a
1b
f9
f6
06
0a
09
0e
0d
10
fe
0d
fb
14
08
fc
0a
f8
04
07
06
ff
fd
f4
ed
07
f4
e5
10
f3
f5
fa
f1
f9
f5
f6
f6
01
00
eb
f6
f1
f2
df
dd
07
f1
09
fb
ff
14
05
f4
00
0a
0b
17
09
08
00
fe
01
06
03
f9
0a
0a
fb
00
fa
08
00
0b
0a
ef
01
f7
f3
f9
11
fc
fc
ff
fc
0d
01
0e
f5
02
05
f3
05
fe
00
00
fb
0d
07
f1
06
06
0a
fb
17
0a
09
f7
fa
12
0a
f4
f8
ee
fe
0d
f8
ff
f5
f4
04
fd
f1
e9
f9
f2
de
06
01
ee
09
06
00
04
01
f8
f0
e1
ec
f7
f0
e9
02
eb
fb
ff
09
01
f3
fe
0d
ff
f5
f7
05
f4
f4
f7
0e
fd
1b
06
06
0a
16
10
f9
f0
00
ec
02
06
e1
ff
f7
03
12
e5
0b
01
f7
fc
07
06
fc
fc
f8
16
1c
15
05
03
1a
ff
ed
1a
05
17
07
05
f4
00
09
04
f1
fd
0a
02
f3
01
07
f1
00
08
fc
f4
fb
fe
09
06
fc
fb
03
ff
ef
f2
1e
fd
16
28
12
1a
03
0c
fc
0f
0a
f6
ff
f7
02
f7
15
0c
fe
1d
fb
fe
09
09
f3
ed
14
05
1d
1d
11
f2
f6
08
1d
fa
e6
f7
0e
e9
f6
fe
16
0e
06
05
16
08
fd
0e
07
00
0c
04
ff
14
01
ef
07
03
d3
f8
25
02
fc
15
f8
05
fe
f2
0d
07
f6
14
ff
f7
fc
f2
df
dd
fd
fd
ef
f1
09
08
ff
08
05
01
1c
06
f9
07
f4
fc
f6
10
00
02
0e
fd
f5
ff
07
1f
33
2f
fc
f8
fa
f3
07
fe
13
1b
04
0b
0b
0b
f6
02
01
40
1b
fe
15
e5
f7
fa
f3
07
ff
15
0e
08
fb
08
fa
fc
07
e0
f1
0e
f8
0d
02
fa
fb
f7
01
13
05
f8
0a
fc
f8
f7
03
fd
09
f0
ec
fb
f4
f5
0f
fc
c3
eb
f6
dd
14
10
01
01
1e
08
fe
08
0f
12
06
13
1a
0e
07
fe
0d
e5
e3
f9
04
0b
0f
1c
16
12
12
17
05
0c
04
1a
f4
fb
13
ef
fa
fa
fa
01
e5
07
0d
fe
09
04
f2
0b
00
fe
f9
fd
fe
f0
e8
e6
fb
ec
ea
fc
f7
e5
19
0e
13
ee
ef
f0
fb
f3
f7
f7
f8
02
f5
ee
f3
f6
05
f7
0c
0d
fd
01
0e
f0
03
f4
ff
04
0c
06
f2
fd
ff
f8
f2
f9
04
0c
03
fe
01
08
ff
10
09
16
03
03
fe
f0
f9
f7
0d
f2
02
05
fe
26
21
17
f0
ef
ef
f6
0e
f3
e8
00
f9
10
15
06
0c
19
05
e7
0b
03
05
e7
03
f6
ec
e8
03
01
f1
20
05
06
19
09
fc
30
2b
1b
02
f2
04
fc
19
06
fc
10
00
f5
e9
f3
f6
e4
f6
10
06
08
02
f8
0b
f3
0f
03
ca
d1
fb
e8
df
c0
f7
fd
f0
ea
e9
e8
f2
f7
f8
ef
e7
ed
f6
ee
f8
fb
07
0a
03
09
ec
fa
0b
d5
f9
f7
fb
e3
f8
f0
fd
fe
f2
15
19
0c
02
f0
fa
06
f8
05
e3
e1
dc
f2
ee
f1
da
dd
dc
eb
f6
fc
f3
e3
f7
01
fe
03
0e
05
15
06
0f
0b
e5
08
dd
e7
ec
e1
10
0c
ff
09
0b
0c
f8
0e
11
ee
1c
0b
1e
13
40
0f
f7
cd
f9
0c
dd
e6
fa
ff
fa
f9
14
fd
ef
d8
08
12
fd
10
f3
f8
fa
08
10
f3
1d
29
11
16
ff
e8
f7
17
f2
fa
e6
f5
e8
02
e8
df
05
dc
e3
ee
de
08
0d
d1
07
ff
f2
ed
16
06
11
13
fb
0a
08
ef
04
f0
0a
15
17
fa
02
02
f1
02
0a
f7
f3
ca
14
08
ff
04
02
e0
ff
0a
f9
fd
14
f8
fa
0d
f2
09
05
f3
15
04
fc
0a
0b
08
ff
f3
ed
07
0a
f3
e7
f9
08
16
f4
ec
15
f4
f8
08
f5
06
0c
0d
fe
08
fe
0b
e6
e5
f8
f6
0c
f4
f2
ff
fe
f0
ee
ec
e5
f1
fb
eb
03
00
00
0c
f9
0b
0a
f7
fe
fd
f5
02
05
fe
f1
09
05
00
0f
13
08
0a
06
eb
07
00
f3
f0
e5
18
f2
ec
20
03
f7
08
00
0d
02
f7
f0
fa
ea
fb
24
f7
ef
3f
02
f0
10
05
0d
00
f4
10
0c
f0
01
00
01
ff
10
02
01
f9
0a
04
f9
f4
fd
01
01
fe
ee
fa
02
eb
ff
fe
11
ff
fa
0b
f2
f5
02
07
00
00
06
01
f5
f6
02
14
12
28
13
14
12
0e
07
f3
0b
0f
0c
fe
0a
06
ff
fe
09
06
0c
0b
18
19
0f
0e
fd
ff
fb
12
01
fe
0c
07
01
0a
ee
f8
02
04
0c
0f
12
1d
11
22
08
0e
fe
ff
fb
e9
e4
04
06
0f
14
f5
fc
04
f3
f9
0c
f1
19
15
fc
fc
06
0a
fb
02
25
0d
0f
f8
f7
e7
ee
00
ea
f8
02
0d
05
e9
fe
fe
f7
1f
05
fe
ef
03
fb
fd
ed
0a
fa
f4
fe
f2
fa
e8
fb
dc
12
02
d8
13
fa
01
ee
eb
f0
ed
fc
ff
ff
01
03
f0
f5
e9
f8
06
f4
ef
ff
1e
04
0d
fb
e2
06
00
04
00
0c
08
f8
0c
06
ef
05
0a
fb
f5
fc
1c
1f
fa
f7
01
0a
12
1f
f3
f7
09
f4
0a
fb
0d
10
fc
00
05
0e
f9
0b
05
01
03
03
f3
f8
f7
0f
ef
ea
ee
df
f4
02
f9
eb
1e
14
0d
07
f1
f1
fb
f2
e4
10
e6
ee
0c
16
24
0d
03
16
f5
01
0a
fd
e9
f0
0d
28
24
08
ff
f4
03
fd
fe
03
09
15
ff
e2
e1
11
03
06
04
05
e7
f0
02
e3
f2
ef
f6
05
f7
ff
06
fd
02
00
08
04
04
fd
f4
f4
fb
10
fd
f8
f9
06
ea
f7
13
13
04
fb
fa
07
f4
fc
f2
ff
ef
f4
ea
ff
fa
10
01
15
1c
ff
0c
fc
fc
05
f4
f2
08
fa
f5
0c
11
1c
0a
17
1a
0b
0a
12
0d
0c
02
fa
f1
f9
fa
0c
fe
11
09
11
02
09
ff
0d
07
06
04
0b
04
11
07
03
01
0e
0c
05
05
f9
08
04
02
f5
02
0e
08
ff
f7
0e
01
f7
0d
0b
15
0d
ee
fc
fd
0a
ec
fd
0f
08
07
f2
f2
e3
fc
fd
07
f8
03
09
00
fd
df
e8
e5
f4
e7
e3
e4
08
0d
18
06
0f
05
0f
08
0c
0c
ee
fb
f8
ef
ee
fc
e5
ed
e3
ea
ff
f8
f0
0f
e3
fe
08
fa
15
0b
f9
0d
17
10
0a
08
e6
f5
f4
f5
f7
eb
f0
f0
ee
12
0a
c5
16
2e
22
14
24
28
f2
0e
0b
fd
07
18
f3
10
05
03
02
2b
ef
f6
e4
0b
08
f7
03
f7
ff
ff
0e
fe
fe
fa
07
00
fc
03
fb
05
02
0c
08
12
0c
15
1b
0a
06
11
d4
eb
df
0b
0b
f4
f8
f3
d8
df
df
ec
df
0d
10
f4
0e
11
0f
04
fd
e8
f4
02
f3
01
de
10
12
12
d3
f0
ef
e3
ef
f8
06
05
07
f4
f8
f1
ef
fb
e7
f3
ed
07
e8
fd
07
05
02
ff
fe
12
04
e5
06
fe
f5
eb
0d
06
f7
ee
0f
f3
ea
14
f4
fc
fd
0a
01
ff
03
e5
e5
fb
e6
06
f6
03
ff
0e
f8
17
1a
0a
e9
07
0a
f3
fe
1f
ec
07
13
f9
f2
03
0a
00
fe
07
fc
fb
f3
f4
03
01
02
f4
ef
ed
f2
ed
e4
fb
e3
f8
07
eb
fa
05
fd
f4
01
f7
fa
f1
ef
fc
f2
ed
07
02
f4
fd
f7
0b
02
0b
10
06
04
f9
f8
f8
e4
ea
f5
fb
e1
e4
1a
ff
e7
12
05
fb
f8
0a
f4
11
15
17
04
1c
fa
11
16
07
0c
00
f7
df
d6
e4
00
f1
f6
fe
07
1b
03
f6
fd
04
fa
01
02
00
00
f6
dc
d9
0f
ec
ea
0f
0c
0e
02
09
01
ec
fa
f3
0f
01
08
08
1a
f1
12
0a
ee
0b
10
06
f8
f9
ff
fb
09
04
fe
fc
fd
ff
f9
0b
fd
0a
0b
eb
ed
0b
fd
f6
f4
02
fd
06
04
03
f9
0e
03
f9
ff
fd
fd
ff
08
fc
e3
ee
f3
fc
16
02
fd
f7
1e
f1
ea
0b
fb
f4
f9
02
f7
05
03
fb
f2
15
01
03
fe
fa
04
fe
ff
f9
08
f9
05
05
fe
f8
fc
01
e9
0b
fe
07
02
0c
f4
f7
f2
e8
09
0d
00
13
1a
1b
f3
ff
11
02
14
fe
01
f9
02
0c
f4
0b
f3
f0
15
0d
f3
fb
ff
05
e9
f7
f8
cd
0d
07
03
02
fb
f7
02
06
03
01
f3
fc
07
f9
f9
18
02
f4
ce
00
21
dd
dc
07
02
f8
fd
ff
12
01
e5
06
09
00
fd
f0
ef
f9
ec
01
08
03
f9
fc
06
02
11
ec
20
13
f0
0a
08
f7
07
0c
08
05
00
00
e6
ff
02
e5
e8
f9
cf
ed
e8
f4
0a
01
f2
00
f7
03
1b
f9
fe
fd
f4
03
f6
fe
14
fe
f9
f5
f5
f6
0e
12
0e
01
f4
fe
f6
f8
ec
02
18
11
f5
10
00
ea
ed
fc
e1
fa
fd
f4
f8
14
f5
ef
fd
f4
f1
00
f8
fc
f3
f9
f9
ff
e6
06
11
ec
09
16
08
1f
17
fc
01
03
0a
fd
15
d1
ef
08
e7
f2
e2
fc
f8
e4
f4
e5
e4
0f
13
15
15
0f
17
0c
0a
f6
00
03
08
20
06
fa
0b
07
f9
03
f6
f0
03
04
ed
15
f4
04
10
f9
04
1a
0d
01
fc
05
08
06
04
18
0a
fb
02
ed
fe
04
10
04
05
12
f7
03
fb
ea
df
09
ff
09
0e
04
04
0e
10
0f
19
14
0b
ed
f0
07
ff
0e
17
07
0c
0a
f1
fb
fd
f3
fb
03
ec
f8
ff
f7
e7
f5
05
ff
f7
f1
ef
fe
02
db
e8
06
02
02
0f
12
09
0e
05
ee
05
11
0c
0f
06
f3
06
ef
f8
1d
18
1a
0d
0c
08
21
16
20
fe
fb
07
0f
01
f6
21
0f
10
14
1b
f1
1b
0f
fa
07
fb
ec
00
f0
e1
03
05
e2
f3
ff
11
ee
06
07
f5
fe
f7
05
15
15
06
f4
20
fe
f9
d5
09
13
09
01
14
14
ec
eb
e4
0b
04
01
0b
f8
f8
07
f1
e3
05
e6
c6
10
19
1e
fe
ff
0a
fa
fd
f2
02
08
07
e6
f2
ea
fd
fe
f4
10
0c
07
eb
df
01
ff
fc
fe
19
00
08
fc
ef
f1
f3
ef
ef
01
02
02
e7
e9
ed
04
11
11
e7
eb
0b
e5
ef
06
ff
f4
e8
06
09
fa
ef
03
fa
08
12
03
e8
ec
ff
02
06
0a
02
f9
01
13
17
05
01
f9
ef
fb
ef
cc
f4
02
fb
e1
ee
cc
e6
dd
c0
da
f3
ff
ef
f0
e8
01
ed
00
fe
01
0d
e1
ed
da
de
eb
c3
e1
de
dc
0d
0f
ff
00
f5
01
e7
fd
05
0e
09
fa
04
0a
00
03
01
fa
f6
f9
00
fd
f2
ef
f8
f0
ef
0a
12
f6
11
09
ff
ef
13
0a
0c
05
13
f2
fd
00
f1
fb
f8
03
f8
fd
f7
08
05
fc
0c
05
10
f8
fc
01
f7
11
11
01
fc
fa
03
0c
fa
04
0f
0f
03
0b
06
0f
19
fa
05
08
e8
e7
f1
04
06
03
09
14
0e
17
1c
1c
ff
0c
f8
f6
f7
f6
ec
03
f1
e6
ed
e2
f0
eb
00
15
08
06
19
11
07
fb
06
f4
f2
f3
0b
0b
08
fc
f5
0a
02
f8
f9
f5
f7
e2
f8
f6
fa
ff
0b
10
0d
08
f5
02
fa
06
0c
fb
e5
f6
f6
0e
27
f5
04
2a
0f
e3
18
00
04
ff
0d
1a
06
f1
02
0e
02
01
00
0e
f7
fc
02
ec
ee
e7
dc
e8
fd
f7
cb
fa
00
c9
fa
02
ed
06
fe
e3
00
f9
f3
03
2d
10
e0
f8
0f
fc
e9
e5
0e
02
f2
04
f9
f5
04
00
fd
ee
07
07
fb
05
fc
00
00
f1
fe
16
02
f8
03
17
f9
f2
fd
f4
e6
f7
f3
dd
f5
ec
f1
e8
f0
f8
da
0c
05
07
f6
ff
f6
02
14
ff
e8
00
03
f8
00
09
fe
f7
fd
0e
f8
05
04
fe
0d
fa
fa
f4
fb
0b
ec
03
e5
1c
00
1a
1f
e5
eb
26
fb
f4
02
08
0b
f8
09
1c
0d
0d
06
0d
17
11
f1
fc
f9
f8
08
04
f5
fa
f5
f7
fc
03
ee
f2
00
f9
f5
fd
f0
00
03
05
f9
f7
07
e3
f3
f2
f7
0e
00
f5
07
02
08
fb
f9
01
01
0f
f8
f1
f4
2c
35
30
1f
12
0c
00
06
02
e9
e8
02
fa
f9
0b
e4
e7
e4
09
10
0b
03
00
08
02
ee
00
0b
10
10
04
03
fc
ff
f6
08
0f
f7
06
03
01
0b
09
05
17
20
1a
19
24
1e
fd
fe
04
f6
ff
0d
04
03
0a
f4
fc
fd
f6
04
f7
ff
10
e5
f9
01
f8
05
f9
ff
f3
f9
f9
e1
fc
f2
05
12
13
00
1e
0e
fd
08
10
ff
14
f6
0b
ff
fb
ef
fc
07
0b
01
13
ff
11
fb
14
ee
f6
f2
09
f9
f5
0d
12
f0
12
ff
03
01
06
f3
fd
fe
e6
fb
fb
fa
06
f3
07
01
f6
ed
13
f1
e4
f3
f7
fb
fa
ff
fa
09
01
06
16
17
00
f8
18
01
fc
14
f4
06
f3
f2
05
ef
f9
05
f5
e6
07
f8
ff
f9
f7
fd
fc
f5
01
01
03
ff
09
04
03
04
04
fb
0e
1e
f4
f2
fc
f5
ec
02
f2
ff
00
eb
fe
08
eb
ea
f1
e6
fa
0e
f8
07
0f
06
0a
04
0d
0a
f8
03
0c
13
fd
ff
05
0b
f3
fb
04
02
fe
15
04
08
21
08
0c
00
fc
18
11
f9
05
08
07
f8
05
ed
ea
ff
f2
f6
f7
e8
fe
11
fd
e7
04
02
11
05
fd
f5
eb
13
09
f8
03
0e
22
f3
f4
d3
ea
ef
e1
05
06
ff
fe
e6
ef
08
ef
fd
fa
ea
f5
00
f6
04
fd
ff
f2
0a
01
00
de
f4
f2
f1
e0
df
07
eb
e9
0e
ee
ee
1c
f8
10
f3
fa
20
d9
e4
f0
e0
fa
f2
ee
fa
ea
0e
00
0c
10
00
0b
02
ec
f8
12
01
e0
e8
f7
f8
ef
ec
11
fb
fd
fa
fd
0b
07
04
06
fc
02
17
f0
0a
06
ff
ff
08
07
08
08
0f
07
f8
f0
0b
09
e2
f4
f9
0b
ed
04
0d
03
0a
14
f6
05
1e
02
f6
17
19
f5
f9
00
fe
00
f6
ff
ff
04
09
0e
e8
09
17
f8
e5
12
fd
ef
09
ed
0d
09
f8
02
0a
ff
fb
00
0e
0e
04
f5
04
01
f3
f6
e5
10
14
ec
1e
19
e0
03
fb
f6
fc
14
fe
f8
1a
0e
f8
f7
fa
d4
ed
f7
fb
f4
ff
13
05
09
fc
02
f1
fd
fe
f6
00
ff
ed
f3
f5
fd
fc
fb
f6
0d
f9
f9
f1
04
ff
0b
18
08
f3
eb
00
1a
2c
1b
28
1c
0e
16
27
26
ec
01
fc
f9
10
16
fc
f0
03
e7
f4
f7
fa
f4
f5
f0
fc
ea
09
fa
04
0a
1c
ff
e8
f6
f0
20
13
04
05
20
06
12
0a
18
f8
e9
e4
fc
10
fa
06
16
01
0f
05
0a
0f
04
07
ff
16
19
f3
fd
19
e8
14
ff
07
00
e8
06
02
f9
fe
02
f4
02
0c
1c
fc
ff
fb
05
f4
f7
fe
04
ff
12
f8
07
0c
05
fd
f0
0d
17
03
fc
f4
08
fc
04
08
ef
08
db
d7
df
ef
f8
f3
ef
ed
e1
07
07
18
0f
02
15
fc
14
22
f6
fb
f5
f7
f2
f5
f4
ec
eb
07
08
0f
01
fa
f8
f8
fe
0d
0a
fe
f6
03
e4
f9
eb
e2
f0
f8
fb
ed
ef
f9
09
02
fa
f8
f5
fa
e4
fa
db
eb
f0
f4
f0
e9
e5
f3
09
0b
f2
f3
e6
f3
05
0c
07
fd
04
1c
e8
f1
d9
f1
e2
e6
f3
f0
e8
f5
e6
f7
08
0a
f6
16
07
07
f1
d6
e6
11
e3
0e
e0
ee
36
e4
12
27
f7
00
ff
01
03
f9
f9
ff
fa
11
fe
24
f2
e0
14
07
f2
01
0d
fe
e5
f0
f8
ec
18
0d
09
f1
ff
f5
e6
0d
f7
ef
03
01
f1
e7
de
0c
0f
1f
e2
de
e4
fa
05
f9
f5
f5
f7
e3
f3
f6
ff
f4
fe
12
fb
05
0e
f8
f3
eb
f5
f9
09
0c
f8
fd
e1
f1
02
fa
f2
05
05
f2
e5
f2
c0
01
05
01
07
1d
2d
15
06
19
eb
0d
c8
f1
fa
d9
fc
e8
fb
ea
ec
f8
e3
dd
c6
fc
1b
f6
07
0c
e9
08
09
01
ec
e9
10
c9
c8
de
e8
e3
eb
d8
d9
da
11
1c
14
04
00
f6
0e
19
04
f3
f8
f8
eb
f8
05
e2
ff
14
fc
ff
f9
01
09
fc
f7
0c
fe
f6
fb
f1
00
05
fa
fb
f9
fe
03
fc
e1
fa
03
06
fb
0a
f9
ff
fe
03
00
fd
00
f3
fa
fe
09
13
0b
fd
05
0d
f9
04
05
f0
f0
f8
0a
12
01
f6
07
0a
0b
0b
0d
15
0c
05
07
fc
01
01
03
fe
04
fe
03
f9
06
f5
03
11
00
11
13
15
f6
09
0d
f0
fe
f5
f7
07
01
ee
f6
fb
ea
f0
04
f7
f9
f1
07
0e
0a
f7
ff
04
fb
03
fe
ff
ef
fa
fd
e7
e6
f7
fd
f9
fd
ec
f7
f1
fd
fb
f5
0a
02
f6
0f
ff
02
fc
07
17
06
03
15
f3
07
09
e9
fd
09
f8
ea
fd
fb
0c
03
0a
0a
00
0f
0a
f8
0b
fd
f1
f4
e7
f7
0b
f8
ef
fb
01
e0
02
01
fc
15
fc
f3
0a
06
0b
06
00
0c
06
fd
f2
03
f9
0c
16
27
e5
f2
0e
e5
01
04
04
0c
09
08
11
09
ec
f8
f3
0f
0c
02
07
02
f9
fe
f9
f3
04
11
06
fb
ff
fe
fc
f5
f2
ef
f0
f8
e7
f8
05
0c
fb
ff
14
18
04
13
18
04
fa
04
fd
fb
20
19
07
0c
0f
f5
0d
0f
fc
01
e7
e2
d8
e6
fd
05
07
08
ea
ef
0c
f6
e6
ea
fa
fa
08
13
05
f6
e4
f3
f8
00
ee
e7
f7
f5
f1
eb
f0
05
ec
f7
da
e3
fd
00
f6
fd
f5
de
12
ec
ff
00
fb
ff
08
fb
12
08
f8
02
17
ed
ff
13
f8
06
08
fd
05
de
02
1c
f8
08
07
15
e6
08
05
f8
05
01
fb
06
0d
14
fa
f6
1d
12
18
03
0e
07
f8
fa
fb
0d
f8
fd
13
05
02
03
f4
f1
0c
ff
04
0d
05
06
f2
f5
fb
01
13
0c
e4
01
05
0d
18
02
f0
0b
ee
fe
0a
e6
ce
ea
0a
ed
02
16
06
11
1e
ea
f6
ef
fa
0b
ef
0e
fc
0c
e8
00
01
ee
0b
fb
ea
f3
f4
f9
14
fa
f2
f8
f3
02
e7
f4
01
10
ff
02
16
0f
00
f9
fc
f9
05
11
f3
f0
0c
10
f1
f6
24
f8
00
29
0f
0e
1a
0d
18
02
ff
f3
0c
07
fa
0b
08
fa
f8
03
0c
f5
fe
03
f8
fa
01
f9
f7
f7
0c
ff
01
f9
0a
f5
f9
fa
f6
01
fb
f1
ed
f6
f8
f6
0d
0b
01
09
12
03
04
f6
fb
e8
f4
04
fa
04
03
02
f4
f8
09
00
fd
fe
ee
f8
05
fb
0e
00
09
0a
10
06
fa
fc
09
fe
10
0d
01
05
01
ff
11
17
ff
06
ff
0b
1a
ff
f1
00
07
0e
12
07
0e
0f
0e
07
0d
04
08
0f
f4
12
07
04
13
0d
ff
0e
06
01
16
09
eb
f8
fa
fa
14
15
fe
08
17
13
1c
12
1a
07
21
fc
03
0f
f8
fa
fd
07
f7
ea
15
05
f1
0a
17
eb
e9
f8
f5
fe
f3
08
f6
f0
e3
ea
ff
ee
fc
f7
e4
f3
01
ed
f6
04
f1
ce
0a
1a
dd
e5
f0
c0
f0
09
fa
f5
0b
fb
eb
fc
d6
21
40
30
0a
f5
f9
07
07
f8
fa
fc
f1
dd
09
f3
df
e7
fb
2c
0a
10
1b
0a
0f
06
f7
ff
0a
18
23
c0
d3
f3
ef
f3
ee
ee
f9
eb
e3
f2
ef
c1
e4
d5
0a
08
fd
f1
ed
e2
f7
f5
e3
f0
f8
f2
00
ef
dd
d9
da
e6
f2
f5
06
e8
fc
2d
18
15
ed
02
0b
f6
12
06
26
3f
2c
31
16
29
40
2b
10
fe
0c
05
eb
1c
09
f1
23
f6
f9
36
40
27
1d
e8
00
0a
fb
f4
08
ff
fc
ef
0e
ff
06
15
09
04
fb
04
08
04
06
08
03
fc
09
08
02
ff
02
f2
fa
00
02
f6
f2
06
02
07
fc
0b
04
f5
f8
0d
f8
ef
fd
fb
02
01
fe
00
03
04
f7
ed
fd
04
fe
02
f8
f4
02
f8
03
f3
05
ff
ff
0d
0a
06
04
01
fa
0a
0f
04
ef
f4
02
f5
f1
f6
02
eb
f4
f7
f6
0a
ff
0d
0d
07
f9
07
15
0d
0a
ee
03
03
ff
fc
0a
ea
f6
ed
06
01
0b
15
fe
f5
0a
16
07
fb
ea
07
f0
ea
01
fd
00
09
07
04
f2
0f
f5
e2
11
06
0c
00
fe
f8
0c
fb
0c
fe
0d
12
05
0b
eb
22
17
fe
17
0a
0a
fe
f3
ff
09
f4
09
f2
f8
fc
f2
f7
10
f3
02
17
f2
00
06
05
07
fd
ec
00
ee
e8
f5
f7
07
0c
0d
01
05
01
02
f7
f3
f3
d5
dc
f9
04
f2
01
ef
f6
f9
01
f9
f3
06
06
10
27
01
07
04
f8
f7
ef
f6
fd
eb
fe
ee
ee
e6
16
1a
0c
fc
02
f9
fb
18
15
fe
fe
02
05
1c
fd
14
f5
09
25
29
13
00
fa
fc
f2
f8
f3
e3
ef
f9
ec
fc
02
ff
18
0e
fa
14
0b
e6
db
e2
fb
00
07
1f
2b
19
fe
26
14
03
fd
e7
ef
f2
fd
ee
00
f6
1a
0d
04
0d
1e
27
eb
f0
f5
e9
05
16
f3
e1
f9
fc
1a
25
f1
fe
01
04
f7
e6
ec
09
01
fd
04
f6
f0
eb
f9
0b
08
fb
00
0e
fc
04
05
f5
03
06
df
fc
04
08
03
0e
13
08
02
03
eb
ec
dc
ef
f4
e2
ee
ec
f5
0a
0e
05
f1
e0
f6
f4
06
01
0f
07
ec
e3
e8
fc
00
04
f4
0f
0d
0c
14
16
fa
fa
f5
03
0c
0e
03
15
09
02
fd
e7
f6
f2
ff
0b
f5
f8
0a
02
fc
03
fa
02
f1
de
d9
d7
d8
ef
dc
09
fd
04
11
09
06
de
d9
e4
10
f3
00
e4
12
23
fb
d5
ea
f5
f5
ec
ff
e6
f3
dc
f1
0c
11
17
fc
ff
f5
e7
da
d0
cf
f3
00
0e
ec
ee
10
04
f7
fa
0d
01
ff
fe
ff
06
fd
fa
f9
fb
05
03
ee
ef
ed
f0
ee
eb
f9
07
0c
f7
fb
01
f3
f0
00
fb
04
0d
f0
fa
f7
f2
f8
f5
f7
18
0f
f1
f9
07
f7
f7
df
fb
ff
ee
03
12
0b
1a
0a
00
fa
04
06
f8
03
ee
fa
fb
fa
ec
fb
00
14
12
15
ee
fa
07
ef
ea
f0
f6
f9
fc
07
07
fb
0a
fe
f8
fc
0e
1b
f7
06
eb
e8
e9
f0
ee
0a
05
f1
ea
ec
fe
fb
f7
ec
01
ff
f0
fa
10
00
0c
11
0d
28
09
29
33
23
f4
02
ec
f6
fc
e3
f5
ed
e8
05
f9
ff
f2
0d
06
03
0f
1e
07
f1
17
09
ea
1a
0a
05
03
fb
0c
fd
e9
0b
f4
03
0f
ff
05
13
11
11
0d
03
f9
fa
00
ff
fc
02
fc
0a
eb
0d
00
f4
07
0e
fa
fa
05
f4
fa
0e
ef
e9
f3
f5
01
f8
fb
08
01
f6
0b
12
f2
07
05
01
02
04
04
01
f3
05
fe
fe
fe
ff
fe
00
fa
ff
06
fd
06
fa
f9
f2
ff
16
09
0c
1a
24
20
0f
ff
21
fc
06
fe
0c
0e
08
05
f2
f1
ec
0c
03
f5
08
fc
f7
00
f7
17
1e
09
0d
10
08
fc
f3
0e
0a
04
02
f8
f7
e5
05
13
ef
fb
03
f2
12
07
fe
05
ec
e7
07
f5
fd
f6
e5
f5
f3
eb
f9
08
00
21
0d
f4
0b
fc
fa
10
fd
01
01
f1
05
02
f9
ff
f8
ff
03
01
08
16
0f
f9
0b
06
08
f9
fa
f4
02
eb
0b
05
f8
f8
08
0d
09
05
f9
fe
0f
fb
f6
0f
16
f8
f6
0e
fe
04
fc
ee
fa
f5
09
ff
fd
f3
01
f7
00
fb
f9
05
05
fe
0a
0a
fd
fc
f0
ff
17
19
1b
e2
ea
08
f2
08
03
f4
ff
f3
f7
02
08
06
0c
f0
0c
1a
14
17
0d
00
fc
07
05
f4
10
03
f8
05
f2
ee
fe
02
15
0d
02
06
1a
15
18
08
2c
fd
03
ee
e6
ea
fa
0b
fa
f9
fc
f9
10
0c
12
03
0f
01
1c
00
f2
00
19
00
0e
fd
d9
e8
db
f3
07
fa
f9
00
f9
f1
d8
0e
0a
fc
07
fa
fa
ff
f5
fc
00
fe
ef
f0
fe
f1
08
17
fe
06
16
00
0d
fb
f6
ed
07
ef
e9
ed
ff
f7
04
0c
e4
d4
da
f2
ef
eb
eb
fa
00
e5
ea
f0
f6
e5
ef
04
0a
fb
ea
e8
ee
ea
f6
f0
08
00
03
f3
ee
fb
fa
fe
e7
04
00
f2
d9
d7
f3
de
f0
f0
08
02
fa
07
ea
f8
f3
10
f9
ee
0b
13
fd
03
fb
09
0d
03
0a
0b
08
eb
09
01
db
d5
d0
09
0d
09
01
e8
ef
f2
d8
e2
d7
04
f5
0e
f2
f6
f1
ef
e6
fe
00
15
1c
01
fc
df
e6
df
d3
d3
e2
ec
eb
03
ec
df
f8
fe
f0
ec
ef
f9
05
ef
0a
02
f8
0f
05
e9
f4
f4
d6
f1
00
00
f6
06
e9
07
eb
ec
0a
f9
ef
16
08
ee
01
0b
e2
03
0b
f0
fa
01
ff
d5
f7
ec
f2
04
f8
f1
04
f1
f7
f3
fb
fd
f6
f2
00
f4
f5
f9
01
fa
03
09
02
ff
06
ea
05
08
fc
06
00
03
e1
ec
f6
ee
08
01
eb
f3
f8
db
f7
ed
f2
fc
ef
01
01
fc
ec
0c
e7
0b
f9
04
14
ff
02
10
13
e9
fe
01
ec
e8
eb
04
f8
fd
04
00
f6
f4
01
f6
fa
04
02
06
f7
00
f3
f3
f2
f5
f8
fa
00
f5
0e
08
06
08
02
ff
07
f7
f3
0b
07
0e
ed
f3
eb
fc
f9
ff
02
07
06
0d
ff
04
fb
ea
00
ee
fa
ff
09
01
f1
f9
fa
fa
e5
fc
16
f1
e1
04
ec
fa
0f
fb
00
0b
03
f2
f3
04
18
22
26
00
f3
0d
03
03
14
09
fa
ff
f8
03
f0
f4
f0
ed
18
0a
0c
06
fe
0b
fe
fc
ff
13
11
0f
00
fc
fa
e6
f1
f7
f5
ea
f2
f5
fa
ff
f1
e3
03
fd
fb
08
fd
f3
07
14
03
08
e4
fb
f4
ea
fc
fa
f5
0a
03
f2
e1
04
ff
f9
f3
1e
19
12
eb
04
03
fb
fc
f5
06
0f
1d
17
12
1b
f3
f5
ec
09
0a
06
fb
01
0f
17
06
11
29
0e
09
1c
0b
fb
07
06
0b
17
02
01
fe
f7
fb
fa
f0
f5
06
03
0e
0b
12
13
fb
f8
09
fd
fa
ff
fc
09
0b
f6
0b
ed
f6
0f
fc
02
fa
05
0e
ff
06
ff
00
fc
fe
df
c7
ec
03
07
ed
f8
fc
f9
09
fe
f4
f2
16
09
09
0f
0f
01
f8
08
f5
01
06
07
08
04
fe
08
0d
0e
f8
00
09
13
01
fa
06
f4
fe
0e
eb
ef
fe
0d
eb
eb
e7
f5
01
04
04
f4
f8
fb
ee
fc
0f
13
f7
f6
ed
fc
0c
11
e3
01
0f
e3
f3
fa
f7
f1
f4
df
ef
ee
02
fc
ed
10
fa
e2
06
11
ff
ea
f4
f5
0b
01
08
fe
05
fb
ff
ea
ec
fa
f4
15
e9
f5
05
24
e6
f6
e5
03
09
dd
02
05
03
06
04
08
f2
00
0a
f8
01
02
fc
f9
00
ef
d2
fb
13
0e
05
fe
0f
f5
04
01
f0
0d
04
f8
08
05
f5
00
21
ef
fb
fe
f4
04
fa
ed
fc
f5
06
fe
10
f6
fd
fb
ff
09
04
06
05
03
08
05
0a
fc
0c
10
09
08
07
f8
fd
fd
fb
f7
fe
f0
01
fe
08
02
ff
d8
f4
02
d3
fb
09
07
f1
03
ef
01
0d
01
04
0a
fd
fd
20
ea
e9
e5
dd
09
01
e8
18
08
eb
0a
01
fa
fc
e2
ff
02
fc
00
e6
02
ea
fc
06
f2
11
05
f3
18
0a
14
14
10
14
14
ff
04
fa
f6
28
fe
f0
0a
05
e6
fb
fc
f7
f1
01
ef
fe
03
ff
05
0d
ff
f6
04
f6
08
03
fc
ff
06
f0
f5
0e
f4
ea
09
e2
fb
fb
f7
f8
fe
f3
fa
f6
e7
f7
eb
f6
00
fd
17
ff
04
0d
08
f6
ec
f4
f0
18
08
0b
f7
03
ed
02
06
04
f8
0b
00
f3
f7
09
f9
08
15
fe
f8
f4
01
13
09
06
0e
16
1a
0c
05
17
08
00
f5
01
16
fc
0a
e0
e6
07
1b
fd
09
07
01
db
00
f2
08
00
0d
19
15
10
ed
ea
fb
06
03
06
01
1b
00
12
07
05
f4
fb
ed
17
11
ef
fb
ee
e2
04
f7
f5
f9
ef
fa
09
08
11
0a
0a
fb
12
17
00
16
1b
02
f9
fe
03
01
03
00
ff
14
0b
f0
fe
06
fa
09
04
fc
ef
ee
ea
e8
f2
f9
f6
f5
06
fb
03
f3
f9
fc
fd
f7
f9
fe
f6
07
16
14
11
fe
0d
15
0e
14
0d
02
01
f8
fe
f9
09
fe
0d
0a
08
08
03
05
08
0d
00
09
03
f4
fe
fc
f2
03
1d
00
ed
0e
ef
f3
e7
14
0d
01
1e
00
0e
0a
0b
07
f5
fa
ed
f2
f2
f0
08
05
13
12
14
0c
ed
e7
ed
06
f0
eb
26
1d
ff
0f
ee
02
fe
01
f5
e6
00
f9
f9
d8
ea
0d
20
14
08
11
20
09
0e
0c
f1
f2
09
0e
f4
e8
08
f4
04
f0
ff
19
f5
03
0d
dd
09
10
f8
16
fb
09
10
12
11
05
fe
f2
f6
f1
f2
ff
ef
f4
f0
fc
0c
f9
c4
06
0b
fc
1e
1b
0b
f4
fa
00
f6
0f
01
f6
05
f6
14
15
28
00
0f
fd
0d
1a
f9
07
f0
d6
17
06
f9
04
fc
f4
fd
ed
f9
f8
fb
0c
0b
06
07
03
0c
01
1c
0a
14
e5
f5
f6
04
10
0c
0c
16
10
f8
fd
f8
d8
fc
f7
f6
fd
03
01
f7
e8
fb
09
fa
f3
04
ef
02
09
03
01
09
ed
fe
09
00
17
07
19
01
0b
fc
fc
ff
ff
f9
f2
12
f9
0e
08
02
ff
03
0c
0b
f2
07
f5
10
00
e4
09
04
f7
0c
fb
05
ff
0c
f8
00
01
fc
ff
00
14
0f
f5
1c
0f
ee
fe
f5
f5
f0
f5
03
ff
0f
f2
02
08
fa
e5
f0
05
00
ef
ff
11
01
11
06
ff
04
0e
05
ff
0f
fb
09
0b
0e
fd
08
13
f6
08
04
fe
02
fb
1d
25
08
f8
0f
f3
0f
07
04
13
0b
00
05
fd
fe
03
fa
f7
08
00
00
ef
eb
f9
03
03
09
03
0d
1e
0d
37
2a
01
12
0e
ff
06
13
fc
0f
07
fc
15
13
ee
fb
0b
f8
fd
0c
0a
03
15
ee
ee
f8
0b
07
ff
fd
f3
f0
ff
fb
d8
fc
d5
d6
fc
15
0b
04
03
03
0a
0d
04
f1
fc
0f
fb
ee
ff
0e
df
e8
f2
07
02
10
0f
0e
11
f8
08
07
0a
f8
e6
12
03
ef
02
f9
f1
ea
fb
ff
02
fb
eb
f7
e7
22
05
f4
01
fd
ed
fc
01
e7
fe
fb
f5
ec
fb
fe
f7
05
f9
ee
0d
0d
fb
fe
0a
fe
06
19
f8
da
fa
f6
fa
fd
ff
01
fd
ff
08
03
f0
fe
08
fe
06
fa
04
08
03
fe
ff
ff
00
fc
ff
db
db
fc
fa
eb
16
ed
ee
f3
fd
fa
f6
f6
f2
e6
04
f4
04
f6
0e
fc
ff
08
08
02
04
05
02
e4
eb
f5
e9
01
fd
07
08
ed
ed
e5
ec
f8
fb
16
0d
e5
00
0e
00
ef
fc
0b
0e
ee
05
ea
ed
fd
ec
f4
fc
ed
02
0b
19
f4
f9
fc
f4
f6
f2
09
0a
07
0b
03
05
09
1c
07
07
00
06
fd
0e
03
00
00
05
f9
08
15
0b
f2
15
00
1e
0e
0c
1b
02
fe
0d
f8
fe
04
f3
07
09
0c
02
16
09
0a
fe
ee
0b
06
12
fa
f6
05
0f
11
fa
01
03
01
f6
0c
10
0f
10
04
0e
01
0a
04
10
fa
06
01
ed
e0
fd
eb
e6
e5
f8
00
e0
f1
00
f1
09
08
21
1a
04
0b
12
f5
18
ed
f2
f4
f3
f9
f4
fa
ff
ff
16
14
ff
f9
fd
0d
18
1b
16
05
06
01
fd
03
f8
f5
ea
e1
ee
f4
05
02
f8
f5
ea
04
ed
03
f7
05
fe
e5
f2
08
00
fb
fe
e4
10
ee
e0
12
fd
ff
0f
f4
0e
02
f3
fe
fc
01
ff
02
0e
03
f0
09
fe
fc
04
ff
fd
f3
f4
d4
03
0f
03
03
07
d8
fb
05
01
fd
06
00
f8
08
f8
ec
08
11
f8
01
fe
05
0b
04
f7
00
09
16
12
ff
01
f8
01
07
03
0e
0a
09
04
04
07
fc
fb
fb
1a
f7
f5
f0
fe
fc
ee
fb
05
ff
e8
e7
e2
e6
e6
e9
e9
02
17
f2
04
01
11
fe
ef
ed
0b
01
f2
0a
ec
0c
fe
e5
f2
04
0c
01
f9
2a
04
fa
22
12
fd
04
e1
e1
1f
e3
05
2e
f6
fd
0a
0f
fe
f0
08
fe
e6
16
04
f9
0b
f6
11
f6
07
30
17
17
0d
f4
e4
e4
ef
e9
e0
f4
e3
fc
fa
02
04
f7
fa
0f
08
f0
f8
fa
fb
ff
01
ed
f4
0b
f3
03
03
06
13
0b
06
04
fc
f7
f4
e0
eb
ef
fd
01
0e
f1
0b
fa
03
14
ff
f9
0d
00
0a
fc
f8
0d
fb
0e
ee
f9
00
fb
f7
f1
0f
09
1d
08
fb
0d
fc
ea
fc
fd
f2
f8
f4
e7
f4
fb
0d
00
12
11
14
07
0c
02
ec
f5
14
02
0b
19
03
fd
0c
0b
08
fd
09
09
03
f6
fd
0a
0b
0a
21
f7
05
1e
fb
fb
05
ca
d2
de
fc
fe
f5
05
0c
f1
fa
04
f8
fd
07
ff
fb
f2
fd
e7
f6
f0
09
0f
0b
2a
1c
fc
f6
c0
06
e1
f6
13
fb
f3
07
05
1e
fd
03
f8
0e
06
ff
fe
ec
0c
02
e1
ed
f3
f2
14
12
d3
f7
f1
d2
e9
f7
c8
db
03
e8
e3
ed
de
f5
f8
d8
e8
e5
0d
c7
f6
12
c6
d7
f9
d0
fc
fb
f9
f1
fd
14
e6
dc
02
f1
cb
e8
f5
c0
05
ff
de
de
e3
ea
03
04
f2
0a
08
d9
da
19
0f
13
ed
ef
09
fb
da
0c
ff
e4
0a
13
fd
18
ed
fc
0f
fe
f7
f6
fb
18
fa
fd
06
17
09
e3
0f
0c
11
11
0a
12
ff
0e
f9
0e
18
06
0b
02
f5
07
eb
eb
ed
0a
d0
ff
0f
11
20
1e
fc
17
f8
da
0a
f1
1f
f7
f0
ef
f3
f2
f8
11
0f
eb
ee
f2
fe
f3
15
11
01
07
0f
0a
f8
fe
f2
ff
e9
ca
df
fa
ff
f6
fd
01
06
fd
05
e4
03
1f
e6
fb
f3
00
f1
fe
02
f5
f4
ec
f6
16
1b
04
0d
02
f7
0b
07
0c
f3
07
ea
04
26
f2
1b
0c
f2
f5
ff
f2
01
ef
f4
0a
08
f7
01
04
09
02
0f
fa
f8
ff
f6
f2
00
07
0e
08
e9
f6
f9
05
0b
0c
f7
04
0e
f4
09
02
00
fc
13
1d
06
0f
fd
fa
00
f1
f6
f3
e6
13
01
02
f6
05
15
1b
f2
08
1b
27
fa
0d
09
f0
01
f9
12
0d
fd
ee
e9
f5
03
f6
07
04
f9
f8
10
fd
01
fa
f5
04
05
01
00
f7
0b
08
07
e6
0a
fc
e8
f0
09
e9
f6
f8
f7
fa
f0
fb
f4
f6
1c
00
09
0e
0c
fe
ff
f1
08
fd
f6
f9
06
00
0a
10
08
fd
08
19
ec
2b
fd
f0
e5
ff
0c
01
08
09
03
02
ee
f7
14
14
0e
f3
11
f6
09
10
13
07
0f
14
10
08
fb
05
ed
e5
0f
09
ff
05
fa
02
0b
09
e5
ef
07
04
ee
28
03
f6
09
08
0d
15
ef
03
f7
02
0d
09
ee
f9
12
01
11
06
1b
fb
05
df
cc
1a
00
e3
1f
00
e7
ee
fb
f4
18
fe
e2
f4
00
fc
f4
f3
f0
e4
ea
09
f8
ef
fd
fb
eb
fe
fb
fc
ee
f8
ef
fb
fc
ff
10
27
19
13
fb
ff
e7
f9
fa
0b
e2
e7
02
02
22
08
04
10
09
fe
0d
07
fa
fd
f2
e9
fb
fb
00
08
16
eb
f1
f0
06
1d
0e
e1
e5
f8
fd
f6
e6
00
e9
fa
f1
e8
d9
e2
04
fd
fd
02
f1
f1
ee
e6
e9
06
05
e7
ef
f8
f2
f3
ea
fa
09
10
0a
04
00
ec
fd
f1
fe
0e
e9
fe
09
fd
f3
06
00
ea
0d
0c
f7
f4
f0
04
16
f2
eb
0d
fc
07
f7
06
fe
09
00
09
f2
15
0f
fb
0b
18
03
17
fa
20
2e
e3
f8
d6
00
ef
04
0e
ea
03
04
07
1a
17
02
fc
f9
07
e3
25
07
ee
02
0e
e8
f9
0e
0c
ed
18
fd
06
16
f3
00
07
13
f6
02
01
08
fa
12
fc
f3
f4
07
05
02
ed
fd
e7
01
0f
14
fe
fa
15
fc
f2
06
0b
ff
f4
f0
02
fa
12
ff
02
07
10
f4
fd
f0
0e
01
f8
10
09
0a
12
0b
18
11
07
0a
11
f3
13
ff
05
08
fe
00
f8
f6
05
f6
ef
fc
f4
ea
df
dc
df
08
fd
ed
0c
fd
00
fb
0b
08
06
00
f5
fb
fc
ed
ff
01
e7
f5
f9
fc
f9
f8
ec
0b
0b
f4
0c
03
e1
0a
04
dd
f8
e2
e0
e5
c9
e7
e9
ca
06
e7
fc
30
fb
f4
f1
0a
01
f9
ff
09
fe
f6
20
17
f0
0c
0e
ee
03
0e
e1
f0
0d
10
16
fd
09
0a
05
15
f0
f2
e6
e2
fb
eb
f7
10
f1
ec
f2
ef
d5
f9
e8
d1
e1
04
f4
f3
0c
08
11
0c
14
05
f1
f4
f9
f7
fe
dc
ea
fb
de
14
09
fe
2b
13
1b
0e
f6
06
09
0e
10
f7
0a
18
e4
fe
1c
04
02
07
fa
f8
ff
eb
fb
14
fa
02
fb
fa
fe
fe
ea
f3
00
00
fd
ec
05
f8
fe
00
14
15
f4
07
d3
f6
0b
f3
09
fd
ef
fa
e4
f3
f7
ef
ee
00
08
0a
f4
01
f6
04
07
04
ff
11
fa
12
f8
cd
07
09
00
e3
ef
0e
f3
01
eb
0b
0f
06
fe
0d
fc
e4
f2
f0
e2
e4
f3
dc
ef
fd
eb
0a
fb
0d
05
17
f7
f6
02
e7
00
fb
f7
da
ea
18
f2
f7
f0
ef
08
f6
e2
04
11
08
15
f8
07
11
00
fd
f9
f1
06
01
00
07
fb
f7
f5
e7
e7
df
eb
05
fe
00
10
e1
06
02
13
ea
f1
e0
e5
fc
0c
f0
ea
e5
e0
e5
05
03
ed
0c
f9
ec
dd
ca
03
0e
0c
f4
04
fa
ce
04
ff
08
de
e0
05
f5
00
fb
e8
f9
0f
0f
d4
fe
ea
ce
04
fd
e3
f7
fa
ec
06
fa
08
09
06
12
22
1e
d3
06
14
e0
f8
fd
de
16
01
df
07
f9
0b
f7
e2
d2
06
1c
11
08
14
1b
05
fb
fb
fd
09
0b
ed
e2
0a
f2
f8
1a
ee
02
ea
fd
07
15
0e
18
17
00
fd
f6
02
fb
f9
07
00
06
f9
f5
0a
f4
f4
f8
fc
fe
01
f1
f9
ee
f9
ee
f2
f3
fc
10
f1
f5
f9
ec
f2
ee
eb
02
f3
fa
fc
f8
07
f6
f5
05
eb
e4
e5
f2
fb
00
05
fa
f4
fa
04
08
ec
f3
e2
e2
e8
d7
df
ed
01
f8
0c
ef
0e
14
fa
fe
ff
07
ec
f9
ff
e7
fd
03
ef
f1
ee
f0
fd
ff
f2
ee
0c
00
de
f8
fe
09
15
f3
fa
1c
04
f2
07
f4
07
2c
f6
fa
09
19
0c
f8
07
f1
05
08
05
ea
ee
ed
ff
ee
0f
f7
03
16
ff
07
05
12
1c
26
e8
17
14
f2
08
2f
ff
0f
ef
f2
ee
e7
f7
06
fe
0a
1a
15
02
04
0a
0e
0c
0d
f8
f9
fd
03
06
0c
fa
0a
ff
02
11
16
01
ff
0e
02
02
13
ff
f6
11
02
01
02
01
f0
0b
04
f1
03
fe
fa
f6
f1
f9
03
f3
f0
00
0b
07
fc
14
01
fd
07
f4
f2
0c
0a
00
0a
10
0a
f1
f2
ef
ff
fd
f7
fd
05
f5
fa
ef
fb
e8
e9
15
0a
03
f5
ee
fd
15
f4
f3
20
0f
12
1a
17
1b
10
f8
fd
fd
f4
fa
fd
f2
0e
10
f8
f0
14
0a
fd
1e
f7
e1
14
fa
ec
12
03
38
1e
02
04
ef
ef
f5
e1
fe
08
f2
f5
f5
f4
21
22
19
07
1b
0c
f0
f9
fa
ff
03
0a
0b
0c
fe
fa
08
f8
f5
f4
f5
04
f9
06
19
11
05
10
ff
00
0b
f6
0c
1a
04
fe
1a
09
09
02
03
01
06
03
04
fc
00
fa
f7
06
f9
f6
10
e6
fd
0c
e7
06
ff
08
ee
e4
0e
f6
ff
04
1a
06
fe
06
0c
01
10
f6
09
07
f8
04
03
fd
ff
05
13
f8
f1
f5
f7
fc
fa
fc
02
15
f9
fa
19
0d
0f
0b
1e
11
07
0a
ef
00
12
00
ed
00
03
ff
fe
05
01
01
1a
fe
e5
10
13
f0
05
10
e5
e9
ff
12
0c
ef
f5
fa
fc
11
f5
e6
f7
f6
00
03
fa
f6
f2
f8
ef
04
f0
fb
09
11
07
10
f2
f7
01
fa
20
12
07
10
f9
ff
fa
f5
0c
08
06
12
07
03
0d
e2
db
07
fa
e1
0d
04
02
06
0c
fc
ec
0e
ea
0d
0b
04
ff
e8
ef
0d
0a
0b
0d
ff
00
f8
fb
12
08
1e
02
f2
17
02
17
0c
08
ff
0b
08
01
0e
1a
ef
f3
ff
e8
dc
e5
fa
f6
0d
0f
19
14
16
0e
26
05
11
17
08
f1
f3
ef
02
fb
01
eb
f7
0e
0c
03
16
0a
f7
e2
0d
fd
f6
05
07
fe
f2
f3
f7
f0
ec
08
1e
f1
02
07
e7
f7
08
f2
2d
36
20
18
2e
36
f0
0b
12
00
f5
f8
fe
05
fe
f9
f3
f5
e9
ec
ef
fd
02
d8
ea
d8
df
d4
f6
ec
ec
f4
f2
f6
02
ef
ed
f4
fc
dc
f3
e9
1b
02
1a
d2
e9
d9
07
ed
03
11
19
13
f3
13
02
f6
06
04
ef
14
0c
dc
d4
d5
cb
cc
c0
ea
db
e2
14
dc
2b
15
00
fb
0f
ec
fe
eb
f7
e0
df
fb
02
d6
e2
e1
0b
00
eb
f3
ef
d3
e7
f5
dc
f5
f2
f0
eb
fa
ea
e2
de
da
df
de
ef
ee
db
e9
e9
e0
f2
f8
05
ed
f2
ee
e4
e3
fb
df
e8
00
fd
02
e8
f7
12
08
f5
de
f7
f7
fe
ff
f2
00
f9
ef
ef
ed
d7
d0
d4
eb
d3
ea
fd
e8
fc
03
fe
fb
f7
0b
08
ef
f0
1e
1f
fd
d8
e6
07
ff
18
f8
fe
f8
fb
f0
f5
f8
02
02
07
f7
0a
ff
f3
13
fb
ec
e9
ea
ef
02
03
09
18
06
fc
fe
f9
09
fb
fc
05
ef
0d
fc
0b
fa
05
00
07
08
11
0d
06
f1
02
ec
f3
01
ef
f0
14
22
dd
1b
10
08
10
0d
00
01
00
0c
f8
ff
00
ee
e7
f1
03
fc
08
f6
fd
fc
0f
18
00
f3
fe
02
05
f3
fe
f9
00
06
09
f8
fe
00
06
f7
fc
02
f5
fe
10
ee
f4
02
0e
f7
02
05
08
f6
fc
fe
0c
fc
0b
07
d8
02
18
f9
fb
10
03
fd
01
f8
e4
10
f8
e6
f1
e7
e6
f8
02
f2
f6
fb
00
19
27
fa
fb
08
f8
f2
0a
f9
05
fd
0b
00
0d
02
f5
f7
0f
0f
04
04
07
02
00
02
07
fc
fd
08
f0
0c
0e
0d
0e
09
ff
10
f9
09
ff
f5
0e
fa
fb
ef
02
09
e1
04
f1
ee
f0
f2
22
11
17
04
e0
fc
fd
ed
ea
04
06
ee
ff
01
ee
e7
fb
fc
e2
fe
e2
ec
ff
ed
f2
fd
08
ef
05
03
ef
02
f9
eb
ee
f8
11
03
02
07
f9
01
01
0a
08
f7
04
fa
0d
fc
f6
fb
f0
f8
ef
06
03
03
fa
07
f5
f0
fa
04
fd
de
09
13
de
ef
fb
f1
0b
fa
20
e4
e7
ea
cb
ff
f8
12
12
11
04
fa
14
fd
07
e4
04
fb
f0
f5
00
f9
db
df
e6
f9
02
f3
01
ff
07
15
11
f0
ff
05
f9
e9
0c
03
fe
0a
0c
f5
01
fb
f4
f5
f5
07
f6
ee
0e
f8
ed
fc
0d
ff
02
12
03
e7
f3
12
e3
ef
fe
ee
fc
06
fb
0f
f2
f7
00
e6
ec
fc
0a
e5
db
f1
d9
de
e4
d9
0e
f4
fa
f5
02
fd
f5
f3
fd
09
f8
fe
ed
db
02
06
d8
00
f6
dc
fc
f1
f0
f4
02
15
e8
f2
18
20
f7
f1
0d
f9
e6
f9
e3
fb
02
18
15
de
0e
19
e9
ff
13
12
fe
00
29
07
d8
15
fd
c9
14
07
13
18
d8
e2
f9
03
0b
e4
00
f2
fb
0c
e7
0e
f7
cc
0f
0b
e8
0d
11
0e
07
ff
ed
09
08
03
03
04
fd
e8
e0
f1
11
00
12
00
16
1d
0a
0c
f2
01
ef
0b
f3
f0
11
10
0c
04
fe
1d
06
11
03
06
08
0f
1a
fc
00
05
e3
f0
f6
f8
f5
ef
fd
f3
fc
0c
d4
0b
06
08
ff
01
ea
f2
fc
00
e3
fb
e0
e8
dc
01
ed
0f
29
19
04
0f
15
f8
11
f5
f9
fb
ec
f4
01
0f
03
f8
f1
fe
02
02
05
03
10
fc
fd
03
ef
de
00
f7
f5
fb
f9
0a
03
ef
fa
f1
ed
04
ec
06
ff
ff
f4
0d
f4
00
e8
0b
db
ee
00
fc
e1
07
fc
1b
0e
19
1b
04
18
00
f9
f0
fd
f7
fd
f9
f9
22
01
ff
e7
02
12
eb
f8
e4
ff
0a
08
0e
0e
f2
fb
07
fa
e9
db
f0
e8
00
15
f5
e6
0d
ee
de
e8
f8
01
f7
eb
0e
dc
ed
16
ef
f7
1e
01
f1
fe
09
e2
e3
ef
f2
fd
de
ec
e0
2a
03
e2
28
0b
fd
11
12
e7
ee
04
e3
f4
f0
02
fb
f9
f3
fd
07
0d
ef
ed
e6
f3
06
f7
0a
02
eb
f9
07
e6
fb
ed
d3
eb
e1
f3
f3
0c
fd
e3
ff
ed
26
01
dd
ff
f9
df
e1
e2
f6
ec
f2
f6
f3
f4
08
ef
07
f0
23
1a
e2
17
0b
ee
2a
0d
f8
08
08
e9
32
08
08
09
f8
08
ee
f4
06
fb
f2
0b
f0
fb
15
fc
ec
f5
cf
dc
05
11
eb
f2
e4
06
11
0b
ef
03
10
07
fd
f8
05
11
1d
fe
06
00
05
f4
02
11
fb
09
04
09
fc
1e
0b
00
01
09
1c
03
08
09
fe
09
f3
df
e8
f3
e7
f6
f7
1a
e9
28
0c
eb
1b
06
0b
09
02
06
08
1c
10
06
0a
0b
04
f1
f6
fc
fa
13
13
f5
f1
f4
02
02
0e
fc
07
f9
08
f7
fc
e5
09
02
ee
06
fa
07
f4
00
ec
f6
0c
f4
12
01
f5
0e
f4
f7
07
08
fa
06
04
13
fd
f1
09
f9
03
fd
05
e9
fb
07
f3
f6
f0
fe
f6
06
04
fc
04
f1
e7
ff
02
01
05
02
ee
04
ff
d9
df
f2
08
fc
fc
0a
00
0e
e7
ff
f2
ff
01
f0
fd
fe
fc
05
11
17
f5
f5
0d
20
0a
ff
15
fd
06
fe
e9
e6
1b
10
0e
05
fb
01
f0
f9
f0
fc
00
ed
ee
f3
fe
01
07
16
fb
f5
02
0c
f4
03
fe
f1
d5
fc
ea
14
0d
16
00
f8
0d
0e
02
09
f8
f4
f2
fc
16
08
02
ff
fb
f3
f0
00
f5
ed
03
f4
0b
f4
00
11
fc
06
0d
00
00
09
08
03
fa
10
0b
09
0f
f3
01
08
f7
0b
0d
17
fe
04
02
f7
fe
ef
f2
0a
01
08
14
e4
03
00
e0
fc
02
08
fa
f9
07
04
00
08
f0
fd
ef
f1
08
f0
e8
07
fc
06
0c
09
13
06
0a
f5
f0
f0
e9
0e
05
ef
0f
11
ed
06
fb
3a
06
e9
fc
d7
de
e8
04
00
0c
09
f1
f5
ed
f7
fa
fd
fa
e9
fe
f6
f3
f1
0a
fc
01
fa
ed
02
06
ec
ed
00
fb
0f
f4
fa
e7
f3
0d
f8
0a
0d
0e
08
40
14
f2
11
e5
ec
e1
ed
ff
0a
07
11
f0
ff
05
07
f7
07
00
10
f7
07
0d
fd
f9
01
f4
10
e8
df
11
e6
12
fb
f5
17
00
1f
f2
0f
1e
f6
1e
06
eb
08
e9
ee
f6
08
09
12
f7
05
fe
1a
ec
28
1d
ea
16
12
ee
e7
f4
da
f2
fb
dc
ec
01
f8
eb
01
0c
0d
1c
00
f2
05
04
ef
13
20
ef
e3
f8
08
06
f8
e5
fb
e3
ef
0b
0e
f9
06
06
f8
f7
12
fb
fc
f3
21
13
0b
ff
02
0a
ec
e8
f5
01
03
08
0a
f7
f8
02
fd
07
f9
11
fd
f9
0e
00
f3
fa
d8
ef
ec
e5
fc
0c
0f
f6
0a
f2
13
ff
fa
06
f4
ff
0d
06
0c
00
f2
00
fe
0e
f2
fc
ec
e6
eb
ff
e5
f1
fe
fa
fc
fb
f8
f0
f4
fa
0e
f4
f4
18
ff
fb
01
fd
f3
ff
01
0f
09
f3
0a
0c
04
f2
04
fd
f6
04
ee
f2
0e
02
01
08
f9
f4
0e
07
e7
16
f0
fc
0b
0f
12
ef
dc
f0
fc
f4
f8
ec
f8
f1
fe
07
f5
fd
f4
f4
01
0c
0e
e2
d2
ff
fd
0a
09
00
01
f2
f0
08
fa
02
0f
09
19
21
1c
1c
ff
f5
03
f0
f1
ee
fb
07
ea
d3
08
f6
11
f9
fa
04
fb
0f
fb
ed
e4
19
12
da
eb
00
d4
f0
f5
c3
ca
d8
07
f5
f9
2b
dc
20
09
df
fe
13
1b
1a
13
1b
fa
ea
fd
d7
d4
ce
d9
e6
f4
da
ee
ee
e7
e1
01
06
f1
02
db
c0
ec
f0
f2
d9
da
f0
c0
ce
f0
f4
df
0a
17
0f
f4
d5
03
fd
fa
c0
07
df
ff
08
c0
eb
06
dd
eb
fa
f0
f5
14
0c
d4
0d
f7
d0
0c
08
0f
10
10
2a
0a
e0
eb
d4
d6
f0
c0
db
e1
df
ec
e6
ec
e8
07
f5
d6
ca
e1
f7
0b
db
f0
f1
f6
0c
0a
fe
0c
f0
05
e9
ed
e4
e2
fe
ff
06
fa
05
fc
04
f1
06
fb
09
0f
12
00
f4
14
f8
03
0b
fc
f3
09
f0
03
0b
f9
fe
11
ec
f7
fa
f9
fc
08
f4
fa
00
f4
e6
04
15
e6
df
0b
f6
f1
f3
0b
17
e8
ff
08
f7
fe
03
03
f4
fb
13
fe
fe
1a
13
f6
13
0f
fa
15
e3
00
14
e3
fa
08
f8
ff
0c
f8
f2
13
04
e4
0b
ea
d6
ec
f7
1b
01
f1
f8
1d
fb
e5
08
ff
df
17
fc
ed
0c
f6
eb
fa
e9
e5
f1
f6
fd
f0
fc
20
f8
f9
f4
00
03
f4
13
0c
e1
fe
0b
fa
f7
fb
00
fa
f7
fa
f4
eb
ef
fd
04
0a
fd
02
0e
17
26
13
10
15
0d
17
01
06
14
15
09
07
f4
01
0a
0d
13
f7
02
06
ef
10
14
ed
04
24
ed
fa
04
f2
f5
f7
f7
f0
ed
f9
02
03
fb
02
07
f9
f8
fb
01
2a
1d
08
1a
07
10
11
08
09
02
0b
ff
e9
e7
ea
06
01
09
0b
f5
f5
03
fe
f1
06
f6
fd
fb
0e
01
06
fe
04
07
e8
f4
fb
09
ec
0e
11
06
0d
07
15
0a
17
fc
e5
07
ff
f8
ff
e2
05
02
f3
09
f0
fc
0c
02
fd
fb
e2
db
f0
ee
e9
db
e9
f9
f5
00
fc
fe
f8
e7
00
f9
04
1c
0c
f1
14
f1
f9
0e
f4
00
10
08
f3
ec
ec
eb
f3
e4
f5
fc
16
06
10
0b
05
10
11
ff
01
f7
03
fc
f7
0d
14
16
02
05
ee
f6
f2
f2
fd
00
ff
f8
07
01
f7
00
ec
09
02
08
11
02
0a
0b
ec
e7
ec
e8
f1
03
18
0b
fb
12
00
dc
eb
fb
e0
f2
f2
07
1d
14
e2
ed
f7
ee
fc
04
fc
ec
05
e6
ef
0e
0d
26
00
11
17
1f
f0
fe
0a
e4
0a
2d
e1
0e
04
f7
0a
00
0b
16
08
0b
1d
14
01
13
01
00
07
2f
fb
ea
0c
eb
fe
14
cd
00
0a
e8
f5
f3
fd
f9
fe
04
12
fc
06
09
0b
fd
f2
f7
01
04
ff
ff
11
eb
13
0d
01
07
f4
fb
ff
13
01
0e
16
01
fa
00
03
05
07
f0
0e
04
13
11
0f
02
00
f1
f2
f4
03
ff
fd
09
02
ec
f6
ff
f5
02
fe
fe
e8
04
f2
e7
e5
f5
f4
f7
ed
0d
20
fb
10
23
f7
1c
0d
16
0a
20
0b
04
0b
06
15
1a
09
0d
0f
dc
c8
d7
e0
d6
dd
f7
fc
19
f0
ff
08
0a
f4
13
fb
fe
f2
fc
09
04
f9
06
04
fc
06
05
07
fd
0b
f3
ff
f8
03
fb
f7
15
f5
04
0f
02
ff
0a
fb
03
27
e8
05
23
db
ef
ef
ee
0e
fa
06
17
06
fa
02
f9
ea
fd
01
f3
f8
f1
f0
0c
f9
fb
03
00
18
14
08
f7
08
dd
09
ff
05
1d
1a
15
15
26
0e
f0
f3
e5
02
ed
01
fb
d3
e4
dd
e3
c0
cf
d2
f2
0d
ff
f0
f5
f9
01
f8
f9
fc
f8
f7
f5
fd
ff
e7
eb
e3
ea
f2
ee
01
d8
f0
0c
d1
e6
08
de
f4
01
01
01
05
04
f6
ee
fe
f7
e3
ec
db
e9
dc
f5
e4
da
de
06
00
06
14
1b
1e
ed
00
14
09
f2
ee
ff
e4
e0
15
fa
06
23
13
d9
21
00
ed
16
10
f9
ed
ee
d3
04
ea
f8
1e
12
14
fa
16
d7
20
2e
e3
1c
0f
e2
21
09
f5
04
ec
e0
da
df
e9
d8
14
03
15
1a
1f
08
10
12
0d
01
2d
f5
00
fb
0f
03
13
09
eb
f1
f0
e1
e6
fc
e9
04
fd
0b
1e
0b
2f
1b
fe
0c
01
f6
04
f7
f8
05
0f
f6
cf
f7
e0
ed
02
03
e1
e6
01
eb
f4
f0
00
f1
12
1e
10
fc
f3
01
0a
0e
f9
13
27
0e
24
15
1a
ef
0a
1a
f7
11
19
10
1b
16
07
0e
0c
03
0f
0a
1d
0d
17
f7
02
01
05
f1
0d
fc
07
18
ea
09
12
03
05
02
05
ed
f6
e2
0b
28
f5
04
1c
01
fb
21
0b
09
00
fd
13
00
0b
fe
0b
d9
00
0d
ca
e4
f6
0c
0f
04
f3
04
23
12
f9
1c
fb
12
18
00
f3
fd
e3
db
f6
f6
ef
02
09
13
1b
00
19
ff
02
f7
f8
f8
f9
e7
ee
f9
ee
e2
f9
08
05
08
19
f7
ff
09
ef
08
f4
fa
06
11
0b
1b
0e
14
00
0b
fe
04
07
09
f7
04
fd
05
fb
fb
02
08
fe
04
06
03
08
09
0f
fb
02
fc
01
f0
fb
0f
f4
06
02
0c
f2
e4
ff
12
f0
f6
06
ff
07
fd
07
00
10
1a
07
ff
fd
f0
0f
02
00
01
04
02
00
0b
0b
08
0f
0b
08
fc
0b
f4
fc
1c
eb
f0
1a
09
f1
06
f4
0f
04
ff
11
11
fe
ff
13
ed
fd
02
f4
10
01
fb
1b
03
e5
fb
13
fe
12
05
20
04
f8
e7
0a
ed
f7
01
f8
e4
fe
ea
0e
f3
09
e0
eb
16
29
f5
fc
da
ec
f0
e8
06
10
0b
05
0a
f6
e9
f3
c0
e1
e8
ff
11
04
04
fc
05
f0
ea
e8
e6
fe
f7
f0
ff
13
f3
f5
1a
f1
eb
fa
f2
fd
e7
02
05
f3
0a
08
0e
ec
f0
e8
fd
06
f0
ec
e2
ff
04
01
fc
fc
f2
03
e9
02
ff
f0
04
e2
03
f6
ff
e6
ee
e4
0a
12
02
fe
0d
fe
f4
fc
03
04
ee
ed
12
fb
fa
ef
06
16
17
16
f8
1c
f6
e5
08
f0
dd
f6
f6
e8
0c
07
f6
10
14
15
11
21
04
1e
1a
fc
01
00
c9
06
ef
eb
06
fd
e3
f2
f8
fc
f2
fa
fd
04
06
16
0a
05
f3
0a
03
0d
02
f8
fb
1b
fd
f1
0c
16
07
00
0d
00
ff
05
e5
03
04
15
06
11
1d
06
00
11
1a
01
03
15
03
f8
fa
f3
f2
fc
f2
fd
01
fc
03
09
0f
dc
fe
f5
02
f3
06
f1
f8
fd
00
f4
06
03
d9
09
17
f0
12
10
08
11
10
ff
01
28
fa
fe
05
e6
f0
e3
fd
f7
e2
f6
0b
04
f4
0c
01
04
f7
ee
03
e5
dd
f7
06
10
0d
0f
0d
f8
fa
0d
02
fe
05
f4
e5
0f
e4
ff
1a
04
fc
07
01
2b
06
e9
f8
fe
17
13
e5
ee
03
05
f9
e8
f6
fc
f9
0e
11
03
23
fe
0c
27
f3
05
e5
fd
06
e4
e3
f2
dc
ea
de
e1
0c
05
ef
f4
01
08
f1
04
ec
df
f5
f0
0f
00
00
0e
0c
05
02
0c
0b
e1
eb
e5
fe
f3
f2
fd
00
e2
f6
fd
e5
f1
ef
e8
fe
e6
e5
fa
06
12
e3
e9
f7
f7
e7
fc
ed
e3
e2
f6
ce
f9
0e
da
14
00
fa
f6
ed
e7
db
0e
03
0a
07
07
fe
f0
eb
da
02
fe
e9
04
ec
e0
db
f7
18
05
11
05
fe
0d
1c
17
eb
e2
fe
ef
e3
ff
fd
07
f2
fc
05
0f
0f
fe
14
09
07
ee
ea
f7
e8
d7
ed
e8
ea
de
0d
05
07
11
0e
e2
15
1e
f5
f9
12
0b
1e
fd
c0
f7
f5
f5
fc
18
15
e8
10
10
0f
0e
07
05
17
e5
fb
15
0d
e9
fd
04
fd
0e
18
11
03
0a
0b
0e
03
f6
fb
f3
f3
f3
05
0b
05
fe
f6
fa
fc
ff
f7
06
f1
fd
f1
05
f9
e4
02
fc
f6
f3
f3
04
fa
ff
00
e8
f9
e7
e8
f7
e8
f6
f6
f3
e5
de
f0
ef
e1
e7
ec
fe
ef
fe
fc
fc
f6
fa
f6
e4
f7
f2
ee
fa
e7
df
d6
df
ed
09
0d
ee
ff
fb
f2
ef
fd
05
fd
06
0b
07
07
06
06
05
fd
02
f3
f8
02
fc
03
08
ee
0e
04
fe
13
fe
07
0f
16
0c
1f
ff
f0
10
0f
00
f4
03
f9
06
f0
07
d3
eb
e0
e0
f4
00
14
0d
12
09
0d
24
f8
11
f8
00
05
01
ea
fc
fa
07
1c
27
fb
01
fc
06
fc
0f
fa
fe
08
ed
eb
01
e9
dd
f7
08
02
f1
fd
f6
03
12
df
d5
02
de
db
f8
f9
f9
03
00
10
01
ee
22
ea
f1
04
04
f1
fe
f3
e5
ea
e9
e5
03
0a
f0
0a
18
00
ff
0b
fc
f7
fb
16
fe
01
03
f5
18
0c
1a
05
ff
04
04
09
fc
07
f2
e0
13
18
ec
0b
13
fb
f8
de
ea
07
f8
f6
06
14
02
f8
f6
f4
0f
f0
e8
fe
00
eb
fd
f8
0a
05
f5
fb
07
06
f6
09
f3
03
04
f8
f6
f4
0e
fb
0c
fd
eb
1d
f8
ee
25
14
02
eb
f1
cb
09
15
e8
f2
06
ed
fe
3a
09
c0
f8
24
0b
eb
02
05
fb
f4
13
1a
0f
0a
01
f8
f1
08
0b
f4
f1
fb
0b
06
f5
02
f1
04
f2
e5
ff
0a
06
09
06
fc
ed
0f
0b
00
16
13
ea
ef
ea
f0
07
fb
09
f9
03
f4
f8
f6
fb
05
f5
09
ed
eb
05
08
0a
1f
06
0a
00
fb
fc
07
01
0f
06
fe
f2
f0
f4
05
fb
fd
06
fa
f4
ff
f2
ef
f5
f9
f0
01
04
f6
07
12
ed
f7
f9
ee
fa
0c
ea
f4
fe
f3
09
f9
f8
02
ff
f0
f1
fe
fe
00
fa
e7
e3
10
f3
e4
f5
e5
ea
e5
ec
f4
f8
f5
ed
ff
f1
fa
ef
e6
f6
f3
f2
ff
01
e7
fc
f8
0f
22
1a
0e
fc
0b
f9
f4
ff
fc
06
fe
11
ff
0b
0a
06
f4
0e
f1
f0
ed
07
ef
00
01
f5
08
0e
08
0a
06
f1
fd
fe
f1
f2
08
e9
f8
09
07
f7
fc
11
e3
f9
fa
fd
13
f4
05
0f
f5
04
ef
e5
f1
10
01
e6
16
08
f9
f7
fe
ed
f1
eb
f8
08
0f
f3
00
07
0c
0f
ed
04
f9
f4
f4
0e
fa
05
03
ec
f6
f8
f8
f3
f9
fc
02
fe
fa
ff
07
f5
07
ff
23
0e
fb
05
07
f1
e5
f2
04
f5
e3
f2
03
05
f5
ff
11
ff
13
0c
0c
f6
19
09
fa
05
11
f3
14
0a
fa
06
04
fd
ea
02
03
f3
0f
03
f3
00
f9
0b
1f
f3
f4
0e
01
ec
f3
f6
f9
ff
ff
11
12
fd
0f
15
04
fb
f7
03
ee
e6
e3
f6
eb
d8
02
f0
f7
09
fd
f9
08
14
f5
fe
16
de
07
01
f8
dc
00
f7
02
fd
f7
fd
f5
d8
f4
f4
dd
04
c4
16
01
ec
01
ec
dd
fe
e6
d2
d6
ff
e5
e1
db
db
cd
f7
f8
ca
fc
0e
d4
04
eb
e3
fd
f0
fc
0a
ff
fe
f1
fc
14
ff
e3
e3
eb
f6
f7
ff
ff
f8
ff
f2
0b
f7
ce
e5
fe
c9
0b
f2
e3
e9
f6
f2
e4
0d
02
04
0e
e4
01
11
04
dd
1d
f9
19
18
06
10
11
ea
20
11
0d
f1
06
f6
f1
0e
05
06
02
f8
04
f0
03
05
f9
e9
eb
ea
ff
f2
e0
fa
04
fe
0f
0d
07
ff
05
1f
07
fe
f6
eb
f2
03
fa
fd
0e
f6
15
ec
f0
f6
fd
fa
f7
16
1f
10
08
14
02
0b
18
ff
fb
02
02
f3
13
04
f9
f9
fc
09
e3
fd
fc
d4
ea
f8
0b
e8
04
e3
df
f8
e7
d9
ee
fc
f4
f0
f8
02
f1
09
0e
f4
08
19
04
fe
f0
0a
06
ff
e7
09
f0
07
fd
f4
01
f2
02
f1
e8
f5
24
03
ed
17
02
ec
04
0e
e8
10
0b
07
12
e9
04
02
0a
fa
21
22
ea
0a
18
ed
04
06
e5
0b
0d
e6
16
ff
02
ed
0e
fe
e2
0d
00
00
2b
0a
02
fc
f5
03
1c
07
fc
05
1c
12
17
29
ef
02
05
00
05
06
07
0a
0b
f0
e3
ef
f1
d1
df
15
05
06
fa
f5
f1
ea
f0
d8
06
11
04
02
01
01
f8
05
0f
e8
f1
e3
00
ee
f8
fa
ef
02
fd
f6
00
06
fb
03
f1
02
22
e0
f1
02
d9
f5
f7
f9
e7
fb
fc
f8
f5
02
04
ed
ff
fb
11
