03
06
06
04
05
02
07
05
ff
d7
ec
fe
e1
e6
ff
ed
ea
f7
ec
e5
06
e5
dd
05
ed
dd
05
1d
f1
03
17
f0
00
14
ec
02
01
02
02
00
04
02
00
03
05
01
06
02
ff
02
fe
fe
fe
ff
29
0d
fb
36
11
fd
2d
11
fe
ff
03
00
03
06
02
fc
02
ff
fc
ff
fe
f9
ff
00
00
02
fe
0d
e8
f5
0f
e3
de
08
ec
e6
08
f9
fd
0c
fa
fd
0a
fa
fc
08
06
02
02
ff
fd
03
02
00
05
01
02
05
03
02
09
ff
ff
04
01
fe
01
fc
fc
04
00
fa
fc
08
f4
eb
06
f6
e6
04
f6
04
fe
fd
03
fe
ff
04
01
00
07
0e
e5
00
07
e3
04
14
dc
06
fd
17
0c
00
0b
14
fd
10
fc
02
01
fc
01
00
00
03
02
0c
01
fc
08
04
f6
07
05
f8
03
03
04
04
01
00
00
fb
fa
06
05
05
00
ff
00
04
08
03
08
00
01
05
00
fe
05
00
ff
06
02
05
01
00
ff
f8
f7
f0
04
fc
03
02
fb
fe
07
01
fd
f1
f4
f6
fd
08
fc
f4
f4
fe
fb
ff
00
f9
fe
ff
fb
f7
ff
04
02
05
fa
fa
01
05
06
04
07
06
06
03
00
02
02
ff
ff
ff
fd
fb
fc
fd
02
03
05
08
fd
ff
fc
00
00
fe
ff
fe
f9
09
fc
e1
01
fa
dd
0e
f5
e0
03
07
09
05
0a
0b
08
06
08
05
0d
26
0d
0d
1d
f2
00
09
fe
ff
04
fb
fc
00
fc
fa
06
1a
fa
fd
1b
fd
03
14
f9
06
fe
f6
00
00
02
06
00
05
06
02
01
00
04
0f
05
03
fa
00
f5
fc
ff
f7
fb
05
f3
f9
ff
ff
f5
ff
04
04
05
02
03
03
f5
fb
00
f4
f9
fe
f3
fa
ff
12
03
04
11
fb
08
08
fe
1c
00
fe
0d
07
f9
07
04
f4
05
02
00
02
03
02
02
fe
04
fd
05
fc
f8
06
08
01
06
02
01
01
06
ff
03
fb
00
fb
f8
02
07
05
fa
00
0a
01
04
09
01
04
fd
fe
04
fd
00
02
00
02
07
01
ff
02
02
00
00
02
fc
12
03
08
1c
fc
0b
15
0d
0b
03
f5
fb
f8
df
fe
ff
f7
fa
2c
02
01
36
fb
fc
3b
03
03
ff
05
02
ff
02
ff
00
00
fe
05
08
00
02
01
fc
03
fe
fa
12
04
00
23
04
fa
13
01
00
04
05
02
02
04
02
fd
fc
fb
2c
ee
f6
40
eb
f2
34
f3
f8
eb
f7
f8
f7
07
f5
ea
f7
f1
d8
03
ff
cd
02
01
c6
03
ff
04
02
fc
f8
fe
ff
fb
02
02
01
07
04
03
08
03
fd
00
fe
02
ff
01
fd
01
00
03
05
01
f5
f8
f4
f4
f6
fb
f2
fa
f9
00
01
04
02
01
ff
04
02
03
fb
f6
fa
ff
fb
02
fc
fa
fe
15
0e
08
28
1e
02
3a
32
1a
ff
fd
fa
fc
fb
fd
fd
fa
fc
f9
f4
f3
fc
fd
ff
fc
f9
fe
ff
02
fd
04
0a
09
fe
01
01
f8
ff
00
f6
f4
fc
fd
fd
fe
02
05
01
0b
05
05
07
08
0b
01
03
fb
fb
ff
ff
00
02
ff
02
fd
f4
0a
07
01
0a
0d
0c
f5
fc
fa
00
03
fb
08
08
01
03
f7
f8
f3
ef
ee
f4
f6
f6
ff
ff
06
fe
fa
01
f8
f8
f9
fd
ff
fd
f7
ef
ee
fb
fd
02
fd
fb
fa
fa
f7
fa
01
fd
ff
f3
f6
f6
f2
eb
f8
f4
f6
f7
04
fa
fa
04
01
fd
03
05
02
07
02
fe
06
fc
f6
07
00
ff
01
fd
fd
0e
00
01
0b
0b
0d
ff
ff
02
fb
fa
02
05
02
0c
fa
ff
f8
06
06
03
0e
0c
0e
f0
f7
ef
ea
c0
e5
f1
f7
f2
01
02
fe
ff
fd
fd
02
02
04
fc
fe
06
06
02
06
00
f7
fa
ec
f0
ec
ed
dc
f0
f8
fc
fb
ff
00
05
01
01
07
f8
fa
fe
f0
ea
ee
fd
e8
f8
e3
e7
01
07
01
01
05
fd
ff
0d
07
05
f7
fc
fb
ff
01
fd
fb
fb
f5
03
06
00
02
00
fd
fb
fd
fe
fe
f7
fd
fe
0c
00
02
08
05
fe
03
fc
f5
06
fd
f7
fd
fd
fd
fd
02
00
00
09
04
fb
04
01
02
00
fd
ff
00
fb
fb
01
03
0a
fe
02
fe
f7
0e
ff
11
12
03
fb
12
02
fc
14
01
fc
02
f0
f5
fc
ed
f4
04
eb
f4
02
01
04
fd
fc
01
fc
fd
00
07
04
06
01
ff
00
03
02
04
e8
fb
01
ea
f8
fd
eb
fc
02
05
fe
01
03
fd
ff
ff
fb
00
f9
ff
ff
fb
04
f9
06
08
02
f4
f0
00
f7
ea
f9
07
e0
fc
ec
f7
13
ec
f5
11
eb
fa
13
05
ff
06
02
02
01
09
05
02
04
05
02
01
04
03
03
ff
02
04
ff
ff
01
ff
02
01
02
04
fc
eb
ea
fa
f2
ef
f3
ec
e5
00
03
02
ff
03
03
03
ff
01
00
01
00
02
01
01
fb
01
12
f5
0e
23
ff
e9
0d
fe
0d
fe
02
01
01
fc
fa
f0
ff
f8
ff
fe
fd
ff
09
fa
23
f8
f1
02
ff
02
fd
fe
f2
fe
f5
04
04
fd
f3
fd
00
f6
02
02
f6
05
fe
04
ff
05
e3
00
fe
ff
fe
fb
02
03
fd
fd
fd
f6
03
04
fa
04
fe
06
f9
0b
f9
fb
fd
0f
fa
f9
11
f7
2e
0c
13
0f
04
04
fe
01
f6
eb
03
f8
fe
fd
ff
f9
ef
fa
f6
f9
14
04
fc
00
fc
ef
f8
f9
f8
f6
fa
02
f8
fe
ff
fb
08
ff
fb
fb
03
ff
fa
fb
04
18
05
0a
03
f9
01
fa
02
f6
02
00
01
fc
f7
f9
fd
ff
f4
f5
fb
fc
00
dd
da
d3
e2
db
e1
ee
e5
d7
fe
01
02
fe
00
03
04
04
02
f6
fa
fd
f6
f0
03
fc
f8
05
f3
f6
f3
f2
eb
eb
17
14
1e
02
fe
04
02
fe
01
fc
02
01
02
02
01
05
ff
fa
02
ff
00
f5
f0
ec
09
07
08
f4
f9
f9
fb
fd
02
fb
fc
ff
f3
f7
fc
ec
da
e9
f1
ed
f7
e7
ed
f0
03
02
fc
07
04
ff
0c
01
fe
ff
01
00
04
01
02
f9
fe
fd
02
02
04
fe
ff
00
04
ff
fd
04
02
07
04
06
07
e4
e9
dd
f3
f7
fe
ee
fd
01
ed
fa
03
fe
00
05
fb
fe
06
01
fc
07
02
02
03
fd
fa
ff
ff
ff
05
f8
ff
f3
e8
e7
e8
f2
fa
f1
00
00
00
fd
fc
fe
ff
fe
ff
03
fe
fc
04
fe
ff
04
02
06
03
03
03
fe
ff
ff
ff
00
00
2a
2a
29
18
0e
10
f6
f9
f4
06
00
fe
06
01
fe
ff
fe
fe
03
03
01
ff
fe
fd
ff
02
ff
ff
02
02
00
01
02
fe
ff
ff
ea
ed
fb
ef
ea
ef
f4
f7
f7
01
fe
01
08
fd
fb
05
02
fa
40
38
36
ed
f0
ef
f5
f5
f7
eb
e5
ef
2b
24
23
0d
06
09
01
00
04
05
03
04
02
01
ff
fc
01
04
ef
fe
04
fc
01
06
01
fc
04
fe
ff
07
fe
ff
05
f4
ee
f3
f9
fc
03
06
f8
f7
0a
ff
f9
0b
36
1f
f3
04
f7
01
05
06
00
03
02
02
00
fc
f3
02
fa
0a
11
f2
ff
fe
0a
00
ff
04
08
06
01
05
ff
00
02
fe
fe
ff
fb
0a
fe
fc
04
00
05
06
ff
03
02
01
f5
fe
fb
f7
fb
02
01
03
07
0d
09
06
05
01
04
fe
f9
ff
f8
f4
17
fd
00
16
10
08
f7
fb
16
fe
fd
0c
fd
fb
f9
0a
01
01
fc
00
00
06
13
03
fd
fd
fb
07
fe
06
04
ff
05
fc
fb
fe
01
00
02
f2
f9
ff
f8
ef
fe
01
04
fc
05
fe
05
fe
fe
05
fa
fe
06
fe
01
01
fe
fd
02
02
00
da
fa
ff
d1
f8
fa
c0
fc
0f
f8
f8
07
ee
f6
fe
ed
ff
04
04
02
04
02
04
00
00
0b
03
09
09
03
03
09
04
06
03
08
05
fc
01
00
ff
fb
ff
04
03
08
00
01
06
02
03
00
06
00
ff
05
00
00
04
01
00
03
08
04
fe
01
ff
00
fe
fc
fd
fb
fd
00
ff
03
ff
fd
00
fb
f5
05
f4
f3
fe
f1
ef
f9
03
06
0b
04
04
05
05
05
07
fe
00
08
02
00
00
ff
00
02
02
00
00
04
fe
02
05
03
03
fe
fd
01
ff
fe
04
f9
fd
05
04
09
08
01
07
08
00
03
fa
fd
fb
15
fb
01
13
f8
fb
16
01
fb
04
02
fb
04
00
fe
03
02
e8
d2
ee
cb
c9
f6
d9
e3
07
f4
f8
07
f3
f5
09
f1
fb
ef
ec
ef
f1
e4
f9
fc
e0
f2
fc
ff
00
fa
fe
03
f8
f9
fd
04
04
06
05
fe
01
ff
fe
fb
d6
e6
ee
c0
e2
f3
cb
e1
f3
fd
02
03
fc
ff
03
f9
fd
fa
dd
e8
ee
de
e9
ec
e1
e7
f2
db
ea
eb
cc
e8
fd
d7
07
f8
fc
17
e4
f8
10
da
f7
18
e8
fd
ff
0a
fb
ff
ff
fe
05
05
02
03
04
02
ff
06
ff
02
fe
fd
00
00
01
fe
01
08
05
08
fb
e8
1b
fe
f3
1c
01
ed
18
00
00
07
00
00
08
01
02
03
f2
e8
23
f5
e6
1e
f3
e5
25
08
0b
14
ff
0a
0f
ea
f2
01
02
03
02
02
00
ff
00
fd
fd
03
f7
06
07
f7
01
10
fc
fb
f9
fc
f9
01
fd
fd
ff
fa
fb
fe
00
fe
fe
fb
fc
00
f8
fb
00
03
03
01
ff
00
02
ff
00
fc
fa
fe
01
ff
01
ff
fa
fa
04
04
04
ff
fd
01
02
00
01
fe
fe
0e
f6
f5
fa
fd
0b
fc
00
f5
fa
03
fc
f6
ff
ff
f6
0b
04
ff
02
ff
f8
fd
06
01
06
06
ff
fd
02
fa
05
03
fa
01
03
02
fc
fb
fa
04
00
fe
fc
04
fb
ff
fe
fc
06
01
f8
03
f6
f9
03
f1
f9
06
f7
f4
ff
fd
02
fc
fa
fb
fc
f5
fa
e7
1b
12
e7
00
f7
f1
f4
00
fe
05
01
f8
06
fd
fc
00
07
c9
fc
e8
c1
ed
ea
c0
fd
e3
fe
fd
fc
fc
fa
f6
06
fe
04
fc
fe
01
fd
f9
fb
03
06
06
13
fe
01
0e
f8
fa
0a
fb
fb
fe
fd
fd
fe
fc
05
04
fe
04
e6
04
0b
e2
00
06
da
03
09
1a
11
fb
10
17
ff
17
1c
f8
21
fe
fe
19
14
ef
27
00
f6
f9
fb
04
fe
fc
fe
01
06
08
07
ff
fe
fd
fb
fa
02
01
fc
01
03
03
03
00
fe
fe
01
ff
f7
e9
fe
04
c5
07
f7
f2
00
03
ff
fd
fd
fe
fc
00
ff
fb
03
f3
ff
07
f3
fa
08
ee
f4
15
f3
12
01
f9
0d
2d
0e
10
03
ff
ff
0d
fa
fd
fc
ed
02
0a
13
05
17
17
f8
05
11
f6
00
fd
00
f9
f9
fc
01
fd
f6
0f
0e
ee
ff
f9
fd
fb
01
03
fe
f9
fa
f7
fe
f8
f7
f8
fe
ff
00
01
f8
02
fc
fc
fe
fc
f8
fc
f8
01
fe
fe
fb
02
03
14
09
09
0f
22
09
1b
13
f9
f9
f5
fd
01
fc
fa
0a
e3
fc
fe
01
02
02
07
f8
05
ed
1d
fe
05
fe
f8
0e
e5
f8
04
f4
04
00
f6
02
05
f8
fa
01
01
00
09
09
01
09
08
f5
0f
02
fa
ff
fd
f9
f7
f3
fe
fa
fe
fc
04
ff
ff
06
07
03
10
04
02
f0
ef
ec
f4
ec
d8
ed
f1
02
04
00
ff
ff
ff
00
ff
ff
0b
02
f6
14
03
fa
17
07
04
06
04
05
00
fc
02
06
01
03
05
02
02
f6
f4
ed
06
02
02
07
02
08
06
fe
01
00
fe
00
03
00
05
02
fc
01
05
fe
ff
fe
ff
03
fb
fb
f9
f6
f7
fd
08
ef
f2
04
fc
1a
f8
ff
01
07
fc
05
06
ff
08
03
f8
fc
d9
d6
d6
32
27
31
f2
f2
ea
05
01
ff
05
fa
05
f6
eb
ed
02
fe
fe
02
01
02
ff
ff
ff
fe
00
ff
ff
00
fc
02
05
08
06
01
04
04
ff
fe
04
fb
01
03
03
00
fe
ff
fc
00
fe
fe
f7
e6
e9
fc
fd
ff
e6
e4
eb
01
03
06
ff
00
00
00
00
ff
05
02
fc
03
04
05
fe
ff
00
fe
fb
fa
02
03
02
fa
fe
ff
df
d9
d4
0a
0a
08
09
06
12
06
00
03
05
00
02
01
fd
01
fc
f9
f5
04
02
00
fe
fe
fe
f5
f6
fa
fb
fd
fe
fa
fb
fe
1c
19
0f
0e
09
fa
eb
f3
f7
0d
0b
0a
07
01
01
04
01
01
d9
e0
d6
ff
01
01
02
02
06
e5
dc
e0
de
e4
d3
03
04
02
00
ff
07
fc
fc
00
00
fd
01
00
f7
fb
01
ff
06
fc
fb
00
04
02
ff
00
fe
00
01
03
05
02
f5
e9
ff
ed
e4
fb
ef
f0
0b
02
12
12
10
12
0f
12
18
07
04
ff
fd
fd
f9
fc
fd
04
08
ff
00
fc
fb
fe
fc
fc
03
01
ff
fe
05
05
03
03
03
03
02
00
fc
00
03
01
01
03
ff
fc
fc
fb
03
04
05
00
01
05
00
00
01
ff
01
02
fa
fa
fe
01
00
02
03
ff
01
00
00
fe
0a
0d
02
06
06
0b
ff
06
09
02
04
fd
f9
fe
f1
f3
f6
ef
00
09
01
fc
00
f8
07
05
fe
02
fe
fb
01
ff
fa
fe
fa
f6
f9
fd
00
f9
fa
f9
02
03
00
fb
00
fe
ef
f5
f8
f5
f6
f6
fb
0a
06
fc
07
fc
fe
0b
fd
fa
f7
fc
02
fd
fb
fa
f8
fa
2c
2f
40
dd
e6
e8
fd
f8
f9
00
fc
06
00
ff
00
fe
fc
ff
04
f9
f0
f4
f4
01
f8
f8
01
06
08
0a
f9
f9
f7
10
16
0f
06
07
05
ff
00
01
00
fd
ff
ff
0f
03
08
fb
fc
05
ff
fd
03
07
0e
0f
1f
0c
13
11
13
12
0e
07
fc
f6
f6
fc
f9
fa
e5
d5
ed
f8
e4
f2
ef
ea
f4
01
0b
0f
05
02
05
00
04
04
06
0b
0b
00
00
02
01
ff
00
00
00
ff
03
03
01
ff
ff
ff
ff
f9
fa
e8
d6
f1
dd
c0
d6
00
f2
f8
f3
04
05
fa
ff
fc
0c
06
01
fd
fd
07
fd
01
02
fb
07
0c
06
fd
0f
01
fb
0b
01
1d
21
e9
f4
11
f3
0d
06
f9
02
03
f0
f1
fe
f2
ff
fb
19
0f
00
12
1f
02
16
1d
10
00
fb
fe
f9
f6
f5
05
02
f9
08
fe
ff
00
ed
fd
03
ff
02
f6
00
fb
e7
f3
fc
f6
00
00
01
f6
fe
fc
ff
fd
05
06
fc
0c
06
00
fa
fc
01
0a
07
06
10
17
1e
13
0d
18
15
26
29
f8
fe
f7
f5
da
fb
fa
f9
f2
04
01
fb
fb
f0
04
07
10
f8
f8
01
f2
f9
ed
f1
fe
f7
f8
fe
ff
00
f5
f8
03
fc
f6
04
0b
f9
0a
03
24
00
01
08
01
0d
fd
ff
00
f8
02
03
f7
03
05
08
0f
03
0b
12
03
0c
11
09
04
15
07
fe
10
04
06
06
09
01
06
09
01
05
08
02
05
07
ff
fe
0b
07
01
12
0d
04
f3
f4
fa
e6
ec
eb
f1
dd
f3
fa
f9
00
fa
f9
ff
fa
f8
00
f4
fa
fe
f5
f7
fd
f1
f4
fe
ef
f4
f6
ec
f3
f1
f5
f3
f9
01
06
07
03
05
03
03
04
04
e6
eb
ed
e6
eb
f9
e6
e3
10
05
0c
07
0f
15
0a
14
16
05
fd
01
02
fd
04
02
ef
f3
01
04
05
08
00
00
07
f8
f5
00
05
05
05
0c
fe
07
05
08
01
01
fe
f8
fc
fc
fb
f8
fa
fd
fd
fd
fa
fa
fb
f7
fc
fb
fa
03
fc
04
fc
ff
02
00
ff
09
f5
0b
fe
e7
df
e1
e3
d6
f5
32
02
f2
2d
01
ee
40
06
f5
02
1e
f6
f9
13
e3
fc
07
e3
02
03
ff
01
01
00
00
ff
fe
04
07
04
03
ff
fb
07
00
fb
e6
ff
05
d4
f6
06
e0
ff
09
03
02
fd
01
01
ff
f8
f9
01
fd
04
03
f7
fc
ff
00
03
f9
f5
10
03
e6
07
f8
fc
03
08
f2
08
fa
f9
0b
f8
ee
0e
fa
05
04
05
fc
00
fd
08
03
04
06
06
06
00
03
02
00
05
04
fa
f9
02
fd
ff
ff
06
09
03
fe
f8
04
f8
fa
04
ff
ec
05
01
01
06
ff
03
03
fe
04
03
00
01
f9
00
fe
f9
ff
fc
fb
f0
f8
f5
ee
fb
fc
e9
ed
f1
04
04
ff
fd
01
02
ff
02
04
fb
f7
05
f9
fa
05
fb
f7
f7
ff
01
02
fc
fe
00
00
01
03
24
23
40
00
ff
0b
fb
f5
f2
02
ff
01
fd
fc
fd
fc
fc
fb
fd
fe
fd
fb
fe
01
fe
ff
03
fe
04
05
ff
04
06
fe
fd
fc
e1
df
fb
ce
da
d8
e4
f1
d9
ff
fd
fe
fb
fa
fe
04
ff
ff
06
07
19
f7
f6
ec
f5
f4
fa
01
f8
f1
13
14
33
01
fe
01
ff
fd
03
02
fb
fe
02
fd
ff
e6
fc
01
f4
ff
07
fa
06
07
08
03
fc
03
fe
fb
01
00
fd
f5
f7
f9
fe
ff
02
fd
fb
fc
1d
15
0b
06
02
fb
e8
e4
e0
ff
00
03
02
01
00
00
00
fe
f9
f3
f4
06
00
fa
00
fd
fb
ff
ff
fc
03
05
03
ff
ff
fd
f4
f6
f6
15
04
08
03
fc
02
05
01
fe
05
01
00
fe
fe
fd
04
03
01
00
ff
ff
00
ff
fc
01
ff
03
00
01
04
fb
fd
fe
e7
e2
e2
dd
de
d9
d1
db
d7
f6
01
ff
f5
01
fd
fb
02
01
f4
f3
f6
f8
f6
f6
08
0c
0c
d5
e3
e0
ef
f6
f7
0a
06
04
fd
fc
00
ff
fd
01
03
fe
01
01
fb
fb
eb
f6
f8
f2
fc
fe
ff
fe
fc
fc
fe
00
fb
ff
01
05
01
ff
f9
fe
f4
06
08
f8
e9
e6
ef
0b
1a
1d
0c
03
12
00
04
07
00
03
04
ff
fb
fa
04
05
08
03
02
f7
f7
fc
02
ff
02
02
05
04
03
07
07
03
f8
f7
fe
fc
fd
fc
fb
fa
ff
fb
f5
fa
06
07
06
00
00
00
00
01
02
f9
fa
fc
01
04
03
fe
f8
fe
02
02
00
f7
f8
fa
f7
e7
15
06
23
1b
fa
1a
08
0a
01
fd
f3
00
f7
f2
05
fd
19
21
19
06
14
0a
f9
f0
fd
e8
e4
ea
f7
f8
fd
f5
f8
fa
fe
fc
fa
fe
fc
fe
fe
fb
fc
f9
07
07
02
fb
fd
08
03
06
01
ff
09
02
04
05
f6
fa
ff
fa
f9
12
fb
eb
11
f6
f1
17
07
f7
de
f4
f6
db
f3
f3
da
fe
01
ff
fe
00
01
fe
00
01
0b
03
02
ff
fc
01
03
f6
00
02
fc
00
01
f9
ff
06
fb
ff
01
05
03
fd
00
01
fd
ff
02
02
fe
fd
ff
00
fe
fe
ff
04
00
00
ff
01
fd
03
02
fe
fc
fd
fe
fe
f8
f9
01
f8
ff
04
ec
f5
f4
e9
f6
f1
ee
01
00
ff
f6
fe
03
fd
03
06
fd
fd
0b
06
06
fc
00
03
07
06
03
01
05
fc
fe
04
01
00
02
04
05
fd
01
fd
fd
fb
fd
02
02
fc
06
01
fb
00
00
02
00
fe
fb
14
dd
fa
13
dc
fd
14
d7
19
e6
fa
22
da
f4
18
e0
ff
ee
03
08
de
05
fa
e8
14
f5
fe
02
04
00
02
03
01
02
04
02
f7
fa
f5
f9
fd
01
f7
f7
03
04
06
03
02
00
05
fb
fc
fb
04
04
07
ff
02
05
00
ff
01
fa
fd
04
f9
fd
01
fc
fe
02
03
03
02
02
fe
02
fc
fb
f8
fa
f8
ff
f4
f3
03
f9
ef
24
f1
ee
40
ec
f2
3c
f1
f7
0f
fe
ff
12
02
00
0a
04
fe
0c
02
01
ff
01
01
f9
02
05
02
06
08
04
fb
fe
05
fc
fd
00
fd
fc
02
fd
ff
03
0b
09
fe
02
04
f4
01
03
f6
01
03
fb
eb
fd
f9
dc
ff
fb
f1
06
0a
00
03
06
fa
05
02
ff
07
0a
1a
2a
12
24
25
09
25
22
00
00
01
05
fb
ff
03
fe
01
0a
05
ff
05
07
02
0b
07
09
fb
f9
fc
f6
ed
f6
f5
f2
f6
ff
f7
ff
06
01
01
03
ff
04
fc
00
02
fd
00
01
fe
00
00
fd
f7
f6
f4
ee
f4
fa
f2
f4
02
02
04
03
0b
05
05
04
04
0f
0d
11
04
10
10
02
09
14
f5
05
08
f5
00
03
fa
01
01
04
ff
04
02
f8
ff
01
fc
fb
fa
f9
fa
fd
f9
fb
02
02
01
04
04
04
05
03
05
02
03
04
03
f9
f7
fe
f0
f9
fd
f8
fc
04
fe
ff
01
03
fe
02
00
02
01
fc
f8
fc
f8
00
02
fe
f9
2c
2a
2b
0b
01
05
2e
0f
13
01
f9
fb
fa
f4
f1
fd
fb
fc
f5
f4
fc
ed
fd
04
0c
0b
0e
f9
f6
f7
fe
03
05
00
00
fc
f9
f6
fb
fa
f7
fc
fa
ff
01
fc
03
0b
00
04
06
02
04
08
fc
03
fe
01
04
08
fd
00
fd
ff
03
04
fe
fe
02
01
01
04
18
10
11
19
0e
05
0a
11
14
fe
f6
ee
fe
f5
f1
f7
ed
f2
0d
fe
02
ed
f6
f7
fe
fb
f4
f0
ef
f1
f6
f2
f6
06
04
03
01
03
ff
00
fc
f8
fd
fa
fe
fd
02
fa
f5
fa
f9
f6
00
fc
02
ff
00
ff
ff
00
fd
fc
02
02
06
03
fc
fc
fc
04
01
fe
f0
ed
ec
ff
f1
f1
01
fb
fc
fd
ff
01
fc
fc
fe
fa
fd
01
0b
04
09
ff
02
07
04
04
00
05
03
01
0a
08
09
ee
ee
ec
06
06
07
fe
01
00
04
04
07
01
fb
fc
03
ff
03
07
02
00
03
03
06
f3
f5
f3
f7
f9
f9
f6
f8
fa
fb
fc
fe
01
ff
ff
fc
f1
fc
e5
d8
e4
f8
f4
f3
07
fd
03
04
00
07
09
01
08
03
04
08
02
03
ff
fb
fb
fe
01
02
01
ff
fe
00
fc
fd
fe
ee
e7
ed
ee
f2
f2
29
26
27
fe
09
0a
f6
07
fe
fd
0e
fa
fd
ff
fa
00
01
02
fe
03
08
f3
07
fc
e9
f6
fd
ec
00
fd
ec
f7
13
f1
f2
f5
f6
0a
fa
03
02
ff
06
02
02
06
fe
05
f0
f8
f4
eb
f6
f4
ef
f3
f3
00
fc
01
02
00
ff
fd
fe
fa
ff
06
04
fe
ff
01
09
01
02
00
00
fc
ff
ff
fc
fa
06
ff
01
fe
04
00
03
ff
ff
fc
f7
fa
f9
f0
ea
f0
f1
fe
06
f2
e3
f8
f1
da
01
0c
f9
04
07
00
08
02
0f
05
03
ff
fc
09
07
f7
02
f9
02
fe
00
0c
07
f7
02
ff
fa
04
03
02
00
fc
fe
04
fe
03
fc
01
ff
00
05
fd
f8
05
f9
f9
fc
04
03
fc
f6
ff
0a
f8
fe
0c
fe
00
11
00
fa
14
00
f9
19
05
fd
1d
fc
fd
0d
fd
00
ff
f0
02
07
07
03
02
0a
04
03
10
06
03
09
ee
f5
08
f1
f5
15
f1
f5
08
07
06
08
08
05
fd
fc
fd
10
0f
0e
ff
fe
fe
00
00
01
ff
fe
02
fc
fa
01
fa
fb
ff
04
01
fc
05
03
00
fd
fb
f9
fd
ff
01
f8
fa
fe
f7
f8
fc
03
ef
f2
fc
e8
f5
0e
e9
fa
12
06
fe
11
07
00
09
08
00
06
07
05
02
ff
06
f6
f9
f6
18
12
10
08
05
05
fe
fe
f9
ff
00
05
ff
00
04
09
0c
0e
f8
fd
05
f5
01
02
fa
fb
02
ff
04
f3
01
03
f1
06
05
f4
02
02
03
02
05
07
fc
ff
02
f9
eb
eb
fb
f2
eb
d2
d0
d5
00
00
02
04
00
fe
02
fe
00
0b
00
01
09
02
fd
08
00
ff
fd
01
05
fd
ff
ff
fd
fe
ff
2e
34
32
fc
f7
fb
fa
f3
f7
02
ff
fe
fe
fc
fe
fe
fb
fa
fb
fc
01
ff
fe
fe
fc
fc
fc
f0
f4
f7
f2
fa
fd
fb
fb
f6
f5
ef
fd
eb
e5
eb
ed
f8
f4
03
fe
02
01
00
00
fe
fe
fb
fe
f5
fb
fb
00
fb
ff
fc
fe
00
00
03
13
10
15
fb
fb
f9
05
fe
00
01
fc
fd
05
ff
fe
ff
02
f9
f8
fe
fc
fa
01
ff
03
fd
09
02
01
0a
01
ff
08
12
fc
f4
03
ff
03
07
fc
f4
d9
f2
e6
ec
0a
fa
21
f1
00
f9
fd
fb
f9
06
04
fd
fd
03
01
f2
09
03
f0
03
fd
f8
f7
00
f5
fa
05
fe
f8
04
0d
0a
09
02
fc
04
ef
05
05
0a
fb
00
ef
f6
05
f3
fa
04
04
02
fc
04
fd
00
0d
04
05
f9
f6
f7
f3
f7
04
fa
f6
03
05
ff
04
f5
20
14
ff
05
0d
fc
0b
09
fe
03
f1
03
02
03
fd
f4
11
06
ff
eb
08
0b
0c
f9
05
f7
00
fa
f6
f5
ff
f8
fa
fc
05
0b
08
05
fe
f8
fe
f5
f8
fd
04
01
0e
ff
fe
0c
01
09
f7
ef
fb
00
01
fc
06
f4
f9
07
fe
05
05
00
05
02
01
07
e0
dc
ee
f5
ee
ed
02
f7
f6
01
ff
ff
03
00
fd
02
01
03
01
f9
00
fa
f7
06
04
01
11
fd
fe
fd
dd
d3
ca
dc
cc
d8
00
fd
03
ff
fc
fe
05
06
07
00
fd
00
ff
fb
fe
04
02
02
e8
ea
e3
df
dc
dd
ef
e9
e6
fe
02
06
fa
00
05
f9
02
07
f6
e7
f3
f0
e5
f7
fe
05
10
01
fa
ff
08
fa
fc
12
03
02
01
03
05
ff
03
03
f8
fc
fc
ff
fe
02
05
01
03
03
02
04
fc
f8
fb
27
23
22
08
0f
08
ff
01
fb
f8
08
00
f0
ff
00
fd
fa
fd
fd
01
04
05
06
03
12
e5
e4
16
d8
e9
12
db
e3
18
e6
f7
12
e1
ed
0d
e9
e9
07
01
00
00
04
fe
0b
03
fc
0a
f6
01
03
fc
03
fe
fc
02
11
fd
ff
05
01
fc
04
fd
fc
04
0b
04
06
03
ff
05
fe
f8
02
ff
02
02
fe
01
fb
00
04
08
00
fe
04
ff
fb
02
fb
f8
00
fb
02
f6
fb
00
f8
fc
01
f9
e2
e4
01
e3
e5
00
e6
02
14
00
fd
0a
ff
fe
0c
fd
fc
07
fd
fa
f2
05
fd
f3
fe
ff
03
04
03
05
00
00
04
02
fd
ff
fd
04
03
fd
ff
ff
09
02
fc
01
fe
00
02
ff
f1
04
02
f5
e4
df
ef
d1
dc
fa
e2
e2
0f
0d
fc
11
13
f9
17
01
07
f3
ea
06
fe
ef
0b
06
0e
20
f8
f2
f7
fc
f9
f6
fd
fe
fe
10
08
01
04
0f
06
fd
10
fb
fb
00
f9
fc
fc
01
01
03
ff
fc
f4
ea
ff
fc
f0
ff
f8
fd
fe
f9
ee
fd
fb
fb
05
04
0f
ff
ff
03
00
00
07
05
06
03
fe
01
fa
0a
03
ff
01
07
0b
0b
2b
12
19
1b
fe
0d
11
ff
ff
06
fd
fa
04
fd
f9
f3
01
0f
f9
0d
14
38
08
04
f8
18
f4
ee
f4
fb
ee
ec
03
fd
f3
fd
f5
f6
02
f2
e9
f8
fb
06
05
03
0c
00
fc
0e
03
0c
06
f5
f2
f3
fc
f2
f1
fb
f8
fa
08
f8
f6
0f
fb
f7
02
fe
fb
00
f9
1c
06
01
02
11
0a
1d
00
ff
02
09
fa
04
fe
fe
0a
fd
fe
08
fe
06
39
09
fa
e3
04
0b
05
04
05
f8
0c
0c
fb
ff
eb
02
f3
e8
02
00
fe
01
f8
e6
fd
ea
e8
fe
0b
12
03
01
0c
fd
03
0b
fc
09
0c
ff
f7
f6
fb
eb
fb
f6
16
12
02
18
05
27
1d
e7
36
05
11
06
0f
00
fe
0b
f3
fe
00
04
03
00
ff
0d
09
0a
11
fc
02
f1
fa
06
0a
f2
f1
f9
fb
f9
f7
ff
f6
f9
00
f6
01
01
ff
0a
fa
08
04
f1
14
0b
03
05
fe
fe
01
05
ff
f7
04
fb
06
05
08
06
f5
02
fa
f9
00
fb
f9
10
07
08
2c
20
1d
1c
1b
0c
fd
ff
01
fe
04
00
fd
04
03
01
fd
0c
ff
fa
02
ff
f2
00
fd
fa
fc
fd
03
ff
f6
ee
f5
f5
fa
fb
ff
fd
fe
04
ff
fb
08
fb
01
04
ff
05
04
01
00
ff
03
fc
ff
03
fe
e5
c0
e9
00
fe
02
fe
fc
00
fe
f7
02
10
f6
03
01
f5
f7
05
fe
04
11
fe
fc
0d
01
03
09
04
08
05
05
0d
ff
fe
00
03
00
fe
fa
fd
fe
fd
fb
fa
ff
fc
fd
02
07
02
fb
f7
fb
03
05
02
f2
0c
00
ef
05
fe
ed
fd
fc
00
fa
05
02
fc
09
fb
01
0e
ed
e9
ee
ef
ea
ee
f5
ec
f0
27
19
1a
33
32
2d
25
2e
2e
fe
fa
fc
f6
f6
fa
fa
fa
01
05
04
08
ff
04
0f
00
03
09
fd
ff
fb
01
ff
fe
fe
ff
fe
fa
f7
fb
f6
fa
fd
fc
00
02
06
06
06
07
05
ff
06
04
04
fc
fd
fd
fa
f6
f9
01
00
00
0d
02
00
09
04
05
03
01
03
10
11
17
17
13
14
0b
06
05
e0
df
e0
e8
e1
de
f0
f0
f2
fe
fd
fe
f8
fc
01
04
fc
fa
f4
f4
f6
fa
fa
f6
03
fe
fe
05
ff
ff
00
02
ff
fc
fe
fe
f5
f9
fc
ee
f7
fb
f2
f8
f7
ff
01
ff
fc
fc
fc
01
fd
04
04
03
0b
03
06
0c
00
0c
09
1f
20
f7
00
1b
f6
0d
0e
fb
fd
fc
04
fb
f2
00
02
00
ff
03
0f
fa
09
0b
f4
0d
03
ed
ff
fd
ff
ff
fe
04
fd
fa
fc
01
03
ff
ff
05
f7
f9
08
fe
f7
0a
ff
fc
11
05
f9
01
06
ff
fe
01
01
fc
04
fe
ff
f7
fd
06
fd
01
0a
fe
fe
05
ff
0d
0b
ff
04
07
f4
19
09
06
01
08
fc
05
ee
f9
01
01
00
fc
00
f9
f3
f5
fc
02
fb
00
02
01
fb
f8
fb
f8
01
ff
fe
04
08
fe
00
0b
fa
04
09
05
f6
01
08
fa
11
08
fc
ff
01
05
fa
f4
fd
f1
ec
00
f5
f2
00
fd
f7
fe
f5
fb
fd
fc
fd
f1
e2
eb
1a
f8
fe
02
e4
df
04
04
01
06
02
02
03
ff
02
00
f2
03
00
f2
ff
04
f7
fe
fd
fe
fa
05
fe
02
00
fd
fe
03
03
ff
06
02
01
06
04
ff
04
fd
fe
ff
fd
fc
02
ff
00
01
ff
fc
04
00
02
ea
e3
e4
fd
f9
fc
f8
f9
03
fd
f6
fa
0a
f6
f1
03
e0
e4
f1
ef
00
09
02
fb
0d
0a
fc
0d
01
fd
02
ff
01
04
00
fe
00
00
ff
00
fe
fe
00
00
02
08
05
03
01
fe
ff
00
05
ff
f7
f4
f6
f7
02
03
f4
fd
fd
f4
fe
00
01
ff
01
fd
fe
01
ff
fd
05
fb
fc
fb
f6
f6
fc
f9
ff
03
03
f2
f1
3d
12
0a
3b
1f
10
fe
f9
fe
02
f5
ff
fb
f7
f9
01
f3
ff
f5
e6
f7
ff
f3
02
fd
03
03
00
02
05
fe
00
04
f2
f6
01
fc
fb
ff
f9
fd
fe
08
08
03
09
05
00
0b
09
08
00
02
00
ff
02
04
f2
f5
f9
0f
05
01
1c
07
fd
0e
0a
05
fe
02
01
06
fd
fc
fd
08
02
f4
fc
02
f9
fa
fd
fa
fa
f8
00
ff
04
fa
fa
fc
fa
ff
09
fa
fe
06
ff
02
03
fd
f8
fb
06
04
05
fd
fb
f6
01
fd
fe
ff
f8
f7
fc
f9
f4
fe
f9
f4
03
ff
f9
fd
00
f6
02
fd
ff
00
03
fb
f3
06
f5
07
01
fa
e7
f6
08
fc
ff
05
f6
ef
0a
f5
fe
f8
fa
fd
fb
f9
09
01
0b
fd
05
07
f7
0a
05
ea
04
fd
fd
f9
fb
04
0c
09
ee
f4
f7
f7
ff
00
ff
05
0e
00
ff
f2
f1
fc
f9
fe
fe
02
f9
f8
f9
01
01
0b
02
0d
06
02
04
f7
f6
fd
00
04
03
03
05
e9
0a
07
04
df
08
0a
16
f9
00
f7
fa
fc
04
00
fa
f8
f8
03
05
09
12
09
01
f1
ed
12
0b
fe
f9
02
fa
f5
02
06
fe
ff
fe
fd
ff
f6
f3
ee
0b
0a
00
09
02
03
06
f7
06
0c
fd
02
fe
fb
02
03
f9
01
fd
f4
05
fa
00
02
fe
f7
06
00
fc
f8
f9
e1
1d
e5
cf
0d
e5
f3
e9
e5
e7
02
df
dd
fb
e0
e6
fc
ff
01
01
f9
10
12
ff
03
08
01
00
05
ff
01
04
fb
f9
02
03
0b
f9
ff
04
fd
ff
00
fe
e2
e9
ee
dc
de
f6
d8
ed
f7
01
fe
06
fe
03
ff
fc
f9
01
ec
eb
f2
e6
e5
f4
ee
ed
f9
ff
f3
07
f6
f1
1d
0c
fe
0c
0b
e4
00
0f
c0
ff
09
ed
fb
ff
05
fd
f9
fb
02
00
06
ee
04
05
f4
ff
03
f9
ff
00
fd
fe
ff
02
fc
fe
00
06
0a
ff
fb
21
09
f4
40
07
fe
25
0b
01
04
03
ff
01
03
02
02
04
ff
f8
f8
02
fa
fc
ff
f4
f3
2c
12
26
fd
e5
fc
10
f5
fe
ee
e8
f3
f1
f3
fd
f3
f3
f8
17
da
fc
18
d1
fe
1d
da
fd
f7
f9
fd
f4
f7
fc
fc
fe
04
f6
03
01
fb
00
00
f9
ff
03
fc
02
09
fd
fc
fe
f9
f9
fb
fe
fe
01
fd
ff
04
ff
00
03
11
fd
02
0e
fb
fd
11
fe
fb
f1
e0
fa
ec
e7
eb
f2
ed
fb
ef
eb
fa
f4
ed
ff
eb
ec
f9
fe
01
06
f6
f7
00
f3
fa
ff
f9
03
04
f4
fc
fe
fd
03
00
ff
03
02
02
00
f5
fb
ff
f5
01
0c
f8
ee
13
f0
f4
09
f1
02
01
fe
fe
ff
ff
fb
fe
f9
02
04
00
06
fc
fa
02
fd
00
00
f9
01
ec
f1
fa
f8
f4
fb
05
01
ff
05
03
01
03
00
03
f9
fb
f6
00
fa
01
ff
fd
fd
02
01
03
05
09
03
14
14
19
01
06
04
02
00
00
00
01
01
06
0a
07
07
f9
fc
05
ff
00
0b
07
08
10
18
17
f4
f3
f8
ff
fe
f8
01
fa
f5
f8
f6
f6
fa
f2
f3
fa
f0
fb
f5
e8
e3
fe
04
08
fa
06
03
fa
fe
ff
04
01
06
00
ff
02
00
03
03
06
0e
06
01
03
01
02
ff
ff
ff
01
05
e4
ce
e3
e7
dc
d9
fe
fb
fc
fa
f9
02
f6
fb
00
02
00
05
ff
02
05
ff
02
04
f8
f7
00
f9
f6
05
fd
ff
0b
00
1d
1e
05
26
23
10
28
23
01
01
00
ff
ff
fb
01
fe
ff
f7
f9
00
f7
f5
02
f5
ef
00
02
fc
fd
00
ff
fa
02
06
02
f4
fa
fe
02
01
01
01
05
04
06
01
09
07
02
03
03
06
02
ff
fa
fb
01
fe
fa
01
01
03
f3
02
01
f7
fe
09
f6
07
0e
0a
02
0c
06
fc
06
02
ff
18
0b
fe
05
03
fa
fe
0a
fa
fc
0b
02
02
05
00
ff
f9
f3
f9
fe
fd
03
f9
f6
f9
01
04
01
fd
04
03
02
00
02
04
fe
fd
f5
00
fb
f4
fe
fb
f3
00
fa
fe
00
02
f9
ff
06
fc
01
02
fd
02
ec
fe
05
ec
00
07
f7
fd
0a
16
ed
f0
f9
fc
0c
1c
01
06
05
01
02
fe
ff
06
03
fc
fc
fb
00
00
fb
fe
ff
fd
03
04
02
03
04
03
03
08
0a
04
01
fb
fe
ff
00
01
01
02
01
fe
01
00
fd
05
00
ff
01
01
04
ff
02
0a
06
03
06
0b
fa
02
07
f8
ff
02
f6
fe
03
09
04
05
06
ff
09
fc
f4
0c
07
00
05
02
fe
ff
03
00
01
05
09
0b
fc
fb
fb
03
04
01
02
05
fb
fe
02
fe
fe
07
05
fd
03
02
fe
00
fd
00
ff
f5
fb
00
fc
f8
fd
fc
fd
fe
fc
04
fa
0d
02
f9
07
01
fe
0e
01
fc
fb
ff
05
03
07
f8
00
18
08
11
12
09
06
f4
f9
08
0f
fb
04
0a
01
fe
04
f9
fc
0e
08
f8
0a
fe
fd
fd
f3
03
01
02
01
03
07
05
02
ff
fa
07
09
02
fe
02
04
09
01
f9
fa
07
fe
ff
02
fe
ff
04
ff
fd
fd
00
01
02
01
02
00
fd
0e
04
02
0b
fa
fa
fe
fe
00
fe
11
05
f7
11
04
fc
f5
03
f5
07
fd
f7
07
fc
f0
06
03
05
02
fd
01
02
f6
05
01
fa
01
03
fe
00
03
02
fd
fc
fa
fe
fe
00
ff
fd
fe
fd
fd
00
fc
f3
ff
01
f3
fe
00
fd
07
fa
01
04
fa
fc
03
fd
f9
03
02
02
03
fe
ff
03
04
03
09
f3
f7
f1
e2
f1
f3
ef
f5
f4
ff
fe
fc
ff
00
00
05
03
fe
0a
03
02
07
02
07
00
03
fa
fe
fd
fc
03
01
01
01
fe
00
de
e6
e2
e3
dd
e7
f2
ec
f3
08
03
00
06
fc
f8
09
ff
fd
03
01
02
01
02
03
fc
fb
fd
fa
fd
00
01
fc
f6
fa
f7
f9
ed
df
e4
eb
e7
e3
ee
f2
ea
00
ff
f9
00
02
ff
ff
00
03
eb
ef
ec
03
fd
fd
f4
fa
f0
20
18
1e
e4
ee
e8
f1
eb
f4
ff
05
05
ff
00
ff
02
05
02
f4
fb
02
ff
01
06
f8
fd
00
ff
03
06
00
04
07
02
04
04
0a
07
f8
fc
04
f7
ff
02
01
17
13
10
03
08
0d
0d
12
1a
01
01
fc
05
f6
f5
04
ff
ff
03
f7
f9
ee
fb
01
03
05
0a
fb
fd
fe
fc
fd
00
f8
f6
fd
03
05
ff
03
05
00
06
02
00
fc
05
06
e9
15
0d
02
05
02
fc
fe
00
fe
fe
fa
fc
fc
fe
fe
fb
fb
fa
04
08
06
03
06
fd
00
06
0d
09
07
ff
03
0c
03
07
02
09
04
fd
00
03
01
05
08
01
f5
f9
fc
00
f8
f7
00
fc
fd
fe
00
ff
ff
02
02
fe
fb
fe
07
02
ff
00
05
ff
f3
fd
fd
f1
f3
f8
fe
00
02
03
f9
fd
01
ff
06
f7
fa
03
05
01
f9
fa
fe
f7
f9
fd
fc
f2
e1
db
f8
e9
e0
14
00
ec
03
fe
ff
fe
00
fe
f8
06
02
ef
ff
03
f2
fe
fe
ed
00
ff
09
00
01
fe
ff
fd
d1
db
e9
06
02
01
09
fe
fd
0a
ff
fe
03
fe
fb
05
fe
fb
0f
02
fe
07
02
00
d8
f4
f7
e1
e0
e3
f3
fd
f9
f9
fe
fe
fe
ff
04
f4
f5
fd
f2
e8
dd
fa
f4
e1
04
fc
fc
05
fe
00
0f
09
03
05
00
fb
03
02
ff
fd
01
01
fc
ff
02
ff
03
05
06
fc
00
fa
fa
fd
fd
f3
f6
39
22
1d
ff
08
fe
e8
fd
fd
ee
f3
f4
00
fd
0b
fc
00
0b
f9
00
0c
06
04
03
05
07
03
02
07
07
fb
f8
fb
01
f9
00
04
f6
04
03
06
ff
04
00
02
00
fe
01
05
fe
03
08
03
03
0f
02
07
f9
ff
fe
fd
fe
fc
f9
fc
fa
03
04
fd
05
00
00
04
00
02
01
f9
01
00
fd
fc
01
fd
00
fb
01
fe
ff
fe
00
fa
fc
fd
05
fb
03
06
ff
03
05
02
04
01
e7
0a
03
04
00
07
00
13
01
00
01
01
04
03
05
04
03
02
02
fc
01
02
f9
ff
fd
f9
07
01
07
fe
ff
02
ff
fe
06
03
00
01
02
04
00
ff
fc
00
fb
03
fb
f9
01
fd
f7
03
fb
fc
ff
fd
fd
fc
fc
fc
fe
fd
00
fd
fc
02
01
f3
f8
fc
fc
f3
f5
fa
e8
e3
da
fa
05
11
fd
fb
fe
fe
01
fd
fd
02
09
fc
fe
fc
f4
f6
ff
fb
08
ec
ff
fd
ff
00
04
03
0a
0a
07
e6
d9
e1
ee
e4
e7
f8
f5
f2
05
00
f9
06
fa
fc
03
01
fe
03
03
03
01
05
04
04
05
04
04
00
fe
01
fb
fa
06
01
fe
e0
f1
e2
eb
e0
eb
f9
06
fc
04
02
02
06
05
04
00
03
03
ff
fa
fe
f5
fd
f5
03
11
0d
e3
ea
df
dd
c0
dd
f5
f6
fc
fe
fd
fb
fe
fb
fa
f7
fb
fa
f3
fd
fe
f6
00
00
04
fc
f5
00
02
ff
ff
02
03
06
01
05
07
fe
f8
01
fe
ff
05
fd
04
11
06
03
03
06
05
fd
03
f7
06
05
04
02
02
02
01
00
ff
fc
f4
ff
f2
fd
01
f7
fd
ff
fd
fe
fb
00
fe
ff
f8
fb
fd
e4
ef
e4
fe
04
00
05
03
0d
f8
f6
fc
f6
f8
00
f6
f8
01
ff
fd
fd
fc
fb
00
fa
fb
fa
f2
f6
fc
fa
fd
03
fe
00
02
0a
f8
00
e5
eb
e2
ff
f0
f0
0c
06
02
fe
fb
fb
02
fe
fe
dd
de
d5
07
03
03
f6
f6
f3
08
0a
0b
e7
e9
df
01
02
fb
03
00
01
00
01
04
07
05
03
f9
02
fb
fe
07
ff
f8
02
00
02
fd
04
00
01
03
fb
fd
ff
ff
04
14
02
05
12
08
07
13
ff
01
08
0a
04
18
09
07
1a
00
01
02
ff
ff
fb
01
04
06
14
06
0d
16
04
07
0e
06
0a
f3
f2
f6
fd
fa
ff
03
00
09
fd
f3
f7
02
fd
05
06
06
08
f3
fa
00
f6
fc
05
02
fe
04
f3
f3
f8
fe
f5
fa
06
00
04
fc
ff
04
fb
fc
03
00
f8
01
17
11
19
11
03
04
fd
00
ff
0c
00
0a
02
fd
02
09
f8
04
f3
ed
fc
02
06
07
f4
fb
f9
fb
fd
fa
fb
e0
f1
00
0b
08
06
01
08
01
02
06
fb
fc
fd
04
04
f7
05
04
fc
ff
04
fd
00
02
fd
01
03
fd
04
04
fa
fb
06
ff
ff
04
02
01
05
08
e9
0c
18
dd
13
0e
f0
15
f1
e1
17
04
df
15
05
de
16
07
e8
07
f6
f4
fb
f1
ed
fb
f0
03
01
01
05
03
03
ff
fc
04
ff
ff
fd
05
ff
ff
02
fb
fd
0f
f5
fe
13
ee
ef
10
ee
ee
01
01
01
02
04
03
fe
fb
01
e8
f8
04
e1
ec
f7
e3
ed
f4
fd
fd
02
f1
e5
fa
ee
f6
f8
05
f4
ee
04
f9
fd
08
f7
fe
01
f8
00
fe
f4
fc
03
01
01
02
01
06
fc
fd
fe
fe
00
03
04
03
05
01
fb
00
07
03
02
09
f3
f9
01
ed
ea
fa
f1
f1
06
04
fe
02
03
00
03
03
fd
03
f0
e9
00
f2
dd
01
e9
ec
fa
09
0c
f8
00
fc
ef
fa
00
fa
01
03
f8
fd
f9
f9
ff
ff
0d
07
0b
04
ff
04
0a
00
08
00
02
00
fd
01
fe
fc
fb
01
03
04
0d
01
01
06
fb
f9
fd
04
ff
02
03
02
07
05
ff
03
00
03
03
ff
ff
fc
f9
fb
03
04
05
04
03
03
07
01
ff
06
04
ff
07
f7
f5
fe
f7
f4
03
fe
02
09
ff
01
03
fc
ff
02
02
02
03
fe
ff
fe
02
01
fe
05
04
04
06
09
08
04
02
01
03
ff
02
fc
fd
05
03
0a
05
fe
00
f9
f6
fb
f3
f8
fd
f6
ff
f9
35
fb
f2
3e
fd
fe
40
f1
f4
33
f1
f2
22
ec
f9
1e
0f
0d
fa
01
11
e7
ef
f1
e4
03
00
02
01
fe
01
01
01
00
07
07
fa
00
01
f6
04
f7
f4
03
04
07
00
01
03
02
fe
fe
05
06
04
01
fe
03
00
fe
fd
07
06
03
04
04
03
02
04
02
02
03
04
05
01
03
06
ff
04
03
01
04
00
02
06
04
04
03
f7
0c
0f
ea
fb
f4
e7
02
f3
fd
03
f8
01
02
fc
fc
fe
fa
fe
fd
fc
07
fe
00
fd
ff
f9
0e
0c
06
00
02
00
00
fe
ff
fd
fe
00
fd
02
01
fc
01
01
fa
f9
fe
fb
fc
ff
fb
fb
01
f4
1d
f3
fa
10
f6
f0
17
f7
00
fb
02
ff
f7
fb
01
04
03
f9
f8
06
e2
f1
ea
e9
f9
12
ff
fc
01
03
fe
03
03
ff
02
02
0f
04
03
0a
08
f7
01
07
04
02
02
e7
ec
e6
0a
04
04
03
06
05
01
fe
08
05
01
02
05
01
00
ff
fc
fb
06
04
ff
fd
fe
f7
02
05
01
fc
f9
f2
00
fe
03
fb
fa
ff
f9
fc
ff
fe
05
f2
f6
f3
14
20
19
11
02
fa
01
02
02
01
02
02
01
00
fa
03
fe
fd
01
03
04
fe
00
01
fe
01
fe
ff
fe
fe
fc
f1
f5
f8
10
06
12
00
01
08
fa
03
ff
f8
01
06
f8
04
08
ff
ff
01
00
00
03
fe
02
04
03
01
07
05
fc
03
05
04
fb
e8
f8
f8
d7
e5
de
ee
f0
f9
04
01
02
03
00
00
fe
02
03
0c
ff
fe
f8
f7
fe
fb
f6
ed
05
05
03
04
06
01
01
02
02
f2
e9
f1
ef
e3
ea
fa
fa
f8
05
ff
ff
09
fb
f9
fe
ff
01
05
05
04
02
05
00
08
0a
0d
f9
f8
f5
ef
ee
f3
04
03
01
f1
fd
fa
01
ea
f1
12
08
eb
03
05
00
08
06
02
00
04
08
0f
fe
0b
e3
e5
df
18
31
24
fb
f9
fe
e0
c8
e4
f3
fb
fd
fc
fc
fe
fe
fd
ff
00
02
fb
fa
f9
04
f7
fa
04
07
fa
fc
02
00
06
04
fe
07
01
01
ff
ff
ff
00
00
fc
04
02
fc
0f
0c
0e
0a
fb
f5
0e
f0
f8
0c
fd
f0
01
f8
e1
f8
f5
e5
f7
ed
e9
2a
f7
d4
38
f7
e3
25
05
04
04
03
03
06
02
01
04
04
05
f9
01
01
08
06
ff
09
f5
f6
f6
de
f3
fe
e8
fa
03
01
05
0c
01
02
05
00
fe
06
f3
02
fa
ec
ff
fc
f1
fe
08
03
f2
17
02
e4
28
fb
eb
21
0f
f5
fe
03
f0
f9
03
f1
0a
05
04
01
fb
ff
06
02
06
fb
03
01
f2
ff
fe
04
05
01
fe
fc
01
ff
fb
ff
04
01
04
03
02
0b
02
03
05
10
05
0c
06
f9
07
05
fd
00
07
fe
01
05
fe
00
f9
ff
04
ff
09
07
05
fc
fe
01
fb
f2
f2
17
1d
10
00
01
ff
ff
03
04
03
fe
00
04
04
04
01
03
02
01
01
03
f9
f7
ef
0a
06
fd
06
f9
ea
05
03
01
01
02
ff
fe
fb
fc
00
00
fa
01
01
fd
fd
fd
fe
04
04
02
fd
fe
ff
01
01
00
e4
0e
fe
e2
11
fb
e2
12
fe
eb
f5
02
f0
f3
01
f2
f1
04
00
01
02
fd
ff
06
01
01
07
0b
06
01
fe
fd
fb
ff
fc
00
01
00
03
f9
f3
fc
02
f3
fd
fe
00
ff
f8
ff
f9
fe
05
fb
00
03
03
01
02
01
04
04
03
f2
05
f7
ec
f9
f2
fd
ff
fc
01
05
01
00
04
02
fd
00
00
02
08
03
fd
04
07
fe
f5
f4
fe
fe
00
fe
fe
fe
ff
01
03
00
ff
39
00
fb
32
00
ff
40
0a
01
f4
fc
f9
f4
06
f2
ea
0d
02
c6
0d
03
c3
11
06
c0
04
03
00
06
07
01
01
04
fe
fc
02
05
fe
00
00
02
01
04
00
ff
00
ff
ff
00
00
ff
ff
03
03
fc
ff
fe
fc
fc
fd
fd
f7
07
ea
fa
08
e2
f1
07
e9
f8
fa
04
04
05
07
07
00
fe
f9
06
0b
fa
05
f3
00
05
f1
e6
ef
03
f3
f5
fb
e9
f4
fe
fd
0c
f6
fd
07
f5
fd
13
ef
f6
f6
fc
02
fd
f2
06
13
f2
09
fe
06
02
06
02
03
00
08
fd
01
07
ff
02
0b
ff
05
02
04
01
05
01
02
03
04
00
02
05
03
0b
04
01
0d
05
00
0b
09
fd
00
0d
f7
fb
f8
0c
09
05
fc
02
04
f9
02
fc
fe
03
06
10
0f
f7
01
02
f9
f5
02
03
f6
f7
03
f6
ff
00
06
04
00
00
00
02
01
03
fe
ff
04
f0
f3
03
f4
f5
ff
f4
f6
08
ff
06
0e
fe
04
05
fc
00
09
00
fa
03
ff
e7
f9
fc
00
01
00
0a
11
fe
f7
10
04
09
15
02
0a
00
fe
0d
f9
fa
01
f3
00
07
04
ff
05
00
06
07
01
00
0a
04
f9
f9
f8
f2
f9
fe
01
02
fe
01
03
ff
08
08
04
fe
08
07
f4
fe
f8
04
05
04
02
00
fe
04
02
fc
00
01
00
ff
01
fd
fb
ff
ff
fe
00
ff
fc
f7
f8
ed
f0
f6
fe
fd
f9
03
00
fb
fb
ff
fd
ff
01
fa
01
06
06
fd
fb
fc
fe
f9
fe
03
02
03
03
05
03
fe
02
fd
f7
04
02
f1
07
01
f5
02
00
1e
fe
fb
19
f1
f5
1b
fc
fe
fd
05
02
f0
00
00
f3
fd
fd
fa
f8
fc
fc
01
00
fe
04
02
0b
0d
02
0e
10
0d
fd
03
fe
f3
01
fc
f2
fe
f7
f4
fd
f9
fe
fe
02
fd
ff
ff
fb
fe
02
ec
e9
e5
f4
f4
f2
0a
04
fd
f5
fd
02
fd
fd
f8
fb
ff
05
fd
fd
ff
f3
f3
f7
f0
f8
f3
00
02
ff
fb
02
00
02
03
01
f5
00
f9
f5
f6
f5
fd
f9
fa
02
06
01
f9
f6
09
0d
08
06
ff
fb
02
fe
fc
05
02
fc
f8
fc
fb
fd
fc
f4
00
fb
ff
00
02
02
fe
fb
01
fc
04
04
02
04
02
ff
01
ff
ff
04
00
ff
0d
0b
08
13
15
0d
10
11
14
fa
02
05
fa
01
02
fd
fd
fe
08
0c
02
fe
03
03
06
03
02
01
08
fa
00
06
00
0c
15
1b
f2
f8
02
f6
fa
fe
f9
fe
01
03
02
01
04
04
00
02
05
01
01
f9
fc
01
fc
03
fa
f9
f8
02
01
00
ff
fc
fd
03
01
05
f9
00
fe
02
01
08
1e
1f
22
ff
fe
ff
f7
fd
f9
05
00
01
fb
fb
04
fb
04
06
01
08
0d
f3
f6
f9
f8
01
fe
f6
f3
02
02
fd
fd
ff
01
01
08
fe
07
fe
f7
00
ff
fb
fa
09
05
00
fd
06
02
ff
03
fe
f7
fa
f5
01
ff
fe
00
03
00
02
08
01
04
fc
ff
08
01
02
08
fa
fe
fa
00
f4
fe
07
f5
00
09
f2
fc
01
fc
ff
fb
fc
03
fe
00
03
14
06
12
13
08
04
0a
fd
02
fb
fe
04
fd
fe
f8
02
f7
02
fe
ff
03
fe
fc
03
fd
fc
05
f1
fb
04
f4
03
0c
f9
0f
05
03
06
00
02
02
fe
00
03
00
00
fc
fa
ff
ff
03
ff
f9
01
ff
ff
fe
ff
01
06
03
03
05
01
fd
02
fd
fe
fd
ff
fe
03
03
06
fc
f0
fa
0f
00
00
01
03
ff
01
fe
01
00
fd
02
02
fb
03
ff
fb
00
02
03
ff
03
04
04
ff
fd
03
fc
fd
01
04
f8
04
00
fb
02
03
f6
05
08
15
f3
07
15
ec
0d
1a
ea
fd
fe
02
fd
ff
04
ff
00
01
05
01
08
ff
01
04
f8
00
00
09
02
03
01
05
fd
f0
fc
f4
fe
fe
03
ff
ff
fc
ff
00
fe
00
01
ff
fe
00
01
00
ff
02
06
fd
00
fb
f8
f3
06
04
fb
01
04
f7
fb
01
00
08
03
0b
02
07
04
00
03
01
fd
0c
04
fb
00
01
04
01
05
03
fd
f8
0b
ff
fe
fb
07
fa
f6
01
f6
08
f6
00
03
ff
09
05
0d
0a
0b
f3
fe
f9
f5
0a
09
fd
fa
0d
f6
03
10
fd
03
0c
fd
02
fa
04
03
fc
ff
fe
05
f6
01
ff
04
08
fc
fa
f5
03
ff
fb
01
08
01
09
e9
ed
f6
f8
f6
01
fe
04
f9
00
05
01
02
fd
01
0a
0a
05
ff
04
ff
f2
04
f8
05
ec
eb
fe
fc
fe
ec
06
fc
03
04
04
01
f8
08
fe
07
f8
05
ff
0a
01
f6
ff
fe
0a
06
03
ff
f2
ec
1b
16
0f
28
fb
f9
fd
f9
fa
fa
01
fd
fc
e7
e8
df
22
1d
22
21
22
21
02
06
01
e3
e7
d7
1f
1a
25
fc
fb
fe
fc
ff
fe
00
04
00
f1
e9
eb
ea
ed
f3
f6
fa
01
fe
fe
fe
fd
00
00
f9
01
01
03
fd
01
ff
fc
fd
02
03
06
fe
fe
ff
03
04
03
02
fc
fd
fe
01
03
03
02
ff
06
00
ff
04
fe
f8
0e
05
fd
07
00
ff
fe
fa
03
01
fe
04
04
00
fe
fe
05
06
00
00
ff
02
01
01
06
04
01
f9
02
02
0c
02
09
ff
01
fb
ff
01
f9
02
fe
f6
fd
fe
fe
fc
ff
02
03
ff
04
ef
e5
ed
f5
ed
f4
eb
fa
03
f9
fe
fd
f2
f3
f5
04
04
fd
fd
00
02
fb
fd
fc
08
09
04
02
01
fc
04
03
04
00
fe
00
ff
02
fd
fe
00
fe
00
02
01
f8
e6
f2
fe
00
02
ea
fa
02
03
ff
00
fc
fa
04
01
01
04
1a
20
14
d4
d7
d5
f9
ec
e5
e4
dd
e2
17
11
14
05
00
03
ff
01
02
01
01
ff
01
ff
ff
01
04
fe
06
00
fd
03
01
fc
ff
04
04
fe
02
00
01
05
05
1d
20
19
e1
ea
ea
f8
ff
fb
ff
f3
f6
e1
eb
f3
02
f9
fc
03
ff
ff
05
04
fc
03
03
fe
fd
ff
06
02
00
01
fe
ff
00
ef
ef
f1
cd
c0
d2
01
04
ff
0a
0c
13
ff
08
0a
06
fa
01
00
09
01
fb
05
f4
f4
e8
eb
ff
05
04
f9
f6
00
12
1e
14
01
00
06
fe
07
fd
01
fe
04
08
03
02
08
fe
f7
0c
10
07
fd
00
f9
08
09
f3
01
fd
0b
01
00
03
02
fd
03
f8
f3
03
0c
05
04
06
fe
00
01
fc
fb
05
05
03
ff
06
01
00
02
fe
09
06
ff
f8
fb
fd
03
01
f9
00
fe
04
06
05
02
02
02
02
00
04
00
01
fb
fd
02
fb
fb
fe
11
0e
f4
f7
09
fe
f8
fb
00
fe
06
fe
f9
11
fd
07
f5
06
05
00
01
02
0e
04
fd
02
22
12
02
13
1a
fc
fc
eb
fb
fe
fe
fa
fd
fd
f8
fa
00
fb
fe
04
09
fd
ff
00
f6
02
f2
fe
fd
02
fe
ff
01
fd
fb
fe
06
0a
fa
05
02
f5
03
04
f5
ff
f2
f2
f2
eb
e1
ee
e8
f2
00
f4
e8
03
01
d6
01
f3
dd
01
fc
09
fb
fb
00
fe
fb
ff
fb
ff
fd
ff
01
06
00
04
01
fe
01
01
00
01
fd
fe
01
ff
03
01
f4
02
06
f8
04
00
fb
08
f9
e3
07
01
dd
06
fe
e8
fb
08
05
01
04
f6
03
07
ff
01
fc
f4
f4
f0
e3
00
f8
e1
f9
fd
00
f0
f9
fe
f7
02
08
05
f4
25
00
fa
1b
07
f8
20
e6
e0
eb
e6
de
e4
f9
e6
ec
ff
fe
03
fd
fb
04
fe
fd
fe
fb
fb
00
00
01
fe
ff
02
06
ff
fe
fc
01
00
ff
07
02
06
04
01
03
02
01
06
04
04
06
0a
f5
f2
f3
fa
fa
f4
f5
f2
ff
01
0b
ff
01
09
00
02
06
00
05
08
fc
fc
fd
fe
fa
fa
fd
fb
fe
fd
ff
03
fc
02
ff
f5
f6
fc
f5
f8
fd
f1
f9
ff
12
d3
f2
0e
c9
f0
0f
c0
f3
fc
fe
01
fc
fb
03
02
fc
02
04
ff
04
00
00
02
fd
f9
fe
f8
fc
fa
fb
fc
f9
fb
01
fc
ff
00
ff
02
02
fc
00
03
fe
ff
fe
01
fe
02
01
ff
00
00
17
dc
ed
05
e3
eb
ff
f2
fc
03
00
05
f9
01
00
fe
fd
02
fe
01
00
f5
f8
f8
15
0c
11
00
03
04
04
04
03
fc
04
04
eb
01
12
e3
06
11
ec
fb
10
f7
f7
07
08
02
0a
02
00
04
f9
1f
f9
f6
1d
f5
f3
24
f2
f4
f2
00
f9
f3
fc
f7
f4
fc
05
03
01
fb
fc
fc
ff
fb
fd
ff
00
04
fe
00
02
fc
00
ff
fb
f9
07
04
fb
00
fc
f8
fe
ee
f1
04
e9
f5
00
e7
ef
fe
08
00
ff
03
02
00
ff
01
ff
0f
07
0d
0b
02
08
f5
f7
fc
08
da
f8
0f
d5
ff
0c
ca
07
f7
1c
c8
fa
18
cd
f8
1e
c0
fe
08
12
eb
ee
fe
f6
fa
09
06
05
06
fd
02
01
07
09
09
fc
fe
ff
ff
01
fc
fe
07
fe
03
03
01
f8
f9
00
03
02
03
ff
04
02
ff
04
ff
ff
07
fd
fc
02
fb
08
f5
fa
05
0f
00
02
01
01
04
fe
04
02
ff
ff
fd
fd
01
00
fe
02
03
03
ff
04
07
07
f9
fc
f8
fc
03
04
f3
0e
fd
ee
0e
f9
f4
16
f9
f8
fc
02
ff
f7
f9
f0
f6
ff
02
fd
fb
fc
fe
00
fe
fc
fd
06
03
08
fe
fd
fa
05
05
04
08
0a
ff
fb
00
f3
fa
f3
ee
ff
fd
ff
fe
fd
fa
fe
ff
ff
01
04
00
fd
06
00
01
01
02
19
08
12
0e
e3
f8
09
f4
0a
0e
fe
fb
fb
0e
f8
f3
f7
0c
fd
fb
0c
f9
10
f6
01
04
0b
00
08
fb
03
06
04
03
0d
f9
03
e8
03
ff
ee
02
f4
f8
02
f9
03
ff
17
fd
ff
fa
0a
01
0b
f2
04
fe
f3
f6
f9
fe
00
00
fa
05
02
f7
09
f4
04
03
06
09
04
f8
0c
fb
0a
0f
ee
03
fb
04
02
05
00
fd
fb
ff
03
f8
f9
f6
f9
00
fb
f2
ef
02
ec
ff
ff
f5
fd
03
fb
ff
06
fd
f4
f9
fd
06
07
08
da
00
fb
f7
12
f8
f6
05
05
d9
fb
ff
08
0b
ff
0f
fe
f9
0b
ff
f0
05
00
f6
04
0b
f1
00
f9
f6
2b
fe
05
0d
09
13
1d
40
3e
3e
00
fa
f6
f8
fa
fc
01
01
fa
fe
fc
fe
01
fe
04
02
02
fe
fe
00
fc
05
03
ff
ff
03
04
05
02
03
00
fe
01
14
0c
0a
f5
f2
ef
09
0d
07
00
04
02
fe
fe
00
ff
ff
01
13
07
08
0e
01
fd
fb
f3
00
1c
19
20
ef
ee
e7
0f
0a
0b
ff
01
ff
fd
fb
00
fa
fd
02
0b
06
01
01
03
03
ff
fa
fa
05
fc
0e
02
f7
0d
02
f4
0f
f9
fb
05
05
fa
fd
18
14
14
06
07
fe
f2
f4
f3
fe
f8
f7
06
ff
04
05
ff
07
08
01
08
01
00
05
ff
00
04
ff
ff
0a
15
0d
0a
15
05
fb
f7
f4
02
f1
f1
ed
13
0e
14
f6
fb
f9
03
05
03
fa
fa
fe
06
02
05
fe
00
00
ff
ff
00
03
03
02
03
05
12
fc
fc
ff
ff
fd
ff
f1
ec
02
dd
dd
f7
eb
ed
ff
08
02
03
04
02
05
00
fc
00
34
37
34
25
25
3e
fc
f4
fe
ec
e9
ef
e4
df
cb
ff
06
01
fc
03
ff
00
00
fd
ff
ff
fd
07
06
fb
04
00
fd
05
03
02
07
00
03
04
ff
fe
02
ff
01
ea
e7
eb
18
15
16
08
0c
10
e4
da
d8
db
cc
c6
f8
f8
e3
ff
04
f8
fe
fe
f7
01
fe
fb
fe
04
06
fe
00
01
00
00
ff
f8
fa
08
f2
ea
f9
f3
e9
ff
01
fd
fc
fa
fc
f9
04
02
fe
fc
fd
ed
01
fa
f4
ff
06
03
01
fc
fc
00
00
fe
06
08
05
03
fb
e7
fd
f9
d3
01
fb
e9
00
ff
f7
fe
05
02
0d
0a
0c
0c
fa
f4
0c
f0
ea
04
f9
f8
02
03
fd
ff
05
08
00
01
05
ff
01
fb
fd
00
f9
fb
fb
f4
01
05
fe
fe
05
00
fe
05
00
fd
f5
06
03
06
0e
09
0a
13
01
ff
ff
03
ff
fe
fe
fe
02
09
05
01
05
0a
0e
f8
fd
08
00
0c
0c
02
05
0d
f3
f6
08
04
fb
fe
fc
fa
f6
f7
f8
f8
01
01
f6
ff
00
fa
fe
03
fd
f8
fd
f4
0b
0d
05
13
11
0c
ff
06
ff
02
03
04
fe
fd
fe
02
11
0b
ef
ea
ec
f7
f5
f9
03
09
fd
ef
e8
f0
f6
f3
f5
00
04
ff
ff
04
04
fd
ff
01
10
1e
03
ea
d5
e4
f0
fe
04
08
ff
fd
02
06
02
02
01
ff
02
03
f6
fb
f8
fe
fa
fa
fc
00
f6
02
ff
00
ff
fd
fe
fe
f9
01
02
00
03
04
fe
fe
01
05
11
0b
07
00
fb
04
00
fe
00
02
01
04
01
00
00
fd
02
f7
ea
f9
00
00
ff
00
ff
01
03
01
18
02
04
ff
f7
fe
f3
f2
f9
00
04
ff
ef
01
ff
fd
fe
01
07
ff
ff
03
00
00
03
14
0f
07
f4
ed
ec
f6
fb
fc
ff
07
fa
02
fb
0d
05
09
0e
02
09
fd
f7
f5
0b
05
15
06
00
04
05
fc
04
01
fe
01
02
fb
ff
fe
fc
03
fd
f8
fc
00
0f
15
08
fc
08
13
0f
08
ff
09
01
fe
f1
00
fd
f5
fd
ff
09
fe
03
0a
fb
00
07
02
05
ff
f5
fa
f6
f9
f3
fe
f8
f1
fc
01
02
f7
f3
fe
fe
fd
02
f5
fb
03
f6
e4
f5
f2
f0
fc
09
00
03
fe
0b
08
fa
09
0b
07
fc
03
fc
02
02
fd
fe
06
0c
13
f4
01
01
10
f9
f7
0b
f4
fb
00
09
07
00
ff
03
f7
fb
fc
02
07
f8
0d
02
f6
07
03
fe
20
f9
f2
11
17
29
1b
06
04
00
03
02
02
05
05
0d
ff
fd
00
fe
f9
ff
11
1b
0f
05
04
01
ff
01
02
06
02
08
0e
06
01
0e
05
03
06
07
ff
fe
fd
02
04
02
0c
03
0b
18
07
00
f7
03
05
02
01
05
02
05
fb
ff
0a
fe
00
08
06
03
03
04
01
fb
fe
fe
f9
f3
f9
fe
00
02
ff
03
01
02
03
ff
03
fb
00
09
f9
01
05
fc
ff
ff
00
06
04
03
03
05
fe
ff
f8
f7
f9
f4
f6
f8
f9
f5
fd
11
1b
12
15
19
18
14
0d
17
ed
f6
04
f8
fc
03
fa
fc
08
fe
fd
03
fd
fc
02
00
fb
ff
06
fc
02
09
fe
0c
0f
06
15
01
02
fd
fc
fb
f6
04
00
00
03
00
07
fb
fe
03
fe
01
fd
02
ff
ff
00
fe
02
02
02
02
fe
02
06
01
fe
07
04
ff
05
ff
02
03
ff
fd
00
01
ee
01
01
ff
08
00
03
07
04
04
08
05
08
ff
fe
ff
f8
ff
02
f2
01
00
05
ff
fe
03
02
fe
06
e9
0f
f7
e9
0f
f0
df
18
f7
09
fa
fc
0e
fb
fc
10
f7
06
01
fd
00
fe
fc
03
fe
fb
ff
01
01
08
05
01
fe
fe
00
fb
f9
11
0d
ff
03
ff
fc
f5
fa
05
01
f8
01
fe
fa
03
fd
f8
fe
ff
00
fd
02
00
fd
00
01
f6
ef
ed
f3
ec
f4
fa
0d
09
f5
f3
e8
f6
f6
00
f8
f4
f8
04
06
01
fb
00
ff
fd
ff
05
ff
ff
fe
00
02
04
fd
fd
02
02
04
0a
05
ff
07
03
00
09
02
f8
f3
fc
fb
f1
fa
f2
e6
0d
09
f4
00
04
f8
00
00
fa
00
03
12
ef
eb
eb
fb
f3
f5
fc
f5
ef
02
ff
0c
00
fb
01
01
01
00
fe
02
04
fe
00
01
06
fe
f8
ff
fc
fa
05
f9
f6
ff
fd
f6
03
01
ee
02
01
f1
02
05
06
f0
ef
d0
02
04
0c
dd
d2
c6
f2
ee
eb
ff
f7
09
f7
ec
f2
fd
f2
ef
ff
fd
f2
05
07
02
fd
00
01
fd
fe
fd
f1
e1
e9
02
e5
ed
ef
db
f3
12
0a
09
e9
f4
f4
0d
09
09
fb
fa
fd
fe
f9
f5
09
0a
0d
00
02
ff
02
04
03
fe
fb
fb
f6
f7
00
fe
fe
01
ff
02
fd
e2
e4
e7
01
0a
0f
df
e0
e7
02
ff
03
04
03
05
fc
fe
00
40
33
2c
0c
fc
fa
ff
f7
fb
d7
dd
dd
e8
f1
ec
fb
fb
fa
fb
01
00
fd
00
fe
fc
fd
fe
0b
01
fe
0c
01
ff
01
ff
00
02
f6
fd
00
fe
01
fd
f9
fb
20
1a
1a
ed
f1
ec
eb
f8
f1
fe
f7
f3
d0
e1
de
eb
fa
f9
fd
01
f3
f9
02
f4
fa
fb
f6
fc
fd
00
fe
fc
fa
ff
fc
fa
03
f5
fe
df
dd
e6
f9
ec
f2
03
0c
0d
fe
00
07
05
ff
fb
f7
fa
03
0b
01
08
f3
05
f8
fd
ff
fe
fe
fd
fe
02
00
04
fb
06
00
fe
f8
ff
fd
f2
fc
ea
eb
fa
0d
15
0d
0c
03
0d
ff
0a
04
0a
fe
01
f8
f8
ff
f7
ed
f9
ff
f3
fa
fe
f5
fa
f0
ec
f5
fc
fa
f9
05
0c
ff
01
fe
01
01
02
04
fd
06
01
04
01
fc
10
12
10
f9
fc
f4
04
05
f4
ff
fe
0a
fe
04
07
f7
ef
f7
ee
e6
f2
f7
05
f9
06
ec
fc
e9
e8
e3
e2
f9
f5
08
ff
f7
f8
f9
ff
09
04
03
ff
fb
05
01
08
03
00
05
fb
fb
fc
f9
1d
2a
29
00
11
0f
ff
01
fc
01
04
00
05
fc
01
03
05
fd
f4
fc
04
0b
05
fd
fe
ff
01
01
ff
fd
fd
01
01
11
e0
0a
0f
e2
08
0d
e0
07
f6
ff
f3
f5
f8
fc
f3
02
f4
14
fb
00
16
05
fa
18
01
fc
fc
fc
fb
00
fd
fd
00
fc
01
fb
01
02
fd
00
00
f9
00
fd
00
fc
01
00
ff
02
00
ff
02
fb
fd
fb
fe
00
fd
01
00
fe
f8
f1
04
fb
f1
04
f8
f5
06
03
03
06
ff
f9
ff
fa
01
ff
09
04
17
01
01
0c
fe
f5
0b
e7
15
f9
e8
0d
f7
de
16
03
f9
08
fe
f1
06
00
f9
06
fe
f5
e5
f3
f1
f7
03
00
ff
0c
08
04
06
02
fc
01
06
03
03
fc
fa
04
01
03
02
07
0a
fe
fc
fd
01
00
fe
01
04
03
06
05
08
fd
01
07
f6
03
07
f2
f8
f9
fd
04
ef
f5
0d
e4
0b
f9
ef
0d
f7
f0
08
0b
f5
0b
00
02
06
02
f9
ff
03
fe
f8
02
0b
04
fd
01
04
fc
03
06
01
00
fe
02
fe
00
05
fc
00
06
03
f8
07
00
fc
08
ff
fb
fd
37
fc
ec
36
f9
f9
40
f6
09
04
00
ff
04
04
fc
01
01
fb
fa
ed
03
00
fc
f6
ff
fc
08
06
ff
0e
02
f9
09
05
ff
14
eb
f0
1d
e6
ec
16
ea
ed
fc
f6
f7
09
ec
ec
0e
f6
f8
03
00
05
0a
04
08
05
07
0a
01
00
03
03
03
05
04
0a
0b
ff
02
03
06
02
04
04
03
03
03
08
05
01
ff
05
ff
04
04
05
0d
06
05
09
05
01
05
ff
0b
fc
f7
04
f8
f8
01
fc
fc
ff
02
00
02
05
ff
00
fc
00
03
fc
fc
ff
f1
f9
00
fb
fc
00
05
04
01
01
02
fd
03
02
ff
00
05
fd
03
02
01
00
01
fe
ff
07
fb
fb
04
fc
01
04
ff
fe
fb
fe
f7
fe
fa
fe
fd
08
13
14
17
14
1e
0e
16
1a
f5
f3
fb
f7
ed
f9
fe
f8
f7
ff
04
03
04
05
03
04
04
04
05
0d
0f
05
06
09
0f
0c
12
ff
fc
00
fe
fc
ff
10
0f
0d
0d
0a
0b
fd
f5
f6
fa
0c
07
05
02
06
fa
01
02
01
fe
02
f6
f1
f9
fb
f5
f9
f7
f1
fb
f4
fd
02
02
0a
13
1e
12
1e
fc
fc
00
03
02
08
fb
f8
f9
fa
f5
fd
00
00
02
f8
f7
ff
f0
f9
fa
f4
f2
f3
04
fd
05
08
02
01
06
ff
fe
06
03
02
ff
02
0d
03
02
05
08
0c
0f
00
fa
02
fa
01
07
fd
02
04
11
14
0d
f5
f7
f6
f7
fa
fd
29
2c
1e
04
fc
fd
14
17
16
fc
fe
01
f5
fe
fd
04
06
01
00
00
fb
04
03
01
04
01
fc
14
32
12
f9
03
00
15
1f
12
07
03
04
03
01
ff
ff
02
02
fb
fb
fa
e6
ea
f2
c9
c4
c6
fa
fb
fa
12
10
0e
f3
f3
f1
ff
fd
fb
fd
fe
ff
06
04
07
ea
f0
fa
ee
e5
f1
02
10
14
02
00
ff
08
00
04
06
fd
fe
0b
0b
0c
05
05
fc
09
08
07
00
00
fe
fd
fe
01
00
ff
ff
ff
02
00
03
03
01
04
05
03
f9
fe
fd
03
03
01
ff
04
04
03
fd
07
02
fa
06
00
ff
0a
04
04
04
fd
01
03
06
ff
02
15
0d
08
e7
eb
ec
e6
ea
f6
00
02
06
fa
04
f5
fb
02
f8
03
ff
03
00
02
02
04
06
05
f0
e9
f8
fd
f8
04
f5
f6
fe
fb
02
fb
f7
01
00
f9
00
07
01
00
04
f4
02
f6
09
fc
f8
01
ff
00
02
ff
01
fd
00
06
f9
04
f1
fc
01
ea
ff
06
e7
fb
ef
f4
fa
fa
03
f0
03
f0
fb
11
0e
f7
15
0d
f7
0f
13
ed
f3
00
ed
ef
fc
fe
f9
fc
04
02
00
02
01
fe
0d
03
04
03
00
00
04
00
ff
03
00
04
05
f9
fd
ff
fc
f8
02
f5
04
08
f2
02
10
e3
0a
0b
e0
09
0a
0a
06
fc
fe
fc
09
f8
02
04
fa
ed
ff
ee
ee
09
f4
0a
03
d8
fb
06
c8
fe
0c
ef
f8
f1
fe
0b
ed
ec
0e
fe
ed
16
f9
de
fb
f6
fa
f1
f4
fc
fc
0a
0b
0d
02
fe
00
fd
f9
f8
06
05
05
ef
ea
f1
17
1b
19
fc
f8
fb
05
08
0b
01
fb
04
03
06
13
04
06
19
01
06
18
f7
fa
f7
f9
02
03
ff
f2
f6
07
0c
07
07
0e
06
09
11
03
f8
f7
f5
00
fb
fb
fb
f8
fb
12
11
15
04
03
00
06
06
09
07
fe
fc
08
00
fd
06
02
ff
08
ff
03
09
fd
ff
09
fb
fa
f5
12
03
f2
15
fe
f3
19
fb
01
07
05
06
06
00
15
0d
0f
f4
f0
fa
04
fd
00
05
03
03
01
fb
f1
06
00
f2
04
fd
ff
ff
04
f7
01
04
f7
01
05
f6
0f
0a
16
f2
ed
ff
f6
fb
03
e2
e5
e7
17
14
13
f4
f1
f4
02
fc
03
fb
f9
fa
fd
01
00
00
fe
fc
02
00
01
03
04
03
04
0a
fe
01
05
f9
fe
04
fa
f7
f2
fe
f3
f2
fe
f7
fb
00
f9
05
09
fd
04
07
fe
fe
09
01
00
fc
00
fe
fe
fd
fc
ff
f9
f3
fa
fe
f9
fb
04
03
02
01
01
03
fe
fe
03
fd
fe
01
04
02
00
01
fc
ff
00
f9
fc
0a
f5
0c
08
f6
06
00
fe
05
f1
e3
ee
db
e3
db
10
10
0e
c8
c0
da
f2
f6
f4
14
07
fa
07
f9
01
00
fb
fd
fe
04
fe
03
f9
08
01
fb
07
00
ff
03
ff
f8
00
f6
e7
f4
f3
f1
00
06
f7
f3
f0
00
0d
05
fb
fd
0c
e7
f1
e4
1c
06
10
02
0b
f8
09
08
17
ed
f3
f5
13
04
fb
03
06
f8
f9
07
ff
f8
02
e9
fe
08
0e
f2
fa
0f
f2
0c
ea
f7
16
04
f9
0b
0d
fc
0d
fa
f8
fa
fb
ff
f5
fb
12
fb
fb
f9
09
0a
fd
f9
ff
02
09
01
fc
02
ff
fa
00
01
fe
05
fd
f8
fa
f1
fa
03
f9
f3
fe
f6
fb
f7
05
f5
fb
06
f9
fa
f7
f8
00
fd
ff
f6
f2
05
02
f4
fd
f2
fb
fb
ef
f4
e7
f3
08
06
01
fc
fc
fd
fa
03
00
09
f7
f8
00
00
00
f9
f8
03
f8
e9
f9
06
09
0f
04
11
0a
ff
fe
00
00
ff
fa
04
03
00
fa
f3
f8
ff
07
03
0b
ff
10
06
09
06
f8
f8
f7
fc
f0
f9
f8
f9
fd
ff
fb
06
ff
fa
07
e7
f1
f4
f5
f8
fc
f2
ef
fe
00
fd
f7
02
01
03
05
02
02
05
fe
fe
04
fa
f8
05
03
01
fd
00
02
fd
02
05
02
fe
04
fe
fd
fe
04
fd
01
04
ff
03
03
00
01
05
01
fd
06
03
fc
01
03
03
ff
04
01
fe
fd
fb
02
01
05
fd
02
06
00
04
05
fa
00
03
07
0d
0b
15
14
13
fd
fb
fe
01
02
fd
fd
05
f9
01
fd
fe
03
00
03
04
ff
04
fd
ec
f6
03
f5
fe
00
f9
04
0b
07
fe
09
01
01
07
00
fc
15
01
fc
08
03
fd
11
07
ff
f4
ff
00
05
f9
ff
ff
03
01
03
d8
0f
00
d9
0b
ff
dc
09
f3
01
fb
06
ec
eb
f8
fc
0a
03
da
0b
fa
c7
0d
02
df
0f
06
0a
03
0a
02
fe
fc
fc
f7
0a
ff
fc
08
fe
fd
0b
03
02
02
03
02
05
01
01
01
00
02
0b
fd
fa
02
fe
fe
0a
fe
fe
fe
e6
f1
03
e5
f4
fe
e4
f2
02
09
fb
05
00
01
07
03
05
db
f2
ee
e5
f6
f4
f8
f7
f6
06
2f
f6
01
33
f2
ff
27
f5
01
f0
e6
09
f3
e3
04
f1
e5
0a
df
f0
0b
e1
f5
fc
e6
fb
09
fc
e7
16
0f
0a
09
ed
04
06
f6
f4
04
03
00
0e
0e
0d
07
0e
0a
03
f9
f8
fe
fe
fc
f8
f6
00
fa
f8
00
fa
04
04
09
06
04
01
e0
ec
f8
02
07
f5
f3
f5
fb
f6
f9
00
11
fc
fe
f2
e2
fa
fc
e6
fc
f4
05
06
0f
02
09
f4
f9
fc
0c
07
fe
02
f9
f9
fe
f9
03
f9
02
ed
ec
e0
e9
f2
e0
f3
fb
fa
01
fa
0b
02
fe
0c
02
10
0b
fb
00
ff
fc
f7
f3
fd
06
f8
ed
fa
eb
f2
f5
eb
f9
e5
eb
0d
0e
10
05
10
0e
04
03
0d
05
0b
fe
09
0e
fd
08
f1
02
0c
fb
e4
09
0a
06
02
06
1d
f7
f8
fa
ff
ff
09
fa
f4
fa
f8
f4
0e
04
10
13
01
01
09
08
0c
08
ff
f3
fb
04
06
03
04
02
04
00
04
fc
0f
00
f7
01
10
1a
f0
eb
e7
22
1a
06
08
fe
fd
fc
f2
05
06
f2
f6
02
e7
f4
f3
e3
04
f9
f6
f4
04
14
0e
02
fc
f9
0b
04
0a
0a
00
fe
0e
f7
02
06
05
05
0f
fd
f9
08
f1
ff
0a
03
0c
fa
00
01
f8
06
05
04
fb
06
0d
15
01
03
fa
fc
03
07
0f
05
11
f3
05
f3
fa
07
f8
14
fe
03
02
04
10
fe
f2
fe
08
02
04
07
09
00
07
f5
04
10
f7
ed
0c
fa
0c
0f
14
1f
06
03
06
05
fe
f9
00
ff
ff
00
0a
fd
00
ef
f3
e9
fc
f4
03
fb
fb
f6
03
02
06
0a
16
0f
03
ff
01
02
00
03
09
02
03
ea
ea
ea
fc
f2
f7
06
00
02
fe
f4
08
01
ff
07
fe
fd
08
fb
03
08
01
fe
03
04
fd
fd
03
03
fe
01
02
03
fe
fc
02
06
00
fe
06
fd
fc
05
07
ff
02
f9
06
04
fb
0a
05
fd
06
05
00
00
00
03
f7
03
00
fb
f9
fc
f7
02
06
09
01
ff
fd
11
05
06
ff
02
ff
f8
fc
fc
01
0a
fe
05
00
f5
fc
02
f6
01
fb
10
02
f9
09
03
f8
0e
fb
f3
eb
03
05
05
1d
13
0f
f9
f9
ff
fd
00
02
04
06
07
00
fd
f3
e6
e8
eb
fb
f6
f6
02
01
03
0a
0b
07
ff
ff
00
f1
eb
e8
f8
f3
e8
f9
f6
ee
0c
0e
07
0c
12
0b
12
0c
08
fc
f3
fa
fb
fa
f4
f1
f2
f8
ff
fe
00
fe
01
01
ff
06
04
fa
fb
f7
f9
f7
f7
ff
fc
ff
02
04
04
04
05
01
04
06
04
0b
0d
0f
16
13
0e
12
0e
0f
00
fa
02
02
fc
fd
01
fd
00
06
07
03
02
04
02
fa
02
02
0e
12
14
09
05
0a
0f
10
12
ff
03
fc
ff
fd
fe
05
00
fd
07
03
fe
05
01
fe
07
03
00
10
15
0e
05
03
fb
fd
01
fe
08
09
01
fe
06
02
09
0e
ff
fc
13
fa
01
0c
08
09
07
0b
01
08
00
fe
07
f9
fb
fe
04
fa
ff
f1
f9
02
db
fd
f8
f9
08
02
00
09
00
f4
fc
fd
04
02
0a
f4
fb
04
c9
fe
ee
f1
f4
01
01
fc
0c
fb
05
03
fc
01
07
04
03
06
fc
ff
08
ff
02
0a
00
f9
01
fd
fe
f8
fd
fa
03
00
f9
ff
07
02
02
04
fd
01
f6
fc
05
dc
05
ff
f7
ff
04
0c
0a
ff
ff
00
ff
ff
1c
e6
01
0d
ee
fe
04
ed
08
03
02
1a
06
fb
40
00
fc
13
fe
03
13
00
fe
23
02
06
1b
f7
00
00
f4
05
0b
00
0c
19
02
01
ff
fe
ff
fe
03
00
00
15
0e
10
d2
d1
c1
20
13
22
f3
f0
ec
fc
fb
fe
2e
40
3b
02
fb
07
02
ff
04
05
02
05
db
c9
c0
f3
e4
ec
fd
0a
08
03
fd
09
04
01
0b
02
01
06
fe
ff
fe
ff
00
02
ff
ff
ff
06
03
04
ff
fd
fc
04
00
03
04
fe
00
04
ff
fe
05
00
fe
09
f9
fd
0b
fd
00
06
fb
02
09
fb
07
02
fd
02
05
fc
00
07
08
09
05
02
03
04
00
01
09
02
02
02
ff
f6
f2
f5
f5
08
07
f7
03
02
f6
01
03
ff
fd
fc
05
00
fb
05
03
fd
09
05
ed
f2
fe
f8
fe
00
f6
00
ed
f7
07
f8
f9
05
05
ff
fa
e7
f0
f7
f5
f7
f1
07
01
fc
f8
fb
fc
01
00
fe
01
00
01
fd
04
05
fd
fe
ff
00
00
00
f1
fc
ef
00
ff
01
08
0a
07
02
05
08
03
fe
f7
fe
fd
fd
eb
ef
fc
fd
fc
fd
04
05
01
0c
0b
05
01
02
ff
fd
f9
fd
fc
fd
00
03
01
01
fd
fd
01
06
09
03
ff
0c
08
08
0b
0d
fa
ff
06
f9
f8
fd
fc
fc
02
05
01
fb
03
02
00
fe
fc
fb
0b
0c
03
0a
10
14
eb
e4
ec
f8
f5
f5
fa
f6
fe
f9
f7
fd
fc
f8
fd
01
ff
04
02
03
04
ee
fb
ee
07
0f
05
14
1c
19
fd
02
06
fe
fd
fa
07
05
00
eb
14
1c
40
e6
de
f1
2d
1f
0f
f6
ed
e6
20
17
14
03
fb
01
ff
04
04
f8
07
f8
f8
0a
0b
f5
ec
e8
2b
15
0c
e6
f6
fb
09
fe
fd
f8
05
f8
ee
fe
fa
05
05
f4
06
fd
0b
06
fe
00
ff
01
01
fd
05
04
fb
02
01
fc
fe
00
ff
ff
03
fa
02
ed
f0
f4
fa
fc
f6
f7
f5
f7
01
00
05
00
f5
0a
04
ff
05
02
ff
fd
f9
06
06
03
f2
02
f5
00
03
eb
f5
f1
f5
00
0b
07
07
ff
03
0c
02
05
15
ff
01
03
f9
f6
0d
f7
03
09
f9
fe
07
fc
16
fe
f5
0d
0d
0d
fb
05
f0
fe
00
03
00
03
f2
fe
02
0a
ff
fd
10
04
0f
0b
01
00
fc
ff
ff
03
01
02
fa
05
ff
07
05
fe
00
05
fb
0b
f6
f9
03
e8
f5
07
f9
f4
09
fe
03
02
fc
03
fb
03
fd
06
02
09
0b
00
00
0c
00
fd
03
ff
01
ff
fd
01
00
01
02
0c
ef
ed
00
f1
e7
05
f1
f3
ff
df
e7
ff
d1
dd
f5
d8
e8
ee
ff
ff
01
fd
03
f8
fd
02
06
00
0b
fa
03
02
fc
fc
f9
06
f4
f8
06
f8
f6
04
f8
f3
0f
01
02
01
02
07
fd
02
03
fb
fe
fe
00
04
fb
07
01
00
01
e9
e4
1a
ec
ed
14
00
07
12
fa
01
fe
ff
04
03
06
04
06
fe
05
09
02
ff
f7
cb
d7
dc
07
05
04
f1
f4
f7
f7
f5
fb
fc
fe
f4
04
00
fb
fc
fb
f6
f6
f3
f8
e9
f5
04
fa
fa
00
fa
f8
f6
01
ff
03
f6
fb
fa
f5
00
f6
fb
02
f5
fe
01
02
f7
f9
fe
f3
f8
fe
fa
fa
00
eb
fb
ff
ef
fe
04
f1
f9
02
fc
f5
fd
0d
f8
01
05
fc
ff
01
03
f8
fb
01
f4
ff
04
f2
03
01
01
f2
f4
fa
ff
04
0c
fe
09
0d
f2
00
04
ef
f9
00
f9
02
f5
f4
fa
e5
fc
fe
f8
ff
03
fe
fd
00
f8
00
00
fd
f4
ff
05
e5
fa
fe
f4
fd
f4
03
04
07
01
ff
fe
00
fe
00
e7
d2
da
35
3c
3a
f9
f0
ee
09
16
0f
ee
de
dd
17
15
18
06
03
08
ff
ff
07
01
01
05
04
09
01
e5
e0
e0
e8
e5
f6
05
03
fe
01
ff
05
03
00
04
f9
ff
fb
fe
fb
ff
ff
ff
fa
08
09
07
01
03
fd
fe
ff
03
ff
00
02
02
03
01
01
02
ff
04
09
05
0b
00
01
06
fe
01
06
02
07
04
02
00
ff
01
00
04
02
00
00
00
fd
ff
fe
ff
02
f9
fa
04
0d
04
fe
fa
fb
05
07
02
00
01
f7
06
02
f8
fd
00
07
02
01
05
03
02
01
f2
f0
ef
ee
ed
ee
f4
07
fb
00
02
08
fe
01
01
05
02
fb
f7
ff
05
01
07
09
13
06
06
fe
fc
fd
fa
f8
fb
00
0a
0f
f9
02
f9
ff
fe
f6
04
ff
ef
fe
00
fe
09
05
f5
11
26
18
fb
0b
06
00
09
0d
fe
0d
08
f9
00
03
04
07
08
ff
03
07
07
07
08
ff
00
fe
fd
f9
fc
06
fd
01
06
fe
00
05
01
ff
01
03
06
fe
04
fd
fe
08
01
05
f9
05
04
f7
fa
03
f9
0a
03
04
04
02
01
09
ff
fc
07
0c
03
09
05
09
17
0f
0b
12
06
ec
f4
fc
e9
da
00
f0
fe
fb
f9
0f
fd
f5
10
00
f2
12
fb
11
10
fc
0c
0e
00
08
0e
00
03
f8
fd
00
f9
03
05
07
03
01
ff
ff
07
03
fe
08
06
02
03
02
fd
fc
fd
01
05
07
fe
00
01
fd
f5
fd
02
03
05
06
f8
02
f9
e8
eb
07
ff
06
02
fa
f6
05
ed
f0
00
fa
fc
fa
fb
f5
f8
fc
fe
ff
fe
01
01
05
08
fe
00
06
fe
fe
03
00
03
01
ff
01
00
ff
01
01
fc
03
00
ff
01
fc
f9
00
02
fd
07
01
fe
fb
fb
f9
04
fd
01
03
06
02
03
01
02
00
fa
00
09
0a
f8
04
00
f5
f4
fa
f6
06
fa
f8
e8
f9
f7
f8
fa
00
05
0d
fe
0d
05
fe
06
10
fb
10
13
fe
00
08
07
07
11
01
0b
02
04
07
ff
05
02
02
f5
f4
f0
08
f7
fd
11
0f
0a
03
05
03
03
02
fc
06
ff
ff
09
ff
fd
00
03
ff
02
ff
05
05
05
07
02
06
04
09
09
1f
fe
f9
05
fc
f9
ff
07
fa
fa
02
fe
00
fc
fc
ff
04
fd
01
fd
fe
fe
fe
05
02
00
fa
fe
fc
0a
fa
fe
08
02
ff
04
02
08
07
07
05
07
06
03
ff
06
05
04
01
fe
00
05
f4
f6
02
fa
fd
04
fb
01
fb
ff
03
00
00
05
ff
05
0f
00
fb
05
fe
03
01
f7
06
06
04
fa
00
00
03
00
02
07
fe
01
00
00
f8
0b
04
09
0b
05
06
03
f7
ff
16
08
0e
e5
e6
e8
fb
fa
02
04
00
ff
fb
fa
01
fd
01
06
02
02
00
00
00
01
04
03
03
ff
02
fb
fe
06
fe
01
06
03
fc
02
ff
e9
eb
e8
fc
f2
00
02
00
fa
00
08
fd
03
09
01
c8
ce
d0
df
dd
e0
f5
fa
ff
04
02
08
08
08
08
ec
f0
ef
fc
02
00
fd
05
fe
fd
04
ff
fc
fd
f9
03
ff
f5
01
fb
f7
03
fd
f9
04
01
fd
ff
02
03
e5
e5
e3
40
2d
37
f3
f6
f5
10
fe
00
2a
19
12
e0
e4
f3
04
00
fa
04
f9
ff
06
ff
03
00
03
04
fe
04
06
f9
00
07
d3
c7
e7
de
ec
f0
e8
e5
df
03
01
04
05
02
05
06
08
07
05
0a
08
f8
fe
fc
fb
fc
06
07
09
06
ff
04
00
fb
04
00
fd
fe
02
04
03
01
04
06
02
00
f7
ff
0e
01
f9
05
03
0c
0b
01
ff
fd
fa
fc
fa
f8
00
09
fb
f7
07
fc
f8
03
fd
fc
fa
fb
fc
fc
fe
fc
fa
ff
fc
02
04
04
0a
03
01
00
03
02
00
ff
f9
09
12
02
02
fd
fd
fe
fc
fd
fc
fd
fb
05
ff
fc
05
0a
07
fd
ff
fd
fa
fb
fe
0e
0f
10
09
04
09
0e
16
0e
fb
01
03
fc
fd
fb
00
fe
fc
fc
08
03
00
07
00
05
01
02
06
13
04
f9
16
03
0b
13
0d
fc
fe
01
02
01
fe
fa
f6
fe
fb
ff
f9
ea
e9
e8
f8
ef
ef
fc
fb
fd
1d
07
06
f9
f9
fb
fc
04
f9
00
02
fe
01
06
05
e1
dc
e7
f0
ec
e8
e2
e8
f1
fe
fe
fe
ff
04
fe
ff
00
02
fe
fb
03
ff
f8
f9
06
07
01
ff
fe
ff
fc
02
04
05
02
06
02
fe
02
04
00
01
0a
08
08
01
f6
f9
07
fc
00
06
07
04
07
fd
ff
06
fb
f9
0f
fb
f8
09
05
00
ff
00
03
09
05
09
09
0c
03
f7
f6
f9
f5
ee
f5
06
fa
ff
03
fe
01
06
fa
fd
03
02
00
03
03
03
ff
03
01
e9
d6
e0
00
02
f3
04
f4
e3
0a
04
07
02
08
03
08
08
09
00
0d
02
fe
fe
fb
03
03
00
00
fb
03
00
02
02
02
04
02
03
fd
04
03
fe
04
00
fd
01
ff
00
03
01
07
01
13
3e
1f
ff
02
02
02
01
01
ff
04
03
04
fd
ff
00
01
fd
00
fd
ff
02
02
02
fc
fb
ff
fd
fd
fd
fe
00
ff
00
00
ff
02
ff
ff
05
04
ff
02
02
fe
02
fe
02
06
0b
04
07
06
fe
06
07
04
03
ff
ff
03
fe
fc
02
02
00
0d
0a
06
09
0c
01
0b
0f
08
f9
01
00
fc
02
02
ff
ff
05
03
fa
fa
02
fc
fd
fe
fc
f9
02
f6
0a
03
03
07
07
06
0c
e0
da
de
f7
ea
f3
ff
fb
fe
fd
fe
04
02
02
fd
09
fc
fd
01
02
00
01
fd
ff
ff
f8
f4
ff
fe
05
ff
fa
03
02
08
f8
fb
fd
f8
fd
f1
f7
00
0e
10
ff
fe
ff
fe
fe
09
0a
0b
f9
e3
d7
da
f5
e8
ed
f4
ea
e8
fa
fa
fc
e3
d8
e2
07
03
05
fb
ff
01
ff
00
ff
fe
03
04
02
00
ff
04
00
fe
02
01
01
06
fe
02
02
ff
07
00
09
08
15
1a
16
ef
e7
eb
f9
f9
03
16
14
0a
d2
c1
d2
e3
dd
e6
01
fe
fa
fe
06
f2
f0
f2
07
fe
03
02
fd
04
ff
f5
02
fe
ef
ea
f4
00
f3
e9
12
14
14
27
2a
2d
fa
ed
f9
06
08
ff
01
0a
05
fb
00
00
fd
ff
fc
03
01
00
03
05
03
fd
fe
03
02
04
09
fd
01
05
01
02
04
02
fd
03
fb
01
00
ff
00
08
04
fc
06
04
00
08
02
01
08
23
31
23
15
13
17
fb
fa
00
04
fc
fe
f9
f8
eb
f8
f7
f3
03
03
04
02
02
05
01
fc
01
09
02
fc
00
f4
f3
00
f9
fb
03
0f
f3
fb
09
f8
fa
07
00
e5
e3
e4
1d
24
27
f7
ed
f0
fc
fb
04
16
0e
07
d6
e3
d2
01
01
eb
fd
03
ec
00
03
f7
06
03
00
03
00
f9
03
fd
f7
05
05
19
ea
db
f4
e6
d9
ee
00
fb
f2
07
00
0e
01
01
02
05
06
02
fe
03
fb
03
07
ff
04
02
04
03
03
fe
00
05
00
06
02
0a
02
01
08
06
00
05
00
08
05
ff
06
03
02
02
ff
09
fb
06
05
fe
08
04
ff
04
06
0c
05
03
18
09
10
05
04
fb
f0
f7
f1
c0
ea
fd
f6
fa
03
fe
fd
03
ff
ff
fe
00
01
f2
f8
03
f2
f7
ff
fc
fe
05
04
ff
02
fc
fe
fe
00
01
02
fd
f6
f7
f5
ee
02
f7
02
02
0e
16
0f
16
17
0b
0d
11
09
fe
ff
04
fd
fe
fb
01
fe
ff
01
fa
05
00
fd
04
fe
fc
03
f7
0a
13
ec
0d
0a
f1
fe
08
09
05
07
ff
fb
fc
f8
00
01
fe
f8
f6
05
03
03
01
07
02
02
00
00
02
fd
fe
05
03
01
03
02
04
04
02
00
02
02
01
06
f9
fc
f7
f1
f8
fc
fd
03
fe
00
fe
02
03
00
01
03
00
04
06
fd
04
ff
fd
fd
00
fc
01
fb
ff
02
03
02
07
ff
fc
33
f4
f8
39
f1
fe
40
f0
fb
f7
ff
09
f7
07
ff
fa
03
fe
00
fd
02
ff
fe
02
05
00
03
f6
f5
f8
0f
11
0f
fb
fc
f7
00
f1
fa
04
07
01
f5
f0
f8
fc
fe
fd
fc
fe
fc
04
04
03
00
01
01
fe
fe
01
ff
00
03
18
12
06
09
f4
f7
fc
f5
fe
02
02
fa
fb
00
fe
fe
ff
ff
fe
04
06
fc
00
fc
02
07
01
03
00
00
ff
02
03
00
02
01
03
05
dd
03
02
d2
08
0a
df
f6
f5
fa
f1
f0
ea
f1
ef
03
01
e3
f3
04
e2
de
00
e5
f2
01
01
04
fd
fc
04
01
fd
ff
02
02
00
ff
02
fe
01
02
01
fe
ff
03
fd
ff
ff
fe
00
01
03
01
09
04
07
08
ff
03
07
01
f5
fb
fd
f2
f4
fe
f5
fc
fb
f7
f9
fa
fb
fc
ff
00
03
07
0e
0a
fd
04
0c
f3
f7
05
f5
fd
f5
f6
fa
f6
f7
f7
f6
02
f9
f9
01
f4
f1
00
fd
f8
e6
f8
fe
fd
00
07
04
03
06
02
07
07
fb
fd
f9
fc
fa
fa
fc
00
03
07
fb
f9
15
14
12
05
01
fc
02
02
07
00
02
00
0f
ee
f4
05
ed
f0
fe
eb
f2
f6
03
0c
06
0e
1d
fe
f8
ef
07
1f
1a
04
0b
13
00
0c
15
fa
03
03
f7
00
ff
fb
01
fd
01
00
05
ff
fd
fe
fd
fb
fe
04
04
03
01
01
00
fe
04
01
ff
fe
08
01
ff
05
03
fd
04
00
d3
1c
ff
e5
15
04
e9
11
09
04
06
08
fc
03
00
fd
fe
02
f9
fd
fe
ed
ff
fd
fa
08
f9
d9
fc
f5
e9
fd
fd
eb
fa
f1
ef
14
f2
f4
0d
e9
f4
0e
07
09
0e
fd
04
e8
e8
03
e3
fe
fd
01
05
00
fc
fc
fe
01
df
d2
e0
28
32
38
d4
d0
dd
12
10
13
f7
f4
f7
ff
fd
04
ff
ff
fc
01
04
06
ff
04
05
07
10
07
e6
e3
f2
fb
f3
f2
f8
ff
02
fc
02
00
05
05
fd
00
06
06
04
02
03
00
ff
00
03
02
ff
fb
fb
ff
01
05
04
fc
00
02
fe
00
ff
ff
01
03
01
fe
05
09
ff
f9
04
fc
fc
00
fb
f8
03
fe
f7
02
01
fe
08
07
fd
fb
fb
fe
03
03
fe
f1
f0
ea
fe
03
fb
09
02
07
05
fa
fd
04
fb
f6
03
fa
00
fe
fb
04
00
fd
06
00
ff
05
07
ff
0a
0b
fc
f9
fe
06
f9
fb
f6
f0
dc
da
e6
07
18
0e
02
01
05
f7
fc
fa
01
ff
f8
fe
01
ff
01
fd
ff
00
00
01
ff
04
02
ff
03
03
04
ff
fe
01
02
fd
f1
f4
fa
f0
f0
dd
02
05
04
fd
06
07
08
06
fe
f0
e4
ee
f9
ed
f5
f0
f1
ea
f0
f0
ec
07
07
0e
0c
02
08
01
02
ff
fe
03
01
ff
04
02
01
03
01
07
ff
ff
fb
04
02
06
05
f7
02
05
fb
fe
f9
08
13
0c
11
14
15
11
fa
ea
fd
ed
f1
fb
fb
f0
f3
1f
24
24
04
fd
f6
05
fd
f8
fe
fa
01
00
02
04
02
fd
02
fe
01
fc
d6
d2
e3
dd
ce
e7
fd
04
f2
03
02
f9
fb
ff
0a
04
07
05
ff
fc
fd
fb
01
07
03
07
07
00
fe
fd
02
fb
fc
04
03
03
03
fd
03
00
ff
07
00
00
03
05
fd
10
f6
f9
01
e6
ff
0d
02
02
fe
02
04
0c
07
05
02
0d
08
04
05
00
ff
04
fa
fe
00
01
fa
00
03
fa
01
04
07
1c
f4
01
1b
e4
05
1d
f0
01
f7
f4
00
fb
e1
00
f6
ee
04
ff
fd
02
02
fe
05
ff
ff
fd
fc
01
0b
06
08
fd
fa
fe
01
02
f7
fd
0b
01
e6
fa
f5
fc
06
04
04
06
02
f9
03
02
ff
ff
ff
05
01
ff
fc
ff
fe
04
ea
fe
f3
df
00
08
fc
09
0b
02
01
fd
03
01
fe
01
00
fc
02
04
02
04
04
fd
03
07
02
fb
f2
f6
f9
f6
f2
00
fe
fa
ff
fd
fc
07
03
06
fd
03
03
01
04
01
fa
02
fd
00
04
f9
f2
d0
ea
00
d5
ec
fb
db
e8
fa
ff
00
02
05
fe
00
08
01
06
03
06
02
02
04
ff
fc
02
03
02
fc
06
04
02
fc
02
fd
ef
0a
05
e8
04
07
e6
06
07
ff
07
fe
fc
05
fb
fd
03
fc
38
fc
fb
40
fa
fe
38
fb
ff
07
00
01
04
00
01
02
04
03
00
02
fe
fd
06
05
fa
fd
ff
01
03
02
01
fc
fe
07
04
04
05
02
05
05
00
02
07
04
05
03
00
fd
00
ff
ff
fd
ff
04
ff
ea
37
02
e7
2e
00
d7
3a
05
05
0e
fe
fc
07
fd
fd
08
00
fd
fb
fd
ff
02
01
03
02
f5
d8
ef
fc
dd
e7
ee
d4
ec
ff
f9
fb
fc
fe
ff
fb
00
f8
05
01
03
00
00
02
fe
fe
06
09
05
15
01
01
16
0e
10
15
f9
f2
f9
ff
fe
03
05
02
01
04
02
00
04
00
fc
02
04
fd
02
df
ec
01
e7
e0
04
cf
e4
03
00
02
02
fe
ff
03
02
01
fd
fe
00
ff
ff
ff
05
04
00
02
01
04
fc
fd
f9
fd
fb
ed
03
04
fe
01
04
ff
03
06
00
f2
f6
1f
f0
f5
1b
f7
f3
1c
01
00
04
08
01
04
05
00
04
01
04
0e
fe
02
0d
fe
05
08
0d
15
07
08
09
09
00
fd
04
fd
fb
fa
00
ef
00
fe
fa
fa
02
09
05
fd
04
06
fb
04
fb
11
08
07
14
0b
02
13
0a
fe
01
06
fe
fd
fa
fd
fc
f6
fe
fd
ff
f7
03
ff
f9
05
ff
01
f8
ff
f8
01
c9
f7
fd
02
fa
01
fe
fd
f7
06
05
00
08
03
05
0b
0c
03
0a
09
fd
02
ff
fc
fc
02
fd
fa
fc
f6
f5
fd
fe
fe
fa
05
ed
fb
fe
02
fe
03
f8
fb
fe
00
ff
04
02
fd
fc
fc
01
fa
03
02
fb
fc
fe
01
fc
fc
03
ff
fe
01
ff
ff
02
03
00
00
03
fe
00
02
ff
02
01
fd
00
00
fe
02
fd
fa
fc
fb
f8
fe
f9
f6
04
03
fc
02
00
02
fa
fd
01
fd
00
04
fd
01
fe
ed
f8
fd
f0
f6
f8
e2
e1
e4
e5
da
ef
e8
ed
ef
f4
ff
03
fa
02
ff
f7
ff
02
01
04
02
fc
04
fe
ff
09
ff
fe
fa
fe
00
01
04
03
07
06
de
05
02
d1
06
05
d0
05
01
ff
fc
fb
f2
fa
fd
f7
f9
f6
fd
10
01
00
0c
fc
fc
0e
02
05
00
ff
03
05
05
00
04
01
fd
02
00
fb
fd
01
f6
f8
fa
03
03
ff
02
00
ff
07
04
02
05
05
06
0c
04
02
0e
04
06
05
07
07
00
00
fd
00
fd
fe
fc
f9
03
01
ff
07
05
05
0a
fe
fa
fc
05
fa
02
08
06
05
ff
fa
fa
03
02
fe
ff
fc
fa
f2
f6
fa
f7
f6
00
f9
f9
fc
f6
ee
fc
f9
ea
ff
ee
fa
f5
00
01
06
f9
f2
f6
ff
fa
fd
0a
09
ff
07
08
03
07
04
04
ff
f8
f8
06
08
02
00
fe
fb
01
03
fc
fb
f7
f8
01
00
fc
f5
f9
fc
fd
fb
05
f9
f6
fa
03
04
00
0d
0c
09
05
07
08
ff
02
03
02
07
01
ff
fe
fe
f7
fa
fc
fc
fc
fc
ff
fb
f5
fe
fc
fd
08
0d
08
05
07
08
03
01
ff
03
00
f8
04
03
ff
ff
ff
fe
03
04
05
f4
f5
f1
00
00
fc
ff
01
00
fd
fd
ff
08
06
ff
00
fe
02
09
0f
0f
fc
f9
fd
fe
00
ff
f7
fc
fc
f7
05
00
fd
08
00
fd
05
05
06
fe
fb
07
ff
f8
02
00
01
02
fc
ff
ff
fd
fe
21
23
22
00
04
fc
ff
ff
fb
06
01
fd
fe
02
03
00
fd
00
f7
fa
f9
00
05
03
fa
06
06
fa
0a
05
fc
f6
fd
fc
f9
01
ff
fc
01
fd
fe
ff
09
04
fe
07
f8
fc
fe
fd
fd
02
02
fe
f5
f4
f0
f9
fb
fc
00
f7
fd
fd
f8
fc
fc
fd
fd
f6
f3
f8
e9
ec
e5
02
fe
01
ff
00
07
fd
00
0b
00
01
00
00
fe
fe
03
03
ff
07
fd
fd
02
ff
fc
ff
02
00
fd
02
fe
06
fa
f3
06
f1
ee
f8
fb
fd
03
01
01
05
02
03
fb
00
02
ff
ff
ff
fc
ff
00
cd
09
0a
c0
06
0e
c3
03
0f
fd
fb
f8
00
f8
fb
04
fb
fd
00
04
03
01
03
05
04
00
08
fe
fb
ff
07
00
03
04
00
03
01
fa
f3
08
f6
f6
ff
f9
f1
fe
01
06
02
ff
04
ff
ff
ff
e9
04
01
ec
02
fb
ec
08
02
fd
00
02
02
02
01
02
02
fe
03
01
02
fd
00
00
fb
fc
fe
00
ff
00
00
04
01
04
05
05
03
01
04
01
01
02
04
01
00
01
05
03
ff
08
00
01
f6
00
fb
0d
f8
01
ff
03
01
f9
fb
04
fd
fc
01
08
05
03
0f
f9
06
f9
fd
00
05
04
04
18
ff
02
f3
04
fd
fb
08
01
fe
fe
fe
f1
08
f3
f2
02
05
02
05
03
fa
fa
00
02
02
00
fc
fc
fc
02
fb
f7
f4
fb
f9
07
03
fd
fe
ff
ff
03
03
01
0c
fe
01
05
fb
f0
19
ff
fb
0e
09
03
ff
01
ff
ff
05
01
fc
03
06
08
04
0a
f7
08
05
01
01
01
05
02
fb
f8
f8
fe
02
00
f8
03
fb
fc
03
fb
03
fc
08
01
06
ff
f4
f8
01
02
f8
02
01
04
fe
07
ff
ff
0a
08
00
fe
fe
02
07
0a
0e
ea
e7
e4
f9
04
f7
fd
05
fc
fc
04
fe
ff
fa
fa
fa
f8
f8
08
03
05
fe
fd
fc
fe
fd
fd
f7
f8
fa
fc
ff
f8
fb
03
fe
fe
02
f7
f9
f5
fb
f5
fb
00
f4
f7
ff
fb
fb
ff
0e
0b
13
3a
3c
3d
fd
fd
04
f9
fa
07
ff
02
0f
f9
fc
f9
fd
02
00
f8
fa
f9
ff
fe
fd
fd
04
01
f8
ff
fc
fc
fa
fe
fe
f8
fd
fc
ff
01
fd
fc
fc
fe
fc
fa
fe
ff
f8
fc
fe
fc
fe
fe
fe
fc
fd
fc
0a
09
0b
f7
fd
fa
f5
fa
f8
04
00
03
f4
f3
eb
ee
f3
ea
04
01
02
01
02
05
fd
00
08
fd
fd
fb
ff
ff
fe
03
00
01
fb
fb
04
01
fb
01
01
fc
fd
00
03
07
f8
f7
ff
01
fd
ec
f2
ef
f5
13
14
0f
e9
e4
f1
04
04
00
03
ff
fc
06
03
ff
f3
00
03
ec
fc
f9
f7
01
02
01
04
07
fe
01
06
04
04
02
01
03
ff
fe
fc
00
f6
fb
04
f4
f8
f7
ee
ee
ed
f7
fa
fb
02
01
ff
fe
00
00
06
fe
00
08
01
00
03
fc
fa
04
02
04
04
00
01
05
01
ff
01
00
ff
f0
e9
f0
ef
f6
f6
0c
06
0a
03
02
02
ff
00
00
fb
fc
fe
01
ff
fd
fe
fd
fb
00
00
01
fd
00
02
00
00
02
fd
fb
03
ff
f9
01
01
fe
fe
fc
fd
04
fe
0b
fc
fa
07
05
01
02
0a
08
ff
03
03
f9
06
f0
ed
fb
fc
f7
f8
04
11
0a
ff
0b
08
05
fb
f9
ff
f6
fd
04
05
01
fc
fc
fe
03
fd
fb
f4
05
03
01
00
01
f6
fa
01
f9
f6
00
f9
0d
15
04
05
01
ff
fc
03
00
fc
fa
02
02
00
05
0b
ff
0c
01
fe
11
03
ff
f7
03
fe
fd
f9
fd
f0
f3
fc
08
02
f9
08
02
06
fe
01
01
02
fc
02
fd
03
06
fa
f9
fb
03
07
ff
00
fc
fa
07
01
07
10
40
1f
00
03
00
07
05
01
f7
e9
ef
05
05
02
04
04
02
f4
f7
06
04
04
03
03
01
05
ff
fe
07
f5
12
0a
fd
04
fd
f5
01
f9
fa
f7
04
f4
f5
07
f2
fe
0e
fc
f5
f6
ff
06
08
fe
01
02
f3
e6
07
f7
db
05
f5
e1
ff
04
08
04
fe
07
ff
03
0f
02
fd
f8
01
01
01
03
01
06
07
05
01
e2
fc
fa
e6
fd
fb
de
f6
f8
f9
fb
06
09
fc
00
05
03
09
06
00
06
02
02
09
04
fc
de
fc
ff
ef
f0
f6
e2
f4
06
05
02
03
01
00
05
01
ff
fe
fe
fe
01
00
fd
fe
ff
03
00
06
03
fa
fc
fe
fb
04
fc
05
05
06
ff
ff
05
fc
01
fd
00
05
40
fb
f8
3d
00
fc
3c
fe
02
fe
fe
fe
02
ff
fd
03
fe
01
01
ff
00
01
01
ff
02
ff
f6
f3
f5
f8
ee
fb
fb
ef
fc
fa
01
00
01
ff
01
01
03
fe
fe
03
fe
00
00
fe
01
01
34
10
0c
21
0e
06
32
15
02
00
fc
02
02
00
02
08
08
05
fb
ff
01
fa
00
04
fa
03
04
fb
fa
fc
fc
02
ff
02
01
04
e0
f4
0a
de
f4
0b
db
f2
0f
fe
fd
05
fe
fc
02
ff
fe
01
04
e9
ee
01
e4
f4
0b
e1
f2
fa
fc
fd
fe
ff
00
05
03
04
fe
01
02
fa
fd
03
f9
f4
fc
fb
00
ff
fc
fd
01
fc
fd
ff
ff
ff
fe
ff
00
04
fe
fc
04
fb
ff
02
fb
ff
00
fd
ff
fa
11
db
e6
09
db
e9
0f
cc
e6
fd
f5
04
00
f5
01
00
f9
02
fe
fb
f6
02
03
fe
01
03
00
f9
0e
de
f9
12
dd
00
0d
dc
fe
fd
f7
00
fa
f8
08
00
fa
fc
fc
fe
fe
f7
fe
00
fa
00
02
e6
1e
fb
e6
20
fa
f0
20
01
fd
fd
fd
fd
01
fe
02
02
f8
01
fd
f8
00
ff
f4
ff
ff
f6
fa
20
f7
f5
1d
f6
fa
1c
ff
01
02
02
00
fe
00
fe
fc
02
fe
00
01
01
ff
01
04
ff
00
fa
f9
01
fe
fe
01
fe
f9
fe
fd
00
00
ff
fd
04
02
03
05
fc
ed
fb
fa
e7
fd
fe
e5
fe
00
00
fe
fe
fe
00
ff
ff
00
fb
00
fe
02
ff
ff
fb
01
09
ff
fd
04
fe
f2
00
ff
f0
fb
f2
f6
02
04
03
ff
ff
fd
fa
ff
03
01
02
01
00
fd
00
f2
fb
00
ee
06
fe
fb
fc
ff
fd
fc
05
ff
fe
00
01
04
01
fe
05
04
fe
fe
06
05
03
02
fd
fc
fb
00
fc
fd
fc
fc
ff
18
e3
0a
15
dc
14
1b
e4
0e
f7
fb
fe
fb
fd
ff
fc
fa
ff
08
f3
01
02
f1
fe
01
f1
02
fb
fc
00
fe
fe
02
fd
ff
01
00
f8
fc
04
fc
0b
0a
fd
f8
ff
ff
fd
07
fd
03
ff
f9
fa
0a
08
05
ff
fe
03
00
04
02
fe
03
03
01
04
05
05
0c
04
0d
f0
0a
01
f5
04
0b
f2
f9
0c
0e
0f
0e
08
05
03
04
18
f4
0e
02
ff
08
04
03
f7
1a
fc
f9
03
07
02
05
fb
00
ff
00
0d
0d
00
10
02
03
0a
fe
f7
03
02
03
01
fc
01
01
00
04
07
f5
fd
fa
ed
fb
fa
f4
02
0c
f7
f3
f8
09
fb
00
f7
01
fe
0b
fd
f0
05
06
03
06
02
f2
02
fb
fa
fc
01
f5
fa
06
fe
fd
01
fb
01
f9
fa
00
f6
f4
00
ff
08
f2
04
00
fb
00
ff
02
04
fb
11
0b
08
ff
09
fe
f8
fc
05
f3
fd
01
f5
03
06
ff
f9
01
00
02
03
fe
05
06
08
02
01
02
01
ff
ff
fc
0b
f7
fa
07
f8
f9
0c
fa
09
05
05
fd
f8
f8
07
06
07
f9
fc
fd
e7
ec
f4
07
05
05
00
02
fb
ff
01
f9
02
02
fe
fd
04
04
fb
00
ff
02
03
fe
01
fe
01
03
00
01
01
01
0d
fb
ff
0c
00
fb
01
01
fe
02
fb
f6
ff
eb
e9
eb
02
04
06
05
ff
01
01
00
fd
00
fc
fc
01
03
05
00
fb
07
05
fe
03
09
05
05
03
02
fe
03
00
fd
e0
e2
e3
0a
04
0c
f7
f6
f1
03
fe
03
fc
fe
01
01
07
04
03
02
06
01
02
03
00
ff
fe
05
02
08
03
01
02
f9
fa
07
ff
00
01
04
03
02
02
01
02
fe
06
01
06
04
fc
08
03
fd
06
04
04
02
00
02
fa
f9
00
ff
fe
ff
f3
f0
ef
01
ff
fb
07
04
fa
05
ff
fa
05
fe
f8
fe
02
02
01
07
07
ff
00
02
0c
08
0a
03
01
06
07
01
07
fa
02
09
f8
01
06
fe
ff
fd
f4
f7
fa
e8
e1
e3
f1
f5
ef
05
04
01
04
05
03
01
00
fe
05
02
fe
06
02
fe
02
ff
fd
06
01
01
03
00
02
02
ff
03
e4
e2
e9
f1
e1
e0
f6
01
f3
fb
f9
f6
02
00
01
f9
f8
fa
00
ff
fc
03
00
fd
fd
00
ff
f9
f9
03
fd
fc
06
01
ff
02
fa
fe
03
00
01
02
04
03
01
f8
fb
f4
fa
0b
ec
fc
05
f6
fe
00
f4
00
fe
fe
13
0d
04
05
02
06
05
01
fb
fd
00
fb
04
fa
f6
f9
f1
f2
f5
f0
ee
fc
00
0e
f5
eb
ed
f4
f2
f4
f8
fe
fe
f4
f9
f8
fa
ff
f8
02
02
f6
0a
06
f4
03
02
ff
fc
00
04
07
01
fb
fd
fc
fc
fb
0a
04
ff
07
03
fd
03
00
f9
f7
f8
f7
f1
f2
f0
f3
f5
06
00
01
09
02
07
04
fe
07
fc
fe
fd
ff
fe
fc
fd
fa
fd
01
02
05
00
fd
fd
fd
f9
fd
01
03
fe
04
04
02
06
08
09
05
07
01
09
09
04
07
03
fa
fa
fc
fa
f4
f3
f6
f2
e5
ed
fa
03
07
ff
04
fe
00
01
fc
f9
f7
05
fc
e4
ef
e5
e6
eb
00
05
01
01
04
05
00
02
04
f7
f4
01
02
05
f3
ff
fe
f8
00
ea
f4
f3
07
02
f6
fe
04
fc
f9
fb
ec
df
ef
ea
df
ea
01
fc
f9
fc
fd
0c
ff
01
05
ff
fa
08
00
04
04
01
04
02
02
fc
fd
fd
02
00
fc
fe
fd
f5
f7
fe
06
04
fc
03
fc
fb
fc
07
02
02
fb
fb
ff
fe
fb
01
fa
04
00
04
02
fe
ff
fd
04
00
06
24
2d
28
f1
ef
f0
0a
0c
08
fa
f6
f2
ea
e5
ea
00
07
01
f5
f7
05
fa
fd
02
03
04
07
fe
04
0a
fc
03
04
f5
fc
f6
ff
f8
fc
fc
ef
fc
09
0c
10
0b
03
1a
03
04
12
00
00
06
06
02
f6
03
06
fb
fa
fe
fe
fb
0d
f8
f9
f9
f4
05
fc
01
fa
fb
04
06
fc
fb
f7
fc
01
fa
fa
01
f7
f9
fe
07
00
01
f2
f9
0a
fe
04
08
ff
fb
01
00
09
fc
03
01
fb
0b
02
01
12
fe
fe
0b
fd
0a
fb
fa
00
fc
01
01
f6
fd
fc
01
00
07
fc
f8
04
03
05
04
f6
f6
f6
f8
f6
f6
fe
01
f5
f9
f9
00
05
09
fb
fa
f8
02
06
fd
fb
f7
f3
f8
f5
fb
f6
fe
05
fe
01
ff
01
01
fd
02
03
05
05
01
04
07
fe
f7
fe
fe
01
03
05
04
fa
03
05
fa
07
06
02
02
fd
06
08
21
0c
f3
f9
f9
f7
f9
f7
f8
fb
fb
f7
ff
ff
ff
04
fe
01
03
ff
0a
06
01
05
06
02
06
03
fe
00
fe
fa
03
f6
fd
0a
11
03
0b
02
ff
05
fd
03
06
fc
01
f4
f7
f1
f1
f9
f4
f7
f0
fb
fa
06
03
fb
01
07
f9
03
06
fc
03
04
fe
07
03
ff
06
04
fe
01
00
02
fe
01
01
fc
fe
ff
fe
fa
fc
fe
fb
f4
f5
f8
fd
fd
01
ff
04
01
00
fc
03
f7
f5
fd
f2
f3
f5
e8
c2
e8
fe
fb
f9
00
fa
f9
fe
f7
f9
ff
fe
ff
fb
fe
ff
00
05
01
00
ff
fc
fd
ff
fb
01
ff
f8
fd
fb
fe
fc
fa
f8
f4
00
f8
f8
f9
fd
fd
02
06
03
ff
00
06
ff
fb
03
01
01
05
fd
01
e2
1d
08
dc
1f
fd
d3
28
fb
07
01
09
06
02
01
04
08
02
fe
01
09
02
02
04
02
05
06
f7
f9
fe
03
05
07
06
04
04
25
e1
0e
20
e1
14
27
cd
1a
01
fd
02
01
03
04
05
fe
04
ff
0a
fa
00
08
fd
fe
13
03
fc
fd
01
ff
01
06
06
04
09
02
04
01
fe
ff
01
f4
f5
ff
fb
00
fe
ff
00
01
06
01
02
fd
fe
fe
00
01
04
fc
01
05
02
02
01
05
02
fe
01
fd
fe
00
fd
05
ff
02
0c
fe
02
07
f0
f6
00
ff
fd
ff
f7
f4
f3
fa
fb
fb
fc
f6
f2
fa
fd
e9
fc
f3
ee
00
fd
ec
fc
fc
f4
fd
04
03
fb
02
05
ff
00
09
fe
f9
fd
03
00
02
03
03
06
0b
14
09
00
fd
fe
05
01
02
d9
db
f1
e3
e8
ca
00
04
02
00
00
00
ff
fd
02
fb
01
02
05
f8
f1
ff
fa
f2
fe
fc
f9
02
04
03
00
02
01
ff
00
fc
e3
e4
da
fe
ff
f3
04
03
09
07
01
fb
ff
fc
fe
fa
fb
ff
03
01
fd
ff
fe
ff
02
01
fd
fd
01
16
fd
fe
0d
fc
fe
08
ff
00
fd
fe
ff
fe
fb
fc
fb
fa
ff
f5
ff
01
fb
01
00
f6
00
00
01
fa
fa
f8
fb
fa
f9
e8
ee
ee
12
0d
0e
f4
f4
f6
fb
ff
05
02
01
ff
02
fe
fb
f7
f4
f8
f5
f7
fe
fa
f6
fc
00
01
08
01
fc
fc
06
01
04
f6
ff
03
f6
fe
04
fe
ff
02
06
03
00
04
f5
f6
e2
ee
eb
f7
f8
f8
ff
fb
ff
fd
fc
00
ff
fe
fb
02
00
ff
fc
f9
fa
02
fd
fd
04
03
00
fb
fb
fc
09
02
01
e0
f4
ed
f7
fb
f7
fd
ff
fd
00
01
00
f7
f5
f7
02
00
fb
fe
ff
01
01
02
06
fe
fe
01
fd
fb
ff
04
01
fd
fe
02
ff
07
04
07
03
01
05
02
00
09
00
01
fb
00
0c
fb
f2
ee
f0
0f
07
0d
04
04
05
17
2e
14
05
07
07
04
02
01
03
07
fd
fa
f4
fd
fe
fe
fe
01
04
05
f4
f5
01
02
07
03
fd
fb
fc
fe
fc
01
fe
f9
fc
fd
00
04
ff
0a
01
fe
00
f7
08
0b
07
06
06
06
03
06
01
02
01
00
07
05
fd
06
fd
03
02
01
03
02
fa
fa
f6
f9
ef
01
ff
fe
01
03
03
07
05
01
00
01
02
03
07
02
02
00
fe
00
ff
00
fd
02
04
08
06
0b
fe
01
05
0a
0b
0a
05
08
05
fd
fd
07
ff
ff
00
01
fc
04
fe
01
02
fd
fd
fd
02
01
02
0f
f0
04
09
ed
01
09
e9
07
f1
04
fe
f4
00
fc
f8
f9
fa
02
ff
02
08
04
07
fe
01
ff
08
e0
13
0c
dc
0d
09
d5
15
fd
05
05
fe
00
00
fe
02
03
fa
fb
fe
fb
fb
fc
fe
02
ff
ee
22
01
e7
22
01
ea
2c
f8
02
05
04
03
01
01
ff
07
00
fe
05
fc
ff
02
fc
fd
02
ff
fd
04
da
04
00
d4
07
0b
d7
ff
00
fe
00
02
ff
fc
ff
fd
ff
fd
01
03
02
ff
01
06
00
01
02
01
06
00
00
f9
f7
01
05
fe
fd
01
ff
02
ff
fb
fd
06
f9
f2
fc
f8
ef
fd
f7
e8
fe
02
01
02
fb
ff
06
01
03
0d
e3
3b
14
cd
35
0f
de
40
0a
e9
ec
06
e7
eb
0b
f2
ed
03
f5
02
01
00
02
fe
02
00
04
11
ff
02
25
fa
0b
1d
fd
05
0b
07
ff
11
07
06
09
07
ff
fb
f7
ff
ff
fb
03
07
02
fc
e9
fe
01
c6
fb
f7
e6
fa
06
f4
f8
02
02
01
fe
04
03
f6
fe
05
f5
00
03
fd
ff
01
08
fb
10
10
fb
10
12
01
13
ff
fa
fb
fd
fc
02
fc
fe
04
02
fb
fe
fe
04
03
ff
04
07
fb
02
03
fc
02
00
01
f7
ff
02
00
05
0a
01
01
05
01
ff
ff
fa
dd
fb
f5
d5
f6
fa
e2
02
04
03
03
02
02
03
02
ff
f9
00
05
f9
ff
04
fc
fb
03
0f
12
10
06
17
16
06
1b
25
ff
fd
fe
f7
f2
fa
fe
fb
fb
f6
f4
fb
f6
ee
f9
f8
f7
f8
12
04
fe
11
f0
fd
02
fd
fc
ff
ff
fd
ff
05
00
02
05
00
13
0c
08
0b
09
06
06
06
05
01
fb
f7
f9
e7
ee
f9
f0
ef
04
01
00
00
fe
03
fc
fe
05
fb
f5
fa
f8
f0
f8
f5
f4
f8
07
03
03
08
04
03
0b
02
05
f8
f9
f8
f4
ed
f4
f4
f6
f4
01
fb
f9
fc
f7
fc
03
fb
fa
02
ff
01
ff
f4
fc
f8
f6
f7
fe
03
00
04
09
04
07
06
02
fd
fb
f9
01
fe
fd
ff
fe
fd
fe
f6
00
ff
02
06
04
ff
f9
fd
0b
06
fc
ff
03
0d
14
17
f6
f0
fa
03
01
02
f7
f4
f2
01
fd
03
02
fc
03
ff
01
fa
f3
f2
e2
03
04
fc
f5
ef
e6
04
06
06
fe
f2
e9
01
ff
03
0b
06
0a
05
03
00
09
fd
09
01
04
fe
04
04
03
f8
f5
f4
fe
00
fe
01
fd
ff
ff
02
03
fc
f2
f8
01
00
02
fb
02
f4
fe
00
ff
01
03
05
04
07
05
07
03
02
00
00
ff
fc
fb
f6
01
01
fc
08
07
09
fe
fc
ff
04
00
08
03
05
06
fe
06
07
f9
03
ff
02
04
fc
02
02
07
fd
f9
fe
ee
e8
ed
fd
00
02
04
04
ff
04
03
fa
06
06
fb
01
fe
06
0d
06
06
f5
f6
eb
fc
fb
00
03
04
02
fc
fc
f8
02
02
03
01
ff
f9
fa
f6
ff
00
05
06
f5
fe
fe
01
00
ff
f8
ff
00
d4
dc
d9
d9
ce
d1
fe
02
00
00
02
01
06
02
fd
fd
fe
fd
03
05
05
01
fe
fc
03
08
05
01
01
fe
00
06
ff
fd
00
ff
01
01
01
01
01
00
03
ff
fb
06
01
ff
07
00
01
fb
fd
ff
02
01
ff
fe
fd
fb
fa
fe
fb
fa
00
fd
01
fa
00
f3
f0
f4
03
05
07
23
27
26
fc
fe
04
fe
fe
03
01
05
0a
04
03
06
ff
06
02
06
03
ff
f0
09
e7
da
11
d7
f9
28
da
f6
f6
f5
fe
f7
00
f2
f2
fa
00
ff
fc
0d
04
06
ed
fa
fc
01
02
f8
06
09
ee
07
08
f9
06
04
05
0c
06
05
11
01
08
f8
f7
f6
01
01
fd
05
fe
01
f7
f7
09
fb
f0
14
f8
fb
12
04
ff
05
08
04
04
fc
04
02
fb
f9
03
fd
f9
fd
03
fd
fc
07
f7
02
04
04
f8
09
0b
00
01
04
fd
f9
02
fc
fa
fe
fc
06
04
00
01
05
02
00
04
09
02
fd
ff
fe
01
01
fb
01
fe
02
00
03
ff
ff
02
ff
07
07
fc
fc
f0
06
f4
e8
fd
01
f7
ff
00
00
ff
ff
ff
07
09
09
05
e9
1f
06
e6
21
05
e3
24
ff
f9
ff
ff
f3
fb
fe
f7
ff
fb
f8
fc
f8
fc
f9
02
03
01
06
ff
fe
0a
ff
fc
06
00
00
05
0d
05
09
14
0a
0a
17
0e
03
02
06
fa
fc
02
fb
fd
00
01
07
10
ff
0b
15
03
0b
14
fb
f7
fb
fb
01
ff
07
0a
09
ff
ff
01
fd
fe
fe
fd
ff
01
02
07
01
08
08
02
0c
09
09
00
00
03
00
00
04
02
05
06
f6
f5
f7
0b
0c
0b
09
05
04
01
ff
ff
01
fd
fd
f8
f8
f9
02
02
02
06
06
04
04
04
07
00
fc
fe
fd
fe
fe
fb
ff
fc
00
fe
fd
03
ff
00
ff
fd
fd
f8
10
f3
fb
0e
ee
03
03
f8
ff
fc
02
ff
f9
fb
fb
f5
f8
05
06
00
f2
eb
f2
ef
f9
f4
00
08
fc
01
05
fb
01
ff
ff
ff
ff
03
f5
fb
fe
fe
03
03
fe
fb
00
fc
f6
fd
03
fa
fb
01
fc
03
01
f9
05
00
f9
ff
eb
df
dd
d2
c0
c4
03
04
02
04
03
fe
01
00
00
ff
ff
fd
03
06
0b
ff
03
04
ff
02
05
03
01
02
00
fd
ff
00
ff
ff
d7
c0
cf
fb
fb
fc
04
06
03
fc
ff
03
fe
fd
fe
fa
fa
fd
03
00
02
fe
ff
01
02
01
04
fd
fb
f9
fd
fb
fc
fc
f8
fa
01
0a
01
06
04
fe
03
f5
fa
08
fe
04
fb
fc
fb
04
fd
f7
f0
fa
f1
0c
f1
f9
07
02
04
05
0c
07
fe
03
02
07
02
fb
fe
0e
0f
02
f9
ff
04
05
04
0f
0a
03
fd
04
f4
03
04
f3
f9
fd
04
f9
07
08
f3
05
02
f8
ee
f0
fc
f1
ff
fd
f4
fa
fe
ff
0c
06
0a
fd
03
fc
fb
f3
0e
f7
03
08
00
05
02
03
06
ff
05
00
fe
fb
03
03
04
fb
f5
fb
05
f7
fa
ff
fa
fa
01
f6
fa
00
08
03
03
f8
08
f9
0d
09
15
fd
05
02
00
fe
07
fa
f5
00
fe
f4
0d
fb
01
03
f6
f8
fa
f9
ff
fd
f9
fa
00
fd
ff
00
fb
00
13
11
14
03
fd
fa
06
01
00
04
00
fa
01
fb
02
02
01
01
04
10
0d
fe
00
fa
ff
02
01
fe
fc
fd
fc
00
f7
01
03
00
fd
00
01
fd
fc
00
01
02
06
02
fc
02
fd
f8
ff
02
02
00
33
37
34
04
fc
01
fe
01
02
01
04
03
fd
fb
f6
fd
02
03
f8
fb
fd
fd
01
ff
fc
05
ff
fd
07
00
01
ff
fd
00
04
fd
00
04
fd
fe
fb
01
fe
fb
01
03
02
04
fa
fb
fb
ff
02
04
f8
f8
fc
f8
f2
f2
f6
f7
f8
fb
fe
fa
05
01
02
07
05
03
d7
c0
c8
fd
f6
ff
fd
f9
01
ff
01
09
fc
02
02
fe
fe
ff
03
02
00
fe
e3
e5
0a
d8
e2
0d
e4
e1
fe
fb
e5
08
fd
e9
17
fe
f1
fb
f7
f7
f6
ff
fd
f6
03
fe
0c
0b
2a
0f
13
22
10
14
28
04
00
00
ff
02
fd
06
ff
f9
f4
f7
fe
07
fc
01
0e
03
03
fe
e0
d9
f7
c7
d8
ec
e1
d7
fd
f8
f3
fd
fd
fa
fb
00
00
01
02
01
06
03
01
fc
03
03
13
fc
ff
13
fe
f5
17
fe
00
05
ff
01
03
ff
02
04
ff
ff
ff
f4
f9
fd
ff
fe
08
03
06
fc
fe
fc
01
01
fe
ff
ef
fa
08
01
01
01
00
fd
f5
00
fd
f2
ec
e2
f5
e3
df
f5
e4
df
00
0a
07
07
f7
f0
ff
fc
02
08
0e
fa
01
0b
fc
0a
02
fe
06
fe
f9
01
fb
fb
05
06
08
05
09
0a
0a
14
1b
06
05
fc
ff
03
0f
fb
fd
10
fd
0a
05
01
02
fd
0c
fe
fc
fe
01
fb
fd
fb
05
0b
f4
f5
07
00
07
f6
e5
ec
fe
f3
ec
fb
e8
f8
01
0d
09
fe
05
09
00
06
fc
06
02
08
fe
fd
03
08
0a
fc
02
00
fc
f5
ff
ff
03
06
09
01
fc
f6
f9
f8
fa
01
fe
07
fd
f5
09
ff
0d
03
01
01
03
01
01
02
03
05
03
05
05
fa
04
fd
fa
fd
00
fd
ff
03
0a
05
fb
ff
08
fc
fc
fb
f8
fc
00
03
04
02
f7
05
02
fe
06
09
02
fc
09
00
0e
00
0a
f8
fe
ef
ff
00
fb
f4
fa
f2
01
00
f7
03
01
03
00
ff
00
fb
05
02
f7
04
0c
0e
00
f3
02
fe
0c
0a
0f
0f
06
02
ee
08
ff
ea
04
00
ee
06
06
03
07
fe
fe
fe
f9
fb
f9
fe
0d
f9
f9
02
02
0c
13
ff
03
0a
08
01
06
05
fb
12
f5
ff
0a
03
04
01
f6
0e
02
0a
00
f9
05
fe
f4
03
f5
f3
01
03
09
f9
02
0f
0d
06
0b
06
05
0b
0d
00
0c
fc
03
02
f6
07
f7
ff
00
09
fc
02
03
06
05
00
f9
fb
f9
15
f5
05
03
01
12
ff
01
02
03
ff
f6
fb
fb
fc
f9
fa
04
fd
fd
fe
fa
fb
09
02
06
fe
f9
0a
03
02
11
03
01
04
01
02
fc
fc
fd
fd
01
ff
f9
04
01
fb
04
fa
fb
03
02
09
01
08
07
ff
ff
04
fe
03
05
05
06
fd
ff
fd
f0
eb
ea
05
ff
fb
01
ff
04
01
03
03
05
fe
04
fe
03
03
fa
00
fe
f5
0b
00
f9
0a
00
f8
06
03
02
04
fe
03
04
00
f8
03
fc
00
fd
04
fe
fb
01
08
04
ff
0b
05
03
fc
02
01
ff
fe
fe
00
03
fd
e8
e5
e6
f4
d6
f7
fe
01
fe
f9
fe
fc
0c
08
10
fd
fe
0c
fe
f8
08
02
fe
09
00
ff
02
fd
fc
fb
fe
00
fe
f9
fa
f4
fa
ff
f2
03
02
f9
0d
10
0c
08
08
07
08
09
0c
fd
fd
f7
fc
fa
fa
ff
f9
f9
f4
f6
f6
fa
fe
fd
f2
f5
f5
f6
f2
f2
e2
e7
f2
ef
ef
f4
f7
f6
fb
f7
f7
f7
f7
f8
f7
0a
03
ff
06
04
f7
09
07
03
fd
fd
f9
fe
fa
f9
f8
f5
f6
ff
04
02
fd
02
ff
ff
02
00
f3
f2
f8
f4
f8
f2
ed
ee
ef
07
08
08
07
05
06
05
04
07
fb
fd
fa
fe
fb
f8
fe
f8
f6
fa
fa
f7
fc
00
03
04
06
08
08
08
05
05
06
03
0a
09
09
03
02
fe
01
fb
fb
02
02
fe
02
03
04
00
0b
fe
fa
07
04
fe
fb
15
ff
fb
20
02
0d
21
01
06
02
fd
10
ff
07
14
0d
fa
fb
fa
f8
f9
04
ff
ff
ff
04
10
ff
0a
0b
07
08
0b
0b
06
fc
0b
fc
f3
02
fb
01
03
00
fa
04
05
02
07
0b
06
0f
fa
f5
ed
ef
fa
e0
f2
e7
e6
05
fd
00
02
f9
08
fe
fe
03
06
02
07
08
09
07
0f
06
00
14
11
fb
0a
0b
fd
09
02
0c
05
02
00
06
fd
00
02
fc
03
09
01
02
03
f9
08
06
fb
06
03
fb
03
02
f3
04
fc
05
fc
0b
09
ff
fa
f8
f6
f6
fa
fb
ef
f0
fc
f1
f7
f5
f6
01
f9
fd
fd
fb
07
03
04
fe
04
01
fa
08
ff
fe
02
fe
fd
08
fd
fd
ef
f7
f7
f1
f1
ea
db
de
ff
00
02
fe
ff
02
fe
ff
fe
02
03
fe
01
01
fc
01
05
fd
fd
08
0a
ff
02
04
f7
01
02
fe
fb
00
08
06
03
24
20
21
fe
fc
01
ff
fd
09
00
ff
0a
05
fe
05
01
fe
00
ff
00
00
fb
01
fe
f8
fd
ff
01
03
01
07
07
02
08
01
fe
ff
00
fe
fb
fe
04
fc
00
fe
fa
fe
00
03
00
05
fe
ff
00
02
00
ff
08
05
06
e5
cf
d3
f3
f8
f5
09
0a
09
e6
ec
e7
08
08
0c
f9
f7
05
fa
f9
ff
f6
f6
ff
09
09
03
00
fc
fa
02
00
02
01
03
01
05
ff
00
04
ff
fe
01
00
fc
09
fe
fc
19
0c
09
06
05
04
03
06
03
fd
fe
ff
fc
f8
fc
fb
f9
fc
fb
f6
fd
f9
f3
ee
fe
f4
f4
ed
f1
f2
05
fd
fe
00
02
04
fe
fc
fd
04
08
04
fc
08
05
ff
04
09
14
0e
01
04
02
fb
ff
fe
ff
f5
f7
fc
fc
00
04
ff
ff
fd
ff
03
04
f8
f8
ff
f9
fa
03
06
06
03
04
fc
f6
01
04
fd
0a
06
ff
02
03
02
fd
fa
fd
fe
03
ff
f9
fc
fe
f7
f7
f5
01
04
06
02
03
fd
06
06
04
fd
fc
fd
04
04
02
08
07
01
06
04
fc
f5
08
02
02
04
fa
04
0c
02
f8
1b
fd
fe
08
05
fa
00
06
08
ef
f4
0b
ed
f2
02
07
01
02
08
fd
fd
00
fc
05
0c
0d
04
05
0d
02
03
08
0b
03
02
05
fc
ff
f3
fa
ff
fc
fd
01
04
f8
f8
fe
ed
eb
fb
f9
fa
fb
f4
ee
fc
ea
f2
03
06
fd
02
04
ff
02
fe
ff
08
fe
fe
00
03
03
fe
04
fd
fc
03
fd
01
03
f7
fa
04
01
f7
fd
04
fb
fa
fd
fa
01
ff
03
07
09
03
02
00
fe
fd
04
0a
07
00
04
04
0e
07
07
02
fc
02
10
00
f7
e7
f1
15
0e
04
f8
07
00
fe
ff
0a
f7
fe
06
01
fe
ff
ff
00
fd
01
06
03
00
fd
03
fc
01
01
ff
00
f2
ef
0b
f7
ea
01
ff
f3
08
fb
f6
fc
01
03
fb
fd
00
f9
01
07
f9
02
0b
f4
04
03
03
0f
0a
0e
0f
08
07
15
0b
06
fc
fb
fd
fd
fd
06
04
05
05
fb
ff
0b
f9
fe
0d
f9
03
ff
f7
f4
0c
fa
00
02
fe
04
ff
fc
0b
01
fc
0d
f8
fc
06
04
ff
01
fc
00
05
01
01
01
0b
ec
ea
f9
e5
e8
f7
e7
f2
f4
fa
fb
ff
fd
ff
00
01
02
00
03
00
f9
fe
02
fd
f8
f3
fd
02
01
06
fc
ff
01
01
00
f7
02
ff
08
00
fe
03
fb
00
f8
fb
00
fe
f8
01
fd
fc
00
f9
04
09
fb
fd
01
f9
03
03
fb
fe
f6
fb
ff
f3
f4
fa
f3
f5
f0
f0
f4
03
00
01
fe
fc
fb
fd
06
f4
fc
ff
f4
fd
fc
f5
10
e6
e2
02
ef
ec
06
f3
f1
fd
00
ff
f9
fc
00
f9
ff
01
f6
fc
fc
fc
01
01
f4
ff
f9
fc
ff
04
02
05
05
ef
f9
f7
c8
0a
fd
c0
0a
fa
ce
09
fa
fd
fa
f3
fe
fc
fa
fc
fc
f5
f8
fb
f9
ff
fd
f9
fa
fe
f6
04
ff
03
fc
ff
03
f9
fd
fe
fb
fc
01
05
08
06
ee
f1
fb
f6
00
07
ff
05
02
ed
f6
f5
03
05
08
fb
01
fd
fe
03
00
03
09
06
00
fc
00
e9
e4
e7
ff
06
00
05
01
01
00
fd
fe
06
f8
ff
f2
e2
f0
ef
e7
ea
fb
fa
ff
f9
fa
ff
01
02
02
fe
06
01
01
01
fb
09
02
fb
02
04
fc
f6
0c
0c
fe
08
0b
f6
fb
fb
f2
e0
eb
d7
c0
cf
00
02
04
00
03
05
fd
02
02
fe
f9
00
00
03
03
01
03
05
08
ff
02
01
ff
02
00
fc
03
04
05
00
04
04
fc
09
05
02
02
08
05
00
00
00
04
05
03
ff
fc
01
00
06
04
02
03
02
0b
16
12
fa
fa
fb
f5
f2
f5
fc
f3
f5
04
06
07
f4
f6
f2
f8
fd
05
fb
fc
07
fd
ff
05
fa
ff
03
fc
01
00
ff
04
fd
f6
0d
e6
fd
09
eb
f8
0a
ea
0c
05
0a
01
fd
03
02
f7
ff
04
01
fc
04
fc
fb
02
fd
ff
06
05
df
04
02
c0
03
02
ed
01
fd
fc
01
fd
fa
fe
f8
01
04
fe
00
04
01
02
03
02
01
fc
fb
17
fc
fb
23
00
fb
15
02
03
00
05
fe
fc
fe
f2
fb
ff
05
fc
fa
03
fd
f5
03
fd
fc
01
f3
fe
ff
ea
fa
08
fb
02
01
04
02
02
03
06
00
03
0b
07
04
ff
ff
00
fc
fa
fc
00
02
fd
01
fb
f9
ff
05
03
fe
02
ff
02
02
02
03
00
03
04
fc
f8
06
04
f4
0a
09
f8
00
00
fe
ff
ff
fc
03
03
fd
fc
05
0f
fe
fa
10
03
0b
11
04
0e
15
f7
00
0b
ef
fc
09
fc
ff
01
03
01
03
03
04
ff
f2
f9
f7
fc
c9
01
f4
f5
ff
00
02
0c
fe
02
09
02
04
07
05
07
07
01
05
02
ff
03
fb
0a
ff
fb
06
0a
f6
07
00
fa
00
03
0d
05
05
06
03
01
fd
04
fd
00
00
fa
fa
ff
fb
fd
00
f2
f9
06
c0
06
fc
ed
00
ff
fd
01
fd
04
06
fb
01
01
fd
04
08
03
03
01
01
01
01
03
04
fc
07
03
01
02
ff
06
05
06
ff
07
04
04
01
03
04
03
0a
21
fc
10
27
06
08
1e
01
00
01
01
ff
03
ff
03
08
03
07
fd
fa
0a
00
fe
fe
02
06
0b
06
08
03
01
0f
0b
04
f9
fd
ff
f9
f8
fb
00
03
fb
fd
fe
fb
04
02
04
fd
ff
09
f7
01
f1
f6
fa
f5
fd
fb
f4
02
01
fd
03
fb
fe
06
fe
01
09
03
01
03
07
01
0f
04
00
f8
f9
f9
f9
01
fb
fe
01
ff
01
f0
10
06
fc
07
00
fb
05
fd
fc
f6
fe
00
00
05
fa
03
00
03
01
01
07
02
0c
01
fb
f3
f4
fb
02
ff
fd
fe
03
fd
fe
ff
fe
03
ff
00
05
03
02
fe
07
04
f9
0d
05
fb
06
01
01
03
02
03
02
fe
fe
06
05
ff
00
fe
ff
ff
00
fe
05
02
02
02
fd
03
01
fa
03
03
fd
ee
e6
ec
eb
e6
e9
06
f5
ed
f7
f2
fd
f1
f4
f0
1b
12
0f
02
fc
f8
04
00
fb
09
06
fb
ef
fc
fe
f4
02
06
f6
06
08
fa
ff
05
fa
ff
05
fd
00
fb
fb
ff
00
fc
01
01
fb
01
07
d3
e2
e8
10
04
09
13
16
0e
fc
fb
03
00
ff
03
07
fd
03
fe
fa
f7
08
01
fb
06
06
01
08
01
fd
07
fd
fc
09
03
02
11
07
0b
0b
09
06
02
06
fc
03
05
03
ff
fd
fe
f9
f6
f9
00
fd
fd
fe
fc
ff
04
03
02
fa
02
07
fa
fe
06
fe
fd
02
01
02
05
00
00
02
03
04
03
fd
03
00
01
08
02
fc
08
05
fe
0c
04
01
0d
04
05
10
09
f7
f8
ff
01
00
00
fc
f9
fb
fa
01
fe
fe
fb
fc
f8
00
fd
0a
08
fd
fb
ef
ea
f1
fe
fe
f7
fa
fd
06
04
00
04
03
04
02
03
03
05
04
03
07
03
04
fe
fc
05
fb
fb
fd
fa
f8
fa
05
04
03
0b
ff
fd
05
01
03
05
fd
ff
fe
ef
ff
f9
00
04
fd
02
00
fa
0b
05
01
01
ff
ff
02
ff
f9
f9
fb
f6
fc
fb
fe
04
07
03
05
03
fc
f8
fd
09
04
00
00
04
03
f5
fd
fa
fc
fd
00
07
01
01
0b
03
fd
f8
ff
02
fe
fc
fe
0a
ff
fc
03
05
fd
02
08
fa
fe
0c
f8
f3
ec
e4
f9
f3
f5
f6
f1
e6
01
01
ff
03
01
fb
fc
02
01
07
01
f9
0b
05
fc
fe
01
fc
f2
01
00
e5
00
05
ee
f2
05
fc
f2
f4
f4
f6
f2
08
fa
f7
fe
fe
06
fe
fb
0c
08
fe
0c
05
04
fd
05
03
fe
ff
04
05
fd
f9
f9
03
f9
fc
09
05
fc
09
fc
01
02
00
fe
07
05
ff
fe
ff
fc
00
ff
fe
06
fd
fe
00
00
ff
02
05
06
00
04
03
f6
fd
fe
d2
e3
e0
f0
fc
fa
01
02
04
ff
fd
ff
0b
07
0a
fd
f8
04
00
f7
fe
02
ff
02
05
02
01
04
ff
01
02
fe
04
05
fe
fc
05
00
00
03
02
00
05
02
0c
05
06
09
0a
1a
0d
04
02
ff
01
02
03
00
01
00
fe
00
ff
03
00
fe
02
ff
fe
f8
01
fb
fa
fb
fd
f8
fb
f9
fe
fb
00
f9
ff
fd
fc
02
fc
02
ff
fd
fd
fe
fc
fd
fe
fa
fb
fd
fd
00
fd
01
fd
fe
fe
00
0d
ff
ff
04
03
fd
05
02
fc
ff
fe
ff
ff
fd
fe
fe
fe
03
fb
ff
00
fd
01
02
fc
00
fd
ff
fb
fc
fc
fb
f9
fc
f9
fe
fe
fe
fe
fc
03
fa
f8
fe
fd
03
00
fd
fb
fe
f9
fb
fb
00
fc
00
fd
fb
fd
ff
fb
fa
fe
02
00
fd
ff
fe
ff
fb
fe
fd
05
01
fe
05
fe
f7
fd
05
ec
e3
ed
f7
eb
e9
05
09
0d
fd
f8
fd
26
40
2d
09
11
07
fc
fe
fe
fe
ff
fb
fa
fd
02
f4
f9
fd
f7
04
fe
02
00
09
ff
02
04
fd
f6
f2
f9
f7
fc
ff
ff
fc
fb
03
05
04
ff
fc
14
0e
14
0c
1c
10
08
0e
0d
f9
ff
ff
fa
00
fd
fc
f9
fd
fe
fa
f7
ff
02
f9
03
03
09
02
ff
fb
03
fb
ff
fe
ff
fe
04
08
09
fe
00
00
0a
0f
0d
02
01
00
02
05
04
05
03
02
fc
fd
ff
ff
02
00
07
09
05
fd
03
06
01
ff
06
03
ff
fe
ff
fe
00
01
01
00
04
02
03
01
fd
0d
05
fe
04
01
f7
01
08
07
07
f8
f7
01
fc
f6
ff
f6
ee
f5
f0
ee
e5
12
14
17
02
04
ff
ff
02
f9
00
02
fd
fb
03
04
04
09
08
ff
06
0a
05
03
09
00
03
0a
04
fd
02
02
05
07
07
00
05
ff
fb
ff
ed
d5
e2
05
05
0c
f8
fa
f9
00
03
fd
01
05
fd
01
03
fd
01
ff
04
03
03
04
fe
f8
04
f9
fc
01
fb
fc
fc
f5
fb
fd
0e
0b
10
01
f8
fd
f0
f1
e8
fb
f8
f9
05
fb
00
fd
fd
fd
04
03
fb
03
01
fc
fc
fe
fe
fc
f9
04
fe
ff
01
03
03
00
02
01
08
06
01
04
03
fd
fa
ff
01
09
02
fc
0c
fd
f6
06
0d
16
03
06
15
0a
08
10
0f
f6
f7
f8
fb
f6
f5
fe
02
f8
03
fe
ff
03
f9
fe
00
fb
06
0b
01
fe
0e
02
03
04
02
02
06
02
02
fd
fb
ff
fa
f9
f9
01
05
fd
04
06
06
05
05
ff
f4
f3
f3
ee
e1
e9
f1
f2
e8
f7
04
fe
f9
05
fb
fd
03
fc
02
02
04
04
04
02
05
04
06
fd
01
06
fe
ff
01
02
03
02
f3
fa
f6
f5
d8
f1
f1
f8
f1
fb
ff
08
02
fe
06
04
fa
fd
f3
f6
fc
f5
f7
f4
03
03
03
fe
00
fb
00
02
00
fe
02
00
00
03
03
01
fd
fd
05
02
00
00
fd
fd
00
00
01
fe
00
03
fd
04
06
fa
01
04
00
06
01
02
ff
fe
fc
f8
fd
06
07
04
fc
f8
02
00
fc
ff
01
fe
fd
ed
e2
0d
c7
e5
10
dc
e5
10
02
01
03
01
f9
fd
07
01
00
00
02
01
03
05
01
02
03
04
fa
ef
f5
04
00
02
04
04
03
1d
0b
f8
1d
0b
f2
1f
09
f3
ff
fb
fc
04
fe
fd
04
01
fd
f1
fb
02
ee
02
f8
e7
ff
fc
03
fe
00
fd
fe
ff
01
03
01
03
05
00
fd
02
06
fa
f7
fd
02
fb
fb
04
03
06
03
01
01
08
06
07
00
02
03
ff
01
01
01
fe
02
ff
fc
01
fd
02
04
01
09
ed
fa
0b
f3
ff
09
ec
07
05
07
04
02
06
06
04
07
fc
fc
f9
ff
fc
f6
00
03
00
f5
ec
fb
f2
eb
00
f0
ee
fe
f5
f8
02
f3
f5
f6
f3
f6
fe
03
06
08
06
03
04
07
06
03
01
01
d5
01
fe
c0
00
fa
c4
f7
fd
fe
ff
01
fe
02
05
00
04
03
ff
00
01
fc
00
02
ff
ea
df
f5
f1
dd
f1
ee
e7
f7
02
02
00
00
00
00
05
ff
fe
fe
00
fc
fd
01
fc
fe
03
ff
fc
01
ff
00
01
fa
fa
fa
fa
02
01
01
fe
fe
fe
01
03
05
03
0e
13
f9
04
21
fc
15
19
00
fa
fb
ff
fa
fb
01
fe
ff
f5
fe
e4
f2
ff
e8
ec
00
f2
f3
05
05
f6
04
fd
f0
fe
fa
00
fd
ff
fe
fe
fe
08
03
04
1b
f8
ed
09
00
f2
1b
fd
f7
03
02
01
ff
ff
ff
fc
fe
fe
f9
fb
01
fa
fd
02
f5
f8
f8
e9
0d
23
f5
02
14
e7
05
0a
fb
f3
f7
01
fc
00
05
02
06
fd
fb
00
fd
fe
ff
fc
fd
01
f4
25
ea
ef
17
f2
03
21
f4
04
01
03
04
00
02
02
00
06
fe
fb
fc
03
00
03
04
fe
ff
09
03
02
01
fd
04
07
03
05
01
fd
fc
ff
fa
fc
05
00
02
06
f5
d0
fd
f3
d4
f8
ec
d7
fe
fd
f9
f5
f6
fa
40
38
40
fd
01
f8
ff
02
02
05
03
04
f4
f4
04
ee
e0
e4
dc
c0
d2
fd
f9
03
02
01
03
03
ff
07
fd
fe
fa
02
04
f8
07
04
f2
fd
01
03
fe
05
02
fd
06
06
f5
f0
f4
f2
ef
ef
f6
f5
f8
fe
ff
00
f9
fd
0b
fa
fd
0d
01
fc
fe
01
02
06
05
04
08
02
01
fe
ff
00
01
01
00
03
01
fc
ff
02
fa
fb
09
fc
f8
07
fd
fa
02
01
01
05
06
03
ff
fd
fc
02
00
ff
01
03
02
ff
04
f0
fb
fb
01
05
ff
f7
fe
00
02
21
16
24
d3
d7
d2
02
04
02
fd
01
09
fe
05
0b
04
03
03
fc
fe
ff
01
02
fa
03
01
02
00
01
04
ef
05
04
eb
e0
dd
07
f8
f7
ec
e6
eb
f1
f4
f4
0c
0b
0c
08
1a
0b
05
03
fb
05
0a
fc
fc
ff
05
05
09
08
ff
0c
09
06
04
05
01
fd
07
fa
fd
fd
01
f8
f4
fd
fc
08
fc
f8
09
06
00
fa
f6
f2
fc
19
22
22
0c
0a
09
01
fe
03
fe
01
01
03
f7
ff
06
02
ff
06
06
03
06
04
01
05
04
01
05
fa
fb
fc
01
fe
17
12
1a
eb
eb
e6
0e
15
12
ff
fc
fe
02
02
02
05
05
07
02
01
00
02
03
00
06
0b
04
ff
02
07
f8
fb
06
fe
ff
ff
02
01
fd
ff
fe
ff
02
00
ff
04
01
00
02
ff
f7
ff
fd
f6
f3
05
0d
f0
f7
00
fb
ec
00
fd
fe
01
fe
00
01
03
03
fb
03
03
03
08
07
fe
07
04
ff
3b
fd
0d
34
f5
05
2f
ff
fe
08
02
01
00
00
01
01
05
06
00
fc
03
fc
fc
08
fd
01
03
fc
fa
10
00
fe
02
01
05
fd
ec
23
f9
e5
2a
f9
ef
27
01
04
02
ff
04
01
fc
02
ff
00
09
f9
f4
06
f3
fa
09
fc
f3
fe
fa
0a
00
03
03
03
05
05
03
04
05
03
05
02
fe
f6
ff
01
03
02
01
04
ff
03
01
fc
00
fc
01
00
fe
04
fe
02
fd
fe
f5
ed
f8
ec
ed
fb
f5
f8
04
00
01
01
fc
ff
04
01
03
f9
f5
f9
f6
f2
f3
fb
f7
f7
00
04
04
fc
00
00
01
00
03
02
fb
fa
00
f9
fc
00
fb
fc
03
02
f7
00
02
f6
ff
03
fb
fe
ff
ff
02
ff
f6
fd
f9
fa
0a
f2
e2
09
f6
e8
03
f4
eb
04
01
06
07
fd
fe
07
00
00
05
03
06
04
01
05
02
ff
05
0c
1a
05
04
11
06
00
12
0f
fa
01
fc
f7
fe
fb
fc
fb
fd
fa
d3
f8
fc
c4
fc
00
ca
f4
14
f7
00
15
f4
fe
16
f4
01
0d
f2
eb
0c
ef
e2
1b
fa
e7
13
f6
05
18
f6
06
13
f2
03
f4
ef
02
f5
fc
02
f9
05
05
ff
04
02
01
00
00
02
04
04
07
08
ff
ff
01
f8
ff
ff
f9
02
06
01
fe
01
ff
01
04
06
fa
f9
ed
fc
f5
e9
fe
f5
ed
f9
fa
fe
fd
fc
f3
01
f3
ee
03
08
03
ff
01
00
fa
f9
f7
fe
fc
ff
00
00
ff
ff
fe
f5
fa
fe
fe
ff
fd
00
09
04
03
f7
12
0e
f5
07
12
f0
19
0f
04
08
00
01
03
fd
00
04
00
fb
02
03
fe
0a
03
fd
05
fa
fe
fb
04
fb
fb
01
ff
fb
fd
00
00
01
fd
01
01
fe
00
01
f2
02
f2
ea
fa
ec
ec
06
f5
02
fe
03
fe
fc
00
ff
fe
00
05
12
05
0c
0e
0c
06
06
0f
ff
04
02
03
05
fe
01
05
03
00
08
0c
f8
fe
fd
fb
fe
ff
07
0d
0b
04
08
05
02
06
02
00
03
01
fd
fe
ff
fc
fe
fe
04
08
0e
fc
0e
13
fa
08
0d
06
f8
02
06
f9
00
03
02
07
14
0a
fc
12
0c
01
0f
0c
fd
fd
fe
02
fa
f6
f9
fc
02
00
00
fe
f9
05
ff
ff
09
01
07
ee
f7
00
ec
f6
01
ed
f6
ff
11
04
07
fd
fb
00
01
00
01
f6
f7
05
00
f9
fc
fd
f7
04
03
fb
ff
06
fb
01
f9
f7
04
18
00
05
0f
08
07
09
ff
08
ef
f4
00
fb
f9
fc
f7
f8
f7
fe
f6
fb
fb
f9
fe
02
f9
ff
00
01
00
02
01
01
02
05
06
f8
ff
03
f8
f8
fd
04
03
01
fa
fd
fe
ff
00
fe
01
04
00
fe
ff
05
ff
fe
03
fe
00
05
06
ff
03
07
02
04
08
04
08
08
06
ff
03
02
fc
05
fe
f9
de
e1
ea
e3
eb
f0
ea
fb
ee
02
ff
fd
03
04
fe
09
09
01
03
00
03
09
04
ff
05
06
06
ec
0b
05
db
07
03
df
02
ff
f2
f5
01
ee
f5
02
f2
f9
fe
fe
eb
eb
f8
e0
e3
ff
f2
ed
e9
12
05
e4
0e
00
e1
0f
01
ec
fc
f7
f6
fe
f2
fd
09
fb
18
04
fe
1c
01
fd
2c
09
fe
0b
04
ff
10
0d
08
06
03
05
ff
f9
f8
02
06
00
04
07
08
06
03
06
04
ff
05
ff
fe
fd
00
04
00
fa
f8
02
fd
fd
ff
00
00
00
05
03
fe
03
06
03
fa
05
09
10
0d
0c
0c
14
10
12
0c
07
ff
fd
fe
0b
0b
0e
f8
f3
f9
f7
e2
f3
f2
f3
f2
0d
0d
0b
0c
0a
09
09
08
0b
07
07
fe
05
01
f8
03
02
fe
02
07
01
04
07
0c
06
03
06
f2
ff
fd
ed
e4
ee
f7
f8
f7
0b
03
05
09
00
fc
02
00
fe
06
05
0a
05
ff
09
03
02
04
07
02
05
04
fd
02
09
09
04
00
fd
fb
02
fd
fd
01
00
fb
02
ff
f5
05
05
f6
10
1b
00
00
02
01
f8
ef
f6
fe
fe
f5
08
02
03
03
04
06
06
07
07
02
00
04
00
fb
01
06
01
ff
05
03
fd
01
01
ff
fc
fd
f9
04
07
06
fa
f6
fc
fb
f9
00
fe
fb
f1
04
01
fe
fc
ff
fc
fe
00
fd
00
07
03
f6
05
00
fc
fc
fe
f6
f3
f4
ec
e9
e7
00
03
ff
04
08
fa
02
09
fc
f9
fc
fa
fd
02
04
02
04
01
00
00
05
04
04
09
05
06
fe
06
02
01
0b
06
00
17
0e
07
ff
fd
01
04
fb
00
0d
f8
04
09
03
ff
09
09
04
14
12
0b
07
fe
00
04
fe
00
fd
01
f6
02
00
03
04
f7
04
0d
f8
09
04
01
00
fe
ff
ff
02
03
03
00
ff
02
01
fa
fd
ff
03
02
06
01
02
fd
03
02
fb
fb
02
fe
00
fd
fd
ff
fd
00
02
00
f6
06
fd
f6
02
f8
f7
03
03
fe
04
ff
ff
03
06
ff
f9
fc
ed
cd
0b
f6
d6
0a
f4
ca
06
02
01
fa
fc
ff
fd
03
03
04
ff
01
02
fc
ff
01
00
00
01
38
ee
fc
3c
ee
f2
40
ed
fb
03
01
06
01
fe
02
fb
fe
fc
c9
11
07
cd
0c
10
c7
11
01
eb
22
f9
ec
26
f6
e8
25
fb
f8
0b
09
f5
04
04
f4
ff
01
07
df
0f
08
e1
1a
0f
d5
0e
07
f7
06
04
01
03
06
01
fc
ff
f1
f9
f8
ee
06
02
fd
ff
fd
0a
01
fd
08
0e
00
fb
08
f9
09
fc
02
02
fd
fc
ea
fa
fe
04
07
07
fd
02
01
02
06
ff
05
05
03
0d
01
ff
12
03
08
f9
03
03
00
06
ea
0a
06
fd
fd
01
f4
08
08
fa
0f
06
ff
ff
02
fb
03
06
f5
08
f4
fd
00
01
fd
f6
fe
fa
07
05
07
00
f8
11
c1
ef
fc
f7
06
fd
f9
05
fd
ef
e6
fb
ed
f3
02
03
fd
07
fd
e9
f2
02
05
00
fa
04
02
f4
0b
fe
f1
02
fb
05
ff
f3
0b
16
09
11
0e
fa
00
01
f6
03
eb
fe
0c
05
fd
f9
f2
ff
05
fe
e8
df
d7
00
02
ff
e7
e4
db
09
03
08
fd
fd
fe
fc
ff
02
fc
fe
00
00
ff
02
00
fe
fd
00
fe
fe
06
05
03
01
ff
fd
03
02
03
fa
f5
f4
f9
fb
f6
05
0b
12
e9
e7
dd
19
0f
1f
fa
f5
f7
ef
f5
f6
f0
ff
01
f0
f8
00
ff
fe
fb
fb
fc
fe
ff
fa
fa
04
01
00
00
04
ff
05
03
00
06
00
fc
0e
03
fd
13
05
fe
04
05
03
fc
fe
01
fc
fa
fa
fc
fd
03
fe
02
00
02
02
fe
fd
06
06
01
00
03
03
fe
04
f7
f6
f3
f9
f7
f7
00
fe
01
fc
ff
02
fb
03
03
fc
01
01
05
02
fe
f6
f4
fa
f7
f3
f8
03
00
fc
03
01
ff
04
03
04
c0
c1
c2
eb
e4
df
f6
f8
fd
e4
e6
e6
02
08
08
01
00
ff
04
01
00
06
03
03
05
02
02
01
f3
ed
f6
f8
fa
f7
f1
f2
fe
01
03
ff
01
05
00
02
01
fc
fc
02
f1
fe
05
f9
01
04
02
02
00
01
fd
fd
00
01
03
fd
03
01
01
02
01
f9
fe
fc
0c
03
00
0f
01
ff
09
00
fa
e4
e5
e0
e5
f3
ed
14
0d
16
ff
00
00
f7
fc
fd
ff
ff
fb
03
02
00
03
ff
fe
02
01
00
ee
e8
e0
ed
e9
eb
f1
e7
e8
01
fd
01
fb
fd
03
05
ff
00
02
00
08
fc
02
11
ee
f1
f3
05
0a
02
f7
f5
f8
f7
da
eb
14
02
02
08
0d
0a
fe
f7
f9
f5
08
03
eb
e5
f2
00
fc
fe
03
fd
fe
04
02
fe
f9
fb
06
01
fd
05
02
03
03
fe
fe
0c
f7
fb
06
f0
07
f5
02
c0
e3
09
03
fe
0c
00
03
f4
03
04
01
ff
fe
f6
00
f1
03
d5
f5
01
0a
09
06
09
01
fa
f8
07
01
04
07
f8
02
01
0c
f6
fb
01
08
08
fe
f8
fd
fc
fa
fd
fb
f8
00
0a
fa
0a
0d
06
fd
fe
04
06
f7
0f
fa
01
ff
fd
04
03
f7
09
0b
06
d4
d1
c7
06
fb
fe
ff
ef
fa
00
03
fd
f4
fd
02
f2
f7
f4
fd
fb
f2
02
00
03
00
fd
00
00
fb
01
fe
fc
00
fe
fc
fe
09
03
05
fe
07
0d
00
fd
fd
ff
02
05
ff
00
e5
00
04
e8
fb
ff
ed
00
f2
dd
fd
fb
e8
ed
ec
e8
01
fa
fc
01
06
01
fd
fd
ff
08
0f
0d
ff
06
08
ff
02
08
02
07
fe
fa
02
ff
fc
fc
03
04
14
e3
ff
0b
ea
02
10
e6
08
09
09
0a
07
01
06
04
07
fd
06
0c
00
00
07
07
ff
05
f4
00
ff
f6
fe
fa
f7
fe
fa
fb
fd
fc
fb
fc
fb
ff
fd
fe
ea
e8
ed
e7
ea
f0
fb
f3
f3
01
f8
fc
ff
f9
fc
fc
f9
f9
f8
fd
fb
ef
fe
f7
f0
01
fb
03
ff
05
01
02
04
01
06
06
01
04
04
00
03
fd
01
fe
00
05
04
05
01
ff
05
f9
00
00
05
f9
fc
01
fc
f9
00
fc
f6
f9
ea
f2
e7
eb
ee
e3
f0
f7
02
01
01
02
01
06
f7
f9
fe
e4
18
0c
dc
09
09
db
1c
05
fe
00
04
ff
00
02
fb
fe
03
00
ff
fa
01
00
fe
01
00
fb
ca
e6
ed
d1
d1
f6
cc
d5
f6
fe
04
05
f9
01
09
f9
f7
03
28
21
de
1a
18
d7
1c
22
da
1b
e3
f2
16
eb
f7
1d
e2
f4
0d
fa
ec
fd
f8
e8
ff
fa
ef
e5
30
f0
e4
34
f0
e3
3e
ef
05
f4
0b
fe
f3
04
00
fb
03
f8
fa
02
03
fd
fb
00
fd
02
fc
fe
01
01
fd
fd
07
04
02
05
03
02
00
01
ff
ff
ff
fb
00
fa
05
fd
f9
04
fa
fd
00
fe
12
05
fa
10
f5
f6
04
f3
01
04
ff
09
01
00
f9
f8
01
03
01
f2
fb
ff
f8
04
06
f8
fe
fe
02
03
fe
ff
fd
fd
04
03
fc
f7
fe
fe
f7
03
00
fe
ff
fd
01
00
fc
fb
fb
fd
fd
07
fd
ff
fc
fe
fd
fd
fa
fe
0c
fc
00
0b
ff
fe
03
03
01
00
fc
03
02
fd
03
01
f8
01
0b
0b
fe
03
03
f7
ff
04
fe
0a
fd
00
08
fc
ff
02
fa
05
0c
0b
04
01
fe
f2
f7
f6
fe
03
02
02
fe
ff
fb
ff
fe
04
f8
f3
ef
f7
f3
f5
02
05
0b
04
04
00
04
ff
fb
00
01
fe
06
01
07
00
fb
04
01
00
08
0a
06
10
fc
fc
fd
f9
03
00
03
01
01
02
fb
f2
01
09
11
e9
fe
f6
e0
fc
02
01
f6
fd
02
02
04
fb
ff
fa
02
07
0e
08
02
06
00
00
03
ff
01
05
fb
0c
01
fa
fe
fb
ed
0c
fd
00
fa
fa
00
03
04
07
fc
f8
11
ee
04
11
02
01
1c
f1
ff
27
f8
fb
25
f7
ef
25
fb
f8
05
08
fa
0b
f7
ec
00
01
f8
ce
07
07
c0
0f
09
db
09
0b
0a
0f
17
02
08
04
f1
fb
07
fe
fa
f8
f8
f9
ef
f9
fc
fb
0e
fe
0d
06
fe
06
fe
ff
05
fc
f3
f7
00
07
fc
02
fb
ec
fe
ff
ff
f3
f9
01
fd
00
05
f9
f0
09
f3
f4
01
03
fa
15
07
fe
13
fe
0e
e8
f0
fc
0a
f7
11
18
fe
10
13
08
15
0b
fd
fd
fd
f7
fb
e9
f0
f8
09
04
09
00
fb
ff
f3
fe
02
fe
03
e7
f3
ef
f7
ea
f0
f7
f9
f4
f5
0d
01
0f
eb
ff
0e
ef
fe
08
06
f8
fc
08
03
f5
00
08
0f
f6
0d
0e
f3
05
03
ed
fa
08
1d
16
00
05
02
0f
18
fa
f9
07
f9
f8
0b
06
f8
06
00
f7
ed
01
fd
f5
fa
ff
01
01
00
03
fc
fb
fc
01
fe
ff
cd
c7
cd
08
0e
0e
10
0c
0e
cc
d8
d1
14
11
15
fa
fb
ff
fe
fc
f6
00
03
fb
02
04
fd
fa
f9
f8
f6
fd
fb
ec
fd
fb
01
fe
fb
03
fe
01
01
fc
02
01
03
08
fe
ff
fc
0e
06
00
00
fd
fd
00
fe
02
ff
ff
fe
01
04
fb
02
02
f5
ff
03
f6
07
00
fc
07
02
02
01
00
fe
15
04
09
0a
07
10
ef
e5
f0
08
00
09
01
ff
fe
02
f2
f8
04
05
00
03
03
fc
04
00
fd
ef
f4
f2
32
28
1c
00
fa
01
08
fd
05
05
00
03
09
fe
fd
f4
fe
04
f4
f9
f9
f4
f6
f3
f7
fa
fc
fc
fb
ff
01
04
03
30
36
35
f4
f0
f9
02
ff
fc
25
23
24
ea
eb
e5
fc
fe
02
fb
f6
f0
ff
fb
f9
ff
fe
fd
f4
e1
e2
f5
dc
e2
f9
f5
ed
fb
f9
fe
fa
fe
fc
fd
01
01
ff
03
02
fb
05
05
f4
fc
ff
ff
03
03
05
06
02
ff
02
00
fb
01
05
fd
02
02
fc
ff
00
0f
08
04
03
ff
01
01
00
ff
31
3b
40
0b
05
0f
fe
fb
f2
05
00
00
ff
f9
f7
03
fd
f7
0b
00
fc
02
fb
fe
02
ff
ff
fc
f3
fe
f3
ef
e9
02
f9
f8
fc
03
05
ff
01
00
fe
01
ff
0e
08
fb
09
08
09
0f
0b
0d
01
01
fd
02
01
ff
03
06
06
02
08
08
04
06
0b
08
0a
0c
01
00
f5
ff
fd
fc
01
01
ff
f3
00
2d
f5
f6
40
f5
fc
25
fa
f9
18
f5
f4
2d
fa
f8
0d
04
fe
fb
07
05
06
fb
fd
05
f9
03
0b
f1
ed
ed
f0
ea
ec
03
06
01
07
0b
08
0a
0c
0c
01
09
0b
03
0a
01
01
06
03
fc
fa
f6
fc
06
08
fe
02
07
09
04
f0
00
fd
f1
ff
01
f4
01
08
14
fb
04
02
f9
fe
00
01
03
ff
03
05
07
02
04
0a
fb
fe
01
f3
fa
00
fd
01
0a
0a
04
09
07
fe
f7
06
fc
fb
02
01
17
e9
df
e5
d4
c0
e3
fc
03
06
ed
c0
e0
eb
ec
ea
0f
0c
04
f9
f6
f6
fe
ff
06
fb
f4
fd
00
00
ff
02
00
00
0d
0f
13
fa
f9
fe
fe
00
03
0e
18
0e
fa
fa
f7
f5
f2
f4
fa
0e
f8
dc
d1
d5
2c
31
31
05
f2
fb
f2
05
02
f0
fb
02
f2
02
f7
dc
c0
de
02
02
05
08
0d
03
fa
fa
05
fb
ff
04
fe
16
06
0d
fb
fa
05
fd
f9
01
f0
f7
01
02
fe
02
ff
00
07
fd
0b
fe
03
ff
f9
fe
fe
fb
0a
04
04
01
fd
04
ff
01
00
fc
f2
e6
e8
e8
de
e5
ee
ff
ef
f7
02
01
fc
fa
fd
00
06
14
08
01
04
0c
04
09
14
09
ff
07
fa
f5
01
01
00
02
f8
05
08
f8
fe
09
f6
01
05
01
f7
f0
03
01
fd
fd
fb
f6
01
02
00
fe
01
ff
00
03
04
fd
09
0d
00
f9
05
fa
00
0e
00
fc
fc
e9
f0
02
0c
0b
f5
06
fd
ff
0e
07
ff
0a
01
fb
f8
f9
fa
f5
f0
f8
07
02
f0
00
00
ff
fb
f1
01
05
02
06
f3
00
fb
e7
e5
f7
f4
fb
05
f0
02
f9
f7
f9
f3
f9
ed
fe
f1
1f
f0
f7
dd
02
f5
fb
f6
00
0a
04
f9
0f
fa
f6
0c
00
11
0f
12
0d
0d
22
26
16
24
f9
15
f7
00
e9
fe
01
f9
f7
12
17
0e
18
14
1a
29
3e
24
fe
ff
fd
f8
fe
fd
fc
f1
ff
0a
06
08
07
05
05
08
0b
01
0f
07
08
09
09
09
0b
0a
02
ff
ff
ff
fe
ff
fd
ff
00
fe
ff
06
0b
00
06
0d
02
06
12
fc
fb
fc
08
07
05
fb
fc
f2
02
05
00
fd
06
02
fb
03
fd
fe
f9
f8
f9
f6
f4
ef
d0
eb
01
fc
ff
00
f9
04
00
fa
ff
ef
f8
f8
f6
f6
fa
f2
f8
ff
fd
f7
fa
03
fe
fc
ff
00
fb
0c
0a
0c
14
11
0c
1f
17
07
fc
f5
05
06
fc
07
0a
01
07
22
10
21
18
0d
22
1c
18
22
01
ff
fd
fe
01
fb
05
00
f8
f3
fd
f8
fc
f9
fc
0c
ff
01
fd
00
01
00
fe
03
01
03
04
09
05
03
05
05
04
ff
09
04
06
08
00
00
03
fe
00
ff
04
fd
09
fa
fd
05
02
f8
fd
fc
fb
ff
fb
f6
02
f3
ee
f1
f8
00
fa
fd
ff
fc
ff
fe
04
fe
f2
ff
0e
f4
f7
10
f6
eb
05
fa
fd
fc
f9
ff
01
fb
ff
00
fd
00
00
ff
01
01
fe
02
01
fb
e5
f9
fe
db
fc
06
e6
04
fe
fe
05
00
fe
04
03
fc
ff
1c
fb
09
19
ef
06
1e
f9
07
0f
0f
f3
0e
0e
e8
0d
18
ef
ef
0f
00
ea
06
02
e1
09
03
f1
09
1d
f5
03
1b
ee
04
22
fb
f7
02
f6
f1
f6
f5
ee
ec
fe
fb
f9
ff
fd
fd
02
fb
ff
df
ee
fb
f2
fd
02
f8
00
ff
f4
ef
f1
03
04
fe
00
02
15
fe
fd
fb
00
fc
f3
06
04
f6
f5
f2
ec
e9
ea
ec
e4
e0
dc
fc
01
01
f8
00
01
ff
fc
fe
f2
01
02
f6
02
05
f6
04
05
05
07
08
fe
fe
00
01
01
02
ff
0c
14
fe
02
0a
ff
ff
05
0d
00
fe
03
fa
fa
07
fd
fc
e7
ec
dd
f6
fb
01
fc
fb
08
07
01
06
fb
05
03
fe
fc
ff
05
00
fe
fa
ff
00
00
fd
02
fc
fe
f6
f6
ed
ef
de
e4
ef
f6
00
01
f2
02
07
f4
01
ff
ff
fa
f9
f7
f4
f1
f1
f4
f0
fa
f9
fb
fe
00
00
f9
fb
ff
f8
fb
fe
01
04
fd
0d
04
01
fe
02
04
fc
ff
fe
03
03
02
02
fd
f9
00
fc
ff
01
ff
00
0b
09
07
04
ff
fb
fe
fd
fc
04
fa
fc
00
fc
fe
f4
f5
f8
f4
fb
f4
ea
f9
f9
ea
f6
f6
06
04
04
04
06
06
fe
00
02
ff
fe
02
f9
fb
ff
f9
00
04
08
01
fa
06
fd
fa
ff
fe
fc
13
05
04
f1
fc
fe
05
01
ff
fe
f8
fd
fd
02
00
00
fa
fb
04
ff
ff
ff
00
fd
fc
01
02
ef
ef
ef
fc
fb
f9
fb
fd
02
f3
00
00
f7
04
05
fd
00
fe
05
04
04
13
17
0e
08
09
fc
ff
00
ff
05
08
03
f7
f5
f0
0c
19
10
17
15
1f
fe
f7
fd
ea
df
ec
fc
f5
ee
fc
f4
f0
fb
fa
fe
00
06
0a
00
04
06
f0
f2
f9
fe
fe
04
0e
16
12
fe
00
07
ec
f6
fa
03
03
f2
06
0a
04
f2
f2
f2
06
03
09
03
fe
f9
02
fe
fa
02
07
fc
fd
fe
02
01
09
07
01
ff
02
fe
f7
ff
06
06
00
f5
fe
f9
e3
e2
e4
f1
eb
ef
f2
f0
fb
09
ff
fb
fb
04
03
f8
05
fc
03
01
01
02
06
06
ff
06
01
25
1a
1b
0f
27
18
f8
02
fd
04
02
ff
fb
fc
fb
01
0e
ff
f4
08
fe
ef
fd
fc
f0
01
04
03
fd
ff
02
00
00
02
ff
03
f7
fd
fb
fb
fe
03
01
00
08
02
05
ff
fc
fe
fd
fd
01
00
fb
fe
09
fe
00
0d
fd
fb
04
f4
f3
05
f4
f6
fe
f8
f5
fa
02
00
fa
fb
fa
fe
05
00
02
00
03
02
ff
fe
fa
04
fd
f7
03
ff
00
fd
fc
ff
02
fe
00
02
f1
30
f7
f0
3e
f7
ec
40
08
f9
01
03
fe
02
01
fd
fd
03
fd
01
ff
01
00
fa
02
00
f7
fd
06
fc
fd
09
fe
fe
04
00
fd
00
fe
00
00
01
ff
fe
ff
f9
11
ed
ef
0a
f1
eb
07
03
00
01
07
fd
04
ff
ff
04
f5
ec
f7
ff
ef
f1
0b
04
f8
05
01
fe
07
01
01
03
05
fc
02
00
ff
fd
f4
fa
fd
fc
fa
07
0c
05
06
03
04
04
05
01
fc
fb
f4
f8
f7
f3
f7
f9
fc
f4
ee
eb
f0
d5
e3
e9
dd
e2
04
03
04
09
fc
fc
07
07
fd
06
02
0c
fe
09
0b
fe
06
09
fc
00
ff
03
fe
fd
00
06
00
02
ea
ec
fe
e3
db
f8
e8
e8
fc
fb
f7
04
f9
f6
ff
fd
f4
fd
0c
01
ff
06
01
01
02
00
10
fe
fa
10
ff
fc
0c
fd
fd
ff
fd
01
01
fc
ff
05
fc
00
f7
f5
e1
f8
eb
e3
00
e9
e6
09
fe
fd
08
00
fd
02
02
02
0b
14
0d
0a
19
0e
09
1d
18
00
01
04
03
00
04
02
02
03
02
0c
0b
fa
0b
0c
fc
03
08
01
08
04
00
05
05
fe
ff
ff
fd
02
06
01
04
06
fd
00
04
11
16
1c
0d
11
12
0b
0c
10
10
09
08
0d
02
01
08
0a
0a
07
00
f8
03
f1
fa
fb
fb
fc
02
03
05
04
fd
03
fe
f9
fc
03
07
05
00
04
03
fe
04
05
f9
01
03
f5
fe
01
fb
fc
01
04
06
02
01
0a
03
f7
02
00
ff
09
09
0c
09
07
09
0b
06
00
01
03
02
fb
02
00
ff
01
0f
25
1b
02
1a
14
04
0a
0e
01
02
00
01
00
03
03
04
02
ff
05
05
04
02
02
06
0f
0f
02
ff
04
01
01
ff
fe
01
03
ff
09
00
f9
02
fe
00
02
04
07
02
03
f4
f4
f8
01
fe
01
01
03
03
05
05
02
fd
ff
00
0d
1b
16
09
14
16
09
10
05
fc
f7
f5
0c
0e
09
1a
14
10
01
01
f4
01
03
01
f8
f8
ed
01
fd
00
05
03
01
07
05
04
fa
00
fc
05
ff
fb
07
fc
05
00
08
15
00
ff
fe
00
02
08
d7
da
de
dd
da
e1
fe
fb
f8
0b
05
ff
10
05
fd
03
03
05
00
04
00
fd
fb
f8
03
04
07
09
22
0c
10
16
1d
11
0b
14
02
fe
fa
0f
ff
00
03
04
05
ff
fa
07
f7
ec
f3
10
1f
10
f4
f3
f0
17
17
18
e9
eb
ea
fb
fe
03
02
fd
fc
06
02
08
00
ff
fe
02
01
00
06
04
08
fe
fb
fd
03
00
01
04
01
fd
f9
fd
fa
fe
07
01
f9
ff
ee
28
1b
23
e5
e8
ed
ed
ee
ed
07
07
0b
fc
fb
00
03
fb
ff
01
fd
02
fd
fd
ff
19
1e
1e
ff
01
02
ff
02
05
05
06
02
04
fc
f7
05
fc
f8
fe
fc
fc
01
01
fd
03
01
01
09
0a
08
fa
fd
06
ff
fc
05
03
ed
07
00
03
02
05
07
07
01
09
06
ff
f5
fd
0a
07
01
ff
f8
fb
08
04
05
07
fb
03
0c
f8
00
f3
ed
fd
ee
ef
0c
f7
fb
04
03
05
fd
00
02
00
fe
02
07
f6
fe
ef
ec
ff
f6
fe
fb
0b
09
0e
07
ed
f8
f4
11
07
02
f7
f4
f4
f9
01
f1
ff
01
00
f6
fa
02
ee
f1
ff
01
f2
f3
fd
ff
01
ff
00
09
fd
fb
03
f8
01
ff
ff
04
08
09
0f
04
01
00
09
08
fe
02
04
07
03
f2
f8
fa
fc
e9
f9
fb
04
fa
05
03
f9
03
00
fc
f7
03
05
06
02
f3
08
04
00
0c
02
06
05
09
fc
01
00
06
07
08
09
05
fe
00
00
fe
03
01
fb
03
dd
e1
e6
f1
f1
e9
ec
f0
e3
03
fd
02
07
fc
fd
0a
fd
f9
fe
08
0b
fd
05
05
01
00
04
00
02
04
00
03
02
ff
02
02
f5
f2
f0
fa
f6
fd
fa
f7
f5
fe
02
fd
0b
09
08
01
05
06
fe
fb
fa
fb
fb
fb
f8
f6
f2
f2
f7
fa
f6
f9
fa
eb
ef
ee
05
0a
06
05
02
02
10
0b
05
fd
08
0c
fb
0a
0a
ff
12
10
01
01
00
06
07
09
08
07
08
05
fe
0e
ff
fa
13
ff
fe
11
07
fc
01
07
f9
01
04
f9
01
fc
fe
f9
0d
07
08
fb
fd
f6
07
0b
03
09
08
fe
03
0a
01
07
ff
fd
08
00
fe
09
00
fc
f8
f2
f2
f6
f5
f9
f4
ee
f3
03
06
fe
07
05
fd
ff
06
ff
07
fb
fc
f5
f2
f5
f1
ed
f1
02
fd
fe
fe
fb
01
03
ff
02
10
12
12
05
02
00
fc
fa
f3
17
12
17
f9
fb
fa
12
0b
0e
04
ff
fa
fd
f7
f4
01
fb
f7
f8
f1
f3
f0
f0
f0
f7
f6
f3
ff
fa
fc
fe
02
02
02
fd
fd
04
01
01
f9
fe
ff
fc
00
ff
00
ff
fc
fe
ff
ff
fe
ff
02
04
fe
f8
04
00
fa
04
fe
f9
09
00
01
07
fb
fd
04
fb
fd
e1
df
de
06
02
05
fd
fb
fa
00
fc
02
01
02
07
03
fb
ff
00
01
fd
ff
04
ff
fc
00
fe
0c
0f
12
fd
ff
01
ff
fe
fe
01
f7
02
ff
f9
01
09
ff
02
01
f9
fd
04
f9
fc
11
f9
06
05
fc
fc
ff
ef
f5
fc
0d
0b
fe
fa
06
01
f8
02
05
fe
0b
f8
fa
fc
05
fa
f9
f0
ff
ff
fe
fb
f6
fe
02
05
fe
fb
00
f7
fd
ff
fc
00
f7
0b
00
07
f9
dc
e7
e8
1b
fc
fa
03
f6
11
11
0d
0e
10
00
0d
07
01
05
f8
ef
01
05
fc
01
01
fe
00
f4
f6
f9
f8
fc
fb
fb
fe
f9
ec
f6
05
f6
09
fa
05
07
ee
00
ff
f2
fc
fb
f8
fa
fa
01
00
05
f0
06
09
f1
fc
01
ff
f9
02
f3
fd
f8
fb
f4
fc
f4
fa
0a
02
0f
0d
0f
f7
08
fc
00
fb
f5
00
04
fa
ff
0e
f5
f3
ee
ff
04
02
0c
14
12
07
07
09
eb
e4
e4
ee
dc
eb
01
fa
fa
04
ff
00
01
ff
fe
fe
fd
ff
02
fe
ff
00
ff
00
01
fe
f8
01
ff
fc
04
ff
fe
f9
06
02
fb
fb
fa
03
06
05
f5
fa
f3
f5
e3
ea
2c
30
24
f9
f6
f4
f8
01
04
01
03
00
06
07
05
02
fc
00
e2
d3
d9
ff
fd
ff
fe
ff
03
02
04
0c
04
fc
fc
06
fc
fc
0b
08
05
ff
fd
00
07
02
00
05
07
08
f5
f7
01
fd
02
02
07
04
01
ff
fa
02
ff
f8
00
02
00
06
ff
f9
03
05
fe
05
07
05
0d
f9
fb
fe
07
fe
03
04
f7
fe
fe
fb
f4
f6
fa
f1
00
fc
fa
fd
02
ff
fa
06
03
01
06
01
0d
01
03
0c
f9
01
07
ff
02
0a
09
05
0f
04
ff
02
03
02
f9
f0
f9
f9
ef
f6
f7
f2
f9
e9
e8
ef
ea
dd
e9
fc
ec
e8
f8
07
07
05
02
fd
fe
07
fe
00
05
04
04
05
02
fa
03
01
fd
02
03
07
01
ff
01
08
fd
fc
ee
d4
f4
e4
d4
ee
e9
d5
fd
03
fe
02
fe
fe
ff
01
00
00
08
ff
0a
03
01
09
03
fe
0f
04
ff
0c
05
02
18
fe
02
fe
00
ff
00
ff
ff
f9
fe
01
04
f1
02
01
ee
fe
08
ef
fc
f8
05
fe
fb
05
ff
06
05
fe
fa
f5
f5
ed
f0
ed
e7
f7
ff
fd
04
f8
f3
f8
f2
fd
fb
02
fc
ec
02
05
04
0d
07
fd
01
f7
f1
fe
f3
ea
eb
f0
ec
fb
04
06
07
03
fc
fa
00
03
fb
ef
08
00
ef
02
ed
ff
0a
08
eb
ef
ee
ff
f9
f5
ea
f5
f9
14
15
0f
13
0d
0c
ff
0b
02
fa
fc
fa
fd
f7
fb
f7
ef
ff
fa
f7
f3
00
f9
ee
fd
f6
f5
eb
ed
e5
ec
f3
ed
04
03
04
f7
ee
ff
f8
df
e7
07
ff
f9
fd
05
ee
04
04
ea
f8
f2
f7
f9
f4
f6
f2
02
fc
05
07
01
fc
e5
f1
1a
1e
00
ee
00
0f
ff
08
f5
09
fe
f3
03
e8
f6
f7
fb
09
06
01
05
06
08
ff
05
f9
03
07
f8
0a
fa
fd
fd
f7
f7
f4
03
0e
0a
fd
fc
f2
06
15
fb
f6
fd
06
ec
f1
08
f6
06
0f
f9
00
02
f4
05
03
07
0e
0e
01
09
06
03
14
07
ff
fd
0b
05
05
0a
fb
08
03
f6
0e
0f
00
18
01
fb
fb
f0
fe
fe
07
04
08
05
fa
0b
fb
03
fd
08
fb
f8
f7
fa
0b
00
05
dd
f3
07
db
0a
09
0b
0c
03
13
0a
f9
f7
f7
ff
f6
f4
18
04
fd
11
fd
fc
ef
fe
0b
ff
fa
06
06
f4
17
08
06
07
da
d9
ea
06
06
f5
ed
07
eb
ff
0a
f9
0b
03
e9
f6
00
fb
04
f7
f8
0d
05
06
06
05
f5
ff
f6
fe
fc
fd
ff
0e
18
0a
fc
f9
f8
fc
f5
fc
06
ff
08
ff
fd
00
02
03
01
03
01
03
fd
fc
ff
fe
fd
fd
00
ff
02
05
04
08
0a
0e
12
fd
fb
04
ff
fa
fe
10
15
0c
e5
dd
dc
f8
0c
fc
f3
04
fc
