01
01
00
01
01
01
03
05
00
ff
fb
01
01
04
ff
02
f7
fb
03
03
06
f8
f4
fa
fc
0c
12
0c
09
04
05
fc
f8
01
14
26
1f
e3
d9
da
df
cf
d8
c8
cd
c1
c3
d2
0d
f8
f9
fb
fb
da
fe
16
10
fd
00
00
01
fe
fd
04
02
02
02
02
02
01
02
00
fe
fe
fe
fe
fd
fa
f8
fa
02
02
02
02
02
02
01
01
ff
fd
fb
f8
f9
f7
f2
f0
da
d2
c0
c9
02
11
10
15
15
16
0f
0a
07
05
03
02
01
01
01
02
02
00
00
01
00
ff
01
02
03
01
fe
fc
f0
e7
e2
e9
dc
e7
f5
01
0f
16
14
16
16
1b
20
21
05
fe
ff
f3
fb
05
fe
f2
f4
ec
f7
ff
02
08
0b
0b
c9
12
13
11
10
1b
11
ea
f4
e4
e5
e1
d6
c5
c9
cf
01
01
01
02
00
00
00
00
00
fd
fd
fd
fd
01
03
fd
01
01
01
02
01
02
03
02
01
00
fe
fa
f8
f8
f7
f6
01
01
02
02
03
02
02
02
02
fe
fb
f7
f3
ef
ef
f4
22
2a
d2
c0
c0
d1
dc
db
d6
ce
d3
d2
dd
dc
c4
c9
00
00
00
01
02
01
00
00
00
01
00
00
ff
fe
f6
f5
01
01
01
01
02
02
ff
01
ff
fd
fd
fb
f9
f8
f7
f6
01
01
01
01
02
03
00
fd
fb
f8
fa
fb
f9
f2
ee
f4
01
01
01
02
03
02
01
01
02
00
fe
fe
fa
f4
f3
fa
01
01
01
02
05
03
03
01
00
fd
fc
fb
fd
fa
fc
fc
02
02
01
ff
fc
fd
fd
f8
ff
01
02
01
ff
fc
f9
00
02
02
02
03
05
04
02
01
ff
fc
fb
f9
f6
ed
ec
f1
01
02
02
02
02
02
03
02
fc
f4
f1
ef
f5
f3
ec
eb
01
02
02
02
04
02
01
01
fe
fa
f9
f8
f8
fb
fa
f4
f7
f9
12
f6
27
18
e9
e9
f2
f7
f2
ed
e7
e4
e1
df
c0
ca
0f
12
0f
03
03
0a
13
16
04
03
03
04
ff
fc
01
02
01
02
03
ff
fe
f9
f7
fb
f5
fa
f8
fb
f6
f2
00
00
00
01
02
02
03
01
ff
ff
ff
fe
fe
fc
f9
f9
01
00
00
00
02
00
00
ff
01
06
02
00
03
04
02
fb
04
04
04
03
04
01
fd
fa
f7
f1
f1
f4
f5
ef
eb
ec
01
01
01
01
02
00
01
ff
fd
fe
fd
ff
ff
03
fc
f6
03
05
fd
ff
00
fe
fb
f8
ff
01
03
05
05
f9
f5
f7
01
02
02
02
03
02
02
04
01
fa
fa
f2
ef
e4
ed
f7
00
00
01
00
01
00
ff
fd
01
03
04
03
02
07
04
f8
03
01
01
00
00
01
fe
f5
f7
fc
05
03
01
f9
f4
f3
00
01
01
02
03
01
00
01
02
06
06
06
05
05
00
ff
03
04
04
05
04
02
fe
fe
fa
f4
f6
f3
f1
ec
e2
e5
16
1b
23
1c
cd
c0
c0
c0
c0
c0
c0
c0
c0
c0
c0
c0
01
01
01
01
01
01
01
02
00
fd
fc
f6
f4
f6
f5
f7
01
01
01
02
02
02
01
01
03
04
00
fd
00
fd
fc
03
01
01
02
02
02
01
01
03
02
01
03
03
04
03
00
fc
0a
14
e0
12
0a
16
f4
d6
e7
e6
ee
e6
e5
e4
db
d9
03
04
05
05
05
03
01
fd
fa
f5
ed
ee
f1
e1
de
eb
ea
f0
01
01
d1
09
1a
11
f7
fb
01
00
ff
fb
fd
01
01
01
01
02
02
02
02
03
01
ff
ff
00
00
ff
fe
fa
01
02
01
02
01
ff
fe
fe
00
ff
ff
00
01
ff
f9
f5
01
02
01
02
03
02
02
02
00
ff
00
02
01
00
fb
fa
ff
ff
ff
00
00
ff
00
ff
02
05
04
03
03
06
04
f9
02
03
02
01
02
fd
f5
f5
f7
f7
fd
00
00
fb
f2
eb
00
00
00
01
01
01
01
02
02
00
ff
fe
fb
f7
f6
fa
01
01
01
00
ff
00
01
fc
fd
00
06
05
04
fe
f9
f8
01
01
01
02
02
02
01
02
02
03
01
ff
fd
f5
f6
f3
01
00
ff
ff
ff
01
01
ff
fd
fd
ff
02
03
03
fb
f6
01
01
fa
fa
fb
ff
fd
fd
01
07
07
07
07
06
05
ff
00
01
01
02
03
02
01
02
02
fe
fd
fe
fe
fe
fc
fe
1c
24
23
c8
c2
c8
cf
d1
d7
d5
d8
d8
dd
e0
d3
d5
01
01
01
02
03
03
02
03
00
fd
fe
fe
fd
fc
fd
fb
00
00
00
00
00
02
00
01
02
04
01
02
02
03
02
ff
d7
c0
ce
15
22
13
12
0a
fa
f9
fd
f9
fa
f0
eb
ea
00
01
00
00
02
01
00
fe
00
ff
fd
fc
f8
f8
f5
ee
e8
12
12
1a
f0
f2
e7
ea
e0
db
e5
e4
e2
e3
dc
d5
fc
db
11
12
f2
12
11
f8
ed
ea
f5
f3
f4
e8
e9
f0
03
03
03
04
fa
00
f9
f9
fc
fb
fb
f6
f2
eb
eb
f5
f0
1a
1a
e3
f7
cf
00
0c
05
06
00
01
fe
ff
ff
00
00
01
01
00
00
ff
fe
00
05
0a
0a
08
05
05
03
ff
01
02
03
01
f8
fd
fb
f7
f6
f5
f1
f6
fb
f2
f3
f3
01
02
02
03
02
02
02
00
fe
fc
fc
fa
f9
fc
f6
f7
02
03
01
ff
ff
f9
fa
fe
03
06
09
09
07
07
05
03
03
05
04
05
02
01
fe
fc
f7
ed
ef
ef
ec
e5
ea
ec
de
c0
d9
29
27
19
06
f7
ef
ec
ef
f5
f3
f1
ed
ec
00
00
00
00
00
01
02
00
ff
fd
fd
f9
f4
f7
f8
ef
03
05
04
03
01
ff
fe
fb
f5
ef
ec
ed
ed
eb
ee
f2
ff
ff
00
ff
02
01
ff
fc
f8
f5
f8
f2
fa
fe
fa
f2
02
03
fc
f3
f8
fb
05
fb
fc
f6
f6
f7
f1
f0
f4
f1
01
01
02
02
01
02
04
04
03
01
01
02
01
00
00
ff
13
fd
0f
ed
1a
15
e3
ea
e7
df
db
e1
e6
ea
d4
e5
dc
e7
25
30
1c
fc
ee
e8
e1
d6
dc
d6
d7
c7
cb
c4
ff
00
01
03
01
03
01
03
06
08
07
06
03
04
04
fb
01
01
00
ff
fe
00
01
02
04
06
02
00
ff
ff
00
f6
00
01
01
01
00
00
01
fe
fe
fc
fd
fb
fe
fe
f8
fb
fa
d5
13
1d
f8
1c
11
f7
f2
ef
fb
fb
01
ff
02
fb
01
02
01
02
00
fe
fc
f9
fe
03
04
03
00
fd
00
01
00
01
02
02
01
03
01
00
03
05
05
03
02
fd
05
fb
00
00
00
01
00
00
01
02
05
05
08
08
03
03
07
ff
01
01
00
fe
fb
f8
f3
f7
fe
fc
fb
fa
f9
fb
fb
fc
00
02
01
01
01
01
01
00
01
02
01
01
02
01
ff
fe
e1
ca
c8
d3
0f
18
17
14
11
13
0e
0a
09
0a
10
07
06
20
1b
2f
19
e7
e3
d9
d7
cd
cf
cf
d6
c3
c3
c4
01
01
02
02
01
00
ff
fe
fd
fc
fa
f7
f8
fa
fb
fb
01
01
01
01
00
02
04
02
01
00
fb
fb
fe
fb
f3
f2
01
02
01
02
01
04
02
fa
f6
f0
eb
ea
f0
ec
e4
ea
f3
20
1c
d8
01
0a
01
ea
df
d6
d3
d7
e3
eb
da
d8
e3
17
17
1d
fa
ff
ee
e6
e7
e7
eb
ee
ef
ef
e6
dd
01
02
01
02
00
fe
fe
ff
01
01
02
00
fe
fc
f8
f3
00
00
00
01
00
02
03
01
fd
fa
fb
fe
00
ff
f9
f3
02
f0
e7
de
f3
fa
f8
f5
f4
04
0b
0d
0e
11
0f
17
ff
00
01
01
02
03
04
02
01
01
fd
fc
fc
fa
f1
f8
01
03
01
01
ff
00
fe
fd
f8
f4
f2
f3
f7
fb
f4
f2
07
04
f5
f4
00
fe
fe
f7
fa
f9
f8
f8
f7
f7
f6
f4
1e
2c
c0
ed
f5
d0
e5
e3
dd
d5
d0
d7
d0
cb
cb
c2
01
02
02
02
00
00
00
ff
00
02
02
01
00
fe
fc
fa
01
03
03
03
02
01
02
01
01
02
00
02
00
fe
fb
fa
ff
fd
fe
fd
ff
01
00
01
04
05
06
06
05
00
fe
f9
00
01
01
02
01
02
02
02
02
01
00
00
00
fe
fb
f7
21
38
2c
c0
c0
c0
c2
c7
c9
c0
c0
c0
c1
c0
c0
c0
01
02
01
01
01
00
ff
00
01
00
01
fe
fb
fa
fa
ef
01
03
03
03
02
02
00
ff
00
03
03
02
02
02
fc
fe
00
01
00
00
01
ff
ff
ff
00
00
fe
fb
ff
ff
ec
e7
1c
28
33
2a
db
d1
c0
c0
c0
c0
ca
c6
c0
c5
ca
c2
02
03
03
02
fe
fe
f8
f8
f1
f0
f1
f3
f4
f2
f9
f7
01
02
03
04
02
03
03
01
00
fb
f8
f7
f4
f0
f2
ef
00
ff
ff
01
01
03
03
01
00
01
ff
fc
fa
fa
f6
ec
03
05
fe
fe
fc
fd
fc
fc
f9
fd
fe
00
ff
fd
fe
00
00
02
01
03
01
03
01
00
02
fd
fb
f6
f4
e7
eb
ea
fc
ee
e5
e8
e9
eb
02
14
19
0f
10
12
11
14
1a
18
c0
08
12
02
0e
ea
05
1a
15
15
11
0e
09
09
0c
02
01
02
01
00
02
ff
01
fc
f9
f8
f6
f5
f8
f7
ff
ee
02
02
04
fb
f9
f8
f7
f6
f5
ef
ef
f1
f0
ed
ee
ea
00
01
02
02
00
02
00
fe
fe
fc
fa
f8
fa
f6
ea
ed
01
02
01
02
01
00
00
02
00
01
00
00
fe
fe
f8
f9
02
02
02
04
03
04
04
01
fb
f5
f8
f5
f1
ec
ea
e6
00
01
01
01
ff
01
02
01
ff
ff
fd
f9
f6
f5
f6
eb
00
01
01
01
ff
ff
01
01
01
00
fc
f8
f7
f4
f4
ed
e0
ea
10
0f
df
06
19
12
03
0c
0a
07
08
0b
10
08
01
01
02
00
ff
00
00
00
03
05
05
04
03
02
fd
fd
00
00
ff
00
ff
00
01
02
03
04
02
03
03
02
02
fc
06
f2
fa
f2
f2
f1
f3
fb
09
14
0f
0b
04
03
05
02
00
01
01
00
00
02
02
02
03
03
03
02
02
00
f4
f9
15
fe
11
15
15
ef
e8
de
dd
db
d4
d5
d9
d2
ca
c5
fa
02
fc
f8
01
ff
fe
03
05
06
06
02
fe
fb
fb
fd
02
02
02
02
02
04
02
fe
fd
fd
f9
f5
f1
f1
ef
f7
01
01
01
01
fe
00
03
00
fe
fb
fc
fa
fa
f8
f0
e3
03
03
02
02
02
03
01
fe
fe
fd
fd
fe
fe
fb
f9
f6
01
02
01
02
02
03
03
02
00
fc
fb
f6
ef
f8
f7
e6
fe
fe
ff
ff
00
ff
fe
00
01
03
03
02
03
04
04
00
01
02
02
01
00
02
00
ff
00
00
02
02
00
fe
fb
f2
00
01
ff
ff
ff
fe
fd
fd
01
02
03
01
fe
fe
f7
f0
04
00
ff
fb
fb
05
fe
fa
fa
ff
fd
ff
01
01
02
01
04
03
03
03
03
04
05
02
fd
f7
f2
f0
f3
ed
ee
eb
02
03
02
02
01
01
ff
f9
f9
fa
f6
f6
f3
ed
ec
f2
01
02
01
02
01
02
01
01
ff
fe
fc
f9
f5
f8
fc
e6
02
02
02
02
02
02
02
03
02
00
fe
f9
f6
f5
f5
e3
03
03
02
02
02
04
ff
fc
fc
f7
f3
f2
f0
f0
ed
e7
cd
d7
0c
0c
de
05
21
1a
02
01
03
05
04
05
06
05
01
01
01
01
02
02
02
00
01
01
01
00
fb
f6
f7
e7
02
01
01
02
02
01
00
fa
f9
fa
fc
fb
fc
fb
f7
f6
01
02
02
02
01
01
02
01
ff
fe
fc
fb
f9
f8
f4
ef
de
12
0d
08
18
1e
f7
e8
ed
eb
e3
dc
e4
dd
ca
c0
01
02
01
01
fe
fb
03
04
01
00
fe
ff
fe
fb
f8
f0
c0
26
24
25
16
e3
de
de
d9
d0
d3
d8
d6
c2
c0
c5
02
02
01
01
02
03
03
01
fd
fc
fb
f9
f5
f0
ed
e9
02
03
02
02
02
03
01
fe
fb
fb
fa
fd
fe
fd
fd
f7
01
02
01
02
01
01
00
fd
fb
fa
fb
f6
fa
fc
fd
01
01
02
01
01
01
01
03
05
06
05
06
06
03
02
ff
fa
03
2e
f6
0a
05
da
ea
ed
f2
f7
f5
f5
f6
f5
f2
ec
ff
00
00
01
01
02
ff
03
05
02
01
01
00
01
00
fc
00
00
00
00
00
ff
02
03
04
06
06
03
05
09
09
fe
35
3b
c0
c0
dc
d7
d5
d4
d5
da
d7
d6
d7
d7
d5
dc
0e
eb
ee
19
f9
0f
0d
f8
fb
00
fc
fc
fa
f6
f7
f4
01
01
ff
02
fe
02
00
ff
05
08
06
04
01
ff
fd
fc
02
03
02
02
02
03
04
01
00
01
ff
f8
f7
f9
f9
ec
06
f6
1c
e5
0c
0e
f3
f3
f9
f8
f8
f7
f3
f2
f1
ef
02
06
fe
00
ff
02
02
fe
fd
ff
fe
fc
fa
fb
fa
fa
01
01
01
01
00
01
00
02
03
03
03
02
00
00
00
fc
31
3b
32
cf
c0
c0
c0
c7
cd
d4
d5
d5
d5
d0
ce
d0
04
05
04
05
02
02
00
fd
ff
fd
f8
ef
ed
e5
e4
e4
01
02
01
01
02
03
03
03
01
fc
fb
f4
ef
f4
f6
df
cc
c0
18
19
13
10
f0
f6
fd
fe
f3
f2
f0
e6
dd
d7
01
01
01
01
01
02
02
01
01
00
00
ff
ff
00
00
fd
02
02
01
02
02
00
00
ff
fd
fb
fa
fb
fe
fe
fe
fe
29
2c
28
28
e0
ce
c4
c0
c0
c0
c0
c0
c0
c0
c3
c7
01
01
01
01
00
ff
fd
fe
ff
01
00
02
00
01
02
fd
03
02
02
01
01
02
02
01
ff
fe
fe
fd
fc
fb
fb
f7
02
02
02
02
01
00
ff
ff
00
00
01
02
02
01
fb
f7
02
03
02
02
01
03
04
01
01
01
fe
fe
fe
fc
fb
f8
cf
d6
c7
d2
0c
20
14
03
03
05
06
03
01
02
01
03
03
05
01
03
ff
f9
fe
fc
fe
fe
fe
fc
f4
f6
f3
f4
00
00
00
00
01
01
01
01
02
00
fe
fc
fa
fa
f9
f7
ff
ff
fe
fe
fe
ff
02
03
05
08
08
07
06
01
fc
f1
00
01
01
01
01
02
03
02
ff
fd
fb
f9
fa
fb
fb
ef
e3
e2
ec
ea
ef
ef
fe
10
1b
16
13
13
12
0d
08
fd
fe
eb
ee
eb
f3
f4
f4
f6
fe
07
0b
0f
14
18
1c
22
01
01
01
01
02
01
01
01
01
00
fe
fc
fa
f9
f8
f3
04
05
05
04
01
ff
fe
fb
f9
f3
f0
e9
eb
ea
e4
e2
01
02
02
02
01
02
04
02
00
ff
ff
fe
fc
f9
f9
f7
ca
c3
c5
13
15
01
09
14
0a
05
05
04
04
03
02
01
ff
00
00
00
01
02
02
02
01
ff
01
01
01
03
02
ff
00
01
01
02
01
00
ff
00
fe
fc
fd
f9
f6
f6
f6
dc
01
01
01
02
01
ff
00
fd
ff
00
fa
f6
f5
ee
ed
f4
00
00
00
00
00
01
00
02
00
00
fd
fd
fb
f8
fb
f8
02
01
00
fe
ff
fe
fb
08
03
05
02
02
fd
00
00
f7
01
01
01
02
03
00
01
ff
fe
f9
fa
f8
f7
f9
f5
f1
01
00
ff
00
01
00
03
05
02
03
04
04
02
f3
e7
db
07
00
00
00
fe
fd
fa
fd
f9
fc
f8
f0
f2
ee
f0
f2
01
01
02
02
01
01
01
00
00
ff
00
fe
fc
f6
f1
e9
00
00
ff
ff
fe
fd
01
02
01
01
00
01
06
04
04
fc
25
1f
2c
24
e0
cf
d0
cc
cb
c7
c7
cb
d2
ca
c9
c8
01
01
01
01
01
01
01
04
02
02
01
ff
01
ec
df
da
01
01
01
01
01
01
01
00
00
fc
f7
ef
e2
ea
e1
de
28
24
27
d1
c0
c0
c0
c0
c0
c0
c0
c2
c8
ce
cb
cb
00
00
00
ff
ff
01
fe
ff
f9
f6
f7
ee
f0
ec
eb
e7
02
01
fc
fc
04
fe
f4
f2
f1
ed
e8
e8
e8
e9
e6
e4
01
01
01
02
01
03
03
04
06
05
03
03
04
fe
fa
e8
01
01
01
02
01
01
00
fe
ff
ff
fa
f8
f7
e8
dd
d8
01
01
01
02
01
03
03
02
ff
f7
f7
f5
f5
f3
ed
e4
c2
c0
e6
1c
16
0a
09
0e
0b
04
01
ff
fc
fc
f6
dd
00
00
01
01
fe
ff
fe
ff
02
01
fb
fb
fd
ff
f6
eb
00
00
00
01
00
01
00
00
00
00
fe
fc
f8
e6
e0
d7
00
01
01
02
00
01
02
07
06
04
07
08
fa
00
f9
ef
f7
15
f8
00
e9
07
14
0d
08
0a
07
0b
0c
07
06
f9
03
e0
19
19
ed
0d
08
fd
02
01
ff
ff
00
fd
f7
e5
01
01
01
01
01
fe
ff
02
02
03
03
02
06
02
fb
e8
03
f3
ed
f0
f6
ef
f2
ec
ef
f7
00
09
0f
13
1c
1e
00
00
00
01
00
02
ff
01
02
02
03
02
02
ff
f1
de
00
00
00
00
00
ff
00
05
06
06
04
04
04
03
f9
ec
03
02
02
03
02
00
ff
fa
fa
f5
ef
e9
e1
e6
e1
da
01
01
01
02
01
ff
00
00
02
00
02
02
00
f8
ec
dd
01
01
01
01
01
01
00
fe
fd
f9
f9
f8
f2
ed
ee
e8
01
01
01
02
01
00
fe
fd
fb
f0
ef
f1
f4
e7
e5
e1
00
00
00
01
01
ff
01
02
01
fc
f8
f4
f7
e9
de
d4
01
00
00
fe
01
01
03
02
ff
fe
f5
f9
f2
f7
f3
ea
01
00
01
02
01
00
ff
ff
01
02
00
fd
fa
f3
f3
f2
00
01
01
01
00
ff
01
00
ff
fb
fe
fd
f9
ec
e2
dc
ff
00
00
ff
f8
fd
00
00
03
07
05
02
07
06
08
08
01
fa
f3
0f
21
1c
f8
e3
e1
e7
ec
ea
e5
ef
ee
e8
00
00
00
01
01
01
00
fe
f7
f4
fa
fe
fc
f0
e8
df
ec
f0
f2
f1
f2
f7
ff
0a
0c
0a
0b
0a
0d
0f
13
0f
02
01
01
01
ff
00
fd
ff
fa
f4
f7
f1
f1
ea
e4
e0
01
01
01
01
01
00
fe
00
03
02
03
04
04
02
fb
f3
02
02
02
02
01
00
ff
fe
fe
fd
fc
fa
f8
f3
f2
e0
d8
e2
dc
d4
01
17
1b
12
0c
10
0f
13
14
13
11
ff
01
01
01
01
01
01
01
02
00
fe
fd
fa
f5
ef
e3
d7
02
03
03
03
02
fe
fb
f9
ef
e9
e4
e1
e5
e4
df
db
01
01
02
00
01
ff
01
01
01
01
00
00
fd
f6
f2
e1
01
02
02
01
02
01
fd
fe
00
fe
ff
ff
fe
f8
f3
df
01
01
01
00
01
ff
ff
fe
fe
fb
f6
f0
ed
f2
ef
f2
02
02
03
03
02
ff
fd
fb
f6
f0
e2
e9
e7
e5
e0
d8
2c
23
c0
c0
e1
e2
e0
e1
e4
dd
da
dc
e0
e0
db
d6
16
15
0f
27
17
f1
df
cd
d1
d8
d7
c0
c0
c0
c0
c0
00
00
00
01
01
00
00
00
fe
fa
ef
ef
f4
f6
eb
e2
f3
fb
f4
02
01
fb
f3
f3
09
1c
14
0b
09
04
00
e9
c0
eb
1c
20
01
ed
e9
ea
e7
da
d0
d4
da
d3
d2
d3
fe
ff
fe
fe
ff
ff
00
05
05
05
ff
fd
01
03
04
fe
01
01
00
01
02
ff
01
02
01
01
01
00
03
fd
f9
e8
01
00
01
02
01
00
00
fd
ff
fc
f5
f1
ee
ee
e9
e2
03
04
02
ff
fa
f9
fe
fb
fb
02
fb
f8
f9
f7
f2
eb
d3
11
18
df
08
09
f6
ff
02
f2
f5
fa
fa
f7
f6
e9
02
02
02
00
00
01
fe
fe
ff
01
fe
ff
fc
fc
f8
e4
c5
15
1c
1a
1b
05
f7
e3
e0
e5
e5
dc
cc
c8
c5
c6
01
01
01
00
00
01
ff
00
ff
fa
f9
f6
ef
ed
e1
d4
00
00
01
00
00
01
02
02
00
fd
fd
fd
f6
ef
e1
e1
00
00
ff
00
00
00
01
02
03
02
ff
02
00
01
ff
f5
00
00
00
00
00
fe
ff
02
03
03
02
00
03
ff
fc
eb
00
00
00
ff
fe
01
01
01
04
04
01
00
02
fd
f9
f0
ff
ff
02
ff
fc
fa
01
03
03
07
05
01
06
05
05
03
00
00
01
00
00
00
fe
fc
fd
ff
00
01
fd
ed
e4
d2
