0d
06
01
0e
09
00
0b
01
fb
0b
fd
f1
0a
fb
ec
ff
f7
f0
0c
09
fb
fb
ff
f8
01
0a
08
fb
05
03
fd
03
fb
f2
fd
fd
ee
f9
05
f9
ff
15
ef
f1
ff
fe
f1
f3
ff
02
ff
07
f6
f5
f6
fc
01
fb
00
fd
f8
fd
fb
d4
f1
08
db
e2
f7
f0
f6
ff
07
ff
01
01
f5
f8
01
f7
02
1d
08
04
fd
f6
f8
fb
f7
f9
f6
f8
fd
f0
f2
f1
03
f2
f6
fe
09
f9
ff
01
f1
01
05
f6
f0
f9
02
fd
f6
fa
08
f4
ea
fb
02
fc
00
01
fd
fb
06
fb
0f
fe
08
08
02
06
01
f8
06
fd
02
10
0a
18
00
0c
ff
12
ec
05
f7
e5
fc
f1
e3
fb
f1
ff
00
0a
03
04
07
00
02
fe
04
02
0c
10
fe
08
07
fa
09
f6
ed
f0
e6
eb
e8
ef
f1
f0
df
e7
ea
e7
d0
df
e2
d9
eb
04
f6
ee
0e
03
ef
07
fd
ef
0f
fc
f5
10
fd
f8
15
fa
f6
f2
ff
fc
f5
fa
f1
f8
f2
f9
03
01
fd
03
02
f6
00
00
f7
f3
fb
f9
00
02
ff
03
00
f3
01
fe
f8
ff
fe
f8
01
00
f8
fe
03
e5
06
fd
f9
03
00
03
1b
0b
fd
16
09
03
26
0a
01
04
00
02
03
ff
fd
02
fe
01
ef
f7
fb
ec
09
fb
ea
00
f7
f6
fe
07
f6
00
0e
e7
12
fe
02
04
04
05
09
07
03
04
02
fa
03
05
00
0d
09
00
01
f6
00
fc
f9
fe
f6
f8
02
f5
fd
00
02
04
fc
02
03
f4
fb
fe
0b
05
05
f4
d9
e0
df
d6
dd
fe
fa
ff
f7
fe
fe
17
36
25
04
fb
fa
05
02
fe
fe
fd
fd
02
0b
05
e5
02
fa
f1
f5
04
00
00
fb
f9
ff
ff
32
3a
40
03
02
01
01
03
00
05
07
03
f4
00
f5
f9
f1
e9
02
00
f1
ff
02
fc
05
07
fb
fe
02
fa
04
04
fe
07
0a
02
09
0c
06
00
fc
fe
00
fe
05
fc
f8
06
02
02
00
07
01
01
02
fc
f9
f5
f7
e7
f7
f2
fc
e3
f4
eb
fc
00
fb
02
00
00
f8
f9
03
fb
fc
fa
fe
03
03
01
02
fa
04
0c
0a
03
07
03
0d
07
06
fb
f5
f3
00
fc
fe
fe
fd
fb
04
fd
08
fe
ff
0f
00
01
09
06
0b
08
05
0f
0e
06
13
0c
04
fd
ff
05
02
fe
ff
00
ff
0c
09
02
f6
fa
08
f6
f9
0a
08
06
0a
06
04
0a
08
0b
0a
00
00
fb
03
03
04
02
03
02
00
e9
fa
f5
f2
fc
01
05
07
ff
f8
f3
03
f9
f8
fe
f8
f4
05
08
01
01
06
04
00
0a
09
02
03
08
00
00
07
fd
00
0b
08
01
07
0c
0e
05
08
0c
fe
02
16
f1
ee
06
fa
00
03
f9
fd
04
00
fd
00
00
fa
01
00
fe
fd
f2
08
06
03
03
01
f7
f9
f9
ff
05
fd
fa
05
f6
fd
02
04
09
02
ff
01
00
fa
00
f4
e9
d2
f6
e8
f5
03
f0
f0
fd
fe
00
06
0b
05
00
05
01
05
fc
fb
03
fc
fd
ff
fb
fc
eb
00
02
f9
f7
0c
f8
e9
fe
00
fc
fa
01
00
04
09
06
09
fb
fd
ff
fb
00
07
fc
fe
fe
03
07
00
f3
f8
f9
fe
fa
f6
04
03
fe
03
0a
0c
01
08
09
17
02
fd
14
fe
02
17
fd
06
00
02
05
ff
02
08
fe
fe
06
fb
04
fd
fd
05
00
f9
05
03
f2
f7
07
f4
e6
02
f4
f2
f8
0a
fd
fa
09
fe
01
00
00
03
0a
02
f7
05
04
fc
04
05
fb
f9
f8
f9
f8
fb
01
f7
05
06
0d
fb
fd
0c
fd
01
0d
05
09
00
fe
03
04
05
16
23
0e
1c
fd
fe
fe
fb
f9
fc
fe
fe
00
ff
fe
05
00
ff
ff
06
fc
fd
eb
f5
03
f7
ef
fc
ff
f0
f8
fe
fa
fe
f0
f6
f7
f9
fc
f8
00
f8
f7
f9
fa
fe
08
0b
0d
f2
f7
05
fd
05
fa
09
0a
0c
0c
06
03
0b
02
00
11
06
ff
fb
f8
f8
f9
f7
fc
fb
fc
fa
01
fc
04
01
fe
01
fb
fa
fe
ed
0a
ff
f1
06
06
f8
02
00
f5
f4
f0
ee
ef
ee
ea
f7
f2
05
11
0b
fa
0f
09
fd
04
07
fd
03
0d
01
00
09
01
02
0b
f8
fd
09
f8
05
04
f4
02
06
05
05
03
01
ff
00
f9
f7
fb
11
02
fc
09
0a
0e
f3
07
f5
ff
03
fc
01
f6
ee
fd
05
05
fe
fb
fe
fb
ff
01
07
00
fc
ed
00
ef
12
fc
e8
12
fd
fb
ff
08
09
03
08
f4
ff
fb
ff
07
04
0b
fc
00
04
01
0b
06
fb
00
07
f7
f8
f9
f3
f6
07
f4
fb
07
fd
f7
06
04
fc
fd
05
f6
fa
08
f8
fa
09
03
fe
07
fe
04
07
05
08
04
00
fe
fd
0f
fe
fc
02
00
fb
01
fe
f6
11
0a
06
f1
06
f9
ff
10
f8
02
05
f5
03
05
f9
04
07
09
11
05
04
06
fd
02
f7
fd
06
0e
11
f1
fe
fd
f2
ff
0d
fe
08
00
f8
01
02
fc
f8
05
20
19
fa
17
1a
04
f7
f8
04
04
ff
fb
fd
01
03
f0
f8
f3
05
fe
fa
01
fc
01
fe
fc
03
05
de
ed
06
e7
f6
f8
f8
f4
04
02
fa
f8
fd
04
00
02
05
f5
03
0f
f9
fa
f8
00
ff
03
f4
fc
f8
fc
03
f1
ef
05
05
04
ff
1d
fe
fe
05
fe
fd
05
05
01
04
fe
fd
04
05
fb
ff
03
01
fa
ff
ff
00
f7
fb
01
fe
02
fd
fd
05
fb
ff
02
00
fe
1a
1e
f7
fc
1b
ea
e6
05
fe
07
03
fa
04
ff
fb
00
fd
f1
fa
ee
fa
fd
ff
00
06
00
f4
f8
04
0a
01
07
01
08
04
00
00
fc
f9
f7
f9
f9
f9
01
e8
f0
f3
fa
f6
ff
f2
03
06
ef
ef
f8
ee
ff
fe
ed
09
ff
fc
fd
fe
02
03
04
fd
f5
f1
fa
08
00
f3
fe
fe
fe
f8
0a
fd
f8
fb
fa
fd
f9
fb
08
fd
05
f8
f6
ff
01
fc
0f
0f
03
00
ff
fb
0d
02
fd
fa
fa
f5
f1
f4
f8
01
02
04
01
fc
fc
04
07
0a
fc
00
0d
02
01
02
03
fb
05
fe
fb
05
fb
fe
01
ff
fe
fc
01
00
00
fb
fb
ff
1e
0e
ec
fd
f4
10
03
19
ee
fd
fe
fa
ff
fe
ff
fd
fa
00
f3
f2
ee
f1
e8
e4
f1
e9
d4
04
0e
01
03
03
f4
ff
fd
ef
f8
fb
fd
00
fc
fc
fc
f8
f6
f1
e3
e2
06
f7
fc
f8
f6
f8
f7
f8
fe
f1
ff
03
f2
12
09
04
00
01
fd
06
01
fa
06
00
f7
ed
f6
ea
ff
f6
e5
ef
ec
f9
03
05
fd
06
09
06
0a
09
07
04
07
00
06
07
fd
02
02
02
fc
fb
f1
e9
f9
f1
f5
fd
ed
ed
f0
f0
e9
e1
ed
f1
e6
00
02
05
fa
06
06
06
0a
08
f2
fe
05
f1
fb
03
f5
fc
06
04
f8
00
f8
f9
01
fb
f5
fa
0e
f4
0d
17
de
04
12
f3
fe
03
01
02
0c
ff
f8
0f
00
fb
ee
f5
f3
fb
02
03
ff
05
05
f3
ff
03
00
ff
02
ee
ed
01
00
03
fe
08
02
fe
09
01
00
23
1c
03
f9
f0
e9
f1
f0
f2
fb
01
fe
f4
df
ec
e5
c5
df
0a
01
fa
02
0b
05
02
06
01
fd
04
03
e2
f5
e7
dc
e0
fc
fc
f9
fc
ff
03
08
fa
fa
f5
f5
f8
fc
fe
05
02
05
06
00
f8
06
fd
ee
f8
f9
f8
f9
fe
f4
fb
f7
f5
00
03
fa
01
07
00
fa
fb
00
00
03
f5
05
07
fd
04
09
00
04
03
00
04
06
02
ff
fb
fb
08
0c
fb
06
01
f4
f7
f6
e6
ea
f0
ef
03
e0
05
04
fd
fa
04
00
f4
01
ff
04
0b
10
01
08
10
fe
fa
0a
01
04
0d
fa
fd
fa
05
0a
01
04
ff
04
fc
ff
03
fb
fc
fa
09
ea
ef
02
00
0f
17
15
1d
f5
fe
06
0a
09
08
04
fe
f7
01
0a
08
fe
ff
fc
f7
f6
fc
eb
f7
ef
ec
15
ec
fe
0f
eb
ff
05
02
00
01
08
08
07
0b
12
12
0d
fb
00
f7
fa
f7
f7
f0
04
0d
01
02
09
01
0d
0d
0e
0c
08
01
fc
f9
fc
fc
fa
f3
00
0b
04
f6
01
0a
ed
f4
04
03
fc
02
05
ff
fe
01
fe
01
fd
fb
fe
fd
fd
fa
f5
f8
fe
01
e6
16
ff
f0
f7
08
0b
01
02
fc
fc
ff
fb
fd
02
01
03
ff
05
fb
fd
08
fb
ff
04
ee
f2
f8
f9
f7
f9
fd
00
fe
fc
00
03
fb
01
00
04
0b
06
fd
fc
fe
09
f9
fc
02
f6
fc
04
03
06
04
03
00
fe
fd
f8
09
fc
05
09
04
fc
04
fe
fc
16
01
05
02
12
fb
f9
f8
fc
fb
fe
02
fd
ff
fa
fb
ff
00
dd
d8
d6
fe
05
01
fe
00
00
fb
f9
fd
ed
ea
f9
03
03
01
01
fc
f0
02
00
fa
02
fc
f0
04
06
f6
fc
fe
f9
ff
02
fc
00
ff
fc
02
fe
f9
ff
fe
fd
15
fb
02
0c
fd
04
07
ff
04
d6
0f
fd
3a
dd
df
fb
14
e8
00
05
fe
ff
04
fc
f6
0a
f8
f0
f8
ec
fc
07
f3
00
08
ef
ff
fb
f5
07
fc
01
0f
fc
07
0c
0a
03
08
03
fb
02
f1
ed
ee
ee
ee
fd
f5
fe
fe
0d
fa
ff
06
fd
00
06
fa
08
01
fb
03
f9
04
01
f6
00
f8
f4
01
0a
13
10
f3
f3
02
1f
fe
13
04
03
05
04
04
06
fd
01
01
fc
fb
fb
03
06
06
01
fa
f6
08
03
07
04
fc
05
0b
07
f7
01
06
04
fa
ff
fe
00
08
ff
0b
09
01
03
07
04
10
0b
06
04
fe
04
03
04
02
fe
02
fa
01
ff
0a
08
00
01
0a
04
f4
00
f8
10
ff
ff
08
e4
f9
f3
ff
03
0a
f3
fd
08
f9
fd
06
07
07
01
00
05
03
00
07
02
02
ff
ff
02
02
00
0c
0d
0a
f5
07
05
ee
00
04
f7
ff
02
09
01
03
09
0b
20
fa
f3
fc
05
02
09
08
00
02
07
05
ff
01
ff
fd
fe
05
fe
00
05
03
12
2c
06
1f
03
0a
07
14
14
04
07
07
ff
04
02
fd
ff
02
06
09
ff
fb
fc
02
01
01
01
ff
fa
04
07
10
0b
0b
0f
0a
0e
04
09
0d
0c
0c
07
00
05
0c
0f
fd
05
0a
02
06
ff
fb
01
08
03
fd
04
02
fe
04
ff
16
fd
ed
15
05
fe
10
09
fe
33
1d
ea
01
1d
0a
06
15
fe
e2
0a
eb
ec
0f
f6
e7
0a
f9
fd
01
f6
00
04
fb
fb
fc
f7
04
0c
01
01
f4
02
fe
f0
02
f7
f3
f9
f8
f6
fc
f7
f8
02
e0
e4
f8
cf
df
09
e3
ff
07
01
ee
f1
08
f2
f3
13
0c
f4
ee
ef
ff
f2
e4
fd
e6
f0
f3
f5
0f
f6
c6
20
f3
ea
0d
11
00
f6
ea
06
fc
ec
08
05
ff
02
03
06
05
05
01
02
f7
fe
05
03
fe
f9
f9
f4
fd
05
fe
fc
01
f3
f8
08
f2
fc
06
fb
16
f9
02
15
f4
f0
1a
f3
fa
fc
ff
fc
00
00
f7
ff
02
fd
0c
f2
01
15
c0
f2
11
df
f0
f0
07
e3
01
f9
f5
ef
07
ea
e3
e1
06
e3
e0
06
d2
db
0b
03
fa
01
05
fc
fa
05
f8
f6
f2
03
06
ef
fb
05
e5
f5
02
e7
fe
fa
e3
f4
f8
ea
f0
f8
de
f0
f9
e3
f0
08
e3
01
16
f2
fd
f7
f5
fe
ef
fd
07
ef
12
f6
fa
1a
f5
f6
21
f4
f4
e4
00
0a
cb
10
f5
e3
10
06
f8
fb
fa
06
05
f9
08
04
fa
08
06
08
07
ff
f6
02
ff
f1
04
04
fa
04
f4
01
04
03
01
fd
08
04
ff
fb
02
02
fe
07
e5
11
f4
e2
1d
f8
cf
26
fc
fc
fb
01
fc
fe
fe
fd
fd
04
fc
f3
f1
ff
f2
ec
f8
f6
e9
e9
da
14
e9
f2
e3
f8
db
f1
02
f8
00
f4
f5
03
f6
fa
07
04
00
04
0c
07
05
09
03
07
05
fb
f8
00
fa
f5
f7
fd
01
fa
00
01
fa
00
fd
f5
00
00
fb
01
06
fd
09
ff
f6
01
01
fd
fc
03
09
03
0c
0a
00
00
f7
06
08
fe
05
03
04
0c
01
e4
e3
e3
e0
ee
eb
06
04
fb
fe
ff
ff
fa
fc
fc
02
01
07
1a
08
fc
fd
04
05
f0
f5
fd
04
00
fe
f0
f6
ff
05
04
f5
fc
06
0e
05
06
05
07
0c
05
f6
02
0b
02
01
0a
fe
fa
05
07
00
fd
07
00
ff
07
01
02
08
fe
fd
03
f8
fc
0d
ff
00
0c
f6
e4
e8
ef
02
02
07
f8
04
fb
f7
08
fd
fb
0a
fe
fc
f4
f7
f7
fd
00
03
01
02
05
fd
06
04
fd
00
04
ef
ef
f0
fe
fe
fc
03
00
00
0b
04
00
fc
f3
f9
fc
f3
f4
10
0f
18
f7
f7
f5
f2
e6
ee
d5
c0
c6
06
ff
03
05
02
04
03
fe
02
f7
f4
f8
ee
e4
e7
e8
e9
ec
fe
01
02
04
08
03
d9
d9
d5
00
01
01
01
05
02
00
ff
fe
f6
fd
f7
f2
f0
fd
fd
fb
f9
f4
fb
00
fc
01
06
fe
00
02
ff
fa
f7
fa
05
04
f9
02
04
fd
fa
fc
01
fd
fe
05
01
01
fc
fe
04
f9
03
01
f6
ff
ff
e3
e9
f4
f9
ee
ec
fd
fd
d7
00
05
00
ff
05
fe
03
06
01
ff
f7
01
05
fb
04
0a
fa
ff
ea
fa
f9
f2
00
fc
f8
04
ff
24
fe
01
2e
07
03
23
02
02
02
f6
fc
28
0f
03
1c
08
0a
01
09
03
04
04
fd
02
fd
fa
09
fd
05
09
fc
04
04
ff
fe
15
11
fe
fb
1a
07
fb
ff
00
ff
03
04
fd
fe
f6
00
0a
04
f7
f5
f8
05
00
03
08
01
00
f5
01
fb
fe
f0
00
00
f9
ff
06
06
da
08
09
d5
03
08
d1
fe
07
f2
fd
0c
f4
fb
0a
f7
ff
ff
14
04
00
16
02
fe
14
ed
fc
0b
f0
05
0d
ea
fb
01
12
f5
f7
12
fa
e4
0e
fa
de
ff
ff
ff
fd
fd
fe
04
fe
fd
fb
f9
fe
00
fa
ff
fe
01
ff
02
01
07
fb
ff
01
ff
02
ff
ff
ff
ff
fd
fd
fc
00
fc
fe
04
f6
02
00
fb
01
f9
06
f9
fc
fc
fc
fb
fd
ff
fe
f8
ff
fd
00
06
fd
fe
02
00
01
00
f8
f7
00
f5
f9
01
f6
fa
fb
fe
fc
fd
fc
fc
fc
fa
fc
fe
fc
fe
fc
fc
00
ff
fc
fc
ff
ff
ff
fe
ff
01
fe
03
02
ff
fc
fd
fb
00
fe
f9
fd
fc
fb
01
02
fd
00
ff
fd
00
03
fc
00
02
03
fd
01
03
fe
ff
fe
ff
01
00
04
03
04
00
01
fe
04
fd
03
f7
fa
02
04
fe
01
f7
00
07
fd
f9
fb
10
09
f9
05
07
03
05
04
ff
01
09
01
00
f9
fd
fd
0b
0c
f4
02
0a
f4
fc
03
f3
fa
fb
00
02
02
f1
04
0b
e9
f4
f6
fd
09
00
01
03
ff
00
01
ff
04
f6
00
02
03
03
02
ff
03
02
04
08
0a
13
0f
12
fd
10
fe
f2
02
f8
f7
f7
00
01
fe
ff
ff
01
f2
fd
fc
f2
ff
06
ff
06
01
01
f8
fd
fe
0d
09
fc
f6
f5
04
06
00
04
02
fa
f6
f2
00
f5
f5
fa
01
ef
fb
02
02
fd
ff
01
fd
03
fe
f6
09
03
fc
06
ff
01
ff
fa
09
03
00
05
0e
06
0a
e5
1a
fc
ee
f8
ed
eb
03
fe
f1
07
00
ed
02
04
fb
f5
09
fb
f5
07
fc
fc
07
f2
0e
09
ee
04
07
f9
01
06
00
fd
02
04
02
06
fb
fd
05
f6
f5
f9
23
10
0e
f3
ef
ed
fd
04
00
f6
f7
fc
f3
02
fc
0b
02
00
0e
03
fc
0d
ff
fc
07
f5
fd
f8
08
00
ff
fb
f6
01
04
02
ff
ff
f7
f8
f6
f3
00
fd
fb
00
fe
f9
00
01
ff
03
12
01
02
e4
fa
ef
ef
f2
ff
02
ee
ff
fe
e9
0a
09
f9
f7
04
f8
f9
09
00
f7
09
03
fe
fa
04
01
03
08
fd
00
03
fb
00
f2
02
05
fa
f5
ff
ff
06
09
f2
09
f9
e7
00
17
e9
06
01
01
09
03
fc
0d
fe
f6
04
00
f4
03
09
ff
f3
fb
fd
f2
f4
01
f0
e7
eb
07
fb
f7
fe
02
01
fd
02
fd
fd
01
ff
f1
f3
f0
f9
f3
01
06
f0
f8
00
03
fc
06
0b
04
f7
f6
00
02
f9
fd
09
ff
00
01
fa
f8
f4
de
03
e5
f2
07
05
ee
fb
ff
fe
fe
fb
00
04
06
ff
ff
00
fc
fa
fd
07
fd
f5
f9
f6
05
06
04
fa
f7
f1
ec
f6
01
03
02
fd
02
ff
09
00
06
0a
04
02
fe
fc
02
06
02
04
06
00
ff
03
02
05
04
fc
fb
03
00
08
0d
f7
03
09
fa
0d
01
de
f8
0a
07
de
07
f9
01
ed
fb
fa
ff
0c
07
09
f8
f9
09
fd
f9
13
fe
fd
0c
fe
00
0b
fa
0f
08
f5
0f
00
fc
02
00
f9
01
fe
fe
09
01
f8
00
fe
f3
e9
f3
24
19
1e
fc
ff
01
fa
07
fd
06
0a
fc
f1
ee
ed
14
fa
03
17
01
fd
0a
fb
f9
04
f1
f1
01
02
fe
f3
01
e1
ff
ff
01
00
fa
f3
fa
fa
fb
f7
f7
f4
0a
0d
06
02
00
01
13
2e
19
09
e7
03
f9
fa
fe
00
00
0c
f8
fc
0a
07
07
0f
f4
04
fd
f0
0e
00
f1
0c
fd
fd
fa
fa
01
03
05
fc
fd
01
03
08
ff
04
05
fa
04
0a
08
fd
08
f8
0f
fc
ec
fd
11
f4
01
fd
f7
ff
00
f7
ff
03
f6
f8
fa
fa
ff
fc
00
07
f8
08
02
0d
03
ff
10
04
ff
03
01
fa
fa
fc
fb
fa
fb
fb
fe
f9
ef
f9
0d
00
ea
f5
f6
ed
ec
fe
f9
f6
02
06
ff
03
ff
fe
06
03
f8
07
01
ff
07
fe
02
0e
0d
05
0a
16
fe
15
26
0e
0b
fd
f6
ff
fe
fe
ff
00
01
ff
ff
00
01
02
01
fb
04
04
fb
f2
01
03
00
fe
f5
fe
00
03
0a
fe
0a
06
fb
09
09
f9
ff
03
02
fe
ff
02
0a
fc
03
01
fc
03
01
f9
03
02
f7
06
fd
08
04
f5
02
ff
f1
03
07
09
fb
07
16
05
05
24
ff
fd
07
f6
ff
08
0a
07
02
06
03
02
ff
08
fc
f5
00
02
00
04
02
06
0f
f7
ff
fe
f2
fe
fe
04
01
f8
00
ff
f8
fb
03
fd
f5
d8
01
0f
f0
fb
db
e6
f5
f7
04
fb
09
ed
f5
f9
f3
fb
f9
05
04
fc
09
02
f7
ff
fe
f4
fe
f3
0b
0e
0d
ff
0a
fb
0c
08
04
f9
f9
fb
02
19
0e
04
0b
0b
f9
f8
f3
07
06
06
03
18
12
04
f3
fe
f8
f8
02
f4
f7
fa
f3
f1
f8
fa
06
f5
0e
0a
10
fc
08
0b
f9
01
03
02
01
03
00
01
08
01
05
05
06
12
0f
ff
08
02
01
0c
01
00
11
21
12
f6
05
fd
ff
18
10
05
01
0a
02
08
02
05
0e
13
05
ec
0c
ff
e6
0b
fe
e6
ff
ff
ff
fd
fe
fa
fc
ff
03
fc
00
09
fb
04
01
fc
02
00
fb
f8
e7
fa
04
fc
11
0e
07
00
02
03
ff
06
fe
01
0a
00
0a
fc
fc
0f
fe
fb
12
fc
fd
fe
00
f3
f3
fa
f3
f5
f9
00
ff
f6
f8
05
fc
01
0b
08
0d
f6
f4
f8
f8
fa
03
fb
01
02
fa
fd
f9
f2
f4
f7
f3
fc
f5
06
09
f2
05
0c
00
fd
07
03
0c
09
00
0b
0a
06
0c
0a
04
fb
ff
05
fe
00
0a
fd
03
10
01
03
f8
09
01
fe
fe
02
fd
ea
0a
f2
eb
fe
f2
d4
f6
df
ff
00
04
f9
fe
03
fe
00
03
f6
05
d1
fb
0c
c9
fb
07
c0
fa
0b
05
fc
04
f9
fd
0d
fe
0c
ff
ff
08
fe
05
09
fc
02
e9
eb
d2
e1
d7
d6
fe
f7
e9
00
ff
02
fe
ff
0a
01
16
0f
04
ff
04
04
05
06
fe
02
04
f9
f5
fb
15
02
06
05
ff
f3
fd
fd
00
02
ff
02
02
00
02
ee
fa
fc
fc
00
ff
01
ff
00
fc
02
fe
00
f5
f9
00
ff
01
fa
f6
3a
00
fd
3a
03
fa
37
f9
04
01
f3
01
05
f7
00
09
f7
00
fc
f9
07
fc
fa
05
fb
fa
07
fc
fd
07
fd
f8
01
fa
fc
fe
f8
fe
e5
f4
ee
04
ee
04
03
fd
03
00
02
0e
0d
05
f6
fe
f4
fc
05
fe
08
0e
f4
f9
f3
03
fe
fd
04
08
03
05
08
06
01
ff
fe
fb
fb
05
00
ff
f9
ec
0b
00
10
fb
00
f2
f4
02
fa
ff
07
ff
01
04
08
02
fe
fe
02
fe
fc
fe
fd
ff
f1
05
fe
ed
d9
f2
03
08
09
ff
04
07
05
07
07
fd
06
09
04
03
00
04
04
0a
06
0c
01
02
fc
fe
fc
f9
02
02
04
03
fe
05
fa
00
00
f8
02
02
f1
fc
02
fc
f5
01
fd
03
01
ff
04
00
0c
01
00
0a
02
fb
06
ff
fd
05
00
fe
02
ff
05
ff
f9
ef
fa
04
f0
fe
f2
13
10
fd
00
fc
fb
fd
ff
f7
fa
ff
01
fd
f1
f6
05
f9
f7
08
04
fb
0c
02
03
00
f7
f8
08
f3
fa
fc
04
f4
06
03
f6
fd
02
f8
df
f1
10
e6
f7
f6
f6
08
ed
f9
f9
ee
e5
06
fa
fe
07
fc
04
00
fb
0a
fd
03
0b
00
e1
eb
ee
f8
11
f4
00
05
e0
01
08
00
f9
02
00
f6
02
fa
04
01
02
02
09
0a
02
0a
09
f9
05
fe
01
f1
04
03
ff
06
f0
00
ff
f1
00
04
fa
01
0f
fb
06
01
f6
08
07
f9
08
08
fc
f5
0e
f8
f7
11
fa
01
12
06
ff
01
f7
01
02
04
ff
02
02
da
02
20
de
e7
ff
f6
cd
f8
f9
f8
03
f9
f0
fe
f7
f6
fb
14
00
ec
f9
ff
f5
ec
02
fb
02
03
05
00
05
07
fc
04
f1
f4
e0
02
f5
f3
fa
ef
f5
0a
d0
eb
f4
f5
ff
f7
eb
00
f5
ed
0a
f8
fb
f6
05
fb
fe
f5
06
fa
fb
03
f7
01
06
f9
ff
e7
fb
f1
f7
05
f4
fa
04
fb
f9
ef
fc
f7
f6
00
fc
fe
04
00
f8
fd
01
03
05
0f
0c
fc
f8
01
f3
f1
fb
03
f9
fe
00
03
05
ff
07
0a
09
fc
fc
ef
f4
fc
fe
fb
06
fc
05
14
fa
04
07
fa
08
01
02
09
06
06
04
07
0e
0c
04
04
0a
01
0e
27
ff
26
29
eb
1e
0d
ef
fb
0d
00
03
0c
03
04
03
02
0a
ff
13
00
fc
1c
fb
f8
1c
05
0d
03
01
0c
fa
02
0f
f8
f9
01
ff
00
09
05
04
07
0a
e6
e3
e9
f1
e7
f1
e9
eb
00
fb
02
fd
fd
f8
08
fb
f9
0b
ff
01
fb
fb
06
01
ff
00
02
fd
ff
f4
f8
0c
12
01
0b
00
01
f9
00
f7
05
02
f3
fe
fc
03
05
04
fd
06
08
02
06
04
f4
04
09
04
ee
07
fe
0e
0c
ea
f8
f7
f1
0a
0b
f3
01
fe
f9
f9
fd
03
00
fe
08
00
fe
fd
01
f4
fb
07
fa
fe
09
f5
03
f8
01
fa
00
03
ff
01
fe
0c
de
01
06
e9
f3
ff
fd
d8
fb
ff
fa
00
04
ff
fe
03
03
f8
03
0c
fb
07
0d
fe
01
07
fa
00
fd
03
f3
f8
fe
f5
f5
fb
fc
02
f5
fb
03
01
08
09
f2
ef
ef
ed
cc
cb
e2
ec
ea
06
03
0e
02
fb
00
f6
fd
05
fe
06
02
f9
04
03
fb
00
00
25
0c
0d
01
1d
07
02
f1
01
00
01
01
fa
04
05
04
06
06
e7
ee
eb
0c
12
0b
02
03
03
04
02
01
00
04
f8
06
00
f6
03
fd
f8
00
05
0e
fa
06
fe
00
fc
02
f9
f8
08
fa
fb
03
03
ff
fd
02
02
fb
fb
ff
f7
05
02
0d
02
fc
04
0a
02
fb
f9
f8
07
1b
f3
03
f6
07
e3
06
fc
fe
05
ff
fd
08
00
fe
05
ff
07
f9
fa
fe
fd
ff
ff
fd
02
04
fe
01
01
ff
f7
fe
fb
ff
f9
fd
ff
fc
01
fd
fd
1a
10
fd
ff
f5
f1
fd
f5
ea
05
02
05
ff
00
f7
07
01
f7
05
ff
02
01
fe
05
fe
00
04
0a
00
ff
f6
00
fe
fb
fb
fc
03
fe
f8
00
00
ff
02
00
00
fc
fd
fe
fa
fe
ff
ff
02
01
00
fe
fc
f3
fb
fb
fa
02
fe
fa
f9
00
fb
00
03
fe
04
04
ff
fb
fd
00
fa
fb
00
fd
ff
00
01
01
00
00
ff
ff
ff
00
09
02
04
03
fe
f9
02
02
00
07
0e
f2
01
0e
01
f8
fe
f5
fe
fe
ff
04
fe
ff
fb
fb
fe
01
06
09
ff
02
04
05
fc
fd
fc
fd
00
07
ff
ff
fe
f5
fd
07
03
03
00
f9
f9
fa
f5
f6
f8
fa
0e
01
f2
fa
ed
01
f8
f9
fc
00
02
00
02
ff
ff
02
03
02
fd
03
00
fc
fb
fc
fc
f7
03
f5
e3
05
ec
ee
e8
f3
04
07
00
02
01
fc
fe
01
01
d8
db
e4
03
0b
ff
03
fe
ff
fd
01
fb
fc
f9
f5
05
fd
ef
f8
03
09
fc
04
07
01
03
f9
f6
04
04
f8
0a
09
02
0a
ff
02
ff
fd
00
02
01
ff
fe
fd
f9
fe
fd
0f
06
06
fe
f5
fe
1b
e0
f1
ff
cd
f9
f5
0a
f4
fb
02
fd
fe
01
fa
fb
00
f7
01
01
fa
02
01
01
02
f9
00
fd
fe
fc
06
fa
00
fb
f9
04
fb
00
00
fc
fd
fc
fd
f9
ff
fe
f9
01
02
f8
fa
06
fe
05
08
02
05
07
04
fd
01
0a
03
00
ff
00
00
fe
ff
02
f9
fb
00
15
06
fd
f3
f6
00
e5
0c
03
03
02
fb
ff
01
06
03
fb
fd
fb
fb
fb
03
fa
06
08
07
00
00
fd
fd
ef
f1
fd
06
fe
fe
02
fa
f7
ff
f7
f4
ff
ef
05
06
05
02
02
03
05
ff
fa
ff
fe
02
01
ff
00
ff
fd
03
f5
03
09
f9
04
06
f0
08
f9
0c
04
09
f9
f1
09
d8
08
ef
03
fd
fb
02
00
fc
fc
fe
fc
07
01
f6
fd
02
03
f4
f8
ff
07
0b
05
fd
00
fe
fd
00
03
fd
fa
01
f8
ff
00
fa
fc
01
fd
f1
fd
e4
d5
f6
02
fd
ff
03
09
0f
01
ff
0c
fa
f2
05
00
ff
08
f8
02
02
fb
01
01
0e
0c
fe
ff
0c
fb
f6
10
fe
f7
f5
f6
fe
01
04
f6
f6
fe
03
0c
09
0d
0c
0a
fc
fa
fe
05
07
01
03
00
fd
ff
01
04
f1
f6
fa
f2
f8
06
fa
00
fe
fe
f6
02
f5
f1
f7
f4
f7
f5
fe
fa
05
fd
fb
03
01
ff
02
01
fe
ff
f6
fd
fb
00
fa
f9
e9
0a
03
e2
f4
08
11
fe
fa
09
03
06
08
03
04
08
01
04
f9
f4
2a
fe
fb
34
05
fc
37
f4
fa
03
f8
f1
fa
01
f7
f8
07
02
fd
07
00
fe
00
fd
00
ff
d6
d4
e8
ee
d9
f5
07
f7
fe
ff
09
fe
fd
09
04
fb
12
03
fe
fd
01
00
02
ff
00
02
ef
ea
d8
e5
f0
ef
e0
f1
f2
f7
ff
00
f8
00
02
00
03
04
f5
01
ff
fe
0a
02
01
02
fd
00
08
06
f5
f1
ee
fa
fd
eb
01
02
10
fa
02
17
f5
08
10
fe
02
08
fe
00
04
01
fd
02
02
ff
f9
01
ff
fc
fd
03
fc
01
ff
fc
02
03
03
02
03
ff
09
e8
03
f6
e6
ff
e5
e9
f3
fa
00
fb
f8
ff
fb
f9
00
fb
03
fe
f4
08
ff
fa
08
ff
f2
f3
f8
fd
f8
fa
ff
fa
f6
f7
14
00
05
1a
01
04
18
00
03
01
fd
04
07
fe
02
11
09
1a
03
08
09
07
0a
07
fb
07
01
fe
02
02
fe
03
05
fb
ff
ff
03
f5
01
07
ff
00
10
04
01
ff
07
0b
00
05
04
10
0e
02
fc
01
07
01
02
03
03
02
fe
05
0a
05
fd
f8
03
fb
01
05
06
02
f8
06
fe
fd
06
03
f9
fb
fd
06
fc
fe
04
fe
05
fd
ff
03
03
05
07
05
05
05
01
f5
06
07
f8
04
0b
f4
06
0b
e7
0e
17
10
eb
0f
dc
07
07
05
0d
fb
02
0d
fa
f6
0f
ff
fe
f8
f1
f7
f8
f5
f4
f8
fa
f6
0b
03
f8
ea
fd
ec
e2
ff
00
02
02
ff
02
fc
f9
f4
f7
e9
e7
eb
09
c0
da
ef
fd
f0
ec
eb
ec
ea
e2
ea
f6
f8
f0
f1
fb
fb
ff
fc
fd
f5
fc
f9
04
fc
f8
e4
38
fa
00
0c
0b
f4
04
f1
f4
08
f2
f9
02
e9
0b
fe
fd
00
05
f7
f6
fb
f8
fe
0f
fa
05
f9
03
fc
02
04
08
fd
01
ed
ee
fd
ee
ef
01
ff
f8
f4
08
05
00
02
f8
f9
01
fe
08
ff
02
04
f7
02
ff
f9
08
03
12
fc
f4
f4
fa
ee
00
09
fb
2e
0a
0d
f5
14
df
01
00
02
06
03
03
00
00
00
f6
f6
10
f8
ef
1b
00
e9
1a
fc
f8
02
fc
f6
fb
fe
ee
f8
fe
fe
ff
fe
ff
fd
f9
fa
f8
01
e5
e8
0e
ef
ea
fd
f1
f6
f9
00
03
f8
f8
fd
03
fe
fc
03
05
00
fe
06
00
ff
04
ff
ff
ff
f8
f8
f3
f7
02
e8
0c
fe
03
00
f8
fe
00
ff
05
08
fb
02
07
fc
05
02
07
02
00
f5
03
03
f6
f1
ec
ff
0b
f9
03
01
e4
f9
ec
e7
ee
ef
dc
f6
fc
01
fa
00
03
fe
01
02
f9
fd
0e
f9
fe
13
f9
fc
19
07
00
00
00
02
01
fa
04
02
f9
fb
f2
e7
f0
07
e4
e8
f5
ed
f4
05
f4
ed
04
f6
eb
03
01
fd
04
01
ff
11
fc
f7
07
02
fa
0b
fe
07
13
fa
02
1b
fe
fc
f8
fc
f9
ee
f8
fc
fb
f4
ea
f9
e1
ed
07
f3
f6
eb
fc
e8
ef
00
f5
ee
0f
fd
f6
00
f0
f8
fa
ff
f3
00
f7
f7
02
fd
08
0a
e4
06
10
f6
02
fa
ff
fd
09
00
f6
0a
f1
ec
00
06
fa
ff
03
fb
06
02
fe
03
00
f6
fa
0c
04
f1
01
08
eb
ee
f1
f0
ee
eb
e9
f0
f3
ff
f4
08
02
ea
08
03
f2
00
02
fa
0a
04
fc
05
02
fe
01
e8
0a
eb
ef
ea
02
eb
f2
ed
ea
21
e3
f3
22
21
e5
40
1a
00
fc
08
fd
fe
05
fd
fc
06
07
fb
07
05
fc
ff
00
f8
fc
f7
01
01
fe
06
fa
fe
08
02
fe
ff
fe
fa
fb
fe
f9
f8
f8
f7
00
04
fd
11
17
fd
12
08
03
fc
f3
04
fa
fa
0b
02
f3
02
03
f4
01
03
f8
fc
03
fb
05
eb
f2
14
f3
fe
0f
f7
11
fe
fd
f7
f7
f4
f8
06
04
08
05
04
08
fd
fc
02
08
ff
01
05
04
11
02
f9
0a
01
0c
08
03
05
05
09
ff
08
01
f6
00
00
02
fd
fc
02
fb
03
02
fd
ff
00
02
fe
fe
00
03
ff
01
02
fb
05
01
f8
fd
06
f7
03
fb
23
0b
f3
ef
21
f3
09
19
05
07
09
fe
00
06
fd
fb
08
00
ff
fa
01
ff
fc
01
06
fc
04
fc
fe
04
03
07
01
07
02
02
06
04
fc
ff
03
fe
00
07
fd
f8
fc
03
ff
ff
fa
fb
ff
f8
f8
00
fd
ff
00
f7
f7
f4
00
ff
06
fc
01
00
fc
08
fd
f3
09
ed
12
0b
02
06
27
fa
fb
fd
ff
f5
fc
fc
07
0b
0a
ff
05
ff
06
07
04
ff
fc
f8
0e
09
05
fd
e7
f8
09
ff
06
04
0d
21
02
0c
12
fe
04
0f
12
09
01
03
fc
02
f7
f5
fc
ff
fe
00
00
fc
ff
04
fd
fa
01
fb
fc
fc
03
ff
f8
00
01
ff
23
10
00
0a
fd
f3
fc
10
c3
01
06
c4
06
04
c3
04
fe
05
fa
f9
06
fe
fd
04
03
00
f5
fa
0c
fc
ff
0e
fb
fc
0d
1a
fd
03
1b
fa
02
1d
fb
06
f6
f2
f6
f9
fa
09
f6
f2
ff
00
fe
02
fe
03
00
f1
0a
fe
09
05
00
0e
0a
fa
10
02
fc
0e
fc
ff
11
e3
ee
0a
fe
ed
04
04
01
00
02
f8
09
02
fc
fc
fa
f5
04
04
02
ff
02
fc
0a
05
fe
f8
ff
07
f8
fb
0a
ff
06
f9
01
08
f7
fb
0a
fc
06
fc
01
f8
04
06
ff
03
0a
fe
ff
04
01
04
05
ff
05
01
d4
05
02
cc
18
00
d0
10
fd
00
13
0a
01
12
0d
07
30
11
fe
f8
fc
04
fe
00
04
05
06
05
03
fe
05
06
05
03
04
01
ff
ff
00
f6
f7
fd
f9
f5
f6
fd
fe
00
ff
00
ff
00
fe
01
ff
f8
04
06
09
03
21
25
27
07
06
09
00
f7
fb
17
1f
1a
02
01
ff
00
00
00
fb
fe
ff
f4
f4
f1
ef
f6
ef
f5
ea
f2
02
0a
06
f7
f8
fd
0a
10
0f
f9
ff
01
01
05
01
fe
00
04
ee
ee
f6
f5
f4
fa
08
08
01
04
07
0b
fe
03
08
fb
f9
01
0d
05
01
06
00
fa
09
fd
f8
00
fe
01
ff
04
04
00
08
03
01
fa
06
fd
04
04
f3
00
f9
ec
04
da
de
ef
d7
e4
fb
e2
f4
03
ff
e8
01
04
ed
fd
01
03
08
fc
03
0b
00
fc
03
fd
f8
10
03
f3
04
0a
f8
fb
03
03
fc
00
03
fd
05
03
fd
03
ff
f8
00
f6
e2
fa
04
04
05
03
08
03
02
11
fd
10
1d
03
08
fe
05
06
f7
01
01
f8
fd
0b
0b
fb
ff
0b
ff
fd
03
f8
ff
00
01
07
02
01
16
17
14
f6
f5
f3
06
07
05
03
02
ff
04
10
02
fe
ee
02
fa
f7
fd
00
02
10
ff
fb
19
f4
ef
09
08
0a
fd
10
02
fd
0f
05
ff
fd
06
f7
00
09
f6
02
09
f6
0b
f7
02
1b
f2
04
0a
ee
ff
08
ff
e1
f0
f5
db
ff
04
de
02
05
fe
08
0b
06
06
06
03
03
03
0e
ff
06
17
fb
fe
0a
06
08
09
02
0c
00
ff
00
fa
04
06
03
02
05
07
fe
fd
fd
f1
fc
06
f2
f2
eb
ec
e8
e3
03
01
fa
fb
fc
fa
0f
14
16
02
fc
fb
08
00
05
0c
fa
02
fb
fc
f7
e8
e9
e2
f2
fd
f9
ff
00
ff
04
fe
fc
22
1f
1f
f2
f9
f6
fd
01
00
05
08
0a
fe
00
02
03
fa
f8
04
01
fb
0b
0f
07
10
0b
07
08
ff
fc
fe
fc
01
02
03
06
02
06
02
04
00
fd
01
01
00
fe
05
05
f1
f7
f5
fb
02
fe
fe
01
fb
f9
f5
f0
09
f6
e5
df
00
f6
00
00
fd
05
05
01
0a
02
ff
f7
e5
00
f6
ef
04
f8
ee
06
02
05
fb
00
08
fe
f9
04
f8
fd
00
fe
03
07
01
04
05
01
fb
eb
ee
0b
00
03
f9
f9
f5
f2
f4
fa
f2
f0
02
f8
fc
fd
05
fd
03
fc
05
06
02
06
03
1b
03
fa
0a
d2
eb
05
f2
e5
f8
fd
ff
f9
02
04
f9
fc
05
ff
ff
02
f0
fe
05
f8
fe
04
fc
f4
00
00
04
0b
05
fd
f7
e1
e0
eb
ee
ec
f5
f7
f2
f3
fd
f9
fd
f1
fe
01
ec
fa
03
fb
fb
09
fe
f9
09
f9
f8
0b
01
ff
02
e9
fc
01
f8
f9
fa
15
f0
fd
0a
d4
f0
fa
f8
f8
f3
fd
f2
f4
03
fc
f0
08
05
ff
fe
f9
02
03
f8
fd
fa
f8
fe
0a
07
01
fc
02
01
e9
04
f7
fd
fc
fd
06
00
ff
fd
02
d3
e6
f0
f0
ec
f5
e9
03
0e
f9
eb
f5
fc
e5
f7
fc
02
f4
f4
f2
f4
fe
fe
f9
f9
00
fb
17
f4
05
df
13
e9
04
17
04
fd
fd
f0
fd
03
f3
0c
0e
fe
0b
04
00
06
0c
fa
fe
02
01
fb
fd
ee
f3
e0
fa
f7
05
f4
f6
f5
f6
f0
fe
fc
f4
fc
ff
fd
ed
01
03
f6
ff
02
fd
06
ff
fe
02
fe
00
fb
00
03
fb
fe
04
05
f7
f5
fd
f3
fa
f9
dd
03
f7
11
09
f1
e2
10
02
ff
05
04
fa
ff
05
f9
ff
05
01
04
f8
fd
06
00
fe
f5
05
ef
fb
f3
f0
fc
fc
f1
01
05
f2
fd
01
f0
fc
00
f6
00
01
e7
d2
02
f5
e4
05
d9
e7
e6
f5
fa
00
f9
f6
fc
0d
06
0a
04
fa
02
fc
fb
00
fe
fc
01
fb
03
ea
f6
02
ec
ef
f7
e9
03
02
fa
f9
fa
fb
0a
07
0c
12
04
05
fc
fd
fd
01
02
ff
fc
f8
fa
ff
03
fe
fa
f9
01
05
03
d5
07
0b
df
06
ff
cf
f7
ff
01
03
02
04
0a
09
01
f9
f4
34
f9
f6
3d
f9
f4
40
01
fb
ff
08
00
06
ff
fc
00
20
00
f9
10
e8
f6
07
0e
fc
f8
fe
ff
f9
05
06
f8
08
07
01
05
06
00
08
09
fb
ff
fb
ff
08
08
00
fb
f9
0a
03
fd
f7
f2
fa
f9
fc
ff
fc
fe
fe
f7
f7
ff
f3
fc
02
06
08
0d
02
ff
06
02
07
08
05
07
09
08
fc
00
0c
fc
01
05
f9
ff
12
04
f7
03
05
02
f9
fa
f7
f8
fd
04
00
fb
03
00
ff
07
fd
fd
f8
07
02
04
fa
f5
fa
fc
e1
fd
06
02
01
05
0f
1a
07
03
01
03
03
fe
fd
fd
f7
0c
00
fc
0d
04
fa
0a
fe
02
00
02
fe
01
02
fb
fe
00
fd
08
05
05
ff
05
fe
fe
03
03
fb
03
07
07
08
df
01
07
f5
f7
0d
13
e9
01
12
f4
05
07
fa
f9
f8
fb
fb
fa
fb
f5
08
f4
f1
f9
02
ff
05
f8
07
08
fe
01
04
f9
fc
00
f6
fb
ff
f2
fe
0e
fa
06
11
f2
04
00
fa
ee
f7
ef
ea
ed
f8
fb
01
f4
fc
fe
fe
fd
fd
f8
f1
f4
eb
21
fd
f2
f3
fc
02
f3
09
03
05
01
01
fa
f8
03
03
01
f9
ef
f1
f8
fb
02
15
1a
10
07
ff
00
08
11
04
fd
02
f8
fb
f0
e5
f9
fd
fc
fd
f3
fa
14
0a
fe
15
06
0d
11
00
06
06
05
ff
ff
04
02
01
03
fa
fa
01
03
08
03
fd
02
01
f6
36
11
eb
fe
f8
24
05
27
0a
ff
fd
f9
ff
00
fb
ff
01
02
f8
f5
06
f8
f8
08
fe
00
02
f3
f9
03
fd
fe
fe
02
f8
04
ff
ff
00
fd
01
04
01
06
04
0b
12
18
fd
f9
07
ef
ef
ff
fa
fc
f4
fb
f1
e9
f7
f6
df
0e
f6
01
06
01
00
04
04
06
04
fc
f6
e2
ed
f7
d5
ed
00
fc
f9
fb
fe
fe
fb
fc
fe
f6
fc
ff
02
07
0a
06
00
00
fc
04
03
f6
e6
e4
f4
f4
fa
f6
fb
f6
e8
05
07
e6
06
0a
f4
01
f8
ef
ff
0c
fa
01
09
01
fc
fe
03
ff
02
fe
03
01
03
07
00
f9
fd
01
f8
06
05
03
ec
e5
f7
d8
f0
d9
db
ee
ed
fa
f2
05
08
05
08
00
00
05
06
fa
04
ff
fc
fb
fb
fc
07
00
f9
ff
ee
fa
fd
f2
01
f8
01
09
f7
02
01
f6
05
02
f8
e1
02
1c
06
f5
e9
dc
e2
e4
eb
fc
f7
fe
03
f0
02
05
ee
0d
fe
07
10
f8
fa
01
02
03
fa
08
ec
e0
13
f5
e9
f4
ef
fb
02
06
00
f2
f0
00
ff
fd
07
02
00
fe
fd
f6
03
01
f9
19
1d
14
ef
f1
ec
f4
ff
02
ef
eb
fa
ea
e8
f6
f6
fb
fc
e2
18
03
fa
1a
f7
f6
0b
00
01
fe
06
05
01
02
01
ff
ff
04
01
16
fa
ea
f7
03
fd
06
de
0b
15
11
e7
f0
02
fb
02
f8
e7
04
09
e5
fa
fb
e7
f7
f8
f5
07
ff
01
07
01
fc
fa
f5
fb
12
00
fe
0d
fd
06
07
f3
ec
fa
e5
e4
ec
f8
fa
fc
ef
f5
f7
e1
ce
01
dd
d2
ec
07
02
f8
0a
fc
f5
10
0b
f7
08
03
02
09
0a
fc
0a
07
f5
f7
07
f1
e9
2f
fd
05
f5
f7
06
07
08
07
03
ed
0d
0c
f0
03
ff
fc
07
f9
f5
fe
f5
ef
11
18
fa
0d
07
fa
ff
ff
0a
ff
f9
fa
07
fb
fa
05
f4
fd
fd
11
f7
f9
14
0a
02
0c
08
ff
f9
07
ff
04
03
fb
03
03
06
fc
07
0b
0b
f4
04
f9
f1
11
0d
14
16
0e
16
06
1a
f5
18
fd
fe
10
ff
02
0b
ff
07
07
fa
f5
03
05
fb
fc
fa
ef
04
00
fe
03
04
fb
06
0c
09
04
ff
02
02
03
01
00
00
fe
e9
ed
fb
f5
00
0e
e3
ea
ff
03
00
fd
07
07
04
04
07
f0
fa
0a
09
fb
06
03
00
fe
fe
e8
05
05
e7
f5
f9
f5
06
fd
ff
f9
fe
00
fa
f8
fc
fa
f8
0a
f8
fc
04
ff
07
01
f9
ff
fd
f8
06
01
04
0e
14
0c
0e
fa
fb
f0
fb
f8
f5
fe
f5
fe
f4
fa
00
f6
f9
07
fe
f7
fd
ff
fc
04
00
ff
ff
ff
04
00
fb
00
f8
f9
03
fe
f6
00
ff
07
03
fe
ec
1c
fe
01
18
fd
fd
f8
f8
00
fa
f3
f3
ff
fd
f1
f1
f1
05
07
fe
03
00
f4
01
03
03
02
f7
02
ef
ea
02
f5
f2
f6
ec
f0
f5
f6
f8
fb
ea
f7
ea
e9
c9
de
e5
e9
d6
f9
f1
ed
fb
d8
ed
03
e3
ed
f7
fd
f9
03
0a
f9
fd
08
f5
fd
f3
ff
dc
1d
ec
fb
01
fa
fb
00
fb
fe
01
f2
00
01
ee
00
fb
fc
05
06
fb
00
fd
fb
02
13
f5
04
00
02
fc
02
01
f0
f7
f2
f3
f9
f4
f5
f7
fd
00
f9
f5
06
06
05
05
06
03
03
fd
03
03
03
fd
04
04
01
f9
fc
fd
06
00
f8
fb
ff
ef
f1
00
00
14
01
03
e7
08
f2
00
00
fd
01
01
02
04
04
03
0a
0a
06
04
03
07
04
02
06
fa
fb
f7
f8
01
05
fa
03
04
fd
01
00
f9
fd
fe
02
04
00
03
01
06
0c
fb
01
f3
ed
f3
00
00
fa
ff
f6
f6
f7
f0
f5
02
07
07
04
00
01
fd
fd
ff
03
0a
fa
09
fe
00
fe
fd
fd
ff
ff
fc
fc
fb
fd
0a
07
07
fe
01
02
fb
f9
f8
04
04
01
0e
0e
fe
02
fb
fc
f3
ef
f0
ff
fd
06
f8
fa
04
fb
fa
ff
fb
05
00
ff
01
03
ff
fc
fa
ff
04
07
ff
01
07
03
03
01
0b
fb
f9
12
fa
00
09
fb
00
16
12
e9
05
05
f5
00
09
f7
03
0b
07
00
0b
04
fe
0a
03
ff
01
0a
07
04
05
04
ff
04
ed
eb
01
ee
f4
fe
f3
f5
f7
08
fc
f9
0a
05
01
0b
04
03
18
19
0f
18
21
12
12
0d
00
fb
f7
01
06
fb
02
fb
f5
00
ff
05
fe
04
03
fb
03
05
00
00
06
00
24
f0
f3
19
10
f9
fc
fd
07
ff
02
0b
fb
fe
01
fa
02
05
fc
fa
fd
08
fe
fe
03
ef
02
05
05
fd
06
04
09
00
f9
0d
ff
02
0f
fa
02
13
06
fe
07
fb
f3
04
f8
ed
06
01
00
06
fe
00
00
fd
00
fc
fe
06
01
01
ff
04
fe
f9
ff
21
15
04
06
1a
0e
15
f9
08
fc
fd
fc
fa
fd
02
fb
fc
07
fb
02
ff
fe
ff
08
fb
ff
05
fc
ef
f1
fb
f1
00
0c
fd
ff
04
04
fe
07
08
06
04
04
02
f8
fb
11
12
06
15
0d
04
13
fd
0d
05
03
0d
0d
fe
ff
04
fa
06
02
00
0b
fb
01
0a
fa
f8
11
08
fe
05
0d
fd
11
04
fc
01
04
fd
f6
f1
00
0a
05
fe
fe
f7
06
01
02
03
02
00
01
13
0c
ff
f7
07
fc
f4
ff
06
04
05
0a
09
05
fd
03
fb
ff
0f
05
f1
0f
0c
f5
0b
06
fb
03
fe
05
04
06
08
0b
08
04
00
05
fb
07
04
03
05
08
f6
06
14
06
06
01
f0
e6
eb
fa
0e
fc
01
0e
f3
04
06
f9
06
01
ff
fb
fb
ff
fc
04
fd
f2
02
00
fe
fa
fc
f8
ee
06
01
05
02
02
03
f0
fd
f9
fc
e6
fa
ff
fa
d5
d4
f0
ff
e5
f7
f6
f3
f6
f3
f6
ed
fb
00
fa
fc
07
06
01
0b
f3
f8
f7
0c
f4
f9
e0
0b
eb
fd
fd
0c
f6
fe
eb
ff
06
f6
0c
0c
f2
fe
f8
fd
02
0b
fc
f0
f6
f5
fe
1c
fc
12
fe
03
f6
fb
fc
fd
fd
fe
fe
00
03
f9
f5
03
f6
fa
fa
fe
fe
04
ff
f9
fa
ff
02
08
01
02
04
fd
07
00
fd
fe
f8
10
fa
f2
fb
00
f6
ff
03
00
19
f3
02
d1
25
ed
fb
ec
fe
f9
ed
fc
f4
f4
0d
00
06
fb
f8
fb
01
fd
ed
fb
03
02
ff
06
fd
02
04
fa
0a
f8
f4
f6
f3
f5
ff
fb
01
04
ec
f6
05
f4
e0
ee
f4
e8
e8
02
02
f0
01
ed
e8
fe
e6
f2
03
fe
fd
0d
03
fc
02
fd
f8
03
f1
f2
f3
08
f0
fa
ff
fe
00
fb
09
00
06
f7
ff
06
fb
f7
02
02
02
03
fc
ff
fc
02
fa
fe
f5
07
fd
06
f8
fd
f9
f4
fb
f8
03
ec
f0
ff
f3
fd
fa
14
fd
f8
16
07
f9
15
02
fd
06
03
ff
05
01
03
04
06
fb
f8
f8
f9
16
01
f9
f9
fd
f9
f7
03
f2
f2
ef
ff
f0
dd
09
fd
03
04
fb
05
01
fa
08
ff
02
f9
f9
ff
dc
fc
07
dc
f1
fc
01
fb
fa
01
f5
ef
fa
06
f9
01
02
fb
ff
02
fe
f8
e1
f3
f3
0d
09
fb
f7
f5
df
01
f8
ef
f9
00
ee
f0
f6
f3
ff
fc
04
fb
fe
00
fc
fc
00
0b
f2
f6
d6
03
02
e6
fa
ee
08
fc
fb
08
00
06
02
00
03
fe
fe
01
fe
05
00
f8
01
02
fb
12
fc
01
f0
f3
06
fa
fb
0b
fa
f6
04
fa
ef
00
fb
f8
07
04
ff
00
0a
07
f8
08
07
0b
fc
fb
0b
f2
fd
03
e8
fe
08
01
fe
f9
00
01
f7
05
fa
f4
02
1e
1a
eb
0c
00
07
11
05
02
01
04
00
02
fe
00
02
00
f5
05
fb
f8
00
02
fa
fc
ff
fc
ff
fd
03
02
ff
02
fe
00
fd
02
fc
fb
01
f6
f2
fa
f1
04
fe
0c
1b
09
02
fe
f7
0c
02
fc
0d
ff
f4
00
fb
ee
00
04
07
04
ff
05
08
00
04
1a
0f
07
fe
ea
00
0e
17
02
fc
f8
fa
02
fa
f7
f7
f0
f3
ff
fa
fc
00
00
fe
ff
06
0b
fe
fa
04
08
0a
04
03
fa
03
03
09
09
02
fb
f9
fe
01
ea
ff
f9
07
f6
f1
00
fb
f8
f8
fe
fc
fb
00
fb
00
fd
f8
ff
01
0c
05
fe
03
fc
03
06
00
00
fc
fd
f5
1a
00
13
fa
f8
04
05
ff
fe
ff
fb
fd
fe
fc
f6
f5
fe
fb
fd
fc
00
03
ff
fa
0f
0d
0e
00
09
f4
f6
fe
fb
fd
04
fc
fe
ff
04
ff
fd
f5
e2
de
f2
e7
de
ff
fc
fe
fa
fb
f3
fa
ec
fc
f9
e3
eb
04
fb
fe
fe
04
fe
05
09
fe
03
f4
f6
f2
08
e6
f4
fd
0a
01
02
f9
05
04
01
e0
e0
d3
01
00
05
02
05
03
03
06
02
ed
e7
ef
f6
00
f9
fa
05
05
f5
ff
04
fd
03
00
f9
04
03
fd
ef
00
00
00
09
01
09
0d
fd
fe
06
fa
fc
02
01
00
09
00
00
03
f7
00
fe
f8
fe
f6
ee
f5
04
09
ff
e6
ff
06
d6
09
0e
fe
0f
0f
05
0d
05
07
fb
01
00
05
07
08
02
03
09
f8
00
fc
f1
ec
fc
f5
f3
fd
02
fb
03
06
04
06
06
ff
01
f1
f7
f7
e8
f3
eb
10
14
02
f3
07
fe
f4
f8
03
fe
fb
07
fb
03
08
00
ff
07
f6
01
fd
0c
f4
ed
dd
16
fd
f8
0e
f9
f4
fb
00
ff
06
f9
03
08
fb
ff
04
03
00
07
03
ff
f9
fd
f7
10
f8
01
e5
fe
f8
fc
fe
02
15
0d
fd
0c
12
f4
fa
20
ff
fd
07
07
05
08
fb
ff
04
01
02
fe
01
03
fc
01
08
fe
fd
fe
fc
07
0a
f1
fe
fe
f7
f7
ee
03
29
fa
e7
ef
fd
e2
02
fe
01
01
02
00
f9
ff
fd
fb
fd
fc
03
02
01
06
fe
fb
fb
f9
f9
f9
fc
fa
04
01
fe
01
fe
fe
07
00
02
02
f9
fe
01
fd
06
fe
fb
fe
0a
02
ff
0c
09
0a
01
0d
04
03
11
02
fc
07
03
00
06
02
01
02
00
fc
fc
03
f4
ec
f4
f2
f6
f6
08
05
06
ff
fd
01
01
08
05
f8
fb
fe
06
04
fe
fe
fb
fd
03
02
08
f6
f8
01
08
fe
04
09
f9
ff
04
fc
00
fd
fc
fb
f8
02
fe
fc
03
04
fd
03
fc
00
06
04
03
08
06
03
07
05
00
01
03
05
07
04
05
09
05
fa
ee
e8
e9
f1
f6
e4
f0
ea
fe
f3
f8
fc
fa
03
f7
f5
0a
0c
00
03
04
0a
01
04
02
03
0a
06
09
01
05
01
06
07
12
fd
ff
02
fe
02
07
f9
fa
fe
02
18
1a
0e
25
0f
02
11
09
fa
00
fd
03
07
03
0c
0e
0c
04
10
00
fe
04
fd
fc
01
fc
f9
f8
ed
00
ee
f3
ff
f0
f8
fd
fe
02
0b
fe
04
03
01
01
11
14
18
02
02
0f
fd
fa
01
f4
ff
f1
fc
fd
fc
ff
04
03
f4
f0
f6
f7
f1
ea
02
fd
fe
03
04
08
05
01
01
f9
04
02
fd
f9
06
03
06
02
04
01
fb
fd
f6
f8
04
f7
ff
f8
08
05
df
eb
f5
04
f3
f5
0e
06
10
08
fe
fe
04
fd
fc
04
ff
fe
fe
01
fc
02
08
06
fa
fc
ff
f3
ff
01
ee
ea
f1
fb
ff
fa
05
06
04
04
01
fe
fd
f9
f7
0b
05
10
17
17
1f
12
04
0c
eb
ec
e9
fd
fa
fe
fb
00
fb
fd
fe
00
fe
01
01
fd
f6
f9
e7
d5
d8
ed
fb
f3
f0
fa
ea
02
06
03
ff
02
fd
05
03
06
35
26
20
e9
f0
f5
f4
fc
fc
fd
0f
0c
f8
fe
02
fb
fc
f7
ff
03
0c
fc
fa
fc
f4
fe
06
fa
ff
03
fe
ff
fa
04
ff
f6
fe
ff
fd
01
02
02
fd
fb
ff
f8
fc
fc
06
0a
04
f9
fc
f9
f1
ea
ec
08
f5
e7
fb
fb
0c
00
03
05
f1
08
06
f6
03
0f
f5
fe
03
fd
f8
10
ff
fb
0b
fb
fd
08
06
05
08
ff
ed
11
04
ff
06
04
02
fc
00
01
fa
f9
0a
07
08
07
0c
ff
0e
06
f4
ec
f7
fc
ff
fc
04
0d
02
ed
fc
01
fc
01
fe
f4
02
f3
01
11
0e
14
f8
02
12
00
0c
fc
02
fb
00
f4
ed
04
02
fb
0a
03
ff
fd
04
02
fe
0c
07
0c
0f
03
0e
17
ff
ea
01
fb
f3
ff
f5
f2
02
02
ee
f5
ff
10
fc
fa
09
f7
04
07
f3
fd
06
03
04
03
03
06
06
01
fc
f7
01
fa
02
eb
06
f4
05
f7
1b
3f
e8
0f
17
26
f1
38
08
03
fb
ff
13
06
04
30
0b
02
01
06
01
00
0a
04
00
05
01
fb
02
02
fc
fa
f9
00
f9
ee
01
00
fc
03
04
00
02
00
fc
e7
e8
fe
ff
f9
02
ff
02
04
f9
f5
04
fe
f7
f6
0f
03
f8
fc
f8
fb
f2
fc
07
e0
f4
08
dd
e9
ef
d6
e3
f2
f6
cb
ef
01
00
fe
01
fe
00
0d
09
01
f8
fd
ff
fc
fc
fc
02
02
06
e6
fc
f9
f7
f6
f8
f6
ef
f0
fd
fe
05
04
ff
04
04
fa
ff
ee
01
fd
f4
01
fe
f8
f2
f0
fc
00
fd
00
01
01
01
ff
02
0a
f9
08
0d
fc
07
04
f1
ff
f5
ec
fa
f6
ec
ea
f7
e9
02
02
09
ff
ff
0b
03
fa
04
02
f9
fb
fa
fc
04
08
f8
fe
04
fd
09
01
f8
db
f6
ec
f6
f3
00
04
fd
f7
01
f9
f5
03
02
db
f2
f9
fc
ea
dc
f1
fd
e2
f1
ec
f0
f7
de
f2
fa
f4
f9
f3
06
fd
f9
07
00
f9
f8
f9
19
f8
f9
e6
19
02
fa
05
f4
ff
fd
f7
ff
0d
05
f2
f9
ef
06
ff
fe
ff
fd
f5
f8
e9
f6
fc
13
00
08
ff
03
fe
07
08
01
03
fc
f9
fe
09
fa
ee
00
fd
fb
04
02
05
0c
01
fd
fe
01
04
02
fd
05
fe
f8
09
fd
f8
00
08
0a
0c
fd
f9
f9
ed
01
08
0a
2c
0b
03
f4
19
e9
fa
04
f9
f9
03
fd
fe
02
fc
09
00
fa
07
f9
f2
f5
f6
f2
0a
02
08
f8
02
fb
f7
fc
f1
f4
03
fd
f5
00
fa
f8
fb
fc
fa
fd
f0
f6
fb
f0
e0
f1
fd
06
fb
03
10
eb
08
14
f4
11
00
fd
01
f8
03
01
fc
04
03
00
18
f8
01
0e
0b
00
ff
02
fa
ff
01
f3
02
02
ec
f7
02
06
15
0e
02
03
09
06
fe
01
02
fb
07
f7
f0
f2
fc
07
09
e5
f4
ed
f3
f6
e7
ee
ef
e8
fc
ec
06
06
03
03
0b
f5
06
00
fb
eb
06
fd
ec
03
f7
e7
ff
fc
fb
f5
f1
f9
17
f7
fa
06
d8
1a
1b
ee
f4
ff
ef
ff
08
00
00
04
fe
fd
08
07
ff
00
0e
03
fc
0e
f8
02
0f
fa
ec
ef
fa
f4
f8
00
f4
fe
06
07
ff
01
06
02
07
0c
0b
0a
00
fa
fc
06
0f
07
02
05
03
fc
fe
ff
fc
fe
fa
f6
f2
f8
12
fd
05
11
fb
02
13
fa
03
0a
0b
06
00
f1
f4
ff
f8
f9
01
04
03
ff
01
ff
fd
fb
fc
01
fa
f8
fa
fb
01
ff
fe
fe
0b
f5
f8
ff
04
f8
02
06
09
06
01
18
f9
00
14
fc
00
13
0a
07
f9
08
0a
f9
02
ff
fa
02
03
fa
02
03
f8
00
02
f7
fa
0b
ff
fb
02
fb
fa
07
fe
0d
16
f8
0f
03
fc
0a
fa
f2
fa
fa
f6
fd
f7
f0
04
fc
f6
01
01
fc
05
06
06
ff
fc
00
f4
ee
f8
f7
f1
f5
02
05
04
04
02
03
00
00
fa
08
07
03
01
fe
0d
11
0a
14
17
00
09
fd
ff
f7
06
fc
fd
f3
f7
f9
05
03
00
05
0a
00
fc
fd
fc
fc
f1
ff
f1
f1
03
09
fe
fd
03
03
05
f9
ff
fd
0a
08
06
fb
fe
f9
f7
fe
fe
fa
ff
00
02
03
09
f4
fc
ff
05
01
03
fe
03
f6
fa
ff
ff
fa
fe
fd
06
08
07
fd
02
09
08
04
fb
fe
00
05
02
03
05
01
fe
03
04
fa
fb
01
07
01
00
00
f6
ef
e3
f4
ef
f1
e9
ef
fb
00
f4
fa
fc
f8
fe
fc
fd
02
03
fb
ec
f6
00
fd
09
00
04
0f
f6
05
02
ff
08
09
01
07
03
fa
fa
01
01
fe
02
03
ff
03
f5
f4
08
fc
ff
0a
03
0c
01
fb
fb
f9
01
02
ff
fe
fa
f9
02
00
04
03
ff
fd
ff
00
fc
0a
0c
f5
fb
fe
f1
f9
fb
ec
f5
fb
fd
fb
fc
f9
ed
ed
e9
0e
12
17
f9
fe
f7
04
04
02
fa
ec
ed
ef
ea
fa
fa
f7
fc
fb
00
02
00
09
05
01
09
04
fc
f6
f8
05
00
fc
04
fd
00
fe
fe
02
fc
fc
00
01
00
01
01
f4
f5
01
fd
02
ff
fd
fd
e4
08
e7
e1
04
de
ff
07
ed
f9
04
00
f1
00
fc
f5
01
fe
f2
e9
fa
eb
f4
07
f3
f5
0f
f4
fd
fe
fd
f1
fd
fd
fb
fb
fb
f9
01
fa
ff
ff
f1
ff
fa
db
f0
ee
ef
f1
ef
f4
ef
dd
fa
ef
f9
f7
f8
f4
fe
01
ef
08
0a
00
fa
02
06
fc
fc
ff
12
05
e5
e8
04
e2
fd
03
ef
05
fb
fe
fe
07
03
fc
fd
01
fc
fc
fb
f9
05
05
f8
f5
fe
fa
0a
08
01
f9
0d
f2
f8
0b
f9
eb
05
f5
ec
0e
e8
ee
0e
fb
03
ff
08
0a
06
0d
fe
06
02
0f
e6
05
0c
e2
04
09
e6
0a
04
fc
f9
fe
05
0a
09
06
fb
e8
fd
eb
f1
02
02
fe
06
05
ff
05
08
01
07
0e
01
09
fc
f9
f7
fa
fe
f2
fc
fe
f8
fd
f5
f8
fb
fe
fc
01
03
ff
f0
f9
05
f8
ff
04
ff
06
04
ff
0e
17
ff
fb
06
01
fa
04
fc
02
05
04
ff
fc
05
ff
f7
05
01
fd
03
05
01
03
0d
09
f4
08
09
e8
f0
04
ee
01
03
fe
fd
ff
03
fe
f8
05
00
03
fd
fa
fd
03
02
06
fe
fe
00
ee
01
0c
f3
fd
fe
0c
0c
04
f4
00
04
fd
07
03
fe
02
00
f9
06
fd
00
02
06
f7
00
ff
fe
ff
f9
04
03
f9
03
04
ff
06
fc
f9
0d
fe
04
0a
05
0e
08
07
fa
fa
fe
ff
ec
fd
ee
01
04
ff
ff
01
00
f9
04
03
07
fe
f7
06
03
fc
04
00
f9
07
03
01
05
fb
01
01
02
fd
ff
fe
fd
f8
fb
f8
fa
fe
fa
f8
f8
fa
f9
f6
f8
03
fe
ff
07
fd
f2
0b
f9
f9
0a
01
f3
fb
fd
04
f7
fd
04
f4
fc
01
f9
0b
05
f7
09
f9
07
0e
fc
00
f6
f4
01
f9
fa
f4
f6
fa
fa
fe
f9
fe
f9
f5
ff
ff
00
0b
07
06
0a
05
02
05
03
0a
f6
ea
ea
ec
e8
e7
f1
ee
e8
f9
f9
01
fc
fc
fe
ff
f4
fd
02
03
fa
04
04
fc
02
03
ff
00
fc
00
fc
fb
06
f9
fb
fd
0c
e9
0a
0a
f6
f6
f4
fa
fe
fe
05
04
01
06
07
01
05
06
fe
fc
fd
03
00
00
03
01
09
03
fc
fb
01
fd
01
fe
02
03
01
03
05
fe
03
00
ff
02
ff
00
09
0e
fc
fc
07
fc
f9
06
fd
fd
fc
07
01
ff
fe
02
03
fe
01
02
fc
02
ff
fe
00
01
02
04
02
03
08
ff
0b
0a
fa
02
07
01
fd
03
fd
01
02
fc
04
00
fd
03
01
02
fb
fb
f9
ff
00
f9
fe
fc
fb
04
05
01
05
fc
02
03
fe
07
00
ff
05
05
f9
fa
ff
ff
ff
ff
03
f7
fe
02
01
fc
04
00
fe
01
00
02
fd
fb
fd
04
00
fe
fd
01
07
07
02
05
0b
03
fc
ff
ff
03
02
02
06
04
08
0a
04
05
01
06
08
fb
fa
ee
fe
fc
03
00
fb
06
fe
00
fd
fb
00
fc
08
0a
03
06
09
02
0d
0c
03
fe
db
f8
20
2b
18
f1
f8
ee
fe
fa
02
fa
f9
f6
f8
eb
f0
01
00
07
03
08
04
f5
08
05
00
23
1e
f6
fa
f9
fd
fd
f9
f9
01
03
fc
f3
f2
02
fe
01
f9
f6
f4
f6
00
01
ff
02
fc
02
fc
0b
05
0b
04
06
ff
f8
0a
ff
00
e5
f7
f5
ee
f6
f4
f0
fa
ed
00
fd
01
f9
fd
04
01
fa
f5
fd
00
01
fd
00
fe
09
0a
fb
f4
ee
f2
00
fe
02
06
10
08
ff
ef
01
19
06
08
f1
fa
01
f2
fd
02
f7
01
00
f6
03
02
02
0b
fd
08
0a
f5
f8
f6
f3
f4
f3
f6
f7
f5
fa
04
ff
07
07
02
08
07
04
09
06
05
0b
12
0b
0b
19
15
16
04
06
06
01
0a
0a
ff
11
0f
01
05
01
fe
00
fd
ff
fd
fa
fa
f6
fa
fc
fa
fe
f3
fd
f5
fb
04
06
05
07
06
00
09
05
fd
fd
02
01
fd
03
fb
f8
fa
f6
fb
f8
fc
01
fc
01
0b
06
02
fd
03
04
fb
fc
01
01
ff
f2
fd
ff
f3
01
05
fc
06
01
03
08
02
04
0b
01
02
06
02
fc
fd
fc
02
0a
02
fd
06
04
05
e5
fe
f6
e9
f1
f8
f9
de
fb
ff
05
fb
f9
04
04
f7
f7
07
fd
f5
0e
fb
ff
f6
e9
f9
ec
f3
fd
00
f1
f8
07
0d
02
fa
01
f1
fc
00
fc
fa
fd
ff
03
04
10
0c
09
f9
06
ee
04
f0
fa
f7
03
0b
02
f3
ef
00
04
fd
02
02
04
04
fc
fe
01
06
e9
f3
f1
17
16
06
01
fb
fc
fc
01
02
08
06
00
fe
f3
ed
ea
e4
f5
f8
f5
f6
f9
fa
fd
f8
f7
f6
f0
f7
fe
f5
f1
fa
f9
f4
09
fc
fa
ed
ed
f6
08
06
fa
03
02
fc
03
fe
07
00
02
05
ff
05
01
00
fd
01
08
fa
02
f4
f6
fd
0b
04
02
c5
f4
f6
27
e3
e0
ef
13
fb
08
09
00
05
00
04
fc
0d
04
03
0a
fe
ff
f5
f6
00
07
02
00
ed
ef
fb
01
00
fa
fe
05
01
fe
f8
fe
fd
ff
fe
05
01
03
e4
ed
e6
ef
eb
f1
eb
e7
ff
f8
f5
fa
f4
f1
00
f5
f4
04
10
06
fe
ff
00
03
f8
fd
fe
08
1d
00
ee
f9
e5
f6
fe
f9
f8
f9
f9
ef
f8
fa
fe
fd
f2
fc
fb
fd
f5
01
07
05
02
03
f6
0a
fe
fe
fe
06
f7
01
00
0b
13
fc
f6
06
ff
fb
f9
f4
05
02
ff
fd
01
01
02
fb
ff
04
02
fc
01
07
fd
f9
08
08
fc
02
0d
03
08
06
02
07
ee
0b
00
d6
10
fd
f7
f0
f9
2c
02
06
40
07
02
35
01
01
fd
ff
fe
fc
03
fe
fb
07
ff
fb
ff
f6
f8
ff
fc
fb
fe
fe
f7
0c
04
ed
03
01
f0
04
ff
ff
ff
02
01
f1
e4
f2
f4
f3
0a
04
01
06
fd
fe
02
fc
fb
fb
00
03
f9
03
06
fe
02
02
17
fe
01
11
f2
0b
ff
fa
f4
05
08
06
fa
fa
ff
0d
13
17
f5
f9
fa
01
05
05
09
09
02
0b
14
01
00
02
02
f7
f7
fa
06
04
00
02
0b
09
03
05
08
0c
f9
f4
0d
f2
fb
10
f2
f7
00
01
06
03
00
07
01
ff
01
11
06
ff
12
11
09
0f
0c
07
1d
06
ef
fe
fc
fc
f7
14
e3
02
0b
01
01
ff
f8
01
f9
f0
01
fb
f7
f8
fc
fc
f6
e4
eb
f5
0a
04
fe
c0
f7
0c
19
07
fe
03
f9
fb
fd
f5
f2
f2
f6
f9
f5
fa
fa
fc
e2
f4
fb
0e
f4
ff
fd
f9
fc
f4
e8
e9
f5
03
02
ff
03
07
fe
f5
f6
fa
15
f8
13
ff
18
1d
fa
05
0d
f1
fa
fa
fa
00
00
04
fa
fb
fb
00
fb
fc
fe
ef
f4
f6
f3
01
00
fd
03
fc
fb
f1
f3
f2
f3
03
f8
e5
ee
f1
ef
ed
f1
08
08
fc
02
02
05
05
f7
01
00
01
03
00
fd
05
fe
f9
04
ed
fe
00
f0
fd
02
f9
03
fe
ef
f0
fd
14
fd
fa
f2
0a
02
ee
fd
f6
fb
01
fe
08
03
00
f5
04
f7
f8
08
f7
ff
06
f6
fd
f8
05
01
07
06
00
06
04
fa
fa
f4
fa
fe
f9
f7
02
fe
f2
ff
00
15
0d
05
14
02
0b
0b
15
09
fd
03
fe
fd
02
f6
0c
fc
fe
0d
02
03
04
07
05
02
ff
fc
0f
10
0e
02
fb
11
03
08
0d
0b
10
08
0d
0d
0e
ff
04
01
0c
01
fe
fe
00
fe
ff
00
ff
f3
00
05
ee
f2
fe
ef
0a
0b
f0
02
02
fb
fa
f0
f9
08
f5
f0
01
03
f0
00
15
04
01
ff
02
01
fb
00
00
fc
fb
00
fc
fe
04
0a
02
16
07
10
fa
e6
24
05
f3
10
05
0b
09
00
fe
0c
05
01
0c
03
06
09
0f
01
ff
0e
02
06
0e
07
fd
00
07
fd
fe
0d
f7
f8
07
07
05
fd
08
05
ff
05
03
fe
0a
f4
f6
ff
f9
fc
02
14
0d
f3
fd
fe
f5
fe
fd
01
f8
03
01
00
fc
fc
06
fe
ff
04
fd
f6
09
f5
f6
eb
f3
ff
fb
fe
fd
ff
ff
f5
fa
fb
f1
f8
f9
03
02
fd
fb
00
04
fb
06
02
00
08
00
10
0e
05
fd
fd
fb
fe
12
13
00
0a
06
fe
fa
ff
fe
03
fb
ff
fa
01
00
fd
ff
ff
fb
03
fc
fd
05
02
ff
06
fd
00
09
fe
ff
02
f7
03
02
35
0e
f5
d8
0c
14
f5
1d
fe
1d
fa
fe
22
fd
f9
22
f9
00
fd
fd
ff
fd
02
fa
f9
02
f9
00
fb
f9
f2
fa
f8
f8
fe
fd
ea
01
01
e8
05
02
e6
01
00
fa
f7
f6
15
ed
03
fc
f3
fc
03
04
fe
08
04
00
01
00
f6
ff
00
fe
02
ff
00
06
00
03
fb
ec
13
d5
d7
fb
ff
fa
14
01
01
00
00
fd
fd
05
01
03
ff
04
05
ff
fe
fd
ff
fe
03
f6
05
01
00
fd
01
0e
0d
06
fd
fe
fa
fe
fc
f9
04
f8
fd
da
fa
fe
dd
00
0c
eb
f9
fc
ff
02
fe
03
03
01
fd
fe
03
1c
01
ff
23
09
f9
20
09
fd
fc
f6
f5
d1
e9
f2
ea
01
e9
09
00
fa
0b
fe
f8
0d
fc
f6
fa
03
fd
06
0b
10
01
06
0c
f6
f7
fd
ee
f3
f4
02
f2
f0
06
02
ff
08
00
f9
07
fc
f5
09
ff
fd
08
f7
f3
05
ed
e9
0b
09
03
0b
0f
01
ff
0b
05
02
0c
03
09
0f
08
04
08
01
15
f6
fd
ef
01
f5
f9
f7
ff
02
03
04
05
02
04
ff
03
05
f7
fc
f4
05
08
fb
fc
03
fd
02
08
08
ea
ec
ec
f8
06
06
05
07
0b
04
06
12
ff
07
10
e7
04
05
e5
06
0f
e8
00
07
06
06
fd
05
09
02
01
04
03
00
ff
ff
07
0d
09
0a
11
00
06
03
08
fb
ff
08
f3
06
ed
00
fb
f7
fd
fb
f8
f9
fb
f8
02
ff
01
02
ff
00
ff
f8
f6
00
0c
0a
00
0e
07
06
12
05
02
fb
fa
03
fc
fe
ff
f6
f7
ff
04
fa
f1
fc
f8
f0
f2
e8
05
0c
04
0f
15
10
1a
1f
0e
0f
fb
00
06
f8
02
00
f5
ff
f4
00
f6
f3
03
fc
11
04
fc
01
02
fd
04
03
fb
02
f7
f6
05
07
02
0b
06
fe
02
03
02
03
f5
ff
07
fb
02
fb
fe
04
fc
fc
01
fd
f5
fd
ff
f1
ee
00
fc
04
01
f8
ff
07
f8
fc
fe
fc
fb
fd
ff
f8
fe
00
f8
f4
f1
e7
f7
fa
ec
00
fa
f7
09
05
ed
01
07
d6
0d
06
e1
07
ff
00
01
fd
ff
fb
fa
00
f1
f3
e9
e5
f1
e8
ec
f3
eb
f8
05
f9
f7
f6
fb
f5
f0
e7
fe
fc
09
05
fd
02
ff
ff
01
e9
e9
d0
06
f6
e5
f6
fb
ec
f6
f7
f3
f1
ff
f5
e2
03
f3
05
02
02
01
03
03
ff
04
02
fd
e8
ee
e4
03
f2
ea
ef
ec
f7
f9
01
02
01
04
00
fd
04
fd
fb
03
f3
fb
fc
ee
f9
ff
01
06
fe
00
f3
fe
08
f1
fe
f9
ea
e8
f6
ec
de
f3
ed
f6
00
01
fd
01
03
02
f8
03
03
fb
f8
fb
fc
f9
f9
f8
fa
fb
02
fe
fb
fa
03
04
f2
f8
00
00
ee
13
06
e0
0a
02
f8
ff
03
03
03
07
02
00
03
01
01
fd
00
f9
ff
fd
fc
fd
fb
fb
fe
04
02
00
fb
fc
fa
ef
f6
05
01
01
06
ff
fd
04
fe
fd
e5
e4
e1
02
e0
dd
fe
fa
fa
00
ff
03
01
01
fa
03
08
03
04
fe
ff
03
fb
01
fc
fb
00
f9
fb
03
eb
06
f7
f6
ef
fd
01
00
01
ff
ff
04
04
06
05
f8
f9
fc
01
03
00
ff
02
00
03
07
02
f1
f0
f6
f5
f9
f3
03
02
fe
01
ff
ff
00
ff
fe
fc
05
02
fb
01
00
f9
06
01
fe
fc
06
00
fc
06
ff
fc
07
f9
04
0b
fc
00
0b
f6
02
04
ed
e8
18
06
e3
f2
eb
ec
f1
f9
ff
04
f8
fc
04
fb
01
07
08
03
07
01
00
08
02
05
09
fc
fd
f9
fe
07
03
03
0b
07
fc
00
fd
f8
ff
01
fe
03
03
0a
07
04
16
16
1e
fd
fd
fe
02
03
ff
04
00
fb
02
fb
f9
fe
02
04
fd
01
01
ff
04
04
17
23
12
24
0a
10
0d
13
09
fd
fd
00
fe
fb
fe
06
05
09
fc
fe
fe
fc
fd
fe
02
04
04
04
fe
04
0b
15
12
05
02
07
02
01
04
00
fe
02
fd
fd
01
0a
00
fa
0a
00
00
08
fc
fa
01
02
ff
02
fe
00
01
ff
fd
03
fd
fc
03
ff
04
03
01
04
19
1e
f2
09
2b
f1
1e
16
fb
06
f9
ff
0a
f8
f9
02
f3
ef
00
08
f8
09
0b
f8
05
01
f4
f6
fb
fe
f1
f7
ff
f7
fe
fc
0a
fd
fa
09
02
00
06
ff
f8
fe
f2
14
e8
dd
eb
fb
ed
f9
fb
fd
fc
fa
ff
fe
fe
0a
fc
03
fe
09
01
00
09
03
f8
03
f8
f3
f4
ec
f2
f3
f6
f8
f0
04
04
fe
01
04
02
03
03
00
f8
f8
fa
03
03
01
f9
fb
fb
f4
fc
f8
f6
f7
ff
00
fd
fb
04
05
fa
02
fc
ed
fd
fa
e6
f5
01
03
f9
04
07
f9
00
03
04
fe
01
04
04
08
00
01
0b
ef
03
03
eb
ff
00
dc
fc
fb
e3
f7
f0
ea
f7
fb
e8
fd
04
02
fe
01
0c
fa
fd
11
fc
f6
01
fc
f9
ff
f6
fb
fb
fa
fb
fd
fb
f2
00
f6
f9
f3
e0
ef
fa
01
ff
fc
02
02
fd
01
fe
e4
de
d4
dd
e8
dc
cb
dc
cc
ee
f1
f9
f8
fd
00
e2
e8
f1
fb
f6
00
f7
fd
07
fc
ff
02
02
d9
e4
c9
f5
d3
f6
04
f0
fa
01
fc
f1
f8
f4
f9
f5
f3
f0
fa
fc
fe
02
fe
ff
ff
fc
f2
f6
f1
ef
f2
f4
fb
fb
fa
f6
00
07
f8
fc
fd
fd
fd
04
f2
f5
f3
fe
f7
00
fc
f8
ff
ff
f5
00
02
f9
ff
01
f9
00
f4
ff
fc
f4
06
03
ed
05
00
ef
d2
eb
eb
de
d6
e9
03
d2
f8
fa
f6
fd
f8
fa
fe
f5
f5
f7
f8
f7
eb
ee
08
f3
f0
fc
fa
01
05
03
e2
ef
01
04
fc
01
09
01
03
07
fd
f8
fd
fb
f3
f7
f2
03
03
f0
ea
f6
ee
f3
f9
ec
f2
f8
ef
f2
f7
f4
01
ff
fb
fd
03
01
f8
f8
f6
01
02
f4
ec
0b
fa
f9
f3
02
00
fc
fe
f6
fc
ff
ff
fc
fa
00
02
05
f8
04
f5
fa
f0
f3
f7
0a
02
07
05
02
fb
fb
fb
ef
ed
f0
da
dd
f0
f4
ea
ed
03
11
07
ff
09
0d
05
07
05
f6
06
00
fb
05
05
fa
fe
fb
f3
f8
fd
01
09
03
f9
00
fc
0f
ef
f6
00
e2
ff
ff
08
d1
f8
fb
f1
f8
f0
f1
f7
03
fb
00
0c
07
05
06
ff
fd
fe
08
ff
ff
0d
f8
08
0e
f4
00
0a
f1
f5
f1
e9
ea
ee
e9
ee
f6
f2
f9
f8
e8
f4
04
f0
ec
e7
fe
f8
fc
fd
00
f9
08
03
f7
01
01
fc
04
01
f9
04
fc
fb
f7
e7
fe
f8
0c
08
fd
04
07
fd
ff
f6
03
fe
ee
06
f8
f8
05
05
ff
07
fa
f1
02
f9
f8
0b
fe
04
ff
0a
f2
01
01
fb
fd
fd
f8
01
fe
f3
f6
f4
f7
fe
00
00
01
01
fd
07
04
ff
fd
00
fc
fd
00
03
fe
03
08
fc
03
e0
05
f6
ec
fc
e9
f3
fd
fc
f4
e6
0c
09
01
f5
0b
fe
08
01
fe
09
03
fc
11
0a
04
fc
00
06
f7
f4
03
ee
f0
03
ff
02
f5
f3
00
fb
fb
fc
f7
00
03
f2
fd
ff
fd
02
ff
01
ff
00
f0
0a
03
ec
fb
02
03
03
fd
09
f3
fc
10
f8
fc
fb
05
01
fa
fe
02
f6
fe
01
ea
04
10
e4
04
0b
02
09
f3
fa
00
01
f7
f3
f5
fa
f4
f8
fb
00
ff
f9
f8
f5
00
f8
fb
07
04
05
10
0b
0d
08
08
0e
0e
03
06
06
ff
06
04
fe
f9
04
07
07
00
05
fd
0a
fa
f7
ff
08
ff
00
07
00
01
08
04
fa
03
06
04
04
08
f0
fb
09
f5
08
17
fb
0f
fa
00
04
0a
ff
fd
fa
01
02
04
00
03
05
fd
05
ff
02
05
00
05
00
fe
00
ff
fd
ff
07
08
fc
01
04
f9
fa
fa
fb
fa
fb
02
01
fe
fe
fd
01
f6
f7
fd
fe
04
00
00
03
fc
ff
00
00
01
fa
fe
01
fd
02
02
fd
02
fe
fd
03
00
f6
00
f3
03
04
01
00
f8
fe
f9
fb
00
fc
fd
04
04
fe
03
f7
fc
02
03
03
00
01
05
04
0a
06
fc
ff
01
04
05
fc
02
fe
fe
fc
fc
fd
02
ff
fc
01
03
fd
fe
fe
f2
02
01
f8
00
fe
ff
01
ff
ff
04
00
ff
ff
f8
00
ff
fe
03
ff
fc
03
f3
ff
f2
01
03
f4
ff
f8
ff
01
fa
f4
03
fe
f2
fb
ff
ff
fa
ff
fd
fc
fd
ff
fa
04
fa
fe
ff
fd
00
08
ff
04
0b
07
02
fd
fd
00
01
fd
fc
01
02
fc
01
05
0f
09
1a
06
02
00
01
05
04
fd
07
fd
f2
06
fa
05
01
01
04
ff
fd
07
01
fd
01
08
07
00
01
02
fe
05
f6
04
02
00
04
00
02
08
0d
0e
08
07
00
fe
fb
f8
02
00
ff
07
0e
0c
02
fb
03
08
0b
04
00
05
06
05
00
04
06
05
07
05
06
01
fb
01
0a
ff
ff
0f
05
fe
04
ff
03
05
fd
02
03
03
09
00
fc
0e
ff
ff
13
03
e8
15
1e
fb
0c
06
06
fb
10
01
fd
fc
04
02
02
03
03
02
ff
f3
e3
ff
f4
df
07
f5
cd
05
ff
f5
06
fe
fa
ff
fc
fb
f7
fc
fa
fa
fd
fa
fd
f9
f7
fa
fa
ef
f1
ee
e9
e9
e6
ea
f6
03
fd
f8
ff
f1
fb
12
ef
05
fe
01
02
01
02
ff
04
01
05
07
05
eb
f6
01
f8
f3
07
f9
fc
01
fc
ff
fc
09
0f
01
f9
fe
fa
01
ff
fc
01
fe
06
fe
fa
fe
fa
eb
01
ff
01
05
fe
f7
d7
00
f6
c0
00
fa
c9
fb
03
f8
fe
03
00
01
ff
04
f4
11
fa
f6
10
f8
f9
12
f4
0f
05
fd
07
01
00
fe
fe
00
f7
04
e9
ef
f5
e2
fa
f4
dc
ef
de
f9
f5
d5
ef
ef
d7
f0
01
fc
00
04
02
02
ff
fd
fc
06
00
07
ff
f9
ff
fe
f7
04
d1
e8
f7
c0
e8
fb
d6
ea
fb
dc
f1
f4
cd
d1
f1
de
dc
e1
06
00
03
ff
00
00
01
ff
00
f1
11
fd
f6
12
fb
f1
13
fa
ee
03
e9
ee
11
f6
ec
eb
fa
04
01
01
03
00
fb
07
06
01
06
ff
fd
03
fe
fc
fb
fc
fd
0c
06
05
fd
f1
fa
f8
f3
f4
02
fc
fa
02
00
00
01
ff
fe
e6
f9
12
e6
fb
16
e8
f6
12
ff
ff
00
00
00
fe
fe
00
fd
22
f7
02
25
f7
01
25
f6
fa
08
fb
10
ff
fc
03
f5
fa
fe
06
06
f8
04
fd
f7
fd
00
01
05
fd
fe
fe
f3
00
03
fe
0b
fd
04
08
fa
08
08
00
f6
08
fe
fc
f7
f6
fe
05
f6
ff
08
f0
e3
eb
ef
ea
e6
07
03
f1
06
fa
fe
12
11
03
02
e8
f1
f7
05
fa
f7
fc
f3
fd
ff
fc
ff
04
fa
fb
f8
ff
00
0d
f7
04
fd
fc
04
04
02
01
02
04
01
ff
fd
f3
01
ff
fc
03
02
f4
03
02
f3
f3
f1
00
0c
ff
07
ff
fc
fd
01
fe
f5
08
0c
17
09
fb
1a
02
fb
0f
08
05
fc
05
01
05
06
fe
07
04
ff
0c
00
f8
0e
fd
03
09
02
fc
f4
02
e7
f9
f4
07
eb
e1
fe
fb
f9
01
05
fc
00
01
f9
fc
f2
f3
fb
f4
f5
09
f8
fc
0b
00
05
09
fd
07
fe
ff
04
02
fa
fb
f8
fb
f9
fc
fb
f2
f9
12
fd
f1
fa
fe
0e
f6
ed
e6
07
02
02
02
02
03
0c
06
fa
06
0c
05
04
08
05
0c
05
00
08
03
fb
01
f4
f3
f9
03
05
06
fe
00
03
f6
f7
02
f9
f9
04
04
07
f6
f8
06
fc
ff
00
ff
f4
05
f7
f8
f5
05
01
00
fd
fe
06
f3
fe
12
03
f8
ff
fa
04
0a
fb
05
08
02
09
01
ff
06
fd
00
05
00
03
00
00
0a
f7
01
09
f9
01
0d
10
02
24
f4
f6
0d
ff
ed
0c
f1
ed
04
03
f7
0b
ff
fd
08
fe
00
fe
ee
f4
04
ed
ec
03
f3
e8
0b
0a
08
0c
07
01
04
0e
03
fd
f9
f6
04
fa
f9
fc
f6
f1
f7
f0
f5
04
06
11
f4
ff
03
fe
f8
04
ff
05
05
fd
0a
0b
ff
02
ff
01
07
01
fe
02
01
0e
0e
01
fc
f7
1b
03
01
00
01
05
06
03
09
0c
0a
0c
0e
09
04
fd
07
06
03
08
0c
00
ee
ef
03
fd
fb
01
fa
f6
f6
e6
f1
f4
f2
f0
ea
ef
ec
ec
fa
04
04
f1
03
ff
fb
07
02
01
fa
ff
01
fe
01
fe
fc
00
f5
f7
fa
f9
fa
00
fa
f4
f5
fd
07
14
08
04
05
11
13
08
34
03
00
3b
09
00
38
04
fe
09
03
fd
0c
04
fc
0a
03
fd
f5
00
fc
f7
f9
fb
f1
f8
fd
18
fe
00
20
ff
ff
19
ff
fd
f5
de
e5
13
f0
e9
fd
f3
f6
f7
01
fe
fc
03
fb
fe
09
02
f8
e9
00
f3
ec
03
f7
f4
fc
f5
da
e3
c0
c8
eb
de
d5
c8
fe
03
ff
fc
fe
fb
f8
fe
01
fc
04
01
05
08
04
04
02
01
05
0a
0a
f1
f4
fe
f2
f3
f0
01
fd
07
03
ff
01
00
fc
ff
ea
e8
f6
f4
e8
f2
f8
f1
f8
01
ff
00
06
02
02
04
01
00
d6
05
05
d0
06
05
c7
fc
fc
d4
d7
df
df
d5
f2
de
c3
05
29
f7
f8
0d
fd
ff
00
01
02
fa
f6
08
08
00
04
fd
01
02
0b
08
fa
00
f3
fb
f8
f4
ff
02
fb
01
ff
03
03
fc
fd
f8
f3
f8
09
ed
f1
f4
d6
f4
dc
0b
fc
f0
0b
ff
fe
fe
01
f5
e2
05
01
ef
0b
06
02
06
01
01
d4
f5
dd
07
ef
e8
05
f8
06
0d
09
06
0e
01
f1
ee
ed
f2
ff
fd
13
10
04
08
02
ff
01
ff
fe
01
0b
0d
fd
0a
08
fa
f8
f9
f6
fe
04
f4
fd
0c
08
ea
f1
ff
ff
06
ef
01
08
07
04
f8
00
01
f1
01
00
f5
0c
fc
07
06
fe
09
fe
f9
fe
e5
e0
f8
11
fd
e0
e7
f3
ef
03
05
02
10
0c
07
04
03
06
02
0a
fc
ff
00
03
fd
01
03
ff
fa
fa
01
05
0c
06
f7
05
02
02
04
04
02
03
02
01
03
02
ff
0b
fe
e7
ee
ea
ec
f7
fc
fe
00
05
04
01
f6
05
00
06
05
0b
01
00
ff
fa
02
01
f7
f9
ef
f2
04
f6
f6
0d
e3
03
03
fd
f3
f2
f3
33
3b
34
05
ff
f6
00
08
00
02
01
fc
16
40
19
01
e7
ff
ec
f2
f0
0d
0b
11
fe
03
08
fe
01
00
0b
0c
00
00
03
ff
f5
ff
06
ff
01
fe
04
00
ff
02
ff
fa
07
06
05
00
07
00
fb
07
0e
e1
fb
13
04
f3
f9
e2
08
0d
f2
fe
03
ee
fb
04
f2
fc
04
02
fb
ff
02
fe
ff
02
00
00
02
05
fe
03
09
04
10
16
0c
f9
00
00
f7
fc
01
f9
fa
fe
fe
06
0b
08
12
19
fb
fb
fe
06
09
07
06
0b
08
03
09
02
fc
01
02
fd
03
01
fc
02
04
12
12
03
0f
00
09
08
0f
13
02
06
08
01
ff
00
00
fd
00
fe
ff
fc
fa
fa
02
01
01
01
f4
f1
fd
00
09
05
03
04
07
04
00
fa
05
01
fb
03
fe
fa
06
04
fa
04
02
ff
07
fd
fc
02
06
03
01
03
02
01
04
01
03
fc
fe
08
00
02
03
fd
01
0f
12
f4
f9
1b
ef
13
17
fc
04
06
f6
03
08
f7
01
09
f8
fe
00
f8
03
04
fc
ff
08
05
08
05
01
04
f8
00
ff
f9
04
fa
ff
fe
f9
fa
fe
f5
fa
ff
f1
e9
fd
eb
d6
e4
eb
f1
f0
0a
fb
f6
0d
f5
05
08
f3
01
d2
0f
05
c0
16
01
d1
11
00
f8
f6
04
f4
eb
f1
f7
f7
f8
01
01
fa
fd
fd
fb
01
0b
0c
fb
00
00
fd
05
fd
01
01
fd
ff
01
00
f9
05
09
fa
fd
f7
02
03
fe
01
02
f9
00
02
ff
2a
d2
04
2c
c0
08
32
c3
04
01
fe
01
02
fe
02
00
fe
00
12
f5
fe
0e
f2
03
13
f6
ff
f4
0d
dc
f5
ff
fc
eb
19
05
f5
03
03
f1
fe
fd
ed
fb
00
04
f8
f0
00
fa
f3
f8
fc
f9
05
fb
ff
08
fa
fc
0e
f9
00
04
fc
fe
05
fe
fb
04
fd
fe
f4
f2
f7
f8
f7
ee
08
fd
1c
07
07
08
05
fc
00
0a
ff
01
f6
f7
fd
f9
ff
fd
f3
ff
fd
f8
f9
03
07
f3
07
ec
e3
f9
04
03
05
f7
fb
03
08
06
07
f1
fb
fd
fb
fe
ff
fa
fc
fc
0b
05
0b
eb
f0
ee
f8
fb
ef
0d
05
04
07
fa
02
08
f8
f3
23
0c
fd
20
0a
ff
1b
08
05
fb
07
07
fd
06
0a
02
0a
0d
03
f9
0d
fb
05
0b
01
05
01
d4
f7
f9
ec
e4
db
eb
ed
07
08
04
01
13
05
fd
0b
ff
f8
fd
01
04
f9
fe
03
03
fe
04
e9
d6
e9
01
e2
f6
f8
f6
fb
04
06
05
05
ff
fe
0e
06
00
00
f3
f7
0d
04
f8
00
03
06
fe
fb
fd
fb
f3
f7
ed
ee
fb
02
02
00
fe
02
fe
f9
f8
fb
f5
07
02
f0
05
fa
fc
ee
02
03
04
01
ff
06
01
f4
f8
eb
e7
e5
f0
fc
f4
f3
05
03
fd
fb
03
f8
fd
02
fe
05
fd
f4
02
07
0c
fa
05
11
fc
f4
f1
f7
00
02
f3
fd
03
05
01
f4
05
06
02
00
02
01
00
00
fc
01
05
03
09
05
01
f2
f2
f4
1d
f0
f1
eb
f9
05
f6
ff
d7
03
05
fd
fd
04
00
fd
02
04
07
fc
08
04
fb
0f
06
f3
0b
f5
0d
02
fd
05
01
00
0a
ff
01
fb
fb
03
00
f9
00
fb
f9
02
01
02
17
0b
ff
04
06
f7
fd
01
f8
02
04
fb
07
01
fc
ff
ff
03
fe
ff
01
fc
00
fb
13
0b
fd
06
1f
10
00
05
f7
0a
01
04
03
01
00
05
04
0a
09
03
05
04
ff
f9
06
07
07
fb
07
00
06
03
09
02
fd
00
03
fe
e7
01
fa
e8
fe
f5
e3
04
fe
ff
ff
f8
fe
fa
fa
f9
fc
00
0f
fe
fe
0f
fe
02
0d
0e
f8
fd
0c
ff
01
04
f5
f8
12
fa
e9
27
fa
e8
20
1c
e4
02
fd
01
fb
fd
fe
00
06
03
05
f6
f4
02
fe
f5
fd
fc
fa
04
08
06
fe
09
08
01
08
04
f8
f9
fa
f7
f7
fd
fb
f8
fe
fc
f8
fa
fa
f4
f8
04
fe
fb
02
06
0a
08
07
04
05
05
f8
00
03
f9
02
01
fc
ff
03
fc
0c
02
fe
12
09
f7
09
1b
fa
fa
fa
fa
fc
fb
f9
00
fc
00
ff
04
01
00
ff
01
04
05
05
fc
f5
f6
00
02
00
08
05
0d
05
ff
f8
06
fe
fa
03
fc
f9
fe
fe
09
fd
01
06
04
02
04
05
00
00
03
ff
01
02
fc
02
fa
fb
fd
00
00
01
fd
03
03
fa
20
1a
05
27
14
08
12
1e
f5
fb
fd
fd
f7
fa
fe
fb
00
f4
f7
fb
f8
01
01
f3
04
09
02
00
fc
0b
fc
02
fa
ee
fc
f1
01
01
f5
02
ff
fa
02
fe
09
da
dd
ec
ee
f8
ff
f6
ff
f8
f5
fb
fc
fc
fb
fa
0c
f8
00
02
02
f9
04
05
fa
01
03
ed
f8
f5
f9
e5
ee
eb
f1
f6
f8
fd
fb
00
05
02
f1
f9
f8
fa
fd
fc
fd
06
04
00
02
04
fc
fd
fc
ec
f2
fa
f3
f9
fd
ee
fe
04
f3
00
ff
f5
fe
00
fd
01
f9
fc
05
02
f8
03
02
f9
05
00
fd
05
00
ff
04
03
04
05
f3
00
f9
fc
08
01
01
16
f2
e1
f5
ec
f1
02
ed
ec
fc
fc
f8
f4
f7
f8
e9
f5
fa
f9
07
f8
fd
0f
02
fa
09
04
fe
02
02
05
00
fa
08
f8
01
04
00
02
00
fb
fe
fc
f3
fb
f0
eb
dc
ec
f1
07
03
ff
1e
06
01
02
09
01
f8
07
ff
00
ff
fe
fe
04
fd
00
04
f8
fc
f3
f4
fc
02
ea
00
ff
e9
08
fd
fe
04
fd
fc
01
04
02
02
f7
f6
f7
fd
04
02
f8
00
fb
0b
05
07
f5
f8
fc
fd
00
f3
04
02
f9
05
02
04
03
02
ff
21
ff
03
1b
fe
02
22
01
04
02
02
0a
00
03
09
00
00
0a
f5
02
07
f4
0a
09
f4
0f
04
08
f0
17
fa
f6
0b
0c
05
04
09
0a
05
08
05
fb
07
fe
f9
01
13
25
02
08
0f
04
f6
fd
f2
f7
08
ec
e3
01
ee
ef
00
00
fe
ff
fa
f8
f7
ff
f5
fc
0a
fb
f4
05
08
f5
f7
f3
ea
0b
06
0a
05
03
fd
06
03
00
06
fe
ff
06
fb
06
fd
fa
10
e7
e7
fd
00
f4
f4
f4
f2
f9
06
04
0a
08
07
07
03
fc
fe
0a
01
fa
f9
03
13
fe
02
09
f5
fb
09
01
00
07
04
02
08
04
f4
23
09
f8
13
06
f0
f3
ff
0d
01
fc
07
00
00
05
03
05
f2
f4
06
ff
fa
ff
02
ff
05
12
01
05
0c
01
04
0c
05
e3
23
11
eb
07
13
dc
00
fc
00
00
fd
fc
02
02
07
ff
05
fd
ff
ff
fb
f7
fb
ff
f8
fd
04
f7
00
0a
01
fd
fe
fd
ff
00
02
05
fd
fc
fc
03
04
03
0b
fb
00
fe
f7
01
06
fd
14
ff
fe
ff
02
fd
f9
04
fc
fb
06
01
fa
fd
fd
fc
fb
01
fc
fc
0b
0a
01
12
06
03
0e
fc
fe
fc
fd
fe
fd
f8
fe
fd
00
05
01
fe
fc
00
02
ff
05
01
04
07
05
08
00
0d
01
05
0d
02
fe
08
01
f2
fb
02
01
01
fc
fd
03
05
02
07
04
00
04
00
02
fd
fe
00
02
ff
02
03
ff
fe
f7
0c
0f
06
04
02
01
f6
f9
f6
e0
05
f2
f2
fd
05
11
04
ff
12
ff
fc
17
02
06
fd
02
11
ff
01
0f
fc
fa
0f
f2
04
fe
eb
ec
f8
f5
f6
ff
01
00
01
ff
04
03
f7
ff
04
01
fa
f7
1b
14
0b
fd
f5
fa
00
fb
fa
fd
fa
f8
08
11
fe
02
f7
fd
03
f8
02
fe
f7
00
05
06
f7
e9
16
00
f3
ff
01
ff
01
fc
00
02
01
03
07
09
f6
f7
f4
00
02
fd
fd
fe
fe
f2
eb
f9
0c
07
03
f3
ef
f6
fd
00
09
ff
00
03
ff
fc
08
fd
03
f9
fe
08
fa
fb
0a
fb
00
fa
f9
03
ff
f6
fe
fc
f6
12
f7
f9
24
01
0a
11
f7
fd
17
ec
de
f5
f7
e1
ff
fd
e5
05
03
fc
06
0c
fc
fc
00
fa
f5
fe
01
f4
f8
02
fc
01
04
fc
ff
02
f3
f3
f9
ee
f5
02
fc
f8
03
f4
f8
f7
f8
f7
fb
d6
f6
fa
fe
eb
e9
e0
f2
de
ec
fc
ef
f7
fd
f2
f3
fc
ff
f8
ff
fe
fa
00
fc
ef
fa
f7
07
00
07
f0
20
00
f9
09
04
f4
01
f4
f7
ff
f8
00
0b
f4
07
00
f9
01
00
f9
fb
f7
f9
06
21
11
07
f1
f9
f6
00
01
ff
f5
fa
f4
f6
fd
f6
f2
00
03
fb
0b
0e
00
0e
0b
f3
04
06
03
04
04
04
06
fd
04
00
07
04
ff
12
f6
f3
03
f8
ee
fc
14
08
37
fd
06
ee
18
07
06
00
05
fb
00
07
fc
fe
08
03
f9
07
04
00
09
06
fb
02
f6
01
00
f6
06
01
00
0a
04
00
00
05
fc
fc
01
fc
fb
01
21
1d
1a
21
1b
23
0a
02
06
00
04
03
09
08
04
10
12
06
00
01
fd
02
03
fe
ff
01
fd
03
fc
f6
f6
fa
fb
02
05
01
ff
01
01
fc
fc
fc
09
02
05
0d
0b
0c
ff
ff
ff
fe
fe
00
ee
ef
f2
f8
f9
f9
05
06
05
02
ff
ff
05
fe
fb
02
fb
00
01
03
ff
05
00
fa
10
ff
f6
04
04
05
01
03
07
02
01
05
fd
fa
f2
0b
05
fb
04
fe
fa
f8
07
f9
f8
06
e1
f7
00
fe
f9
f7
07
fa
fb
fe
f3
fd
fe
fe
eb
ea
e5
eb
f9
ed
f0
03
f8
08
f8
00
fe
00
fd
ee
fb
ef
fa
01
f6
01
f8
f3
00
f7
ee
f5
e5
fc
e9
e3
ef
f8
f0
fa
fe
f2
fa
e6
f1
f9
e4
e8
07
06
ff
f6
fe
00
f6
08
02
f2
e8
f6
ea
00
ed
fd
06
ed
01
f9
f4
fa
ff
fc
f8
ff
fb
f8
ff
f9
f6
05
03
01
04
01
f6
0c
ff
fb
e4
fc
f8
f8
fe
f0
ef
00
ea
e4
fa
f3
e8
fd
09
01
fb
12
ff
09
04
00
0b
f9
ff
09
fb
01
05
f7
04
0c
0b
02
f0
f7
05
02
ef
01
02
e8
ee
04
0a
f2
f2
ef
f1
f3
05
fd
fc
05
00
fd
08
02
ff
f7
fa
f7
01
03
fa
fb
fc
f5
f3
03
03
ef
f5
01
f1
f0
fa
05
02
02
09
00
02
06
fc
fd
02
fd
fe
18
0b
14
fe
f5
fe
f2
f0
f1
f5
f5
f0
fa
04
fa
05
01
00
01
fe
01
00
f9
ff
f9
fa
f1
07
f2
f4
09
fa
ff
02
04
ff
00
05
02
06
03
02
3a
3b
40
fb
fb
f7
fd
fd
00
07
03
04
07
05
00
f6
f3
f4
06
05
08
00
ff
01
04
04
08
fc
05
03
fc
04
00
fc
03
fd
fe
fe
fd
01
01
00
fe
fd
fd
03
03
01
05
07
01
fb
f8
f8
db
00
f6
e1
08
f6
ff
f7
07
f8
fe
fd
f5
fb
00
f7
fe
00
02
ff
f9
03
fd
fe
02
fa
fa
fe
0e
0a
01
0a
08
07
12
07
f8
fe
fd
f2
fa
fb
f5
fb
fc
02
06
09
0e
11
13
fd
03
fe
01
01
fd
08
04
05
0e
01
03
f9
fc
00
f6
fd
03
f2
fd
01
1d
1a
07
1b
2e
16
0b
13
06
01
fd
fd
04
00
00
02
ff
04
04
05
04
02
01
fb
04
02
fe
04
00
fc
09
0e
0f
08
09
10
ff
fd
ed
01
fd
f6
fd
f9
f7
0a
fa
fb
0e
fb
fd
10
fa
fc
01
03
03
02
00
03
ff
02
ff
07
f7
00
0a
fd
01
06
ff
ff
1d
18
e6
28
1f
f7
26
34
f2
07
0a
ff
03
05
fc
00
ff
ee
f6
f8
ee
fe
02
f9
f9
fc
f2
ff
fb
00
00
fb
fe
01
f9
04
07
07
0a
04
04
05
08
06
00
e8
dd
d5
ef
f1
0a
fe
f8
19
00
fe
00
07
04
07
0a
fe
07
fb
f3
fd
00
f8
fa
fd
f7
f7
fa
ff
0c
f5
0d
09
fa
02
0d
fc
fd
06
ff
f9
02
0b
09
05
0c
0c
0b
01
03
0b
ff
07
04
07
03
fe
f1
f1
fb
fc
fd
f6
0b
07
00
06
03
07
05
0c
13
10
00
ff
0a
03
03
10
03
08
02
03
01
02
01
03
02
02
04
fb
ff
01
02
06
08
01
06
00
ef
e7
f6
f9
ea
f9
10
f1
fe
07
03
f8
09
fa
01
f7
f3
fa
05
f6
ef
08
ff
fe
0d
03
03
f4
fb
11
02
fc
fb
f1
f4
0e
13
fd
fb
ef
e7
ec
f5
fa
fe
f3
f8
f5
f2
f3
ee
f2
f4
f6
f3
e6
f1
ec
ec
dd
f3
ed
f6
ea
f8
02
ec
f6
03
e9
00
04
08
f9
fc
04
f1
f3
f8
ef
f6
07
06
fc
f0
ef
ed
f9
f6
f3
07
00
fa
08
0e
04
0c
04
fd
f8
fc
08
f8
f2
0f
fc
e1
05
05
08
00
f9
03
f9
f7
09
f0
f2
f5
f8
fe
fd
e5
f8
f2
f1
d7
e4
f1
f8
ee
e7
ef
f0
e1
01
fe
02
04
00
00
fc
fb
fc
ff
03
07
f7
0c
1d
f4
f1
1d
09
00
f6
06
0a
06
07
05
f6
05
fb
fc
06
fc
f4
01
fe
fa
f5
f6
03
fb
00
06
fd
07
08
09
01
fe
11
0c
0d
f8
e9
ff
fe
fc
00
ee
10
03
fc
f9
fb
1a
f0
dd
19
f3
e2
0b
e7
e2
ca
ff
f6
cd
08
fe
c9
0a
f5
fe
06
f4
fe
0a
0a
03
03
ff
07
04
fa
09
05
fb
00
fe
fb
05
f5
f6
01
ef
ec
f6
05
02
04
04
05
04
04
f9
01
05
f9
01
fd
fa
02
fb
f7
03
01
06
0b
f2
fb
ed
d9
06
f5
e4
fa
e6
f1
f5
f8
f4
f4
eb
f3
ea
ff
05
f0
fa
00
f8
01
02
09
f9
03
08
ff
0d
f9
ff
09
f6
fd
04
04
07
0b
09
06
07
01
06
07
09
02
02
04
06
06
07
fb
f8
f7
00
ff
fb
f0
ed
eb
00
d8
eb
e6
dc
e8
f7
e9
e3
fc
fb
0c
f7
f5
01
f6
ed
03
01
ee
f2
02
02
f4
18
1e
10
f4
fd
fc
fe
05
00
ff
f9
f8
ff
05
02
02
04
03
06
0b
0a
0b
09
07
05
02
01
01
02
05
fb
f9
fb
f4
f4
f7
f6
f5
f3
ff
f9
f9
08
05
02
00
01
f8
02
00
f5
ff
02
f9
fb
fc
f5
01
00
07
03
00
0c
07
01
15
d3
df
e3
ee
ee
ee
f1
f8
02
01
04
0a
fa
03
02
cf
c0
c7
03
00
f8
05
07
03
02
04
ff
02
fd
01
ff
f8
fc
fc
ff
08
03
06
0a
06
08
05
0f
13
0e
f3
fc
fc
f6
f6
fb
f3
f6
f3
01
e5
fa
0f
f4
03
02
ee
f3
08
01
0c
fe
f7
05
ff
fd
0b
13
15
17
0d
1e
17
1b
29
20
fb
01
fa
fd
03
fd
02
fd
fb
09
09
0f
00
08
01
04
0c
08
05
0a
08
01
02
00
0e
0d
09
05
05
03
fe
00
03
0a
f4
fc
01
07
f6
00
00
f6
00
fc
f6
01
05
f7
fe
01
f9
ff
04
f6
02
0d
07
05
0f
0d
11
0f
13
fe
f4
f9
04
01
00
0d
07
0d
02
02
03
fb
ff
02
05
07
05
0e
fd
fa
02
04
01
ff
ff
04
f6
ef
fa
06
ff
ff
0d
00
04
00
fe
08
01
fd
03
03
fc
00
01
02
ff
05
ff
00
00
fe
fd
f5
f2
fe
15
0b
06
e1
d7
db
ff
ed
01
ef
fd
08
ee
ed
01
0b
ea
e9
12
ed
f7
10
e5
f0
fe
02
ff
f2
fd
fb
f1
05
fd
01
00
fa
07
ff
03
08
01
03
08
05
09
0a
ff
05
05
fe
05
fc
01
ff
f7
f1
f1
f2
f4
07
fb
f8
01
03
fe
08
05
01
01
ff
05
f0
02
04
ee
05
01
ee
f8
f5
ff
f6
ec
fa
00
f4
fd
df
de
e3
e4
d8
e3
e7
e3
e6
f5
04
05
fe
05
06
f1
f8
fa
00
01
f8
fd
fe
fd
04
09
08
0d
ff
0b
fe
f3
f5
01
00
ff
fc
f7
fb
fe
fe
05
00
01
05
fb
02
1b
f4
00
1a
ee
fe
17
0c
14
03
f1
ff
00
02
08
0a
ff
04
00
02
01
02
fc
fe
08
f8
05
ff
f2
03
06
ef
00
05
02
00
fb
01
f3
f3
04
ee
ec
0b
fb
ec
04
fe
f4
0a
0d
01
f8
fa
f0
08
0d
0d
0b
0c
11
08
04
01
fb
ff
03
f2
fe
0b
fe
03
0a
fa
03
10
f0
f9
02
fa
02
fc
fe
03
fc
ff
f6
f5
0e
ff
fc
0b
00
00
ff
05
0c
01
03
ff
2a
29
25
22
23
18
08
0a
03
0d
0e
06
f2
fd
ff
f5
f1
fa
05
04
08
f9
ee
f7
f2
f6
fd
00
0b
fc
f8
f7
f6
00
fe
01
fb
f8
09
fb
fc
00
05
f1
f9
0e
01
02
0a
03
0a
02
fe
fd
fb
00
05
11
06
f8
fa
fc
07
ef
04
00
05
ef
06
fd
f1
ee
f4
f5
ec
fd
00
f0
02
02
03
01
03
fc
02
09
05
ff
fb
04
01
fc
04
02
fe
00
ff
fe
00
fe
00
02
fc
ff
f9
ee
f6
f5
05
06
01
00
fd
18
02
06
fe
ff
05
09
f6
15
fa
00
fd
01
03
02
01
08
eb
ff
e6
ff
03
ec
07
01
f0
00
0b
fb
08
ef
fd
00
01
00
fc
08
06
fd
fa
ff
08
ff
fd
ff
f1
ff
02
f6
ff
f9
f4
04
0b
e5
02
ef
d4
f8
10
2d
06
f7
db
02
10
16
07
ff
fb
0f
09
fd
f8
04
0a
f8
05
03
ef
f7
f3
03
0d
0c
fa
00
0b
0e
fa
06
04
ff
02
f8
fe
09
f9
00
f6
05
13
fc
0c
0e
02
f6
ff
07
0f
0c
03
03
09
02
fe
04
09
02
18
40
ff
05
10
02
07
02
f1
ef
f9
fc
f7
eb
12
0d
05
fd
fa
f1
05
06
ed
ef
ed
d9
07
13
f4
02
fe
04
ed
f8
23
f9
f1
fd
ff
00
fa
07
ff
f3
05
0c
13
03
06
0f
f8
04
13
ea
ef
fe
ef
ee
f5
f2
fc
06
fb
fe
fd
04
02
00
01
fe
ff
f6
ef
fd
06
00
e6
05
0d
f9
02
05
04
09
0b
0b
f9
fa
f5
fd
fd
f9
05
fe
f8
f3
fd
fc
0c
0d
0a
04
fb
f7
08
02
fe
10
03
0d
02
01
0a
ed
e6
09
03
f9
07
01
01
04
03
02
05
f5
04
ff
f7
04
ff
fe
fd
02
09
02
03
08
05
02
fa
fd
00
f7
01
00
f9
fd
fe
fc
06
00
ff
f8
fa
05
f7
fa
ff
fe
fb
02
fc
0a
10
00
01
fa
0e
0c
03
ff
f4
fe
07
fb
fe
fd
f5
09
02
ff
00
02
ff
03
07
02
f2
01
fd
f4
05
ff
f6
09
00
ec
f0
eb
02
f6
fe
ef
f1
fb
f6
03
01
05
0e
06
fe
fe
fa
f7
07
00
0b
04
09
03
ff
00
01
09
10
02
01
07
fd
ff
07
00
09
07
fa
04
05
fd
00
00
ea
fc
f8
eb
f1
e6
fb
ea
ed
f9
fd
0a
f4
05
04
e3
cf
e0
ea
f4
02
e4
f2
03
f2
e8
fe
04
fb
fa
05
07
ff
04
04
03
f9
fc
02
f4
fd
02
f5
02
03
f5
fa
06
f2
f7
03
ed
f9
02
01
06
0a
01
f8
07
fd
f1
03
0a
fb
f9
fc
ff
00
f2
00
f8
f8
fc
f5
f5
fb
fa
01
fc
f0
06
0f
ff
01
0f
01
02
16
f8
e5
dd
e4
e7
d7
e4
e9
ea
e1
e4
ea
dc
01
ec
d7
fb
ec
de
fa
01
08
f8
02
04
02
09
06
0f
07
01
0a
f8
06
06
e7
18
fa
f3
f8
fd
fe
ff
f9
00
fb
f9
fd
fa
05
04
03
fa
fd
fb
f4
f1
f4
00
fe
04
04
08
0d
0e
fc
0c
21
34
24
f0
00
03
f2
04
fd
fd
fc
fc
fa
f5
f5
00
d3
de
f2
c4
e6
dc
cd
d5
0d
01
f2
fe
05
fc
ff
06
06
fa
f5
fd
f9
02
00
fd
00
fd
ea
f6
fb
fa
ff
fe
05
03
04
04
fb
fd
01
f9
ee
07
09
0a
f6
f3
11
fd
ff
0b
00
05
0c
f3
fe
fe
01
06
f0
06
03
fd
fa
09
01
df
dc
d0
f8
f6
f4
e7
e8
eb
e6
de
d5
fc
02
ff
ef
e7
e5
fb
f7
f8
fe
00
fe
fa
f5
0c
fa
ff
0a
02
ff
01
e7
f8
ec
0f
14
16
01
09
00
0e
0d
0e
02
05
05
09
0e
0a
09
03
f8
03
05
04
f0
f0
f5
18
15
0b
03
01
f7
0e
28
2c
04
06
06
fd
ff
11
fe
01
0d
f6
fd
f3
0b
0c
05
1e
fa
00
01
03
04
02
ff
fa
03
fa
f2
ff
04
0f
f6
fc
fa
03
f7
f0
06
0a
01
fd
03
06
05
11
11
f3
f9
f0
f3
07
01
fb
fb
f5
06
03
fb
f7
fe
f7
e9
fc
f0
05
08
fd
ff
02
f9
09
03
01
f2
f2
03
f5
05
08
f7
05
0e
df
e1
ec
e9
ef
ec
ed
f9
00
f8
05
04
02
03
00
04
fe
0e
fa
f8
f0
02
06
00
f5
fb
fc
25
19
21
f8
f2
e1
0e
0c
06
27
30
2c
04
fe
fe
fd
f7
fd
f4
f7
0d
ff
01
12
05
07
10
00
f5
f4
02
fe
fe
f0
f0
fd
0d
01
f5
0d
0c
f9
08
f6
f2
15
1d
1a
fb
02
f6
f3
01
f6
06
fd
fa
ff
fc
fb
08
f7
f7
03
01
fc
fc
f4
e1
fd
01
01
cd
c0
d0
05
00
eb
01
06
fc
0c
08
04
f8
fa
f7
fc
e2
db
fc
09
00
fd
04
08
fa
07
04
00
fd
fe
fe
03
02
f9
fd
f8
05
fd
0a
01
fb
0e
0d
00
00
f4
e7
eb
01
01
01
f4
f8
fa
fd
00
ff
04
01
fd
fb
fb
ff
00
fb
0f
00
02
fa
01
02
10
dd
d5
c6
e8
ec
e5
11
02
09
ee
ee
f1
04
06
0c
08
fb
02
01
00
01
03
07
03
fa
02
02
06
fd
07
0a
07
0d
fc
fd
0a
fb
ed
f9
f8
f6
ff
f9
fc
0e
09
0c
fe
15
01
f9
15
05
fb
00
f2
03
07
f0
00
15
fa
f1
f9
fa
ed
03
07
05
09
ff
04
fc
f6
fb
08
fd
08
02
ff
03
16
0d
02
ec
f6
fa
fa
f9
ff
fc
e6
fd
00
f6
05
fa
f9
fe
02
03
f4
02
07
f0
04
0e
f7
e4
de
e9
ee
ee
f0
03
ea
ed
ed
e5
f0
f8
f7
03
ef
e8
fc
f3
f5
fc
fd
00
00
01
fc
08
f3
05
f2
f8
f8
09
02
fe
08
f8
f9
fd
05
0d
0a
f8
fd
fe
f2
ed
f2
f9
fa
00
00
ff
02
08
04
fd
fb
fb
fe
00
fd
fa
f8
f6
fd
f0
fb
f7
08
0f
1a
05
07
05
0d
02
fb
0d
07
02
06
11
13
fd
10
12
08
08
11
fe
06
04
06
0a
00
08
fe
fd
07
03
02
02
08
09
07
09
07
ea
ed
ed
00
04
fe
ff
01
02
00
02
01
0f
09
ff
0b
11
10
0f
05
01
0c
07
07
07
00
03
fe
01
01
f6
fc
04
fa
03
02
ff
03
06
03
06
0c
06
08
09
f8
f4
f9
09
07
07
09
01
01
fa
fe
fb
03
07
03
04
04
fc
fe
03
0b
0c
0e
08
07
09
08
08
08
05
fb
01
fc
05
09
ff
02
03
0e
02
ff
06
ff
f9
f8
f0
f6
00
fe
fa
fe
f7
ff
f9
01
f7
fd
0b
07
ee
f3
f2
09
fd
f4
03
ef
f1
02
00
f0
03
0f
ee
e9
19
f7
ed
19
f8
ef
17
f1
fe
1e
d9
07
22
d4
07
03
04
f1
06
06
f0
07
01
f7
13
09
fb
06
02
e2
fd
fb
d6
05
fa
02
05
f5
01
fc
02
fc
fe
fe
03
fe
01
06
fe
05
00
01
07
00
05
0b
fc
06
05
03
0a
e3
ee
fb
e2
fb
f5
ea
01
df
f0
fe
f6
fa
08
db
fe
11
01
07
01
ff
05
f4
01
06
fc
fe
ef
08
ff
01
f3
02
ff
f0
01
f9
fc
00
01
02
02
fa
fc
fd
fb
fb
02
ff
fe
01
fb
fb
fd
f9
f6
00
fd
fa
05
fc
f3
0c
0e
fe
0d
0d
fe
e8
dc
e9
e5
e0
f5
dd
c0
f8
d4
e6
f2
ef
05
05
fe
0c
f7
f9
10
f8
01
04
ed
11
03
ef
1b
06
f9
ff
03
fb
02
05
ff
03
fd
f4
00
09
fa
03
fd
f6
01
f8
f3
ea
f6
f6
f4
f1
f5
09
f9
f9
02
04
f5
04
02
ff
03
02
05
01
03
02
06
05
fb
04
03
f9
ef
06
e7
e0
fc
f3
e9
f4
f6
e2
d7
f7
ef
f2
05
e5
e9
06
02
f8
ff
0a
03
06
04
fb
07
f9
fd
06
03
04
01
00
02
fb
db
f1
fa
16
02
f7
f4
fb
01
fe
fe
03
fd
fc
00
fa
fa
ff
0a
07
05
05
02
02
f4
f4
f3
06
0a
fa
fa
fc
f5
10
08
01
ef
f6
f2
f5
f6
f7
fb
f5
fa
02
fd
fa
01
fa
f7
03
fc
00
e6
05
fc
03
0b
fc
ff
05
02
0c
01
ff
f9
fc
02
f8
fd
06
ef
f7
f6
ef
f6
f4
ff
f5
f9
f7
ea
f9
f3
01
00
f9
f5
00
16
0a
f7
0e
08
fa
0f
0d
f5
fb
02
ff
f2
ed
f6
f7
f0
f7
f8
f6
04
e8
f9
03
e7
fa
0c
de
f5
ef
08
06
ff
02
00
fb
05
06
0d
02
04
05
0b
0c
08
05
f6
fc
0a
fb
01
01
f5
f7
fc
fc
fb
fd
fe
fd
03
fe
fd
05
05
03
00
fe
fc
fb
f8
f8
f9
fa
fa
05
05
0e
07
06
0d
22
21
2e
f1
ff
f2
d4
d1
dc
f7
fd
f9
f5
f2
f5
ee
e8
eb
f0
d9
d6
d6
c4
d7
ca
c0
c4
01
f7
f7
06
06
07
00
00
08
fe
ff
fc
fc
ff
fe
fc
fe
00
fc
fc
fa
fe
ff
fd
00
ff
ff
f9
f7
f5
03
05
fe
00
01
fc
f4
f9
06
00
04
07
02
0b
04
ff
02
f9
09
06
f7
06
02
f9
eb
ec
e8
dc
d9
db
e2
dd
e4
d7
d9
d8
ed
f0
fd
f1
eb
f0
01
ff
fb
f8
fa
f7
2e
2d
31
01
fb
08
f8
fd
f7
f8
f6
f5
f3
f7
f5
05
02
f5
02
08
03
fd
fa
ff
07
04
ff
fd
f7
ff
ff
fe
09
0b
09
12
11
0d
0f
ef
f4
f7
f7
00
00
fe
ed
e8
fb
04
02
01
ef
05
fe
04
fb
fe
0b
14
fc
0e
0c
f5
05
01
18
fe
ff
1b
fb
00
22
ff
02
fd
f8
f9
00
05
f9
ff
07
00
f5
fa
f6
0b
16
13
01
06
07
03
04
0c
05
fd
02
fe
f2
fb
01
f5
1e
fe
f0
20
ff
f0
1e
fc
f0
08
03
f0
0a
08
fe
0f
0f
1b
fa
08
1a
f6
0f
13
05
02
fb
f8
0d
1a
09
14
1e
12
f5
f9
f6
fa
02
05
f8
fc
f9
f9
01
16
f9
0d
00
ec
14
e8
f8
00
fc
02
fa
fc
00
ff
fb
03
02
fe
fe
03
fe
03
07
ff
ff
03
05
fe
02
04
00
01
05
01
01
fb
ff
04
fe
fb
02
fd
05
05
06
06
01
04
00
01
09
fb
fd
fa
fb
fd
02
05
03
0b
02
01
fe
02
02
07
ff
fe
fe
00
01
01
fe
fa
00
fe
fc
fc
05
03
04
ff
fd
fa
ff
02
fb
00
ff
02
fe
ff
01
fe
fd
fb
ff
01
02
fd
02
02
fb
00
ff
03
fe
fd
fe
fd
fc
02
01
02
08
01
01
02
02
06
01
ff
01
fd
f7
ff
00
fd
fb
01
ff
00
f8
fc
fc
fd
02
03
fc
fe
02
03
01
fd
06
05
fb
02
fe
fa
ff
05
00
09
09
10
f1
fc
02
f5
fe
fa
f7
f8
01
00
02
06
f4
fa
06
f9
fe
01
fe
05
03
f3
fe
fa
ff
f7
fe
01
ee
f4
fa
ff
05
fe
fc
03
fb
fe
0c
09
0d
03
10
fa
f5
12
fd
ff
09
08
05
01
fb
fc
fe
fe
00
fc
f7
f8
02
fa
00
06
0c
0a
f7
f2
fd
f5
f3
f7
fd
f6
f7
07
fe
fd
06
00
fd
f9
ff
fc
01
06
08
f9
09
ff
f4
08
0e
fd
f9
fc
00
f9
fd
03
fe
00
09
02
00
09
08
06
0b
fd
05
0c
14
14
fc
05
04
ff
f9
01
ff
ff
05
fe
f1
ed
09
04
fe
ff
08
05
f3
f2
fb
f9
f6
f0
ff
05
00
fe
fa
f1
fe
01
01
08
08
ff
05
08
02
06
09
00
f8
fc
fd
fe
fe
02
f3
f3
f9
f4
ec
f2
13
0d
1d
de
c0
d7
01
f4
f9
fc
00
fd
ff
f4
ef
04
0c
08
f9
03
fb
fc
13
fe
ed
f9
f4
df
05
f2
de
14
f8
03
0a
06
ff
05
00
04
08
02
f4
f2
ec
08
06
fe
f6
f8
f8
fe
f9
fd
fd
f0
ef
fe
ff
fb
f6
f7
f4
f5
f9
f8
fb
02
fc
fb
fd
0e
fb
fc
0e
fb
fe
09
fa
fb
0c
ee
f0
fc
06
06
0a
f2
f6
f0
f3
ef
f1
f2
f8
fb
fd
f8
f6
12
0c
0e
ed
ef
ed
f6
f2
fe
f9
f5
04
fd
03
07
12
12
19
f8
ff
fd
0f
0c
0d
f0
f1
fb
f8
ee
f0
f5
e8
f1
fd
04
07
07
0c
0d
07
07
0c
07
0a
03
ff
06
03
0a
f3
fe
f3
f5
fe
f6
fb
07
f1
e6
00
10
fd
03
0f
fb
f9
00
f7
fc
06
05
02
02
03
05
f5
ff
f5
05
07
04
03
05
ff
03
fe
03
ee
f5
fa
f8
f5
f2
fc
f2
f3
00
fa
03
f5
f0
fa
df
f5
f9
04
fb
0a
0e
05
06
00
05
04
02
fd
f4
01
fd
f5
00
00
f4
ed
f3
f7
f7
eb
f3
fc
f7
ff
ef
e5
da
e8
e8
de
e4
ed
f2
01
03
ff
04
04
04
fb
f7
fa
f3
fd
fd
fe
00
f2
fb
ff
fc
ff
02
06
fe
05
fc
01
03
01
10
0f
0c
fd
01
fd
04
05
fa
09
0a
f5
11
17
ff
f8
fc
ea
07
0a
fd
09
e5
f5
e1
da
e4
fd
f0
f6
f0
ff
fe
04
fc
f2
e7
04
fa
f9
09
f3
ff
09
e9
f9
f5
f0
fc
09
f8
f4
12
f6
f9
fd
00
f5
fd
fe
f5
fc
fd
02
04
f7
0c
0c
04
02
00
f9
03
02
00
02
ff
01
0a
05
07
fb
02
ef
f9
01
ef
0b
10
eb
02
ff
03
ff
fa
08
ff
f9
00
f6
01
01
f1
f9
f0
04
f8
f1
f5
f3
f5
ff
13
07
fc
f3
f9
02
00
01
0c
06
04
02
08
05
f4
f5
fa
fa
f8
01
f7
02
04
00
f9
ff
17
0a
06
0c
15
0f
0b
04
f9
0d
ff
fe
04
f3
f6
fc
02
0b
ef
01
08
ee
fe
f3
fd
fc
06
ff
ff
02
03
1e
17
00
fe
13
00
fd
08
fe
fe
ff
fc
f3
f2
fa
f9
fa
ff
f9
fc
ed
09
fc
fa
05
06
f8
07
02
fd
0a
02
03
0a
ff
00
01
06
07
02
fb
01
fc
01
05
f8
05
0d
fb
07
02
04
f8
03
07
08
f1
0d
ed
f3
04
eb
fb
02
f4
02
06
f6
01
07
f6
01
05
fb
0f
05
0b
08
07
16
f7
fe
fc
e5
e5
f2
e6
e3
f9
02
ec
f4
fd
00
00
00
ff
01
fc
fd
03
06
fa
fd
f8
fd
03
08
05
f1
03
09
0b
01
0d
02
fd
07
10
fc
f5
f2
01
ff
03
06
00
fd
f1
fe
05
fe
02
03
0c
00
fd
fc
ec
ec
ee
f0
f3
04
27
1b
f6
f9
f7
fb
fe
0b
07
fb
fc
fa
ff
fd
0c
ed
ef
fc
00
f2
fd
07
11
ff
07
05
07
09
00
00
f7
ff
f2
f4
f1
f6
00
f3
05
00
05
0d
03
03
06
04
fd
fd
0a
02
f9
02
0e
06
0c
15
fe
f5
04
02
f9
09
05
03
f6
02
fd
04
f8
fa
01
05
0a
04
ef
f8
00
e8
f5
05
01
eb
cb
ee
dd
e2
f8
ec
ed
f5
fe
f6
09
06
07
00
f8
01
f2
f0
ef
f7
ff
fd
02
0a
09
f8
10
0e
f5
f2
f6
09
0a
08
00
ff
00
0b
0f
0d
fb
03
05
fe
02
02
06
f0
f9
01
f4
fd
01
fc
fc
f4
fc
fb
f4
f6
ef
e7
d1
f4
f8
f5
07
f4
f6
06
f2
f4
08
0e
fa
fb
15
f6
01
0d
f5
0f
f3
f1
fd
fc
f8
fa
f4
00
f4
02
fc
f8
02
ff
01
04
fb
ff
fd
07
0e
0a
05
09
09
06
06
09
0a
fb
fa
ee
f0
f8
f0
fb
03
f5
04
08
f4
ff
07
fa
f8
04
06
ff
02
00
04
00
fd
fa
03
f7
f2
f9
f9
fe
f3
01
07
f8
ff
01
02
09
08
0b
0c
19
02
05
09
ff
fd
ff
ff
f9
02
f8
fb
ed
f2
f8
f1
ed
f9
e3
01
10
0f
f6
08
08
fc
08
09
02
06
10
f2
f7
04
fd
f9
fd
01
00
db
ff
07
e2
09
0c
eb
03
05
01
ff
09
fb
fb
f7
f5
08
0a
03
04
0d
11
05
03
f7
fc
ed
f6
fb
fe
f8
ff
09
fe
00
f9
03
06
04
0b
03
01
0a
01
fe
06
ff
fc
03
02
fc
fe
06
01
04
06
ff
01
09
00
04
fe
f9
f8
ff
01
f7
f9
05
f8
ff
ea
ee
07
f0
e5
f7
ec
f4
f8
f1
13
f3
f0
16
fb
e5
13
0d
f3
ef
f8
e8
ed
00
f4
f2
f0
ef
e2
06
f8
f2
f6
ee
ed
fd
fe
08
f4
00
06
f7
fc
05
fc
ff
fe
08
e9
ea
09
e4
e0
d3
da
d1
ec
eb
e4
03
ff
0c
ef
f3
f4
07
00
fd
0b
fe
04
ff
fe
01
ff
06
05
fa
01
05
03
06
03
09
08
0a
10
00
19
f5
ec
ee
fa
f7
ef
f1
fa
f8
ea
0c
f2
f1
1a
ec
09
16
f3
fc
fe
01
f9
04
02
fe
06
f6
f6
f5
e8
03
04
05
06
03
09
00
ff
fe
06
03
02
00
f2
f4
03
05
02
f7
f6
f4
fc
f7
fe
ed
ec
f8
f6
f9
0c
fb
00
0b
06
03
f4
05
fe
f7
0a
00
f9
eb
f0
f8
ff
04
fa
11
ff
01
e7
eb
e9
fb
f6
f8
01
fc
01
f9
fd
f8
00
03
03
07
fc
03
f0
00
f8
f3
01
04
ff
01
05
fb
04
f8
05
01
f8
01
08
09
01
05
05
07
ff
03
07
f8
f8
f3
fd
fc
f0
f8
03
ff
f2
06
1b
00
fc
08
16
0c
e8
ea
fa
f5
f0
f4
f8
ef
07
01
f1
eb
12
ec
f4
02
f0
f5
f5
f7
f2
00
fe
ff
fc
06
fd
e3
08
ff
f9
fa
00
f0
02
00
04
04
05
fe
09
ff
fb
ff
02
f9
f6
f3
fb
05
07
ff
00
fe
e8
fc
00
07
0e
d7
fa
12
c9
05
24
cc
fd
e5
0f
07
df
11
03
da
0e
fe
f6
ec
f4
e9
ec
f4
f7
e7
eb
e3
e6
fd
e8
e2
02
fb
df
f1
05
05
fa
09
04
f4
07
fc
f7
08
ff
07
ee
fb
05
f3
f5
fa
fe
f0
06
fc
fb
fc
fa
03
0b
0d
03
05
fd
fb
05
04
ff
02
06
0b
f6
fc
0c
fd
ff
f1
fa
f4
10
ef
ef
f0
11
0a
fa
10
14
0e
0d
12
0c
0a
00
03
fd
07
f4
f5
00
f4
ee
0f
04
0d
fe
fe
10
fe
01
fd
09
02
0a
03
06
f9
f8
0b
08
02
0d
04
f4
02
01
03
05
00
02
05
0d
10
11
01
fd
05
fb
ff
03
e8
13
10
01
0e
0d
0d
ff
09
08
fb
fc
00
fd
03
fc
0a
03
f7
01
0b
fd
f1
ee
f0
f9
f4
f6
f2
fb
f6
f8
f2
0e
f5
f2
07
0f
0d
02
02
fe
f5
02
0e
ef
f7
ed
04
fd
f0
0b
01
fa
ff
05
f8
05
0b
fb
f6
04
f9
fe
04
00
03
02
06
fa
f9
fc
fa
fd
e3
f7
f4
e8
f8
f2
f7
09
07
0b
e9
01
09
fc
ff
fc
00
01
00
05
ef
0f
05
fc
fb
0e
f6
e6
0c
ec
ea
07
f5
ed
00
00
fa
fb
07
01
f0
02
02
00
f6
fe
fd
07
07
04
08
04
f9
04
ff
f9
0b
fd
f8
f9
f5
00
06
ff
01
fd
f2
fc
fe
02
03
15
0c
f4
14
12
f8
17
07
f7
ed
2f
f9
e1
39
fd
ec
40
05
10
f6
fb
02
f5
00
07
ff
f5
df
da
fb
f7
e9
10
02
de
ff
09
fe
fb
02
f7
fc
00
fb
fe
fa
fc
f9
fa
ce
f9
09
c1
40
3e
3e
ef
f2
e7
0a
0c
0e
10
11
06
fd
02
01
f9
00
fe
fc
f1
eb
0c
01
f9
11
0f
04
ff
00
01
f6
05
01
02
06
fa
04
06
f6
fc
08
06
07
f8
f7
f7
f5
f5
ef
f1
e9
f3
f4
f7
fd
fa
02
03
01
0a
03
09
00
f9
fa
e2
f2
04
05
08
06
0e
12
16
1f
11
0d
05
ef
f6
fa
13
0c
fb
f1
ee
f3
ea
ee
f0
00
09
ff
00
0a
01
fa
0f
fd
07
02
f5
01
06
fa
fc
03
f8
e4
e8
01
f1
f7
01
f8
fa
f7
ec
f1
e9
f4
ec
02
ec
e9
e9
ff
03
01
ff
07
07
fc
ff
01
fc
f4
f9
0f
0d
fd
0d
05
00
05
01
05
02
02
05
fd
ff
01
fe
00
fc
01
01
02
00
fd
01
0f
07
0a
02
02
01
f8
fd
05
fb
fb
ff
04
08
0a
df
eb
f2
03
03
ff
ff
fb
02
02
fe
01
05
02
0a
0a
03
05
05
ff
02
fe
05
02
fd
00
ff
f9
fd
02
03
04
07
fe
02
01
fe
01
ff
f9
fd
f6
ff
01
fc
03
fd
fe
ff
07
05
fb
01
01
f6
f5
ef
fc
fe
06
fe
01
ff
04
03
f9
fd
fd
f6
00
04
f8
fe
02
fc
f7
f9
03
fe
fd
fc
00
00
01
f8
fe
fe
01
fc
f8
00
ff
10
ff
ff
01
00
00
fe
fd
fd
fb
ff
fc
fe
ff
05
0b
00
fb
fa
c2
cd
c7
1b
19
0f
02
fb
00
3c
40
3a
01
00
fc
fe
fd
fa
02
fb
fb
fc
fc
f9
fd
f9
f3
02
01
fd
f6
fb
02
07
0a
fe
fa
ed
f6
f9
f6
fb
f8
fd
f5
f7
f4
e9
f4
ee
e8
f4
ed
e5
f9
01
07
02
03
03
0f
01
fd
ed
e3
d5
f0
f5
f3
ec
f5
f9
f1
e9
de
1c
10
0b
0a
02
fd
fa
f9
00
ff
fd
02
fe
02
0d
fb
f6
00
03
00
04
03
01
f4
04
0b
f9
08
0d
ff
03
03
ff
e7
e7
ff
fe
f8
fa
0d
f8
fa
df
da
ec
fd
02
ff
e7
eb
f9
00
02
ff
04
06
05
00
fe
ff
00
fc
fa
02
fb
06
07
06
00
06
06
03
fe
05
fd
04
02
02
0e
07
fc
0b
03
fe
04
fc
fd
f4
00
0a
fd
03
04
01
02
0c
07
0b
10
03
06
0c
f4
ce
e1
06
fe
00
fd
00
fc
fd
f1
fb
02
f3
02
f8
f5
f3
fd
fd
f9
00
ff
02
02
00
ff
01
00
f9
08
07
fe
03
01
fc
00
02
05
f9
f7
f6
09
06
06
0c
0b
0a
02
fb
02
f9
f9
02
f6
00
04
02
f7
17
03
ff
1f
fc
01
1d
04
00
ea
06
04
ed
03
02
f0
f2
ee
ed
f0
e9
ef
f1
e6
ec
de
da
df
f5
e5
f4
ef
ec
f4
fd
04
03
02
08
00
02
03
06
ff
02
ff
fe
05
06
fd
03
0b
02
f5
f6
06
fb
f9
0c
02
fe
0e
fa
09
02
00
01
05
04
fc
f5
fa
00
f7
01
f7
fe
f4
f6
f4
ec
05
0c
18
0f
ed
e1
e7
01
04
f8
fc
fc
f7
03
fd
00
03
11
07
01
03
ff
10
f2
0c
f9
07
03
f3
09
0b
f2
0b
00
fd
f3
fc
fe
0e
0a
ff
04
04
f9
fa
05
fc
fd
f8
f6
f7
f2
04
fc
fc
fb
02
02
fc
05
ff
05
fb
fa
ff
06
fb
f7
17
f8
02
fc
fa
02
fe
f8
09
fe
00
f9
18
10
ff
09
ff
fb
e8
e8
fe
0f
05
01
ed
f3
03
f5
01
0d
03
06
00
fe
fe
05
fb
fe
fc
01
f9
fe
f5
ea
fd
f2
f9
fc
fd
07
fe
0b
12
00
fe
00
f5
fe
07
ff
01
07
07
05
03
09
f3
c7
02
e7
c0
00
ec
d7
ff
03
06
13
0b
0e
f8
e8
d7
fd
fc
f3
ee
fc
f7
fd
f7
f1
09
eb
e1
07
f5
e7
04
fe
f1
03
02
fe
fe
01
03
fe
01
fe
fe
0f
1b
f7
02
09
fa
05
07
fb
08
02
02
08
03
01
05
02
fa
f9
fb
00
f6
02
fe
01
03
f7
1d
d2
ee
1d
cf
f1
19
ca
f7
f6
f2
00
eb
f6
fd
f0
f4
de
f6
08
f2
ea
fd
0b
ef
fa
d0
d7
cf
df
ea
ed
ed
ed
f7
fc
0a
08
f5
03
04
f1
00
01
f2
ea
ff
fd
f9
e9
fc
fe
ed
fc
01
fb
fd
06
02
08
07
fd
06
08
00
08
04
fd
07
03
01
06
00
17
07
06
19
01
02
10
08
04
00
04
0c
10
08
01
f5
fd
00
fa
fd
0c
08
fd
02
05
f4
f7
f9
ef
f8
f9
f2
fb
f9
04
ff
01
ff
f8
ff
07
fc
f6
01
05
fc
06
0b
06
06
09
04
0b
0a
00
0d
0f
07
11
12
07
0c
04
01
07
fd
fd
f6
fe
f5
ff
02
05
fc
05
15
f6
00
10
05
fe
03
fe
fd
fd
04
fe
f9
09
05
01
0b
0c
00
06
01
fd
06
01
fd
1c
16
1c
1f
1d
25
01
06
00
fa
ff
fc
f1
fd
00
fd
fb
fc
fb
04
ff
f5
ff
00
03
04
f7
03
08
fd
f9
f0
f5
fd
00
07
fc
fc
02
06
04
fc
fe
f6
02
f0
04
f5
03
ee
ea
e6
04
00
05
24
06
0b
0e
18
fc
fd
fd
fc
10
10
05
f0
f9
ff
f6
ee
f5
ed
e9
e9
f7
fe
f9
f5
fa
fd
fe
fd
f6
fe
f8
f9
0e
ff
f2
0a
fb
f5
ff
f2
e8
fb
f3
ea
f1
ee
f5
f8
f9
08
06
09
fb
f6
fc
f7
0b
03
0a
f3
ef
02
fd
f6
04
0c
f7
03
01
03
02
0d
05
04
00
fe
ea
db
07
ec
c6
eb
f1
da
eb
df
e3
f4
fa
e5
dd
ec
ee
e5
f4
07
01
f2
05
fd
02
04
fd
f5
fb
02
eb
f2
04
f2
f9
03
f9
05
01
fa
04
02
fc
06
ff
07
03
04
08
00
fd
08
00
00
01
ea
da
fc
e2
d3
f0
e9
e8
ef
ff
fa
ff
05
07
f7
ea
e1
f6
ff
0c
ed
f7
f9
f5
00
f7
f5
f2
01
f4
f3
00
f6
fb
f6
fb
00
06
fe
04
05
09
03
05
f5
fd
17
f8
fb
0b
fc
01
06
02
0d
0e
07
06
0a
fb
fe
08
fc
f6
f4
f3
f9
f8
f4
05
01
ff
fa
27
02
04
2b
fc
f8
40
03
fa
f0
03
00
f0
06
f1
f5
c3
ee
ff
df
ee
f6
ea
ef
f2
e4
de
ec
f2
e4
ea
09
f2
f2
fc
04
07
f8
ff
03
04
00
01
08
ee
f3
f9
0f
e7
f5
1e
e8
0a
09
10
05
12
02
fb
03
0c
0b
17
00
07
12
04
fc
01
fc
ee
f7
fa
f0
f6
f8
f3
f8
07
f8
fa
eb
11
0b
01
f5
f4
fe
ff
0a
03
e7
34
12
fe
05
0c
06
f6
e2
01
f3
ef
fe
f5
f5
fd
11
03
f1
25
09
ef
22
08
03
f4
e6
08
f8
e7
ff
f0
fb
03
f4
f2
02
f8
ee
f3
e5
e2
03
ed
fe
02
f6
f9
fe
09
09
00
f2
02
00
fe
00
00
00
f7
04
01
04
08
09
f7
04
fe
03
0f
e9
07
00
e8
0f
07
ff
0f
e9
01
0f
05
f9
03
f7
0b
02
09
09
02
07
02
f7
03
00
fb
ef
fd
f9
fa
fc
f4
fb
fd
f6
f5
f5
00
ff
04
0e
fd
fa
f0
f9
f7
fa
ff
03
07
fb
04
02
fd
04
0c
f3
fd
02
f8
00
fe
fc
f4
f8
fe
fe
0f
ef
e5
fa
fc
fd
f8
ee
fc
fc
f0
f5
02
06
08
fd
02
fa
07
0d
fb
00
10
01
f8
09
fe
f3
07
f7
f5
04
02
05
ff
00
06
03
ff
00
fc
f6
fa
03
04
fe
fc
02
fe
00
05
09
07
ff
08
07
0d
06
f4
03
01
f9
fd
03
fe
f8
ff
0c
07
fc
0c
08
01
0b
07
0a
f4
01
f3
f4
0d
ed
fb
07
05
ff
f3
f1
f6
eb
fc
f0
ee
0a
02
fa
f8
04
f9
f9
fa
fa
f5
02
f5
fb
fe
f7
fb
ff
00
f9
f0
f9
fa
fd
01
fd
fc
03
04
eb
ea
ea
fe
f8
fe
f7
fb
fd
0c
05
fa
ff
06
06
0a
0a
07
ff
f9
fb
07
02
00
d5
d4
e5
f8
00
ff
f8
07
f6
01
05
f6
fb
f8
f9
fe
03
01
f4
fa
f5
02
fd
fb
fe
07
ff
f7
02
f8
05
f8
f0
03
01
fa
ff
04
00
ee
eb
ee
05
04
03
fd
00
00
f3
f7
f8
04
03
00
0a
00
08
06
04
fc
fd
02
f8
03
fd
f0
fc
fc
05
03
fd
08
06
06
ff
f4
f3
ee
fc
fb
01
f1
f5
f6
01
02
00
f7
fd
fc
ff
06
00
fe
fe
06
00
01
03
fd
ff
ff
f8
ff
04
ff
07
03
ff
01
fa
fc
03
06
03
10
04
fb
03
ff
0b
fd
00
fb
f3
f5
fd
fb
fd
f9
f8
07
f9
ff
17
02
fb
13
fd
fc
f9
0f
01
f9
06
fe
fb
08
fc
fb
00
2b
fd
08
fd
04
fd
f8
f3
f6
00
f8
f5
0d
fa
d9
19
f2
cb
32
e9
ce
40
e4
01
0d
fe
fb
06
03
fb
06
05
09
00
fa
0c
0e
05
f9
fd
f7
fd
f5
ff
fa
f5
f3
04
05
f7
fd
fe
fa
04
02
00
06
06
05
ff
00
fe
ff
00
fe
fd
01
03
fd
ff
15
02
0b
12
0d
14
0b
fe
fd
01
0e
01
0b
06
00
f8
f9
fc
f2
ff
05
00
f8
f6
f3
fb
fb
06
fa
fc
04
fb
ff
fe
06
03
07
01
03
0c
09
03
00
0b
04
07
f9
f5
f5
01
ff
00
03
03
00
07
06
03
0c
08
00
f6
ea
f2
e9
00
f6
fc
fb
00
fb
03
0a
fb
00
07
01
02
08
0e
19
0f
08
0e
00
11
25
14
01
f5
00
00
02
04
f3
f6
f7
04
01
03
04
06
04
01
07
0b
11
0d
05
09
04
03
17
16
11
fd
02
07
01
fe
f9
fc
f8
fd
00
fb
f5
0b
09
04
fb
05
ff
05
0b
04
ff
07
fd
fa
ff
ef
0d
0d
11
12
fe
ff
00
f1
f1
f3
f8
fc
1c
19
23
14
0d
17
01
04
00
ea
fd
f7
26
2e
2e
01
fb
fd
ff
f8
f4
f6
e8
ed
1a
1b
13
f9
f9
f8
fb
02
fd
10
0f
0e
07
02
00
03
07
05
00
00
0c
00
fd
17
fe
fa
07
13
fe
06
17
1c
13
e4
d3
e7
07
03
fd
00
fc
00
f9
f8
f7
09
0b
f7
0a
0e
f9
10
10
03
0a
f4
fa
1b
ef
fa
18
e9
fa
05
00
f3
01
03
ff
fc
01
00
04
fb
f9
08
fe
f8
00
fc
f8
fa
f3
f8
08
ff
00
04
03
04
fc
0a
ff
fc
07
00
fa
00
f6
fa
00
0b
fa
03
11
fe
fc
0c
1b
13
0d
13
0b
f9
07
02
01
f4
f2
f2
fc
10
0a
fb
06
11
00
04
04
ed
f4
f1
05
04
03
fd
01
01
07
fc
04
02
e9
ec
ee
ec
e7
f5
fa
fa
ff
06
fe
0d
0f
13
04
04
03
fd
fe
ff
fb
f2
ed
0a
fd
fa
fd
f6
ef
f8
06
16
f0
fe
10
1e
1d
0f
03
06
02
fe
fe
03
fe
fb
06
13
13
15
0d
0d
0e
14
12
13
fa
fb
f7
06
04
fc
0b
00
fe
fd
f9
fc
fb
f8
fb
fc
ff
04
fb
f5
f8
fe
00
f6
fc
ff
fa
fa
02
03
ed
f2
fe
e6
f1
f4
04
00
04
fa
08
0a
f4
02
09
f9
01
03
00
fb
fd
09
fa
fd
10
0b
10
11
0e
15
04
03
0d
f1
f4
fa
fd
f9
fc
09
08
0b
01
01
09
fa
fe
01
e9
e9
f0
05
06
f6
00
01
f7
fc
06
fa
00
fe
ff
02
03
0d
ee
fb
05
fc
08
01
fe
02
01
0a
01
ff
f1
e9
e2
e0
e3
da
e3
ea
e4
fa
fd
0a
f9
f9
07
0b
f8
ff
f6
ee
ea
00
d8
e9
ff
f1
ec
fb
f7
f7
f8
fb
fa
fc
f5
f1
ed
f6
00
ee
f9
04
e9
f7
fe
f9
f2
06
e6
f4
05
ee
f8
00
e8
f7
fe
f0
fa
07
fa
f8
00
07
00
fe
07
02
ff
f9
f4
09
eb
f2
01
ea
02
05
f1
0b
00
f4
00
ff
f9
06
04
fd
00
03
fe
ea
de
f0
e8
e5
e2
f2
ea
05
f3
df
02
fb
e1
20
0b
f0
fe
fd
02
f6
05
02
ff
03
fb
08
02
00
09
f9
05
04
fe
ff
09
03
fe
fc
03
04
fb
ff
f6
05
0f
1b
ff
03
07
04
05
fd
f0
f9
05
00
02
f9
f6
f5
f5
ec
f7
09
0a
1a
fc
d4
cf
cb
0c
f2
07
ff
09
0b
05
f4
fc
0d
e8
f0
f2
f6
f0
fc
05
ea
07
f4
ff
04
f9
fe
05
fb
00
f7
06
fa
ff
0a
f8
06
02
ff
02
10
0d
fd
fe
fd
f8
00
00
f9
f7
01
f2
f3
ec
f7
f1
f3
f9
f3
f9
f8
f6
fe
03
fe
fc
fc
00
02
fe
0a
f4
04
03
f5
18
0e
01
f5
fa
f8
fe
f4
fe
f1
ea
e7
f2
fc
f0
fb
09
fa
f9
02
02
04
0d
06
01
00
ff
fd
f9
03
fb
fa
02
f8
03
06
ee
f6
02
0a
08
01
01
00
0b
08
01
fa
ff
fb
f8
00
f8
f3
f8
f9
26
f2
02
21
f3
fe
13
0c
fc
f9
ff
ff
0c
0c
0a
11
ef
f1
00
f8
f8
02
fc
fc
03
f9
f9
06
f2
07
05
ef
09
04
09
fb
06
0b
fe
02
02
01
01
01
fb
f1
02
ff
f5
01
03
fc
08
ff
f7
00
07
05
f5
fa
f7
f8
ff
04
fe
f3
fb
ff
0a
04
07
f5
0d
0e
0b
06
0c
0e
01
06
e4
f0
10
ed
f6
0d
f0
f4
ef
f5
f8
f3
f8
ff
e8
f4
f8
ee
f3
f2
00
04
09
e5
f4
ea
fc
fe
fb
fa
02
00
f9
03
fd
fa
f3
f2
01
06
f6
ef
15
f4
0d
07
02
fd
02
00
05
0b
0b
08
0d
16
fb
ff
ff
fe
02
ff
02
ff
ff
fe
f7
ff
00
fb
ff
fa
ef
fb
0d
f4
04
1a
13
21
06
09
09
01
ff
04
02
03
05
0f
17
0a
0c
16
07
18
10
0d
06
fc
fc
0c
01
ff
06
01
fb
f6
fa
f4
fe
06
0c
01
00
04
0d
13
15
08
00
06
11
0b
06
f7
fb
03
fe
0a
00
fd
f9
f4
fe
00
04
04
06
ff
09
06
f1
ff
07
ff
fd
02
01
f9
04
07
12
0d
07
1a
14
0a
14
16
0e
fd
04
0e
fa
fb
fd
fd
fd
02
01
02
02
02
05
05
0e
0a
0e
f2
e5
f4
ee
e8
f1
f5
e3
fe
fe
01
03
13
16
15
e0
eb
e7
f4
f2
f0
fe
f5
f3
f5
fa
f3
02
08
03
02
ea
fe
13
01
0d
f2
fb
04
0a
00
01
06
1a
1f
00
ff
ff
03
09
f9
10
0b
0a
fc
df
f2
f6
ee
ef
01
f9
0f
03
02
04
03
0b
f9
fb
0c
fc
ff
f4
fd
00
f6
f8
fc
fd
f8
ec
ee
f8
fe
ed
f6
03
fa
f8
f6
fe
05
15
02
04
08
27
26
fd
ec
12
fc
04
09
f4
06
0c
0a
07
fb
00
04
fe
03
08
06
ee
eb
f7
f6
f7
ef
fd
05
fa
e7
f6
f9
fd
03
0d
f5
f9
02
fb
0a
00
06
0c
10
ff
03
f9
f8
0b
f4
01
09
03
fa
06
fc
f5
f4
f5
03
03
fd
0a
04
05
14
0a
01
05
01
ff
fe
f9
fa
fa
f6
fd
f8
f8
ff
03
fc
04
f1
ed
ec
12
0d
f1
cc
e2
cb
fd
f6
fa
f3
ef
fd
f3
ed
02
e0
ff
0a
ee
f8
ee
ee
ff
e0
eb
f8
f2
ed
00
fa
ee
02
06
fa
f9
f1
fb
01
00
f9
fc
f7
ff
fe
f8
04
05
f5
fe
01
ff
03
07
0b
ec
eb
f3
e9
db
e5
e0
fc
0e
f4
06
0b
06
0b
0a
ff
fd
00
fe
01
f4
ff
fd
fd
fa
13
00
e5
ef
f2
f5
f6
ff
f5
f7
07
e8
e2
de
e5
ef
f1
ff
ff
fa
04
08
05
f9
03
fb
ef
fd
14
fa
f8
fd
07
01
f3
09
04
0b
f1
ea
ea
fd
05
07
ff
f4
fc
07
fc
fd
03
00
02
ed
fa
f9
f9
f8
fd
f4
f6
01
12
0f
0f
d9
c3
d3
2b
34
2b
ef
f5
e9
ee
ed
fb
fd
f1
f9
ef
f7
f8
05
08
f7
00
05
f6
09
f4
01
21
fa
fb
17
fb
03
04
fb
ed
fc
02
f7
f5
ff
f1
ff
0d
fa
fe
09
f8
fb
f4
f8
f9
01
00
e6
ea
f7
0b
08
03
f3
0b
f5
01
0e
05
06
0a
03
06
fd
0c
02
ff
ff
09
04
fa
f4
fc
ef
f9
0c
f4
e0
e3
db
e1
e1
ed
f3
f9
ee
ee
06
f9
10
03
03
fa
f4
fb
06
06
05
ef
f8
ff
fe
fe
05
ec
ff
03
00
f4
f7
05
05
07
03
f5
ee
ff
f9
03
02
ff
fa
08
0b
01
fa
fb
f7
fe
0a
0a
02
ff
ff
0d
0a
04
15
17
00
fd
f3
fd
f7
02
f9
f9
fb
02
01
03
fa
24
16
00
15
14
07
15
11
0a
fa
07
fe
f4
13
0b
f6
0f
08
00
02
f7
fc
fd
fb
f8
f5
f7
05
00
f4
14
0d
ea
02
01
f3
0a
09
09
0f
fb
00
fb
15
08
fe
04
fc
fc
fd
01
f7
f6
0a
06
01
02
0d
04
04
11
03
04
f6
14
08
e9
e7
fb
fe
09
fb
ef
e7
00
f2
fe
09
fd
fd
09
f6
f3
f2
02
f9
fb
08
fd
fa
ff
10
21
09
10
03
fa
13
01
03
09
00
19
0a
f9
0c
16
18
09
f8
eb
fe
fa
f6
02
01
fc
fb
f6
fb
09
08
04
fc
fb
f8
09
ff
f6
03
ea
eb
fe
01
1f
fa
05
00
f5
fa
f8
f6
04
09
f8
f4
fb
04
f8
fd
03
fe
f5
df
f7
fd
e6
ff
f4
f0
02
e3
ff
f4
ec
07
06
f8
04
02
f6
13
07
f2
08
0b
fe
06
0b
0c
03
02
00
02
06
04
f1
f6
fe
02
fd
f0
00
02
f5
03
fb
f6
01
05
0c
fd
fe
03
f5
fb
05
f6
de
ef
0c
fe
f9
15
0c
fd
0a
04
04
08
0c
19
f6
02
07
0d
07
02
10
05
ff
03
fc
f9
fc
04
fb
f0
fc
01
ff
f0
f8
04
fa
ff
00
00
fc
07
fd
f9
ff
fd
0b
fd
f4
f7
f9
f9
fa
fb
fb
04
ff
06
00
fc
fe
f7
03
0d
08
05
25
fc
f8
e5
f6
ff
fc
f6
f9
02
05
fc
f1
f4
f8
e6
e9
f6
ed
ea
f2
f7
ed
03
f0
e7
02
00
00
02
02
fb
f9
02
fd
ff
07
fa
00
fa
f2
fe
09
f0
fe
02
f6
f4
f7
f5
00
fb
00
fe
fc
00
02
0c
02
f4
00
01
ff
05
03
ff
07
fe
02
02
0f
0a
0e
fe
04
06
fa
0d
10
f5
e7
d9
ed
eb
e6
fc
df
df
da
fa
f6
fb
e7
f3
f6
ed
f6
f1
f6
f8
ef
04
08
ff
f8
f9
0e
fe
00
04
fa
00
01
03
01
fe
f8
f8
fc
f3
f3
f2
e5
e3
e7
fa
f9
f6
f2
fa
ff
02
ff
fe
f8
f8
fc
fc
ff
02
08
04
09
02
fc
07
f6
e8
fa
f2
f5
f6
f6
01
ff
fc
00
01
04
04
fb
f9
01
fe
fc
01
fd
10
0b
04
0f
02
04
05
fd
00
04
02
02
ff
fb
fc
fd
fe
fe
d4
cc
d4
f8
f3
ef
f1
f7
f6
fd
fa
ff
04
fd
ff
03
0d
0e
0b
0b
fc
fb
04
01
f9
fc
02
fe
ff
07
01
fd
06
03
fb
05
fe
f6
fc
fe
fc
fb
03
fe
f4
f9
f6
f0
ed
f7
f2
e5
f6
f6
06
03
fb
fe
fe
fc
f9
f6
f3
ff
fd
01
05
05
04
00
fc
f5
fa
ff
09
01
08
10
ed
f5
02
f4
fa
13
f8
f8
02
fd
01
08
09
00
ea
03
03
f6
10
0d
fa
e3
ea
ed
ed
ea
f0
17
19
fe
04
02
04
fd
05
03
09
03
09
09
fa
f8
fb
f1
f3
f5
f8
fd
02
01
03
09
09
09
0b
fd
09
05
05
0f
ff
02
12
f9
03
0d
f7
fc
11
f6
f6
0a
f7
f0
f8
0c
fe
0a
0c
00
04
16
0c
03
05
f1
0c
fd
e9
02
f3
e3
00
f8
03
fd
fb
fa
fc
ff
01
01
08
03
09
07
06
fb
f7
fb
f6
05
00
05
05
04
01
16
17
1d
02
fe
00
fd
00
07
f8
fe
04
f5
02
0c
fc
f8
f2
fc
fb
ea
02
ff
05
f6
f9
f9
08
02
0c
f2
f3
f8
00
fe
07
04
08
0b
01
fe
07
03
04
00
0d
0a
01
f5
ea
f1
ef
fe
f8
fb
03
01
fb
04
fa
0b
f4
03
00
f7
f0
ef
19
15
f8
0e
14
f7
17
08
07
06
0a
09
06
10
0d
03
0a
00
01
fd
06
09
fc
0c
11
11
fc
fe
f7
04
07
04
09
12
0f
07
08
01
07
09
09
03
01
03
00
05
fe
f2
05
09
03
01
02
02
08
0f
ff
05
0a
01
08
09
09
0e
0a
0b
1a
18
fd
01
f6
0b
fe
fe
f7
f6
00
12
0b
02
01
fd
fb
02
01
05
09
04
ff
01
10
0d
09
0d
14
ff
0a
05
05
09
08
fd
05
f7
01
f8
fb
02
03
05
04
f9
ff
01
07
fb
f8
fc
00
ff
06
01
08
03
06
f9
02
06
02
16
00
06
fd
f4
fd
fb
fd
fc
14
0e
00
ec
f9
0d
f5
fb
00
00
fd
f1
02
fb
fe
00
f5
06
06
01
fa
01
03
fe
07
08
08
02
01
fe
04
f0
f2
f1
fb
f0
ef
f1
f9
fd
f7
02
00
09
fc
ff
09
ea
03
f8
09
fb
fa
fb
09
fa
fe
06
f4
04
fb
f4
05
04
fd
01
fc
f8
dc
d3
03
e8
de
e5
f3
ea
ee
e0
ec
e0
f0
db
e0
f1
e9
e4
f3
04
fc
f0
0a
f9
f7
f8
f7
eb
f7
f8
f0
fc
03
f6
f7
01
fc
fd
f7
02
07
ff
0a
fc
fc
ff
01
14
0d
04
ff
0c
0e
05
03
03
00
f4
fb
f2
0e
fc
f8
f7
e7
eb
05
24
10
10
fa
0e
ec
f5
f9
f6
ea
fc
fb
05
f7
fa
0e
fd
fa
fc
03
dd
e8
e6
0d
03
f9
f9
0b
0d
f8
02
fe
f7
08
06
fd
0b
f7
f3
f1
ee
f8
fe
f4
ff
fd
fe
01
09
00
f2
f8
f3
0a
fb
01
04
0b
06
02
04
0a
fe
fd
04
07
fa
fb
f8
fe
0a
01
07
fe
fc
03
fb
f9
03
fe
e5
ed
f0
eb
e7
ec
f1
eb
ec
f1
fa
f6
e4
fe
00
fa
f5
00
fd
06
01
ff
f9
fc
ff
fe
f8
ff
0f
0a
fe
11
fc
fe
ff
07
f2
fb
03
ff
f7
0e
f6
f6
f5
f4
fd
01
03
f9
fb
fb
fb
10
f3
ff
07
f8
f2
fc
08
f9
00
e2
e8
ee
fc
14
f8
ea
fb
f3
f7
07
02
08
f7
fd
ee
03
fd
03
fc
fd
f4
f1
f3
f1
f8
00
06
fc
02
03
03
00
f0
ff
ef
fb
00
f6
fe
fd
02
00
08
04
16
04
0d
fa
f7
02
06
fa
08
fa
f3
01
fc
04
fa
fd
f8
e3
08
fe
ea
0c
ff
d8
00
10
ef
fd
1e
e6
ff
1d
da
f6
fa
fd
f4
ef
f0
0a
fe
ed
e1
ef
e7
06
f3
f3
fe
f9
03
0b
fd
f8
fb
f9
fe
fa
f5
f8
01
f4
f5
00
dd
24
01
d7
40
ff
01
01
06
07
12
f9
fd
f9
0d
0e
04
00
02
00
03
00
fe
fd
fe
02
05
0a
f9
02
00
f4
02
f3
01
f8
ed
08
fb
e7
f6
f7
fc
06
00
f4
fd
04
00
14
10
09
fd
10
03
fc
0f
00
f9
fb
0c
04
f6
0c
f9
f2
05
f8
07
01
fc
0a
ff
f9
04
08
0e
fb
03
00
fb
03
05
00
fc
fc
04
01
00
ff
04
09
06
fd
fe
f5
0c
fc
f4
0c
fb
ff
fe
fb
02
ff
05
08
ff
01
09
0b
02
02
f6
f1
f9
eb
e8
f1
e0
fc
04
14
0a
f6
0a
f8
f2
f2
f0
06
fc
fe
04
01
05
09
fe
00
03
03
fe
f1
02
f2
f0
fc
fb
04
f9
fc
fd
ff
ff
f6
fa
fc
06
05
06
02
04
05
fa
fb
fc
f2
f2
f1
00
f9
fb
fd
05
08
07
06
fd
e9
f1
fc
e0
ca
da
f7
f9
ff
f6
0c
06
f7
ef
f3
ff
d1
e1
0b
dd
f9
ee
e0
e8
f5
fa
f8
fb
04
fc
f9
10
0a
fd
fe
fd
fb
0a
fe
f9
fb
fd
f0
fa
ff
f4
fa
fc
fa
01
00
f8
f2
f1
f3
f7
f8
ee
f5
f2
f1
f4
05
ff
fb
fb
ff
0d
fd
fa
fa
05
06
00
fd
0b
04
fb
f3
00
ed
ce
df
dd
e0
d9
f2
ec
ea
da
f5
f9
f1
ee
f2
e1
f5
fa
ef
f9
fc
f9
05
00
06
fa
eb
0b
f2
f1
fc
02
ff
ff
00
00
03
f9
f6
f7
11
ff
fb
02
fd
01
02
08
0b
00
ff
fe
06
ff
e5
07
08
f3
19
03
ef
01
f5
fc
f3
0b
ee
0c
00
05
f9
f7
ef
04
fc
0d
ff
ef
f2
f6
00
fd
fa
f3
ed
e5
ed
ee
0e
ff
f5
16
fd
08
14
04
04
00
09
02
f4
0b
03
f7
00
03
fb
04
11
f1
f7
0a
e7
f0
f3
fe
ff
fd
fa
f9
fa
f3
f4
f5
02
02
e5
f9
fd
eb
fb
11
ea
06
04
01
08
fc
ff
07
01
f3
f5
ef
01
fb
ef
f1
0d
ed
e2
e9
ec
e4
f8
f6
f0
03
0b
00
f3
00
08
f6
08
0d
f7
f6
fb
00
03
0b
03
f9
0c
fa
04
0c
f8
03
fd
f5
f8
00
00
03
04
fd
00
f9
04
04
01
05
06
02
07
02
03
09
fc
fc
0a
ff
fe
ff
02
fc
0c
0c
06
f5
04
05
00
fe
f9
ff
fa
fc
fe
f8
fb
03
0f
f5
fa
07
01
f8
0a
05
fd
fa
06
fa
08
05
fe
06
ff
f6
f9
01
0b
0b
09
04
fe
fe
1a
13
08
07
04
ff
0a
07
03
04
01
02
f8
f9
fd
f5
f6
f6
00
06
02
ff
07
08
fa
ff
0e
ff
f6
04
fa
f8
fd
fd
ff
01
10
12
0e
00
0f
10
03
0a
0d
02
04
09
04
09
04
0a
06
0a
fd
01
03
00
02
01
01
00
01
03
f7
f8
fc
fd
f7
fc
f8
ef
0c
18
12
03
0d
0e
04
fa
05
00
fa
fc
f4
fc
ff
fb
00
01
f8
07
08
fe
f8
03
f5
f1
f1
f6
e2
ef
f9
fe
fb
f3
fa
e5
07
f8
01
06
ff
06
0f
fd
fc
0b
10
f9
17
2e
1f
16
1a
0e
10
02
0f
0a
05
09
fc
02
03
08
0c
0d
fa
ff
00
f9
02
fa
06
fc
f4
f5
f3
e5
f5
f9
f4
f6
03
04
01
04
fb
00
fa
fb
f0
12
07
07
10
00
f8
07
f7
05
f8
06
08
f8
0a
ff
02
05
1c
04
01
1a
08
fc
18
fa
fa
03
fd
0d
0b
0c
05
10
1c
14
f8
07
fa
ff
0a
06
ff
fd
fb
0f
fe
f7
0f
f1
0b
00
ee
02
c8
cf
c8
12
13
0f
eb
e7
e3
f0
e6
de
f7
f2
e9
fa
f5
f4
fe
fd
07
f9
01
fe
f1
f4
fd
08
0d
03
07
0c
05
ed
f8
fd
e9
e5
f1
ec
ed
fe
f0
ef
ee
ed
ea
e6
04
ff
f5
f3
f1
e5
00
fe
09
fb
ff
06
f3
f5
fa
0c
19
27
01
fd
02
fc
f3
ea
ec
f0
ef
d0
e3
f6
f8
f8
f4
f8
ec
ee
fc
f9
fc
e8
ef
ef
0a
11
01
fb
0a
fd
f7
00
f2
01
ff
ff
06
00
fe
05
fa
05
eb
e4
f1
c8
c0
ed
e7
df
fa
c7
c0
d2
f1
d9
d4
fc
ee
f3
fa
01
02
fe
02
01
02
03
03
04
05
09
04
03
03
fe
fb
f3
00
06
03
0e
10
0b
ee
fe
05
f7
fb
f8
00
fd
ff
05
03
05
08
02
02
ff
01
03
02
03
13
f0
f1
01
06
07
ff
f2
0a
fb
06
06
07
fc
23
0b
14
02
10
fe
06
00
fc
05
03
fc
09
f5
02
fa
ff
03
09
04
fc
0d
f4
06
fb
f9
09
fe
f8
fe
05
fa
f7
f6
f3
f2
fc
fb
03
01
06
09
fa
04
0d
04
05
fd
18
07
f5
f1
01
f1
fc
01
f6
ff
01
0b
ff
fd
04
03
f7
09
fe
fc
f2
f4
1b
fb
05
14
fc
09
00
e4
ee
f1
0a
f3
f4
f9
fc
f1
f9
06
fc
f7
07
02
01
02
fe
f6
fd
fa
f6
03
fe
f8
08
ff
07
00
fc
06
05
08
04
fb
f4
0f
08
08
07
01
fc
0a
04
fd
f9
fb
f4
fa
fa
f7
fa
f7
f5
e2
ff
0c
cd
f1
fc
f3
f9
f5
fb
f4
f9
f8
ed
f6
00
ed
ef
ec
f4
f9
f5
f7
fe
f4
f0
07
09
0e
02
fc
f8
02
f7
c6
01
01
02
ff
02
06
ff
07
04
04
03
f7
f7
01
fc
f8
01
fe
02
f9
fc
f1
fd
ff
f3
f6
01
ff
f8
06
fc
00
03
fa
fb
f1
f9
0c
04
fa
05
05
fd
f8
ff
f5
04
f8
03
0f
ed
eb
16
f2
e6
d9
d7
de
ec
f4
f9
f3
f8
f3
04
07
03
fa
fe
fa
e4
f9
ff
09
ff
f6
09
07
01
f1
fb
0f
00
0a
04
f9
fe
fd
03
04
fd
02
f9
f3
fa
ee
ef
f9
ff
f6
f9
f8
f6
fc
00
09
06
f2
f8
0a
03
00
f7
0f
fc
11
17
1b
fe
07
fe
00
0c
12
03
f7
f9
10
f3
ff
05
00
0b
e8
f9
06
02
09
f8
0c
0e
ff
06
03
f5
fc
06
01
fc
02
fa
fd
f7
f7
f3
ef
f7
f9
fd
02
ee
fb
03
06
07
06
f4
fe
02
f6
0f
08
09
fd
06
06
06
07
02
09
fd
fc
fa
05
ff
04
05
fc
02
06
e9
de
00
e4
d9
e9
f3
f3
f1
ef
e9
e3
ec
de
e6
d9
d3
e5
f3
ff
02
ea
f7
f4
03
01
03
f4
eb
fb
e7
00
05
f9
fb
03
07
0b
00
01
08
01
f9
ff
f7
01
ff
01
05
fa
02
09
f6
fd
ea
f2
fd
eb
ee
f9
eb
f8
fb
f6
04
03
e6
05
0d
0b
09
01
01
14
fa
02
01
15
03
02
02
fc
f6
ea
08
f7
fd
04
f4
01
fa
fa
f5
04
01
fc
fb
00
02
f6
ed
f6
f1
04
00
f8
ee
f7
f2
f8
fc
eb
f5
f3
e2
e5
ec
fe
ff
fc
f3
fa
f4
fc
f8
fe
f9
00
0b
ff
07
0e
ef
06
15
06
fe
0e
01
f8
12
04
03
16
11
0c
f3
0c
1f
ed
fb
ff
f3
f6
f1
ed
e4
f0
e7
f3
e4
e0
09
04
06
f6
00
06
f3
03
04
ea
f7
f8
ee
ea
ea
fb
f2
dd
04
04
03
f8
f5
f5
f3
fd
ff
ea
eb
f0
f3
f5
f9
00
00
02
00
03
16
fd
03
29
fc
fe
13
01
01
f8
ed
e4
e6
1f
37
2f
fb
ff
f5
fd
f8
f5
ff
fa
06
f0
ef
f0
f3
f1
f4
ee
f0
f8
0d
09
02
10
0b
05
0f
07
04
07
01
f0
00
07
00
fd
01
fd
f6
ef
ed
fe
ff
fc
f7
f7
f4
fd
f7
f8
05
fe
fe
15
0a
06
fd
05
ff
02
06
fd
f9
f9
f5
fe
fe
ff
fe
f8
fd
03
fc
ff
05
04
fe
03
0c
02
04
02
06
fa
f4
f5
04
0a
1a
ed
fb
00
f7
f9
fb
fb
fa
f9
fd
00
00
f5
ff
0b
02
01
06
f8
ef
f3
0b
0a
0a
f7
fe
f9
fa
fb
f2
ea
e9
ec
00
fc
f4
00
fb
f9
02
01
0d
ff
02
0d
08
07
0e
07
0d
08
fc
ff
fa
01
f9
01
f2
f7
01
fe
f6
f7
f9
fb
fe
fb
f0
fe
f7
f9
fa
f5
fd
00
08
09
08
fe
08
0a
fb
f4
f3
02
03
00
fc
f7
f8
f8
f8
fc
e0
ea
f2
ff
03
fc
03
04
fb
05
04
06
04
fe
06
e8
f9
f9
07
ff
0c
01
fd
11
f8
f5
0a
06
02
f6
03
fe
ef
fd
fe
f9
f2
f5
f2
f7
f2
f6
fb
f8
f3
fc
fd
fb
08
04
03
fe
fe
ff
02
02
02
ff
03
04
fa
f4
f9
f8
08
0a
05
11
03
fd
09
00
ed
e8
ed
00
06
06
fc
05
05
fd
fa
ff
ff
00
fb
04
01
fd
06
02
f3
01
fc
f0
04
f8
f1
ec
e5
f0
02
06
05
d5
c4
d9
fc
fc
04
01
f5
fc
06
f3
f9
02
0d
0f
fb
02
09
04
06
00
fc
f7
fc
ff
fd
ff
eb
f8
05
00
00
00
06
06
02
06
09
02
fb
fb
03
04
fe
f7
02
fc
fd
08
ff
09
02
fc
fa
f2
e8
f8
f3
fd
01
f6
00
f7
02
04
f3
f8
05
ff
fd
03
03
03
05
05
05
06
06
05
fc
f8
06
04
0a
06
0d
0b
fd
0e
09
fc
00
0f
06
04
02
01
07
09
05
0a
0c
f7
f5
ff
eb
e9
eb
f8
f3
f5
fd
ff
03
ff
fc
08
f7
06
ff
f7
f9
e4
f6
00
f1
fb
f5
f3
08
f8
f2
0b
fb
ec
01
f7
ec
fe
f1
15
e8
04
11
0e
ff
0c
03
08
f7
05
01
02
fa
00
01
fa
f7
e4
02
ec
01
fb
f3
f8
09
02
ff
07
ff
03
17
fb
f7
ed
fe
ff
ee
fc
02
f9
fa
ff
00
02
02
f1
03
fd
f3
f7
fb
f9
ef
eb
07
fe
fe
f8
01
ff
ea
f5
20
ea
f5
20
00
ed
2a
fa
0c
fc
02
18
f2
09
16
04
ed
e9
e0
04
f0
e5
0d
ec
d2
e8
e4
e3
f0
fe
ff
05
f0
ed
01
f2
f6
fb
fe
ff
fa
f6
fd
03
dd
f4
f7
fe
1a
03
ff
13
0a
f3
f9
00
07
01
06
06
ff
0a
05
02
05
fa
fa
00
fd
fb
f4
f4
05
00
ff
09
f5
fd
0c
ff
06
0c
da
05
10
ea
01
15
02
04
07
fd
f7
fd
00
fa
f9
01
0c
18
00
02
01
00
07
fe
eb
09
00
f3
0b
01
ef
09
01
07
06
fd
0b
15
06
0b
12
08
07
01
ff
07
06
fc
02
01
fa
0a
06
09
ff
fe
fe
f8
f6
f9
ff
06
fd
fb
05
fe
fe
fd
02
f8
00
02
fa
ff
ff
01
02
01
fa
fd
04
fb
fd
fe
04
f3
f6
07
09
02
0d
05
0e
0d
fb
0b
0c
02
fe
0b
07
fd
02
00
f9
02
01
fe
00
fc
01
06
0e
f2
04
01
07
05
0e
0f
ff
fe
fd
03
fb
f7
04
fc
06
01
fb
07
04
06
02
f3
fe
f8
f4
f7
f4
f7
fd
fa
eb
06
f9
dd
dc
f4
f5
fd
02
02
07
0b
f6
fb
0b
0e
fd
ea
18
0d
f7
1a
08
fd
fe
fb
fd
ff
f9
fd
ee
f6
fc
f9
ef
ef
ee
ec
ef
f7
f2
f4
ed
eb
f8
ed
e9
f6
ee
e7
ef
08
01
fa
f6
f6
00
f9
ff
ff
fe
f2
ff
01
ed
f7
f5
eb
fd
fa
03
02
ff
fa
01
ff
fb
05
1d
fe
f3
1a
00
fd
11
fc
f7
f7
f5
fd
f0
f6
0c
f8
f0
0b
04
fc
ff
02
fb
ff
fb
f6
02
f1
f4
f4
f5
e9
f0
f8
ef
f3
00
00
ff
f9
ff
00
fd
f6
01
fb
04
fd
fd
09
03
fb
05
03
01
fe
00
ff
06
00
09
02
03
fa
00
f3
05
03
fe
00
fa
f8
fd
fa
00
02
00
00
00
ff
fc
01
fd
03
f3
fb
01
f8
f9
06
f9
07
fc
02
00
ff
01
00
fe
02
01
fa
fc
ff
04
01
03
02
fc
02
01
fa
fe
fe
fe
00
ff
fd
fc
fa
fe
fa
ff
00
01
fa
05
fb
04
00
00
02
05
fc
00
ff
fc
fe
00
00
02
fd
01
fe
02
07
04
ff
06
07
0a
01
fc
f0
00
04
f9
f9
f7
f6
f9
0f
ff
04
01
00
01
fe
04
00
03
fc
05
fd
fb
03
fb
01
02
ff
19
0c
13
f8
fd
fb
f3
fe
fd
f7
04
fc
fa
fd
f6
05
ff
fc
d7
d0
ea
ee
e8
f6
fd
ff
06
fe
f4
f4
08
ff
09
35
35
37
f5
00
03
04
0a
03
fb
0c
08
ed
ed
f7
fa
fa
f7
e2
ec
e8
02
f5
f3
f8
fa
f3
fb
08
02
f7
f6
ed
fb
01
02
fa
02
fe
fe
fb
f5
e2
f2
f1
ec
ee
f0
0a
01
fd
01
ff
fb
f9
ef
f0
ff
f9
f8
0e
02
0a
fc
fe
13
f4
00
f9
f8
02
02
07
05
02
f9
dd
dd
f3
fe
ff
e5
d5
da
f1
f5
fe
f2
e8
ea
f5
fd
f0
0b
06
06
ef
f4
ef
ed
ed
e9
ee
ef
fa
e4
e9
02
d9
e4
e9
fe
04
05
f5
f7
f7
ff
06
03
01
04
08
fd
fd
fc
ff
00
fe
01
00
13
04
07
18
05
05
10
fb
02
fb
08
03
f8
09
05
10
01
03
fe
08
fd
05
02
05
fe
fd
08
0a
01
05
03
fe
ff
03
07
06
01
02
02
00
09
04
fe
fe
02
03
02
07
08
fd
04
02
0e
0e
0a
07
07
03
0d
0d
05
04
03
05
02
fd
fe
f6
f9
f4
0b
07
06
0d
12
04
07
13
fd
fd
f8
fe
f7
f0
fd
f2
f2
fc
14
0d
06
0f
15
18
09
08
11
f9
fe
fd
0f
0c
0e
1a
1a
1f
fc
03
05
00
06
04
f7
ff
fa
f4
f7
fe
f7
f4
f2
00
f1
ec
29
22
21
e5
df
dd
fd
0b
04
ef
ee
f3
fb
fc
01
fd
fc
00
fb
f7
f8
0e
04
fb
14
05
04
f7
02
02
12
13
02
f4
e8
ef
ff
f9
f3
fa
02
0b
02
f5
05
0b
04
05
01
00
f5
d7
ef
f1
0c
04
04
07
02
02
fb
01
01
f8
02
08
fc
f8
ed
ef
ed
ef
d6
db
e3
ee
ef
db
f2
f8
ee
fc
f9
fe
f7
e7
f4
f1
e5
f4
0b
fd
03
00
02
0b
f9
ff
0b
0a
08
00
03
05
06
04
f6
0f
eb
e6
ed
e8
de
e7
e9
fa
f4
ee
f0
d2
e1
de
dc
f6
fc
fa
fb
fe
fd
fc
fe
fb
fe
02
08
07
0b
11
03
14
f8
01
0f
02
f1
07
fe
00
f6
06
fb
fd
14
f8
01
f5
00
fd
fc
fa
fc
f8
0d
06
09
fa
fe
01
f8
fb
f9
04
0a
08
e5
ed
0c
02
f7
06
e7
f2
f4
00
f0
ed
e6
f6
03
fa
fc
ef
08
eb
f6
00
f4
ef
f0
08
02
0d
fa
fd
07
01
fd
f0
f0
ed
fe
ef
fd
05
fd
f9
f9
f7
fb
fc
f7
e7
f1
f7
e9
04
03
fe
f8
fd
06
fb
f4
01
0f
19
00
f9
03
06
05
f5
07
fd
f7
0a
05
f8
02
03
03
00
fd
e5
e2
f6
03
f3
eb
e7
d8
05
04
fc
f6
01
13
ee
f2
02
0e
01
fe
fd
f0
f9
ff
f2
f9
0a
f9
ec
01
08
00
05
07
0a
fa
f4
f1
08
0f
0b
f9
04
00
06
0a
09
05
04
fe
ff
01
02
04
01
f6
02
03
fa
00
08
ff
03
f9
06
11
08
04
ff
f5
f6
02
09
00
f4
0d
fd
05
05
fd
fe
f2
f3
fe
f7
f4
f9
ed
ee
e3
ff
05
db
fc
06
df
fa
0b
f9
ff
07
03
07
05
09
0d
04
f6
f1
f6
0e
08
09
fd
fe
fe
08
07
07
11
0c
05
01
03
fc
00
fb
04
03
f9
03
01
f1
03
fa
fc
05
fc
fa
08
04
fd
0c
0d
0b
11
01
08
11
05
fc
03
f6
f2
f2
f8
f5
f2
07
08
00
fb
fd
f7
00
01
fe
fc
fa
f1
fa
04
0f
01
ff
13
f9
00
fd
1d
1f
18
f2
fb
f5
fd
00
01
f4
ed
f5
f8
f0
00
fd
f9
f2
f8
f6
fb
fc
f6
f3
14
fb
03
0a
19
04
09
06
fd
fc
e6
fe
fe
ff
f6
06
11
0e
03
f7
04
0d
f6
f3
f3
ea
f7
f8
fa
fd
01
05
03
fc
00
01
f2
fe
f5
f4
04
09
f0
fc
ff
f2
ec
f0
f5
ef
ec
f2
fc
f7
ee
fa
f8
0c
fb
07
ef
f1
00
ec
f2
ef
0a
01
fd
05
00
f5
f3
f9
f0
06
06
02
fd
03
0a
f8
fd
0b
f6
de
f1
ff
cf
fb
ec
f6
e2
e1
e1
e0
f4
de
ef
05
ee
f0
06
05
06
fc
fe
fd
fd
f9
0d
f7
f9
01
f9
14
ff
0a
f5
09
06
06
0b
00
fc
fa
0c
04
02
f8
ec
fa
fb
fb
05
08
08
04
ef
eb
f1
fd
ed
f3
08
02
f8
0c
09
08
21
28
08
f5
08
0c
02
fd
07
ff
0e
0b
02
00
04
20
1b
24
f9
0d
11
ff
09
12
07
fb
fc
04
00
ff
fd
0a
0b
11
08
11
0e
04
fb
fc
04
0c
0a
f7
f6
03
f8
fd
02
03
00
02
f5
ff
f3
ed
ec
f8
01
00
0a
02
01
03
f6
03
0c
fe
10
fd
04
04
f7
02
0d
01
00
01
0b
02
fb
12
15
f9
0a
0d
fd
05
f0
fb
fb
e9
ef
fb
f6
f8
fd
fa
04
f2
ee
fb
00
00
05
0c
19
fc
f1
14
03
eb
07
fa
c9
c2
c8
29
29
2c
f0
f2
f3
0b
13
1f
06
0c
0d
ff
01
04
01
02
f7
02
f7
fa
02
fa
09
f1
f4
fc
0e
13
19
02
10
01
fb
fe
04
fd
00
01
01
0f
09
06
ff
04
03
0b
f5
f9
f9
fb
03
00
05
f7
04
fd
f8
04
07
f0
f4
00
01
01
06
f5
fb
05
05
ff
01
04
06
09
03
0c
07
00
fd
fb
14
03
06
17
36
40
12
0b
04
02
0b
00
fd
0a
06
08
01
f2
06
01
fd
ff
f7
fc
f3
ee
08
ff
f6
ea
05
e9
e9
cf
d9
d9
00
f7
f4
e9
ea
ee
f9
fc
f8
01
06
02
18
16
0f
fd
f7
ef
f9
fc
fa
02
0f
f3
0f
01
ff
03
07
0e
06
03
00
04
00
f8
01
fc
f3
0c
07
ff
04
fe
11
06
07
0f
00
06
0b
fa
fa
00
ff
fe
f5
0d
06
12
fd
fe
05
09
f7
f8
f5
f9
ff
ef
f8
f5
f4
00
00
ea
e5
f0
d6
01
fd
db
00
03
df
ee
f7
fd
fd
f6
02
06
fc
06
04
fe
03
01
02
06
03
fe
07
0a
05
0d
0c
0c
ff
fa
fb
03
fd
fb
fd
f5
0f
04
f6
0a
fe
ea
ff
fa
fe
fd
01
fb
fd
ff
f5
01
f0
f1
f2
fa
e5
f2
f1
e5
e9
f8
fe
05
0c
08
18
f2
f9
06
08
ff
fd
0a
05
02
08
06
00
f7
f3
01
f8
03
09
f0
06
f4
0e
0c
0a
f9
02
07
10
0e
09
06
fc
fd
05
01
00
ff
fb
02
04
ff
03
03
fa
f5
ff
fe
fb
0c
13
15
0a
0e
12
df
e3
e4
ff
03
f9
fd
ef
f9
00
fa
f1
fe
00
fe
fd
08
0e
03
09
0d
fb
07
ff
f7
14
0a
ed
0f
fe
fb
0e
17
ff
0b
09
04
05
0a
f6
f9
00
06
0f
10
0d
0d
0f
18
15
10
08
07
fc
f7
01
fd
fb
0e
0f
00
07
12
f9
fd
12
01
02
ed
04
05
e6
07
03
ef
f5
0c
0c
f5
0b
0b
05
04
0a
01
03
ee
ed
dd
df
f9
e0
e9
05
03
00
0b
09
08
01
04
03
fe
0b
00
07
0d
10
03
0c
0d
f6
f9
fc
00
01
00
0d
06
01
0a
08
0b
05
07
0a
05
04
06
ec
f4
f2
f5
f8
fe
eb
f8
fe
03
f4
0d
fe
eb
fd
f5
ed
fa
00
00
05
fc
f8
01
fb
fd
ff
13
20
28
28
33
27
34
3c
2c
01
03
f8
05
02
f9
02
fa
f6
02
f9
fe
fc
f6
f9
f6
fb
f8
03
06
fa
07
07
01
0c
0d
07
fb
fe
fb
f2
f8
fc
f7
f6
f5
03
03
f8
05
07
f3
05
02
f2
03
04
09
01
01
02
01
02
05
13
0b
14
12
06
11
18
18
19
f7
ef
f5
ee
f4
f5
fd
fb
0b
01
03
09
fd
ff
fd
ff
0b
fd
f3
f9
f9
ec
eb
f3
f0
eb
f1
eb
fb
0f
f6
00
03
f8
f7
01
f9
02
fb
f6
01
fe
f4
01
fb
fb
f9
00
f8
fd
fa
0c
f3
f7
f8
ec
06
f8
fd
0e
0c
ff
f4
e1
f6
f7
e5
fb
f9
fd
ee
f4
ef
09
fd
fa
01
fe
f0
f4
f4
f5
01
01
fe
04
06
04
07
08
ea
fe
f3
f2
fb
f9
f1
fb
00
f9
03
07
fe
f8
08
01
f6
0a
09
f8
f8
fe
f2
f9
f5
09
fc
f8
ee
e0
03
00
ee
18
06
f3
fa
1e
d9
f8
1c
ea
f5
18
f0
f2
e0
e2
f4
d0
dc
ee
e1
d7
e8
dd
d4
07
e8
e7
06
eb
ef
f9
f7
01
f7
f8
fb
03
06
04
0b
f0
f0
01
e3
18
08
e5
2b
0a
01
09
00
00
00
0a
03
04
0e
0b
0b
06
00
00
02
fd
fd
f8
ff
01
fb
03
00
f9
00
00
fa
fd
02
0e
11
19
d0
d8
d5
f3
f3
ff
ef
f2
02
ed
f1
fb
05
f1
ed
00
f5
f2
fa
fb
f8
fd
ff
ff
03
f4
fc
08
fb
fa
03
06
04
02
01
02
01
03
02
fe
ff
01
09
03
05
03
ff
04
07
04
ff
f1
f0
f4
f0
f6
fb
fe
f9
05
03
fa
09
04
fa
04
02
fe
f1
00
fe
f1
04
06
f2
fa
fd
fc
f5
f6
ea
ff
f3
ef
db
d4
dd
ed
dc
e8
f2
f0
f6
fd
fc
00
02
02
04
f6
f7
f9
fd
fb
f6
ff
00
01
fe
fc
10
02
01
02
fe
03
02
fb
02
fe
f4
f3
f6
fa
fb
fb
fa
fb
fd
07
02
fe
07
04
fc
09
03
f8
fa
f2
f9
fb
f1
fe
17
1d
25
fd
06
02
0a
04
fd
06
0b
09
08
0d
06
02
05
05
10
03
03
08
07
ff
08
07
00
09
02
00
fe
f7
f4
02
00
00
02
05
03
e6
ec
ef
fe
ff
fe
fd
fe
fc
05
05
05
0b
0e
04
10
04
06
07
06
00
04
05
ff
02
ff
fc
fa
fe
0a
fc
fc
09
fe
02
09
09
07
00
05
08
07
05
05
fb
03
05
03
1c
28
22
0f
12
08
01
02
fe
01
02
02
fb
fc
f9
02
04
0c
06
03
06
fa
fc
f4
fc
fb
f4
fc
01
fe
07
0c
05
0d
0a
04
03
05
fd
06
08
00
fc
02
1b
00
fc
13
f7
f3
05
08
20
15
0e
10
08
0d
13
14
e9
e8
00
f9
eb
f9
f9
f8
fe
ea
f2
f8
f4
f9
ee
e2
fd
fd
fc
08
03
fc
08
04
f3
fc
f6
f4
fc
f6
fa
07
07
fc
fe
fa
0f
04
f7
00
fb
f0
02
ff
fd
fa
fa
fa
03
05
f7
f4
f4
ec
06
fd
f9
0c
0f
08
06
05
0f
ff
f7
fd
fb
f9
fb
fb
fb
fc
fe
fe
f8
11
10
00
02
14
fb
cb
da
ea
f1
f2
f9
08
0c
06
01
01
fb
07
09
fe
ed
f9
fb
fa
f4
06
05
ed
01
08
00
01
f9
f1
fd
fb
02
02
07
00
fb
01
06
06
fc
f5
f3
f6
f6
ef
f9
04
fd
f7
ff
f3
f4
01
06
f1
02
ff
08
15
01
f5
df
f9
f0
e6
00
f2
fc
04
fa
f1
f2
df
e5
ea
e6
ec
e6
ea
de
d9
05
02
fb
fd
ff
05
f4
f8
ff
f6
01
01
ed
f1
f3
fc
f7
f7
fa
03
fc
fe
fa
fe
f7
f4
f9
dd
e6
ec
f1
fa
fc
dc
f4
f2
08
07
fe
10
0b
f9
08
06
f3
fe
f6
f8
07
fa
fb
09
f4
fc
da
de
ee
f0
ec
fe
e3
d2
e5
d6
e1
d5
e9
e8
e6
da
e1
d9
04
09
07
fe
00
fd
f1
f9
ee
fe
f0
fb
0b
fb
e5
01
fb
de
f7
04
00
f4
00
fe
f8
f5
f7
ef
ea
ea
f7
f6
f4
f8
ee
ee
f5
ff
f1
ea
ea
e2
08
f3
f7
f7
0b
0e
08
19
14
09
19
0e
f4
fa
f9
ff
fe
04
ff
fe
00
fe
01
f6
f9
01
f8
fd
f9
fd
10
01
ff
0a
03
04
00
01
00
ef
fc
06
de
ea
01
ea
e4
f1
f8
ef
f6
f4
fb
fd
e9
ee
f3
02
fe
04
fb
02
00
e7
0d
07
02
f6
03
04
fb
10
03
fc
05
02
04
02
02
0e
02
fa
f4
fe
e5
d5
ea
f7
db
d9
f5
0a
e5
e5
dd
e2
01
dd
e1
ec
e2
e3
fa
fd
01
f6
03
fe
fa
f9
02
fb
fd
ff
f3
07
04
0b
f6
09
ff
07
04
02
06
fe
f0
e6
f7
07
05
fa
05
08
01
01
06
01
06
fd
f8
08
01
03
ff
fd
03
10
06
ea
0e
fc
f1
08
12
f8
f8
01
ff
f6
fb
fd
f8
f6
0e
09
0e
0f
0a
08
12
06
08
12
ff
03
02
fd
0c
05
f5
03
0a
05
ff
f3
03
f2
e6
ff
ef
f3
07
f4
e3
0a
fc
ea
fb
f2
f0
01
00
fc
01
00
f9
06
fe
03
08
f9
10
08
07
0b
05
07
14
fa
f5
f8
00
ed
f9
01
f4
f9
07
f2
0e
ff
f1
18
fc
05
20
d8
e6
f6
f4
fb
12
e5
f4
03
04
fb
fe
06
f9
fa
fd
f4
f5
f7
fc
09
00
f4
fc
00
ef
f0
fb
04
ff
06
06
06
f1
fa
ff
07
07
01
f9
fb
05
03
0c
0d
fd
fa
fd
00
f5
e9
ef
f1
ed
fb
fd
f6
f1
f6
eb
f3
f2
f9
ff
09
06
f3
0c
11
fc
0b
0f
04
fb
fb
04
f9
f8
00
fb
f5
f3
09
04
01
01
ff
fa
f8
fc
02
07
f7
f3
f6
f4
fd
f7
ee
01
fb
f9
fd
ee
f7
f2
f5
f5
f7
fb
fb
fe
04
01
0c
0f
06
05
01
f6
fd
f5
ee
fd
fd
fb
02
09
f4
03
01
f9
fd
fd
fd
00
05
f8
09
02
05
07
0e
ff
0d
01
05
fd
fe
02
ff
03
04
07
04
01
04
09
07
f9
03
04
08
01
02
ff
fa
fa
fa
ff
fc
01
fb
f8
ff
01
01
05
00
fd
fb
ff
00
02
fd
fd
fd
f4
f6
fe
01
fb
02
00
f9
fd
02
fa
fa
fd
04
08
0b
10
f0
fd
fe
fd
fb
fb
fd
fe
00
03
fb
f9
07
fb
06
fe
02
06
fd
f8
fb
04
fb
fe
03
03
01
03
00
fd
fe
fe
fe
01
ff
00
fe
00
02
fc
ff
fb
01
04
05
fe
fb
f7
ff
fc
02
fa
00
04
fc
ff
03
fd
02
fb
fc
03
fe
fa
03
fc
fc
06
fb
ff
02
fb
ff
03
fc
fd
fc
f8
fb
fc
f3
01
02
fd
09
03
06
07
ff
08
f8
fc
0a
fc
fe
00
ff
fe
fd
fc
fa
00
fd
f9
06
04
09
03
fd
fe
ff
f7
f6
f2
05
09
06
03
05
07
fc
fe
fd
fe
01
fe
02
03
03
03
0c
00
fb
ff
ff
fe
01
f7
04
fb
03
ff
f5
f8
fd
03
07
0a
ff
05
ff
fc
02
06
fe
fc
04
06
09
04
03
00
14
1a
1b
f5
03
fb
fc
07
ff
04
0c
fe
05
04
00
0a
07
06
0c
09
07
fb
f9
fa
10
08
07
08
ff
03
0a
0a
fe
fd
fd
06
01
fb
04
f9
fd
f0
00
01
fc
00
fe
f6
02
07
05
fc
01
fe
ff
03
fe
fc
fe
05
06
00
08
02
06
02
f9
f6
f4
fe
ee
f7
03
f0
fb
02
fd
f9
00
02
fd
f8
f9
f3
02
02
06
05
03
0b
ff
fb
05
01
0c
05
01
0b
03
ff
05
05
0e
07
0d
01
03
00
02
02
00
fa
fc
19
f3
f2
16
f2
f0
12
f8
eb
f6
fb
f2
ec
fa
f2
e9
fe
06
fe
04
ff
f8
03
00
f5
e4
fe
0e
e9
f8
0d
f0
fa
0b
fb
fe
00
02
01
07
06
fd
07
fd
f0
f3
04
f6
f7
