ff
06
06
0b
01
09
02
01
fc
f8
f8
01
04
fc
ff
04
fe
f8
f7
ff
1b
f6
ce
f5
fb
f3
fa
ef
f4
fc
f3
03
00
fe
f7
fe
fe
f0
ef
ff
03
00
f5
f6
fb
d7
de
e7
f3
ef
f2
04
11
0c
f2
f8
eb
f4
fa
ef
08
05
e1
05
0c
13
ec
06
fc
e6
e3
d6
07
fe
06
08
01
00
04
0b
06
f1
f9
f7
f7
cd
06
fd
0f
12
e9
fd
ea
f2
04
07
f9
02
fe
0a
04
04
0b
06
fe
03
01
f7
05
0c
fe
03
09
ff
04
0f
f6
0e
00
fe
04
f5
fa
f3
f7
00
f2
f1
f4
f6
0d
07
fc
fc
06
f4
f4
f7
ff
f9
fd
0a
0c
0d
00
07
09
fd
08
0b
03
0d
0f
ff
ff
02
fe
fc
01
fe
fe
02
04
01
01
ff
f8
fa
fe
fa
0b
fe
ff
0b
fc
fe
0c
f6
fc
09
02
ff
fe
f9
f9
f9
f1
ec
f5
fb
fe
fe
fd
f8
fb
0b
07
03
02
f9
f8
00
05
fa
00
fa
fb
09
0c
03
ec
f4
fc
01
10
16
fe
f7
03
01
fe
05
fc
f5
00
04
fd
fe
04
03
00
fe
00
02
02
0f
ff
fd
02
ff
fb
01
fc
01
ff
fd
fb
fe
03
fb
fe
00
f7
00
f7
f9
01
f7
fd
00
f2
f2
f5
05
ea
ec
fb
01
06
04
f6
ff
f4
fc
f8
ee
fe
0a
f4
fe
03
06
fa
04
02
f7
f8
00
fc
fb
f5
04
ff
fb
f7
f4
00
04
fb
07
01
fb
0d
02
03
11
ed
07
ee
ea
f5
fb
f1
f1
06
0b
f1
fd
05
f2
08
f9
f7
08
fc
f8
f1
fa
fa
f0
fd
ff
f1
ee
f1
ee
f9
00
fb
05
08
04
f3
fb
f3
01
0e
ec
ec
f4
d6
00
f5
fa
02
f9
05
dd
df
d9
fb
05
fe
fb
fc
fc
04
fd
f4
e4
e3
e0
fb
f9
f1
10
07
06
fc
f6
f1
f2
fb
f9
ff
00
00
fe
f5
fe
04
fb
05
01
02
fc
f2
06
e3
fa
01
eb
fd
fa
ec
02
17
04
e4
0c
f4
e6
03
f2
04
f2
ea
fc
ef
ee
00
f4
ee
fb
f8
f1
ff
fe
fc
f8
fe
fc
f5
fd
fe
01
04
02
00
07
03
ff
02
ff
01
02
fc
04
00
fb
01
f3
fe
f2
f5
02
fd
fe
ef
ff
fd
fd
fa
fe
fe
01
fc
fd
f7
fc
0b
fb
00
02
fa
05
06
10
01
07
06
02
0c
fd
fa
f4
07
fc
fd
ff
fe
fd
ff
00
fa
f6
f5
ff
fb
fc
0a
fd
fd
02
01
f6
04
06
f2
f7
04
ee
fd
f0
01
00
03
02
04
00
0a
f1
0b
07
08
ff
01
05
fd
ff
05
03
01
00
02
03
ff
03
01
02
01
f7
f4
fd
f9
f2
02
fc
f9
fd
08
0a
00
01
06
fc
00
01
09
0a
02
18
13
11
0d
0d
13
fa
fc
01
fe
ff
fc
01
fe
ff
fb
fd
fc
fe
fd
fd
ff
fe
fc
fa
ff
08
fa
ff
04
fb
fd
03
fb
fc
01
fb
06
00
01
0a
00
01
06
08
04
06
09
06
08
03
04
03
ff
06
00
03
01
00
03
04
06
08
08
05
01
07
05
04
01
05
fc
05
08
ff
06
06
01
03
02
03
03
03
06
09
0a
04
03
fc
fa
01
f8
fc
01
f6
fc
08
08
fb
07
07
f5
08
09
01
04
fc
07
01
fe
01
04
f9
fd
fe
00
05
fc
fc
04
04
06
07
03
f8
03
01
f9
ff
04
05
00
07
04
0c
08
ff
0a
05
00
08
0c
02
07
05
fd
00
0a
01
fd
03
04
00
03
04
ff
f7
fe
00
04
fd
02
0e
04
05
0e
04
0b
fd
fc
01
fb
fd
ff
fb
fd
fe
f7
f9
ff
ed
0a
ff
f4
06
01
fb
ec
f0
f6
f1
ef
fc
f1
e8
ff
fa
fe
00
fa
fd
f6
f9
fa
0b
0b
00
02
ee
ed
fb
ee
f0
05
0b
08
03
0c
09
03
0f
0b
06
ef
05
03
ff
00
0c
06
03
04
01
15
04
01
14
ff
00
13
f5
0f
0f
f7
e8
f3
fc
f1
e3
05
23
05
0a
19
ea
04
22
fb
fd
06
f5
02
0b
f3
04
09
f2
04
fe
04
fd
ff
00
ff
03
08
fc
fe
01
f2
00
02
ea
01
ff
04
18
0e
08
14
ff
01
08
eb
f9
07
09
fa
03
02
f1
ff
ff
e9
f3
fc
f4
00
ff
f8
ff
01
03
03
fb
04
00
f9
05
04
fa
f7
09
ff
ed
f4
fd
f3
f1
fd
f8
fc
fb
fd
00
ff
fb
00
00
06
05
0b
06
04
06
00
00
03
d8
ee
e6
f2
fd
f7
0c
0f
15
fb
f2
f2
10
fe
f2
f5
dc
df
fb
02
06
fd
0a
fe
ed
e5
c9
08
05
06
09
08
06
06
04
05
d5
e0
ce
0b
04
04
05
02
0d
e6
ea
fd
f9
04
06
ec
f4
f3
f9
fb
fd
06
00
fc
05
f8
f2
f9
ff
f3
ff
04
ee
05
02
ec
02
06
fb
e3
fc
e8
ef
fe
e3
f2
d7
c7
11
fe
f9
18
00
06
fd
f8
ee
03
ff
ea
ee
e9
e0
f5
03
fb
f9
ff
fb
02
02
fa
04
04
f6
03
05
fb
ff
05
fe
04
17
06
f8
ef
02
ff
f6
ed
02
fa
fc
fe
fa
0a
f7
06
03
00
0c
07
fa
0d
0b
f7
08
0c
ef
e9
e6
fe
f7
fb
f0
fa
fc
05
e5
04
ff
e9
f8
00
f6
f8
0c
03
01
05
00
fb
02
fc
e4
f8
f9
05
f7
fb
04
f8
f6
03
e9
ed
f9
f6
ff
06
03
fd
08
f7
f9
f1
fd
fb
f2
05
fe
e5
04
f9
02
0b
f1
f5
14
f7
f2
ff
fd
02
01
fe
ff
08
fa
fe
ed
0e
f8
e5
02
f9
e5
fd
df
e9
fc
04
fd
03
f8
fb
01
ea
01
00
ff
01
06
07
0f
08
05
00
f9
fb
fb
fd
fd
fd
fa
fa
fc
03
fa
fc
fc
f8
fd
fb
fd
f2
f9
01
f4
fb
01
ff
11
02
f9
01
fc
04
ff
02
09
07
02
0b
0b
ff
09
05
fc
ff
fd
f9
e7
fe
fe
07
ff
06
f8
f0
f1
0f
13
0f
0e
15
0e
fd
05
02
11
0d
00
0c
09
09
03
fe
ff
02
f7
09
06
00
0a
fd
f8
fc
ef
f6
f3
f8
fb
f6
fe
fd
f5
f9
ff
f7
f8
f8
fa
01
07
f9
fc
f9
fe
06
09
0b
02
08
06
08
05
08
08
00
0a
fe
fc
04
05
0b
09
06
06
07
07
08
08
f1
f9
f3
fb
fe
00
f6
fe
00
fc
03
02
f1
f5
f9
f7
ff
09
f2
06
f6
fa
0b
f4
00
09
f6
09
03
f9
04
ff
fa
03
fd
fd
08
e4
08
e9
dd
03
f8
f6
0d
fd
f4
ec
f8
f4
f6
00
fa
f4
02
03
01
02
04
fe
fe
05
fc
fc
04
f8
f6
eb
df
e9
f0
e5
00
08
05
f9
02
ff
01
03
06
11
08
fd
08
09
01
03
01
ff
f9
04
09
fb
02
05
fd
02
08
f1
fa
f3
f9
e9
e4
00
f5
da
ea
e5
ed
ef
00
ef
fd
0a
f1
04
0b
fd
fc
09
fe
02
0c
f7
03
fc
01
05
fc
02
04
06
00
01
08
00
00
fe
fc
00
fc
09
ec
00
f9
f3
fd
f1
fa
07
ee
04
06
0b
09
01
0a
13
0c
0a
00
02
ff
2d
2b
2a
14
17
13
fb
fd
fe
fd
fe
fd
fe
fd
01
df
e2
e8
c7
dd
e1
d1
e0
e8
fe
f9
fe
f8
f7
f8
fa
f4
ff
ff
fb
fd
00
fd
fe
00
fe
f7
e6
ef
ea
07
05
03
05
fe
00
0c
11
10
ff
02
fc
13
18
03
ff
ff
00
06
01
04
06
00
ff
09
06
0c
0d
06
09
06
fe
02
fd
fe
ff
fd
fb
f7
ff
06
07
2c
27
26
22
20
1a
13
16
0a
20
1d
12
40
35
2e
2c
29
24
f9
f9
fe
f9
fb
ff
00
01
fc
ff
f9
fb
02
fb
fd
01
f9
f7
21
22
21
2d
2a
28
1f
1f
19
e1
e0
e3
dd
dc
de
de
df
df
0b
11
0b
09
14
15
08
0d
11
08
05
09
05
01
07
04
03
05
fa
fe
f6
02
03
0a
fb
f8
f9
04
08
0b
02
02
0c
02
01
0a
05
02
02
04
03
03
01
01
03
f8
fb
ed
0a
0a
04
fb
00
02
07
06
fd
02
07
04
07
06
ff
fc
fa
01
fb
05
0c
e5
e9
fc
fd
02
00
02
06
02
05
09
f3
05
00
ff
fc
fc
00
f8
f3
fb
20
11
1e
0b
f9
12
0d
f7
0d
07
02
08
10
08
0b
07
f7
f7
02
05
fd
0a
04
fb
0d
02
f5
f5
03
f4
fa
0e
ee
f5
fb
f0
19
00
f8
0f
fe
f8
13
0d
05
05
11
0f
01
0f
06
08
12
0c
08
00
0c
09
04
06
06
fd
07
fe
02
01
00
02
04
02
06
05
fc
01
f4
f8
e9
fc
f2
06
f6
f5
e9
f4
f5
f8
fb
f5
f3
fa
03
f4
fa
fb
f8
01
f8
fd
fb
f8
f8
04
0a
ef
ef
05
fe
fd
00
0c
05
fe
11
04
fd
fe
fe
ff
f4
fd
fb
fb
00
fb
f6
f0
fc
f9
0a
f2
f8
0b
f2
f8
0e
f8
f5
fe
fc
e1
f1
fd
f8
fa
fa
02
fc
02
07
05
03
0d
f9
f8
f1
01
f2
f7
fd
fd
fd
ef
fb
f6
00
f4
fe
fd
f5
00
fa
f3
04
fe
f4
ff
02
fc
03
fd
00
ff
0a
fa
08
19
fb
fc
09
e3
f7
00
ec
01
07
ee
f8
04
04
03
ee
05
10
03
03
00
f8
00
02
04
fb
fc
01
fe
f8
01
f7
f7
05
f1
04
00
f2
f0
fb
f7
fe
02
f2
08
f5
f8
04
ee
fe
f9
00
fa
fd
03
f8
fc
fe
02
05
13
e9
f4
0c
09
f3
f6
f6
f4
f5
05
1d
09
13
09
0f
fc
1a
fc
ee
fb
f9
e6
fe
ef
08
fc
f9
05
f8
f1
10
04
f8
0b
14
10
eb
fe
f6
08
f2
ff
ee
ee
e9
ff
f5
f6
0a
14
08
fb
f9
fb
fe
f2
f5
00
fb
f5
08
fe
00
fa
00
fa
05
05
04
f0
fa
0e
e2
ef
0e
e2
ed
fd
02
f9
fb
fb
f0
ef
0d
03
fe
fd
fa
f8
02
fe
07
0f
1e
16
ff
01
fb
fc
fd
fd
04
01
09
fc
fe
fc
fd
f9
f9
fd
fb
fa
fd
01
16
eb
f0
02
f4
fc
0d
fc
fa
fd
fe
fe
f9
fd
fd
fe
01
fe
06
fe
02
03
01
07
0f
fc
f1
05
07
f4
fc
05
01
11
fe
ff
0c
03
01
03
01
ff
11
fc
f8
12
f5
f9
f3
fa
05
eb
f3
f1
09
f3
f1
0c
ff
ee
18
f9
f0
16
0a
f5
09
04
f4
0d
05
0b
05
fd
04
09
09
02
fb
03
fa
08
fc
f3
02
03
fa
f7
fb
f7
fb
f8
f4
f8
f8
f6
fa
05
1a
fe
09
10
fd
ff
0d
eb
f9
f8
fe
02
f6
f4
00
ff
07
03
0a
f9
fb
fd
02
ef
eb
01
02
02
02
fd
01
03
0b
0d
06
02
fc
fe
03
fe
00
ff
fd
02
fa
fc
0b
f3
ec
f4
fd
e0
ec
fa
ff
f8
00
04
01
fa
fc
01
04
fd
fe
f8
f9
fe
f5
f9
fe
db
e4
e4
e8
e5
e3
1f
1f
24
f7
f9
fa
10
0d
f0
f7
f5
ee
fe
03
09
0b
0b
04
f8
f2
ea
fe
fe
f9
07
07
ff
0c
07
ff
d3
d9
d7
20
21
25
f7
fb
0b
fd
04
fe
20
1e
22
f5
e8
ea
ff
f9
01
05
02
fd
00
06
05
09
04
ff
09
07
fc
09
f9
f4
f2
fd
ff
e5
07
09
01
0d
f8
e6
db
c3
0f
08
07
0e
0f
13
08
fe
fb
01
fd
f7
f2
f4
f4
00
06
00
2f
31
2c
16
16
0d
00
ff
02
fe
00
ff
ff
02
01
e4
e4
e6
da
db
e2
d6
ea
f6
00
fb
01
fa
f8
fc
ff
fe
fe
fd
f5
fe
00
fa
ff
01
fc
04
f3
f5
f9
11
05
07
06
fe
02
09
0f
0b
02
01
fd
12
0e
05
ff
fd
03
01
ff
fe
0b
0a
09
0b
05
0b
0a
00
06
ff
f1
04
00
ff
00
01
fa
fd
09
05
08
2a
29
1b
1e
1c
12
0e
13
04
1f
1e
10
39
34
20
1e
22
12
f9
fa
fb
f8
fc
fc
f9
ff
fd
01
fd
03
04
fb
f9
01
f7
04
1f
27
20
2c
2c
23
22
1b
10
e3
dc
e3
e0
dc
e0
e1
dd
de
f6
ed
f0
03
03
fb
f9
ff
fa
09
07
09
05
01
00
06
00
01
ec
f1
01
04
05
06
01
11
09
03
fa
f2
01
04
f2
fd
03
06
00
09
0b
ff
fd
ff
03
00
0a
0d
11
15
0b
05
04
0d
0e
0c
ec
e9
fb
08
05
05
08
fa
ea
f7
f5
f7
e6
e5
ec
0c
18
1b
01
fd
f1
04
fe
f3
07
ff
f9
f9
06
fd
14
0b
07
0b
0d
08
e2
ed
e6
04
05
08
fc
05
07
ed
f0
e6
fd
f9
fe
fe
03
06
fc
fe
e6
00
00
f8
06
03
f7
ed
f2
01
f4
04
fb
f4
14
03
f3
f3
eb
0a
f1
f2
19
08
08
f9
f7
f9
e5
d7
dc
ec
eb
ef
f8
f9
04
ff
00
06
02
07
06
f9
ff
01
fa
01
01
ff
ff
02
f3
02
06
03
f9
04
15
01
ff
f6
ef
f6
f5
f3
fb
fa
ed
f1
00
09
f4
fc
06
ec
fa
09
f4
ee
fa
fb
ee
f4
fa
fa
f4
e1
00
0d
0b
04
04
07
07
fd
fe
ed
ff
fc
f4
fe
f5
f7
04
fd
0a
0b
02
10
06
ff
12
0e
01
fd
08
07
fe
fb
ea
fc
f2
cd
0d
ff
19
00
f3
06
0a
fc
0e
00
ff
0a
fa
f9
0c
03
ef
0b
00
ff
0d
fc
fb
0d
02
01
07
e0
e2
fe
e7
df
04
de
e5
05
0d
09
00
07
0a
fa
00
f1
de
f6
00
1d
f4
fa
15
f9
03
14
ff
fe
fe
fe
fe
00
ff
00
ff
fb
03
09
fa
00
06
fb
08
08
0b
e9
fd
06
0d
f4
fe
0a
f2
01
0d
0f
07
0f
08
fd
0e
01
f4
f5
fa
04
03
08
fd
00
06
12
0d
1d
03
0d
ff
f3
fa
f7
f7
ee
00
00
f2
01
fa
f5
01
0a
05
09
01
0b
10
fa
fc
fe
f7
fb
fa
f9
06
06
fb
02
09
0f
05
f6
19
05
03
05
02
ff
10
f8
08
fe
ed
ff
08
fd
07
04
fc
f9
05
0b
01
f4
02
0d
08
02
fb
04
f3
f7
f8
f6
00
f6
f6
03
f8
f7
06
f9
f4
e0
f8
01
ff
ff
1c
f8
10
09
09
01
06
fa
ef
06
0c
19
0e
07
fd
00
02
23
27
26
06
04
03
fd
ff
fe
fd
00
fe
fe
01
fd
eb
ed
ec
d9
e1
dd
ee
e9
e5
06
05
07
ff
ff
fc
f8
f9
f3
00
fa
fe
02
ff
ff
04
03
03
fb
f5
f6
13
0d
0e
fa
f7
f7
01
00
01
f6
f9
f6
05
0c
05
02
fe
03
fb
fc
fd
04
01
00
03
02
04
00
fd
01
f9
f7
03
00
03
fd
fb
f6
f8
f9
fc
fa
21
24
0e
0d
0d
01
ff
06
fe
14
14
0e
25
21
19
08
0b
0b
fa
ff
fb
fb
fe
fd
fe
01
fa
ff
ff
fe
fe
fc
f6
fd
fb
f2
1e
20
1c
2f
2a
23
0b
12
0e
e9
e8
eb
e0
e3
e3
de
e5
e3
01
04
02
01
01
01
ff
ff
00
03
01
02
01
00
03
03
00
03
09
0a
09
03
ff
03
01
fd
01
01
06
03
01
04
06
03
06
05
00
ff
fd
fd
01
fe
00
01
00
00
02
ff
01
03
03
02
01
ff
01
00
fd
01
fc
fc
fa
fe
ff
01
fd
fc
fc
fc
fe
03
01
01
fe
03
fd
fc
fe
fd
fc
ff
fa
05
01
fe
03
02
03
02
01
ff
00
04
05
fd
fd
ff
fe
fd
04
03
02
01
01
fc
fe
fc
fe
02
ff
01
f8
00
f8
fd
ff
fb
fc
01
ff
fd
02
01
fe
01
01
00
00
ff
fb
01
fd
00
02
00
02
03
03
05
ff
fc
fe
02
ff
01
ff
06
05
05
08
fe
04
01
fb
02
fb
ff
fe
fc
fe
fd
fd
fd
0b
ff
f8
f9
06
02
04
f7
f3
fb
fd
f4
01
ff
fa
fb
fe
fc
04
04
0a
02
01
03
ff
05
07
ec
e8
dd
08
ff
00
02
fe
02
02
fa
08
fc
f6
ff
01
ef
ef
fc
fc
fc
fe
f9
fb
ff
00
12
f9
04
00
fd
02
05
fa
f9
02
fc
fb
e9
08
05
06
00
07
ff
03
fa
f9
04
01
fa
03
fc
f9
04
fd
f8
05
02
00
03
ff
f7
fb
f6
f8
fa
f7
00
f2
01
02
fa
11
f0
ea
11
f0
e7
0f
ef
f6
00
e4
08
05
fd
09
fb
fa
0c
06
05
fc
fb
00
f3
fa
fb
fa
fa
fc
fc
fc
fc
00
fa
fd
01
ff
02
00
00
03
ff
00
03
04
fe
01
fc
fb
fb
fe
fd
f9
00
01
01
00
01
fe
00
00
fe
03
02
ff
ff
02
fe
02
02
00
0c
fb
f6
0a
00
01
02
fe
f9
04
02
00
03
ff
04
04
ff
05
00
08
ff
fe
06
fb
fe
0b
fa
fd
fe
03
fc
fe
01
fd
fe
fe
fc
f9
fe
02
ff
03
fe
f9
fd
00
01
0a
01
02
fe
00
00
02
fd
fc
fc
fc
fd
04
ff
fe
02
ff
fc
00
ff
fa
02
fd
fa
05
14
0b
fb
11
08
f4
02
08
f9
03
fb
01
04
f9
03
01
f9
f6
03
01
05
fd
fb
fa
01
ff
f8
04
09
04
ff
04
04
fb
04
02
fd
fd
00
fd
f8
f7
fd
fa
f6
fe
08
fb
06
11
13
04
05
08
f8
fb
01
fb
03
fe
f8
01
01
f8
f4
0a
f5
f8
17
02
02
04
e8
ec
fa
02
f3
17
0a
01
0c
fc
f9
0b
fd
fa
f7
fe
fa
ea
04
06
04
10
06
02
10
08
f8
fa
f2
08
01
f0
06
02
ef
f8
ea
e3
11
f8
f3
07
0a
fe
02
13
09
00
18
0c
0a
17
10
03
00
ee
f7
03
f1
06
00
f1
fc
05
ef
f9
07
f0
07
06
ef
f4
fd
25
f6
08
1a
02
fc
13
f0
f4
ec
e4
fc
f0
15
0d
f6
1a
fe
06
03
f7
fa
fb
f1
ff
13
f1
f6
f5
23
21
23
04
02
07
fe
fd
ff
01
ff
00
fe
ff
fe
e0
ce
d9
e5
d7
d8
e6
f2
f4
03
f1
f3
fe
f2
f4
fb
ec
ec
03
00
fe
04
fe
fe
ff
f7
fb
f3
07
fe
0e
ff
01
fe
f3
fd
03
08
07
f6
fa
fd
15
09
06
01
f5
fb
03
f8
fb
fc
ee
f9
04
05
18
00
01
11
fa
01
10
05
13
0e
04
f8
f9
0b
f3
ea
2b
32
22
19
1c
0a
0a
16
08
17
15
03
36
25
1d
0a
07
ff
f8
fc
00
f9
fe
fe
01
03
05
ff
f6
00
02
f5
02
ff
ef
0a
1c
2a
26
25
28
23
05
06
fb
da
e0
f2
dc
da
eb
e9
e1
fd
0a
0b
0e
07
12
0f
01
04
02
fd
fd
f7
fc
f9
f9
f8
f6
f8
10
01
ee
0f
05
0e
08
02
0c
08
fe
f9
00
f4
f5
f7
f2
fa
00
01
ff
04
05
03
03
04
fd
f7
ed
f0
01
01
ff
f3
f0
f2
fe
fc
03
01
fa
f1
0b
08
08
06
04
03
f9
f6
fc
0e
0c
07
fb
f9
00
0c
08
06
09
07
03
fa
f6
f4
0d
08
0b
f4
ec
f0
03
09
03
01
03
fc
f9
f5
f2
04
0f
04
f8
00
f7
fb
01
00
ff
02
01
04
07
fd
fd
04
fb
02
fa
07
00
fd
01
08
ea
fb
09
12
f7
11
16
0a
f9
fe
f6
12
11
04
10
1b
09
fa
02
06
fb
fc
f8
fe
00
07
fc
f7
fe
02
fe
fe
00
00
ff
fe
fe
ff
fc
fc
0f
f7
ff
0b
00
00
fb
02
02
fc
02
05
01
fe
03
07
fc
01
08
fa
00
07
fb
fd
01
e9
e3
ed
fc
fa
02
00
f6
03
f1
f9
e2
f3
ef
e0
f3
ec
e3
0c
0a
04
0b
0f
15
ef
ef
f3
05
00
06
01
01
07
03
01
0b
f4
eb
f3
fe
08
08
0b
14
14
fb
ff
ec
06
04
f0
08
05
f6
06
05
09
08
04
00
09
ff
e7
08
09
f9
09
06
fa
05
03
fa
dd
ef
fa
d3
f3
01
e0
f8
02
cb
ff
f4
ec
10
06
f2
07
fb
00
f2
f5
01
f7
fe
0a
0e
11
00
04
02
06
02
fd
06
06
01
01
04
01
fe
ff
00
02
06
01
02
01
03
02
ff
01
09
04
0a
fc
fc
fc
03
02
00
04
06
01
03
03
fe
00
03
03
02
07
05
ee
f7
e9
f6
ed
e3
fb
fa
ff
03
03
00
01
06
fe
fe
f6
ef
fd
fb
fa
f7
f8
f5
00
ff
fc
fc
f3
02
fe
f3
f9
fd
f8
fd
f7
f2
f0
ed
e5
ea
fd
fd
ff
fe
fb
f1
f8
fd
f8
01
01
fc
f9
fb
fd
fb
fc
fb
01
f8
f5
f8
f8
fd
f4
f9
f4
f5
fb
fd
f6
06
08
fb
04
01
f5
0b
01
f9
f9
fd
f0
f1
f4
f3
fa
f1
fa
fb
fa
fd
f8
f7
fb
f9
f6
fd
0b
03
fd
0b
08
02
0d
16
04
02
fa
05
05
03
01
00
03
f8
01
fb
fd
fd
f3
05
ef
f6
0b
f7
01
0a
fc
09
ff
fb
04
fd
07
ed
fa
04
f5
fa
06
fd
d0
ef
f0
f2
fe
fe
e7
fb
ef
e8
d5
fc
ea
db
e9
f2
e0
e4
07
01
fd
06
04
ef
01
02
ea
01
fa
05
03
fb
07
04
fe
05
f3
fe
fe
fc
03
01
0a
07
f7
ff
01
02
07
03
f2
01
07
fa
03
f4
06
09
f4
fe
05
e7
05
03
01
10
03
fc
08
02
fa
05
e8
0c
07
e0
10
f5
e1
0b
f5
f1
f9
fc
01
fa
f6
01
f2
e9
04
05
03
fd
fe
f4
0c
0f
07
05
0c
0d
05
10
0f
09
0f
0a
03
fa
fc
08
ff
fc
07
fa
f6
0c
fb
01
06
03
fb
fa
fc
f2
f1
ec
f6
f1
f3
f1
f2
ed
e3
06
f9
ec
05
f4
ed
04
f0
ec
ea
e0
d8
e0
ea
e4
f0
fa
f2
fa
02
f3
fd
00
f6
02
00
f6
04
02
01
00
02
fb
f8
ec
e2
03
ff
03
02
03
0b
ff
01
12
fd
01
f7
ef
f9
f5
e0
e6
ea
f3
ea
f8
f7
ec
f4
f7
ef
fb
fc
fa
f4
fa
f4
f6
ff
f3
f8
fb
0a
f9
fa
07
fb
fb
0d
fc
fc
fc
08
ed
f5
05
f3
f8
ff
f9
e5
fb
fe
ec
01
f2
e4
f7
04
ff
11
0e
04
12
08
05
13
fe
0b
0b
fc
03
ff
fc
02
07
02
04
fe
01
01
fd
01
fe
fb
0f
02
07
fd
f8
f6
08
04
ff
f7
01
fa
f8
fd
f9
fb
fc
fa
00
01
06
fc
01
ff
04
04
fe
fa
fe
fe
fd
02
01
ff
07
05
06
fc
f8
08
f2
f6
0c
fe
fc
fb
fd
fb
fa
f7
f9
f9
f2
f5
ff
05
03
03
03
06
00
01
fd
04
05
f6
08
0a
03
02
09
0b
fc
f7
ff
fc
ff
ff
f8
fb
f6
fd
fd
fb
00
fe
fc
fe
fb
fa
fb
fe
f8
f8
fc
fd
00
00
00
f6
05
03
f6
f6
fb
f9
f9
f3
01
fd
fa
07
06
09
09
14
10
07
01
06
00
f7
f7
fa
f8
fa
09
09
00
fd
0a
fb
06
0f
06
05
08
01
fe
03
00
fd
ff
ff
ef
fa
fc
04
07
fc
f2
08
07
03
02
f9
06
08
04
fe
04
14
0d
05
ff
04
03
ff
fe
00
06
fd
ff
f6
fb
fc
f6
fb
fe
f9
f6
ec
0c
f8
f6
03
0c
0c
01
e7
ed
e7
fd
fa
f8
1b
24
2e
ff
f7
f5
02
f6
eb
05
f7
f2
f5
f8
ea
fd
f9
f4
fc
08
05
eb
e8
e7
08
fb
fa
11
0a
06
f4
ee
e4
ff
f5
f6
02
fa
ff
04
f6
f3
02
f6
ed
09
02
eb
e1
f1
f5
e5
f7
fd
d4
09
0a
ea
f2
f6
f1
ed
dd
21
0b
12
08
0d
09
fa
ed
fe
01
0e
05
05
06
03
08
09
07
08
0c
02
ff
ff
04
06
08
0f
fe
fe
06
ef
e0
dc
ec
ef
db
f1
f2
f5
07
07
16
00
fd
10
04
0a
07
02
03
f7
fd
fe
f9
fc
04
f5
d2
e5
f1
03
08
07
27
24
19
fa
06
06
0a
13
f7
fd
00
ec
0b
07
12
f9
fc
06
fe
02
ff
02
f8
f4
09
fc
ec
06
f7
e9
d0
ed
eb
2a
2a
2e
e9
f0
df
12
15
0d
1b
1c
0e
ea
ec
f6
f9
f3
02
fb
fc
05
e6
f6
fc
08
fa
f9
0b
05
fe
21
f5
f3
fc
fc
f7
07
10
04
0a
ff
ec
f0
de
e4
28
0d
0c
1b
05
ff
18
19
13
f9
04
00
f8
fc
01
fc
f8
f5
00
01
f0
0a
0b
02
03
fe
01
04
fd
fe
09
04
fd
0b
04
01
04
ff
fe
0c
ff
f8
f1
f0
ec
f7
f3
f2
f9
f2
e4
05
00
f8
04
f8
f5
07
f8
ee
f7
ee
eb
f3
d6
e7
e9
f5
eb
03
02
04
fe
01
f8
fd
03
f5
fc
f2
fe
f7
f1
f1
ff
f3
f4
fe
05
01
f9
04
06
f0
03
0e
fb
09
06
ec
df
eb
e5
f7
f0
f7
f4
f3
f8
f4
ef
fa
ff
ff
f8
f7
f8
f5
f4
f0
01
03
f3
fa
f9
f9
f5
fa
f8
f6
03
ff
00
fd
08
09
f6
03
ef
02
f9
f6
fa
0a
ec
ee
08
e6
ed
ff
0d
08
0f
0d
09
0b
0a
04
08
07
0d
08
fe
ff
f7
fb
06
ff
05
01
06
04
fa
02
fe
fb
06
fd
f1
24
06
fb
14
0a
1a
2b
fe
02
fc
03
06
08
f9
fd
10
f2
f8
f9
03
fb
f7
fe
ff
f8
04
0d
07
f8
fd
01
08
03
fc
fe
ef
f5
fa
02
f8
01
0a
08
fd
f3
fb
03
fb
f5
0e
17
17
01
f1
fd
06
fb
f8
06
ff
f7
f5
06
ff
f9
f9
06
08
08
f6
fc
e3
14
fa
f0
f6
05
fa
fa
f9
f4
18
02
02
07
fd
03
08
07
f9
0e
05
02
14
15
0f
02
f2
f2
15
06
0c
19
f8
0e
23
0f
f4
14
f2
e6
02
f8
fa
fb
03
03
1e
ee
f2
01
f7
f3
f8
fe
02
01
06
0b
0a
04
01
09
fb
ff
fc
fe
fd
fc
01
03
01
03
05
0f
f4
f5
0b
05
00
1d
ff
fc
00
ff
f7
01
06
f9
02
f8
f4
05
f7
f8
04
fe
ff
0a
ef
e3
ea
04
fb
0e
fe
fa
12
01
01
06
fe
02
01
03
03
0f
02
01
02
fc
fb
01
01
04
ee
f8
ee
08
f8
eb
01
fa
e5
ff
ec
e5
f0
f7
f3
13
fc
ee
12
10
07
04
0d
0a
0c
11
16
fd
06
f3
06
04
f2
ff
0d
f9
f7
f5
f5
0c
f2
f3
17
f7
f4
0a
f5
0f
e4
f0
08
f5
ef
0b
f4
fd
f5
fb
06
fb
05
09
03
0f
00
00
01
f9
f6
fe
fb
fa
0a
00
01
fd
0a
07
00
08
fe
01
02
fd
f4
00
fe
f2
ff
02
f9
fe
0d
07
10
18
0f
05
fe
f9
ff
fc
f6
01
fa
ed
f9
fc
fa
06
08
00
06
05
f9
01
03
ff
02
01
ff
fc
e7
e9
f7
f0
ea
f5
ff
06
fc
fe
09
f6
fd
ff
ff
02
fd
fe
06
06
ee
f5
fe
05
01
07
06
02
07
04
ff
06
f0
f9
00
f4
ef
02
0a
05
fb
f8
fb
f4
05
00
f4
04
02
f6
fd
f8
f5
ff
fe
f5
fd
ff
f1
fa
00
01
ff
fe
f6
ff
f7
ee
ff
04
fb
f8
0c
fd
fb
ed
01
f2
05
f5
f2
00
ec
0a
0a
f1
0c
0c
0b
09
08
07
00
05
09
09
05
03
05
02
fa
f5
00
05
05
05
03
ff
fc
ff
00
fb
fe
f7
05
05
03
fc
02
e0
0d
15
fb
f9
f1
00
00
ef
f9
f7
f3
fc
fd
02
fc
fb
fe
fe
f5
fa
03
10
0c
0c
fc
fc
fa
00
08
ff
ff
02
fb
02
fd
01
08
09
f1
f5
f5
fc
fb
fe
05
10
15
fc
06
05
03
0a
0d
02
0a
0c
fa
0f
0e
00
f8
fc
f8
f5
f6
f5
08
f2
fd
0c
fb
fb
0f
05
ee
06
f8
ff
0b
f9
00
0d
04
fc
fa
04
02
03
01
fe
06
f9
ff
f3
fe
05
00
0b
0b
03
0a
11
15
0e
02
0c
fc
fc
08
00
fd
05
09
f2
fb
ff
fe
00
04
07
05
ff
06
0d
03
02
08
00
ff
03
eb
ff
fe
e5
01
fd
e4
ff
ef
f6
fd
f7
f5
e6
ff
08
00
01
e8
04
04
da
fb
0c
c8
0a
f7
17
0d
f7
1e
05
ee
13
11
17
fc
09
0e
fe
fc
ff
fd
05
07
f6
fd
f1
ed
ea
ec
e4
06
05
fd
ff
04
fa
04
0c
0e
f7
f2
1b
fc
ee
1c
f6
eb
11
0d
04
fb
01
07
fd
0a
0b
01
f6
fb
f9
f8
f4
f6
ff
00
00
f7
13
f1
f1
10
fb
f2
1b
04
00
fb
10
ff
e8
07
fd
eb
00
04
10
f9
f8
03
f9
f9
03
00
04
08
12
00
02
0f
f8
f6
fe
ff
f2
fd
fc
f8
f9
00
fa
f3
fc
01
00
fd
01
02
fe
fd
01
00
00
02
02
00
01
01
02
01
03
00
00
ff
fe
fa
04
04
ff
fe
00
00
ff
01
00
01
06
05
00
01
04
fe
fe
00
fd
01
01
f5
fc
00
fe
fe
ff
19
13
11
ff
fc
05
06
fe
00
04
fc
fe
00
fc
01
fe
fc
fa
fd
00
f7
00
04
02
fe
ff
fe
02
01
fe
fc
01
ff
fd
fe
fd
06
07
09
fc
00
ff
01
00
01
fc
fb
ff
01
02
02
03
02
fe
01
01
02
00
06
03
00
01
ff
00
01
f8
04
01
01
03
01
f5
04
02
f2
03
03
05
03
fd
02
08
03
04
02
01
01
fc
fb
fa
fd
fc
fd
f1
f5
f4
f6
fc
fa
f3
f7
f2
fc
fe
08
fc
fe
12
f6
ff
14
ec
03
ee
f0
fa
fc
00
01
fc
0c
08
09
f8
fc
03
e6
f2
ff
fe
08
fb
0b
0c
f9
15
16
08
f8
f7
fc
20
1f
1e
ef
f1
ee
08
22
21
10
fe
1c
05
0d
06
f4
0c
05
ef
f8
f6
f3
f8
ef
ff
09
eb
09
04
ec
05
02
f7
f1
f9
04
17
fe
13
e5
e8
e9
0b
fc
03
0d
03
03
16
fb
11
12
02
fc
15
05
fa
0d
f1
fe
01
01
ff
0b
d8
02
09
ee
0e
e0
fa
fa
e4
fc
f9
fb
02
0f
ff
02
04
04
fe
05
f8
e7
f6
ea
ef
fb
eb
f2
fe
f8
01
0e
02
ef
ef
00
f4
f8
01
ef
f4
fd
05
fc
fd
05
02
fe
00
ff
0a
07
ea
05
ff
fb
13
fd
f3
f2
fe
06
fa
07
04
fd
07
02
fc
fd
fa
fe
fd
fe
fb
fe
01
0d
1e
0a
0c
09
06
f9
fc
fb
15
06
fd
09
fc
fe
06
fe
03
fb
0d
ff
f4
f8
fa
00
f9
f9
0c
f8
04
03
01
03
03
fe
fe
fa
02
01
06
08
05
f4
f6
f5
e9
f0
01
f3
f7
fc
f8
f5
fa
f7
fe
01
fd
03
05
fd
fb
fd
ff
03
00
fe
01
02
01
00
ff
01
ff
f2
f5
05
f8
ed
fe
02
10
fd
0f
0c
0b
0b
fb
fb
f9
09
ff
0f
09
00
00
fe
02
fa
fa
fe
f7
3b
38
32
14
17
06
04
04
03
03
04
04
05
04
0d
c6
d7
dc
d2
db
e0
e3
e5
e4
ff
fe
03
fe
fc
02
01
fe
06
f9
fa
fb
f7
fb
f5
f6
ff
fb
ed
f6
f0
0c
07
08
05
fd
06
0c
11
10
ff
fb
f6
16
0a
00
02
ff
06
0b
0a
0b
08
12
18
09
08
11
02
fb
04
ff
f8
f8
fc
04
fd
fd
f2
f4
04
03
0b
34
35
1f
18
1c
0d
0e
09
fa
24
25
15
32
38
1e
0c
19
0c
f5
fc
fd
f7
f7
fe
fb
f6
00
f8
ff
03
06
01
0e
00
fa
07
22
1e
1f
28
24
2d
04
03
f8
e3
e1
e9
dd
e0
e7
de
f4
fa
f6
f7
fe
f2
fb
f7
f9
02
ff
02
06
05
04
05
fd
05
02
fe
00
fb
f8
02
f9
fa
f0
01
ff
f0
e6
fa
fc
f7
00
fb
f6
01
03
f9
e8
02
f9
e8
0a
f8
ea
ec
e5
ef
fb
03
04
f3
f1
eb
00
04
f8
ec
e3
e8
04
10
fd
f9
ed
f6
fc
ef
e8
22
1b
25
04
fd
01
0b
f9
0e
0a
06
10
f2
03
03
01
01
03
f1
01
fc
f7
f8
09
f0
ed
fe
0f
02
0a
f6
f1
0f
02
f3
0e
01
fa
13
02
f8
fc
fe
03
f8
07
0e
f8
f5
f5
12
ef
f3
11
e6
f1
14
00
f5
17
fa
e4
02
1e
01
0e
0a
08
19
ff
f0
fd
07
f9
0c
e7
eb
f9
04
04
00
07
0d
0a
05
04
00
02
ff
fe
03
fa
fb
eb
f3
ff
fe
04
0c
f1
fd
f6
ff
f4
e9
01
02
f3
fd
00
fa
0e
09
08
08
01
ff
06
02
0b
06
0f
0d
05
03
03
01
fc
f8
e8
ef
01
fe
fe
05
02
f6
f5
ea
ef
e7
e6
f2
f3
fa
f6
01
fe
02
02
ff
fc
fa
00
fa
fc
e0
e7
e8
0b
05
05
04
03
02
e5
e7
de
01
fe
fd
ff
00
03
ef
ec
f0
fd
fb
fa
fc
00
fc
08
fa
f5
08
fd
f0
02
01
e9
e6
f4
05
e1
f2
fc
dc
03
03
02
07
09
07
f9
fc
24
25
23
00
f4
f1
e4
da
d4
ce
c5
cc
04
07
06
11
06
04
0a
07
0b
fe
fb
ff
0a
01
f9
06
fb
02
f9
f5
09
0b
f3
e9
06
f1
e8
00
fa
ee
09
06
01
f5
f6
00
05
fe
02
fe
f6
f5
fc
03
04
03
0a
03
0a
fb
e6
16
01
1c
f3
f0
06
00
04
22
13
10
0e
fe
ee
f4
0f
01
08
22
10
10
03
ff
f8
01
ec
f7
0d
fb
f9
f6
01
f2
0a
0f
06
0f
09
27
e8
f7
03
22
11
1a
ff
eb
06
f3
01
f0
0e
0b
02
ff
fb
fb
02
07
fd
ef
f7
02
07
03
f2
ff
06
08
07
09
0a
10
06
13
ea
ef
f0
fa
e7
fe
05
ff
02
fe
f9
fd
0c
04
12
0f
1d
19
ff
01
fc
00
ff
fe
fd
fd
fd
03
03
fd
03
02
02
06
02
01
04
00
01
f3
ff
f5
f8
ff
f7
fe
09
08
01
04
07
03
05
01
ff
fc
00
03
02
04
fd
04
04
fc
fc
fc
fb
ff
fb
fd
02
06
05
00
ff
04
01
fd
03
01
f9
fa
fa
fc
fe
01
06
f9
f8
fb
00
00
01
02
04
03
03
03
02
01
ff
fd
fe
02
03
01
08
03
f4
f9
fc
00
fd
06
fb
f8
fa
03
fd
02
03
04
01
fc
ff
fd
fc
fd
fd
ff
fc
fb
fe
f4
f3
09
04
fd
fa
fc
fd
fe
fd
fc
0a
01
f8
07
02
02
03
fc
07
fa
f3
fe
05
fc
f9
02
f7
f9
f7
f1
f3
10
0e
09
fe
fd
f7
02
01
ff
fe
ff
fe
02
01
fa
f3
e8
e4
dc
f1
e5
f2
06
14
e8
e5
ec
e6
e8
ea
f4
ff
f4
fa
f7
f1
fb
f6
f0
04
05
fc
ed
ea
f4
fc
e8
ec
e7
e2
df
ed
f2
f3
e4
e2
d7
f6
f7
f0
f6
ea
f5
f2
e7
ed
0e
07
fb
01
fb
0e
f9
f2
05
eb
ec
0e
f3
ed
f2
eb
e1
e4
fe
f3
f3
0a
fe
fd
03
f4
f7
00
f6
f9
04
f9
ff
0c
04
01
06
00
ff
f5
f3
fc
f6
f8
fa
f6
fb
fc
ec
09
fa
e6
ff
ef
e7
0b
f4
09
09
1d
10
0f
16
09
05
0d
f1
f0
f3
ef
ec
f0
f3
ec
f0
f5
02
02
fb
fe
05
fc
fd
fe
fd
fc
fa
fe
00
fd
fd
00
fc
f6
ef
04
f3
e7
04
fd
fe
0c
f6
fe
fc
f3
03
06
fb
f8
01
02
01
fc
fa
03
fc
f8
00
fe
e7
e6
f5
ed
f8
fc
fa
f1
f9
ee
f3
f3
dd
e2
e9
f2
eb
e8
10
12
03
fd
08
02
e9
de
e3
00
00
0c
03
06
15
04
06
16
e7
f7
fa
f3
ff
fe
09
ff
01
f7
0c
fd
f7
03
fb
01
fd
f8
09
0b
0a
00
fc
f5
fc
f1
f0
07
10
01
03
0d
01
08
0c
ff
fb
03
fa
f2
f7
07
ea
f9
0b
e1
f7
fc
f3
15
ff
de
e3
e6
0b
05
00
fc
f8
02
0c
10
06
fa
f9
f8
fb
fc
fc
fb
fb
ff
04
fe
09
03
02
0f
00
02
0f
ff
08
1a
f0
ee
12
f5
f2
0a
fe
fe
fc
01
ff
0f
fc
f1
0c
0b
01
dd
04
05
d6
04
0a
e3
f7
f9
fb
09
07
03
13
07
fc
00
ff
e8
11
0f
ea
fd
05
e1
fd
fa
f1
02
06
02
e0
f4
e6
06
02
0c
00
01
05
08
01
07
f0
f3
f7
05
0a
11
12
f8
ff
fc
0f
e1
fe
10
f8
04
03
fb
01
fd
e7
0c
15
ed
04
0f
eb
fe
0b
ed
08
08
f5
05
07
f0
e6
fc
d6
ec
08
ee
e4
17
e6
02
f5
f7
06
05
05
04
f7
03
f9
f5
fb
f1
fa
fe
ff
04
04
f2
06
fc
fd
07
09
f8
00
0e
06
fc
f9
03
03
03
ff
02
06
f4
03
fb
02
f5
ff
05
f3
fb
03
ec
f8
fe
fb
09
f7
fd
10
06
0f
f7
fe
0c
fa
fb
0f
f9
f4
f2
e5
f8
e9
ec
f1
f3
ff
f1
e4
fc
ea
d4
e1
d9
e3
de
01
02
07
fb
fa
f6
f9
eb
ed
f6
02
09
fa
02
fc
fc
03
ff
fa
f8
f3
e6
fd
ec
02
f8
f8
ed
fa
f7
f4
ef
ed
fd
02
04
01
fd
ff
0a
f7
fb
0b
e9
ff
fe
07
05
05
09
01
09
fe
f3
e1
03
0e
da
f3
02
e4
f8
03
e5
08
03
f4
f7
df
04
fc
e8
05
04
fb
ff
07
f5
0d
07
f9
f3
fc
01
fd
fc
fe
fa
04
fa
fb
fc
06
01
00
fe
04
ff
fa
01
f7
ff
f9
f2
fb
f8
fa
f1
ea
ec
f1
eb
f4
ee
f0
e7
e4
03
e5
f2
05
e5
f2
fd
ed
ed
e0
ec
e6
eb
e3
df
e8
00
ea
02
01
f9
06
fb
07
07
ff
ff
fe
f0
03
ff
ff
fe
01
f5
f1
05
ff
fb
04
ff
01
ff
fb
17
f8
04
00
f7
de
f6
ed
e1
ed
f6
eb
fb
f0
e7
00
fd
f9
01
f5
f0
fc
f9
ec
f9
05
f8
03
f4
f9
fd
f9
f4
fb
f9
0e
fb
07
07
10
09
fd
0e
f4
03
fc
e6
d9
ff
ed
d9
06
e8
d6
fd
ff
f9
04
06
f8
04
10
05
0f
06
05
05
08
06
fe
fd
02
f9
fe
fc
04
03
ff
02
03
fe
00
0b
05
0f
00
fc
0b
05
fd
03
02
fb
01
03
0e
03
06
08
fd
f8
f5
f9
fd
00
05
00
fe
01
f7
f6
ec
ff
05
0c
fe
03
05
ff
fb
03
fe
fa
fc
04
03
00
06
03
01
05
03
05
fb
09
05
02
03
f9
fe
08
01
fd
00
00
f1
ed
f4
f7
f2
fb
01
08
fd
04
fe
01
11
01
04
06
ff
01
02
fc
fe
01
03
ff
f8
fc
f5
0d
04
fc
0b
fe
f9
03
fe
00
0c
16
13
05
09
0e
04
fe
fa
05
f4
f6
09
03
f7
f7
fa
fb
03
05
05
08
01
fa
0a
02
04
00
01
03
02
00
01
fb
01
00
04
05
01
04
01
02
01
01
00
f2
fe
fc
fd
10
f6
0a
12
04
03
ff
fe
07
00
02
00
ff
fe
04
05
00
02
02
01
ff
02
00
f2
f6
f5
01
01
f9
02
fe
fb
fc
ef
ef
f8
d8
df
04
f3
ea
fa
fe
fd
ff
fc
03
fb
fd
02
07
fd
fc
06
03
fe
fe
01
ff
fa
f5
f6
f9
fa
01
04
fe
f7
03
ff
fd
02
fb
ef
0a
04
fa
00
03
ff
fd
ff
fe
ff
00
fb
ed
f4
f7
f6
f0
f4
f8
f5
f7
fc
f5
01
fc
f6
08
f5
fe
07
ff
fb
f9
fa
ef
f9
08
f2
f2
00
02
ff
0d
fe
01
06
fe
00
fd
fb
ff
01
fb
f8
03
fe
01
01
01
fc
01
ff
fd
03
07
fb
02
01
00
02
00
02
07
0b
01
f3
fa
f7
f7
00
f5
09
11
ed
07
06
09
00
ff
fd
ff
0a
10
06
04
fc
01
fe
f9
f3
f2
f1
f8
02
fb
01
01
f9
0b
09
ff
f5
fc
fa
f8
00
fd
00
04
03
04
ff
fe
03
06
07
00
02
03
05
06
f8
fa
f5
ec
ec
f8
ef
0b
ff
04
fa
f0
f4
00
f8
fe
f6
f2
fe
f8
f6
f1
08
05
01
f9
f4
fb
fe
f1
f1
01
00
f1
12
03
06
17
0b
09
05
f6
f6
0e
01
02
08
05
0b
0a
1c
10
0a
04
04
00
01
f9
fb
fe
fc
fd
fb
f9
fb
fc
f9
f3
f6
00
00
00
02
ff
ff
05
fc
fc
01
eb
e0
f1
ed
fc
16
ff
03
15
ff
07
08
fc
ff
06
ff
03
0e
ef
f3
f8
fe
02
00
02
03
f9
e8
d4
ca
d3
e5
e0
f0
f4
eb
ef
e9
d8
f0
d7
d2
f7
ed
e5
fe
02
01
fa
ff
02
e4
eb
f7
fc
01
06
fd
02
06
fb
fb
fe
ec
de
e0
cd
d4
ce
f8
04
f6
fc
0c
01
ee
fa
ef
fd
16
02
01
01
ff
f8
fc
f7
f9
04
f5
06
0a
f0
05
06
f0
07
04
f6
fb
05
f8
e9
02
f9
f1
f9
ff
f4
f6
f5
f2
fe
f4
f1
02
ef
07
fe
f6
04
fd
f7
07
03
02
0a
fc
fc
04
fb
fc
0b
fb
fb
fc
f9
01
ff
fb
fb
02
fe
fd
fe
0b
2b
fc
f0
f1
02
ec
e6
f1
f7
f6
f9
fc
fe
f8
f1
f7
04
fa
f5
fb
06
fb
f4
00
f8
ed
f0
f5
d5
ce
df
22
0e
12
ee
fa
fe
fc
06
18
16
0c
06
ec
f0
f8
0d
0c
06
09
09
f2
03
08
fe
f5
f1
ea
08
fb
f5
ff
e7
ec
ef
0a
03
1a
fb
1b
e7
f1
e2
07
05
0b
0b
00
0a
f6
fc
fa
04
ff
fe
09
ff
fc
02
0c
f9
f2
ff
f8
ff
fc
ea
e5
f3
f8
e6
ec
02
e4
00
17
f3
f5
e5
f8
fc
f7
13
04
10
03
ec
f3
03
f5
05
18
05
0a
ff
01
01
00
00
fe
00
07
0b
ff
03
f7
fb
00
f6
fe
fe
f4
13
01
08
fd
f5
f4
ee
07
18
f1
03
ea
f4
02
ec
fc
12
f1
10
0a
14
0b
01
14
00
f8
0e
fa
fc
f7
00
05
fd
f9
00
fe
0f
04
05
f9
01
f7
f9
f6
ef
f2
f5
f3
de
e6
e8
17
14
15
ff
ff
0f
fe
fd
08
f1
f5
06
05
f8
02
e3
dc
e1
f8
06
02
f4
e0
dc
eb
f4
e9
0e
1c
0c
f2
f9
e8
f8
fd
f0
02
0a
fe
ef
f4
e5
fc
f8
ea
ff
f7
ee
ec
f7
ed
dc
f9
f2
e5
06
01
0b
10
11
e9
e9
f1
f9
fa
f9
f2
f3
f8
f0
e5
ed
f8
f2
f1
fb
f3
f5
07
06
02
0d
06
0a
fb
02
fb
01
04
f8
03
01
f3
f3
00
f4
e9
f4
f9
02
f8
f1
f4
f8
02
fa
02
fc
f0
fe
f8
f8
ff
f6
fe
01
fd
08
06
fd
f7
ed
e8
f0
ee
df
eb
ee
ea
07
fc
f9
06
f8
f6
02
f0
ef
f6
06
fc
0b
09
06
09
13
15
f7
01
0b
02
05
09
02
01
07
ef
ed
e8
e6
f4
d1
f7
05
04
00
0e
fa
e3
fe
f3
f1
02
07
02
07
f5
fd
fb
f6
f9
fb
f9
02
1d
0c
fc
1b
fe
fa
1b
08
0c
01
10
ef
01
f7
e4
fa
f6
fb
fd
e4
f9
ef
f2
ef
f2
f2
fe
02
01
09
09
0e
fd
f7
fc
fa
ff
ff
29
28
28
0e
0e
0c
fc
ff
ff
fc
00
ff
f7
ff
02
d6
ce
e0
e1
d5
cd
e0
d9
e3
08
04
04
fc
fd
00
f5
ff
fa
02
fe
00
01
fd
fc
fd
00
01
00
01
01
0e
0b
10
fe
f3
fd
0b
0b
09
fa
fd
fa
0b
05
fc
00
ff
03
ff
fb
03
07
02
08
09
07
0a
05
01
07
f9
f4
00
f8
fb
f7
fe
fd
fb
fa
ff
04
2e
23
20
19
1b
13
1b
0c
0f
19
19
13
35
31
2e
1f
1d
1c
fa
fa
fa
fc
fe
f9
01
00
fd
fe
fc
fc
fb
f6
f8
fd
ea
fa
1f
21
23
25
22
28
0e
09
0f
e9
e8
e7
de
df
dc
e2
e9
ea
f3
ff
06
f5
02
07
f5
02
00
fa
ff
ff
fb
01
00
fd
02
02
04
07
ea
fe
07
fd
fa
01
fd
f5
fb
fa
fd
fe
fd
f9
fb
ee
08
06
05
ff
fc
fd
00
03
fe
ea
ef
fa
e8
f2
f7
e7
f5
f0
fe
ff
12
03
00
0c
05
02
0d
03
03
f9
f4
01
fa
09
0d
01
07
04
fc
05
01
fa
08
05
fd
06
00
06
f1
fe
05
f9
f9
fd
04
f2
fa
fc
f7
07
ff
f6
03
03
fd
fb
fb
fb
06
fa
fb
ff
fd
f8
fc
fc
f9
f5
03
07
fa
e5
02
09
db
fb
04
f1
f9
13
0f
ef
04
00
f1
11
fb
fb
0b
02
0b
04
f5
02
fc
f7
06
00
fd
f6
f7
2e
29
27
0e
08
fc
01
fa
fd
04
fc
00
00
fe
03
db
ef
e7
d4
e1
e2
e3
da
dc
0b
04
02
01
01
03
03
f7
fd
01
05
05
06
fd
ff
01
ff
fd
f5
f4
f8
15
07
08
f3
f7
01
05
05
06
fc
fb
f3
13
14
f6
02
03
02
f8
f6
fd
fa
fd
f6
04
09
02
05
06
01
fb
fb
fb
fd
01
f9
10
00
ff
fd
04
0a
1e
28
10
0c
15
0a
05
03
08
19
13
00
2e
21
11
10
07
05
f7
01
fa
fb
05
f9
07
06
fa
02
00
01
fd
fe
fc
f6
f1
02
0f
0c
19
17
15
1e
f2
04
0f
f2
ec
ef
e8
df
e9
e3
f2
fb
fb
fe
00
03
03
06
f9
04
07
04
02
fc
04
02
fe
05
02
f9
f5
f7
ed
fd
f4
fa
fd
02
fe
ff
fa
f4
fe
05
00
fe
0d
fd
02
fc
05
02
f3
fc
ff
fd
00
ee
f3
02
0a
fe
0d
11
08
09
05
0b
f3
0b
fa
f2
00
f4
ef
fb
fa
05
fd
fd
ff
fb
03
f6
06
00
05
05
fd
04
fe
ff
06
f6
f8
eb
0a
07
05
07
03
e8
09
03
f5
fc
04
f8
ff
f8
f1
fd
04
f7
07
05
03
f9
fe
f8
f6
00
03
f8
fd
05
f7
00
01
08
02
0b
00
fa
01
e3
ef
f4
10
12
f6
14
0d
fb
02
fd
f9
07
11
fe
04
08
09
01
03
08
03
f3
f9
ff
f3
fd
07
f6
f8
04
ff
01
04
fc
f9
00
ff
fc
f0
fd
09
07
ea
f3
10
01
f4
ee
f4
ef
ed
f9
07
f1
f4
07
fd
fa
fc
f7
fc
fb
ea
f9
fb
e8
f6
f4
fc
fa
ef
13
f9
f8
e7
f4
06
ed
05
09
fa
fa
fc
ff
f3
ff
fa
ff
05
ef
f2
e7
00
fc
fc
02
f6
00
0f
f8
0b
f5
fb
ef
fd
ff
ff
0b
ed
f4
f6
f2
fa
05
f0
0c
fb
f0
0c
fe
fa
09
03
fa
07
fd
f7
01
06
04
fb
0e
04
fe
13
11
fe
f1
f0
0d
f2
e6
1e
ec
eb
1f
12
e8
01
fa
ea
0d
f3
e7
fc
05
f1
02
0b
ff
0f
1b
07
1a
fe
ff
00
01
00
03
00
ff
04
fe
f9
f7
06
f9
f4
05
f4
ed
0e
06
0f
06
02
01
f4
fe
fd
f0
00
eb
ef
02
e1
f3
ea
db
fd
e7
ec
f3
ea
f3
f1
e9
f3
f2
f1
ed
f7
01
f7
f9
04
00
f9
fa
f3
fb
f6
00
fc
01
f6
ff
0b
01
fb
10
06
f0
f2
ea
fe
02
13
fe
03
16
fc
0a
23
f9
f6
fd
f8
0e
0c
f5
fa
07
06
27
04
eb
07
ee
f9
15
f3
ff
10
f7
f9
10
f1
f6
09
e9
0a
19
f3
03
1a
f0
00
23
ee
10
0e
03
01
0e
fd
e4
f9
f7
f6
04
00
e1
10
08
d6
05
02
fd
05
04
11
04
08
18
13
16
03
04
03
02
04
02
0c
0b
0a
01
ff
fe
05
ff
f6
06
02
f8
11
21
2a
f8
e7
e0
fb
06
f0
f1
fa
f3
fb
07
fe
fd
05
f7
10
07
10
fb
fc
09
f4
ef
00
dc
f2
e9
e8
f2
e8
15
14
1b
fc
e3
f7
16
0d
10
07
fa
fb
02
07
06
fb
05
04
01
f9
ed
09
02
01
02
fe
fb
04
fe
06
e5
e6
e0
fc
ff
fc
08
02
13
dc
cd
c0
05
15
0b
05
fa
f4
fb
f6
f1
01
01
f2
05
01
f3
fc
fb
f2
fa
f9
f3
ff
ff
e8
e2
fc
02
c7
01
0a
df
0d
09
e5
db
c9
fe
f3
e3
02
f5
ff
01
fd
01
0a
06
08
08
06
06
f8
f9
f4
fd
04
fb
f7
05
fa
fe
fe
03
00
fa
fe
ff
fa
fc
ff
02
fb
f6
06
00
f5
03
f2
f2
f1
f0
f8
ef
ec
f6
e7
df
07
f4
fd
04
f1
f9
03
f4
f4
e9
e7
f1
fa
ea
ee
f8
04
fb
fe
fb
f4
fb
fd
f9
00
05
ff
fa
ef
f6
f8
f7
f4
f9
f2
ec
04
05
03
ff
02
09
00
02
10
fd
fb
fe
03
f4
f4
ff
f5
ee
00
fe
f5
fd
fa
f4
fb
03
06
fe
fc
03
00
fe
05
fc
ff
06
f9
f1
f5
fa
f4
f9
f9
fd
ff
f4
fc
f8
ec
f5
f7
e3
fd
f2
02
f3
05
05
f7
05
fb
ed
09
04
09
05
02
00
00
01
01
05
f5
02
01
04
0c
0b
04
06
09
fd
05
f8
ff
04
fc
03
02
f6
01
f2
17
fb
ef
06
fa
ef
02
f4
02
fd
fb
04
00
fd
05
02
01
fd
06
fe
02
04
f9
ff
ff
fa
f4
e1
fa
ff
ff
06
0e
11
fc
04
f9
17
04
f5
08
01
eb
04
05
fd
00
02
f4
e9
f2
ec
09
fa
08
0a
fa
05
02
fd
08
fd
f3
f0
f4
fa
09
05
fd
09
f4
04
fa
02
0c
04
0b
0c
fc
01
fe
f8
0b
05
fd
06
07
f1
02
f9
fd
0a
07
f8
0a
05
f4
0e
1a
02
0a
1d
06
0c
15
09
19
00
e0
0c
02
f5
0b
02
0c
f8
04
07
02
01
fc
03
02
07
00
03
05
0f
06
fe
0d
0c
01
fc
f3
fe
05
f9
f9
01
fa
fe
f7
f5
01
ed
06
01
f4
f9
eb
f6
ee
f6
f2
ef
f0
eb
e5
e4
0f
e9
fa
0a
eb
f7
08
f2
f4
fa
f6
f0
e3
e6
e9
e7
f6
ed
fd
f7
f3
ff
f9
f9
02
f8
f6
01
ee
fe
10
f8
ff
19
f7
f4
fd
fe
02
fc
fe
ff
fe
f7
07
f6
01
f9
f2
f4
f4
e6
e1
f1
03
f8
fb
fb
f8
01
f1
fa
0a
fe
fb
03
fc
f7
06
05
07
0c
f0
05
fb
f4
fd
fc
f0
04
fa
fa
08
11
00
f6
00
fd
f7
08
ef
df
ff
e7
d7
f8
e7
e0
ec
f8
f7
04
00
f8
03
02
03
09
0d
f6
ff
0b
f7
00
0f
fc
00
f7
ff
fd
f6
fc
00
f7
fe
02
fa
06
f3
fe
0c
fd
09
01
f6
f2
06
f8
f1
05
00
f5
0c
06
ff
0b
fe
02
09
fe
09
0d
fb
02
01
fc
0e
01
03
ff
01
f9
f7
eb
03
f2
ef
04
f1
f0
fd
0b
13
07
10
0f
fe
09
14
fe
f4
fc
05
f6
f9
02
f6
f6
fe
08
ff
f7
00
0e
08
02
02
07
0f
02
fc
ff
f8
fd
03
f2
f8
0e
09
ff
10
fd
00
0f
06
fa
f4
fb
ff
f4
fa
ff
f3
f5
ff
fb
14
f2
ff
10
f6
f9
14
f5
19
fd
00
09
f4
08
15
00
08
00
f9
ff
f0
ec
f5
f8
ef
fa
08
fb
f9
06
01
f7
09
fc
f9
fd
fd
02
02
fc
01
00
fc
01
12
08
08
0c
08
03
0e
08
10
01
fa
fd
07
fc
f9
00
f6
f8
08
f9
fc
f9
fc
ff
07
fd
01
03
04
05
14
fe
00
f1
01
05
07
03
fb
ff
fd
fa
fe
05
ff
ee
fc
01
f4
02
ff
f8
f8
f8
0e
09
07
0c
07
08
05
05
0b
0b
01
06
0d
00
f7
ff
f5
f5
18
fe
f2
16
06
f4
04
0d
f6
07
01
02
02
08
ff
07
0b
fb
18
00
11
12
02
0d
fe
03
08
fe
05
01
0b
0d
f9
0b
02
f7
01
f9
00
20
fb
fe
1d
fc
f5
0a
05
0b
05
ff
09
04
04
0c
fe
f9
00
05
01
01
03
00
fd
fa
f8
f7
02
f4
f3
01
ef
f1
0e
05
06
09
01
03
ef
f1
00
eb
0c
fa
df
0a
fa
e8
e7
f0
fd
e2
dc
f4
dc
e7
ee
d9
eb
fa
f2
ed
fb
01
fb
f6
0b
06
f7
ea
e7
fc
eb
eb
07
ef
da
f9
0b
08
fe
11
0c
02
fd
ed
03
02
10
06
00
16
08
02
22
fb
f3
f7
f2
02
04
00
0b
0a
fa
01
ea
ef
06
f1
f9
13
f7
f8
06
f9
f7
07
f5
00
06
ee
05
20
f4
fb
1e
f0
f1
25
f0
03
05
02
ff
09
01
ff
f6
f9
03
ff
02
e6
06
08
e4
05
0b
fd
fe
f9
12
00
00
15
0e
0c
fc
fe
f9
2c
27
28
1a
1f
17
fd
fe
02
ff
ff
ff
01
00
ff
cd
da
db
d0
cf
d3
cf
df
d7
00
f9
00
fc
f8
fb
ff
f9
f7
fb
f9
fc
ff
fc
fd
03
ff
02
ee
ef
f3
09
03
00
fe
f5
f4
0a
0b
0b
fd
ff
f8
0f
0f
03
00
fe
00
07
01
03
0c
fd
0b
0b
08
0e
0b
03
09
04
f4
ff
ff
fb
fd
01
f9
f7
00
02
01
33
31
21
26
27
1d
1d
1c
0b
22
1b
17
3f
3b
2e
2b
27
17
fb
fc
fc
fa
fd
fd
fa
fe
fc
00
fc
fb
01
f8
fb
ff
f7
fe
1d
25
23
25
2e
2a
1a
16
1c
e5
e3
e5
de
da
de
dd
cc
db
0d
0c
02
14
0d
09
12
08
0d
01
02
fc
01
03
fc
01
05
02
03
07
04
f8
00
09
f7
02
04
ff
07
fc
fb
09
06
fc
09
00
05
01
07
01
fc
06
f8
f8
05
19
13
ff
16
14
0c
09
03
04
0a
01
f8
09
fe
05
ff
03
05
08
fe
fc
00
fd
f9
01
fe
f9
fe
ff
0d
f9
fb
06
fb
fa
03
19
09
fe
03
00
01
ff
0a
03
16
08
03
ff
f3
f5
12
10
04
05
09
00
fe
02
f5
fd
ff
f9
f9
fd
04
f9
fb
fb
f5
f9
ee
0b
0b
fa
08
07
f2
02
07
01
12
0e
07
0d
07
02
10
10
09
fa
08
03
fa
00
03
ff
04
00
01
fe
ff
00
ff
01
fd
fe
fd
02
05
05
ff
03
04
fc
01
05
03
01
08
00
03
01
fd
01
03
00
01
05
00
ff
03
ff
00
05
00
06
01
fe
02
fd
02
01
fb
fa
f7
f8
fd
f6
fb
f8
fd
ff
00
04
03
01
00
0b
01
01
0a
02
06
fe
05
03
03
fe
ff
ff
fa
fb
07
fb
fd
03
fc
fd
01
fb
f4
fc
fc
fd
01
00
fd
01
fd
04
fe
ff
ff
fc
00
fe
fd
05
05
05
03
00
00
01
fe
00
ff
02
0b
00
01
03
ff
00
fd
ff
06
ff
09
08
01
08
07
03
01
f9
f8
04
ff
fd
fa
fa
f5
fb
ff
fb
fe
02
fd
01
00
01
ff
f4
fc
02
f6
fc
07
fe
09
00
01
02
00
fe
fb
03
ff
fe
02
00
06
f7
f9
f7
f5
fe
fc
f6
f4
ef
f6
f5
f7
ff
f7
ee
fe
fa
f8
01
fe
fd
ff
03
f9
fd
e7
0a
09
ee
f2
fe
f0
f8
fc
fa
14
ff
fa
16
fc
f9
16
f1
f5
e9
ea
f5
e9
ff
00
f5
f9
f3
05
f7
f2
01
fb
ef
02
f3
e8
02
fb
e4
e7
fb
ed
fc
ff
02
f7
fc
09
02
03
0b
0f
f9
f0
f8
f8
f3
06
06
00
02
f4
fa
01
f3
f7
f9
f8
f9
fb
03
14
10
07
0c
06
fe
13
0b
fd
ef
f9
00
f2
03
fd
fa
02
07
09
fc
07
00
fe
03
fd
0b
0d
04
fb
00
03
f9
fa
fd
fc
03
f8
19
fd
f5
1c
fd
f8
22
ee
fa
f6
e5
f8
f5
f0
f5
f8
09
fc
ed
00
04
fe
ef
f3
00
fa
f4
e9
fc
f6
dc
fb
fa
eb
fe
f5
f4
0a
12
08
0c
0a
05
fe
03
f3
0a
0d
fa
fe
0b
e5
0c
f7
fd
05
fc
0d
ea
ec
f5
05
04
cf
fe
00
d0
05
f9
cc
f9
fe
ee
04
05
0c
0b
02
09
04
f8
fe
f9
02
09
f9
f8
09
13
f0
02
0b
fb
0d
0a
f8
03
fe
e4
f9
06
e8
05
0e
da
09
ed
11
04
ef
16
03
eb
09
01
10
f9
e6
12
05
06
06
f1
e5
f7
fd
fc
ec
fd
fe
f9
05
05
0c
fe
06
09
ff
0b
05
fc
04
01
02
01
03
fd
fe
03
fb
fe
f5
f9
fd
fe
10
0b
02
0f
0d
f6
fe
05
fe
fc
ff
fd
f8
fe
07
00
02
02
00
01
fc
02
06
15
ff
f7
0a
ff
f8
fb
f0
f2
08
04
09
f8
02
08
fc
09
12
f7
f6
ff
00
01
09
ff
fd
05
06
ff
05
02
01
05
ff
02
07
01
f8
f6
05
fa
f2
f3
e9
e6
f8
f9
fe
ff
09
02
fb
06
05
01
00
fe
02
00
ff
fa
fc
f8
04
01
f8
05
04
f2
02
04
f3
fd
fe
fd
fa
06
07
fa
fe
0c
06
06
01
03
fe
ec
01
f9
f0
fa
01
00
fc
06
05
00
03
05
f4
fd
04
fb
00
fd
ff
ff
01
fd
ff
02
fd
ff
00
fd
fd
ff
ff
11
0e
ee
0b
ff
ef
00
fe
f3
f0
ed
ed
f2
f4
f4
f0
ed
03
f7
00
fb
fc
03
fa
fa
fb
f0
e6
fb
fa
ee
f0
f3
ef
e8
fc
00
ff
ff
05
05
02
08
09
fa
fa
fc
f2
fb
f9
08
05
03
f6
02
15
fc
05
14
00
05
17
f4
fd
03
fb
01
03
fc
dd
e4
fa
10
f3
fe
15
f2
06
1d
fb
f7
02
f8
f6
01
f1
08
00
f2
ff
01
0c
fe
01
ff
fe
04
01
06
15
f0
06
0d
ff
fb
0e
fd
e8
02
03
f0
00
03
ff
fc
f7
05
05
0e
0c
00
0a
01
f6
0f
00
0c
09
02
0b
07
04
0b
07
ff
01
ff
fe
01
03
fe
02
05
06
f3
01
f9
f6
e7
f2
f5
e5
fa
05
01
fa
fc
04
f5
f8
00
01
f5
fd
fb
f1
fd
fd
ee
fc
01
fc
09
ff
fc
0d
04
0c
12
07
fe
f7
04
02
06
0c
02
0f
f8
0b
09
ed
08
0d
f9
fb
0b
00
fa
08
08
fa
0b
09
fa
0c
0e
08
f4
04
0c
0d
fd
0d
0e
fb
f3
ff
f5
fa
fb
fa
fa
f5
11
02
05
07
fd
fe
05
fa
04
10
f3
f9
10
f0
f0
08
f3
f1
fb
ea
0a
03
f7
04
04
fa
00
0d
04
fe
04
0e
14
0d
10
19
03
f2
f2
09
f9
f0
0d
fd
ee
01
ff
07
f8
fb
03
f6
f9
03
01
fe
01
00
fd
fe
fe
fe
ff
ee
ff
f6
fc
f9
f6
f3
02
fd
03
f4
f5
01
fa
f6
fa
f5
f7
01
00
0c
05
fe
0c
06
00
02
e6
f4
03
06
f9
ff
f3
ef
ef
fe
09
0c
fe
05
0e
fe
0c
0f
fc
f9
f7
00
02
07
f9
fa
f8
fc
00
06
fe
fe
fe
fd
fe
02
f2
f2
f2
fb
fe
ff
e9
fa
fe
0d
ef
f7
ea
fe
fa
f4
f4
fe
ff
f5
01
00
f6
04
f9
ec
04
ef
f3
05
ed
f1
00
ed
f8
0f
09
09
f4
06
0d
fa
fd
09
f0
02
fd
06
04
02
0b
00
f7
fe
12
13
06
01
01
fc
08
06
04
f5
f2
f3
1d
18
1c
07
03
05
fa
fa
fe
00
fd
01
fd
ff
fb
f1
ec
ec
d8
e8
e6
dd
ee
f2
04
fa
fa
fb
f8
02
f7
fc
d8
04
fe
01
04
03
00
f8
f7
0c
eb
e8
e6
10
00
01
f9
e7
ec
fc
08
0b
ff
06
05
0a
0e
1e
01
f8
00
01
01
fb
fd
fe
fa
ff
07
14
04
03
15
fd
fe
18
fa
0c
0e
fd
f4
01
03
f3
ee
26
30
21
1e
26
09
0f
19
06
12
0c
01
23
24
1c
0d
02
f2
fe
fe
01
f9
ff
03
f8
05
09
04
00
fc
06
fb
fd
fd
f8
02
1f
2c
26
2b
2e
26
0c
11
03
e1
e6
f7
dc
dd
ec
d7
d7
ec
fc
f4
fe
fc
fd
09
fa
fb
06
01
03
01
01
04
01
ff
05
00
fc
f4
ec
fd
fd
05
fe
f5
fc
0f
fc
0c
0a
01
18
03
f8
1d
fd
05
f5
03
09
fd
04
09
fd
ea
f1
e8
0a
13
0b
fc
04
00
01
fd
05
07
f1
f1
fb
ef
f2
02
ff
10
1f
1b
2f
f9
00
00
ff
fb
df
fb
fc
e8
fc
f9
e2
06
f6
ee
1a
19
0c
08
05
04
fd
07
06
02
08
fe
f4
fd
f7
04
f0
11
10
00
19
f7
e5
04
ff
eb
f4
fd
e7
ed
00
ee
f0
df
01
f8
e2
08
05
e5
fc
09
eb
ef
f0
0c
13
05
fe
00
f4
08
02
e4
02
02
f0
0c
05
f0
fc
fe
01
fa
f9
fd
fc
fa
ff
04
ff
02
03
fe
03
01
fd
f6
fd
01
0a
ff
02
0c
ef
ff
12
fe
fd
06
fa
fe
02
ff
fa
fb
01
0b
00
07
0a
02
06
0c
09
fe
f0
00
09
ff
03
f9
02
f7
01
02
ee
02
01
fa
01
fd
f2
fe
fe
fa
f9
fe
00
04
06
f9
00
fb
01
fb
f9
08
01
fc
f9
f7
f8
f9
0c
07
fe
07
ff
ec
fa
fa
0e
fd
ff
06
f7
fd
09
fb
f9
0a
fd
fe
0e
01
fa
05
fa
f6
f8
fc
f7
05
ff
f7
06
05
07
04
05
04
f4
fd
06
fa
fb
01
0f
f6
fb
f1
f8
f6
f4
f7
f7
17
00
fa
0e
02
f4
f9
fb
00
fc
fe
01
fc
06
06
07
08
00
f9
00
00
ff
00
ff
fd
0c
f5
05
03
f5
f5
01
0a
14
f1
ec
eb
f1
f0
e8
fd
fd
e9
04
00
fe
09
01
ff
0f
0c
0b
15
15
06
01
f1
e7
f4
fb
fc
04
02
0d
04
03
02
fe
02
ff
ea
e2
f0
e4
db
e5
06
00
04
02
fd
11
f7
fa
06
e4
f5
07
fe
06
0c
e6
cf
cf
02
fb
f2
f7
f3
f1
fd
fb
ef
00
05
00
f1
00
f8
f6
04
f9
01
0e
03
f3
f8
03
f4
f7
f7
f4
fc
f8
f4
ef
fb
fa
eb
f6
fa
f3
05
09
08
14
f7
fe
03
f5
03
04
eb
ef
f8
ea
e9
fa
ed
f0
f4
f4
f9
f9
02
03
03
01
01
07
00
06
01
00
03
ff
01
04
fe
ea
00
f0
ed
f9
f7
f5
f4
ff
f5
fc
01
fb
fb
06
f7
fc
04
fe
03
07
01
04
06
01
06
08
ec
f2
f0
f9
02
ff
08
10
10
fb
ef
fa
0c
07
11
00
ea
05
fc
fb
f6
ff
05
00
ec
ef
dd
02
08
00
05
0a
03
04
0a
fd
e4
e7
f1
fd
fb
f6
01
06
0a
ed
04
01
f1
06
04
ea
02
03
f8
f4
ee
02
ff
f7
f5
fd
f2
f8
fb
e4
02
ff
e3
03
fd
e3
00
f7
f0
fc
f3
e6
fa
ef
ec
05
e1
ce
10
00
f3
06
f9
f4
0a
08
00
07
07
fd
00
fa
f8
fe
fb
06
f6
fc
fe
fc
f7
05
04
05
04
04
04
02
03
fc
fd
f1
fc
0c
ea
f1
02
ff
0e
22
f5
f2
f5
fc
fa
f8
f5
f5
ef
ff
f4
f5
01
fd
fb
04
01
fb
fd
e9
f2
fb
ec
f6
03
fb
fc
f4
00
fa
f2
fd
f4
e7
f4
fb
f8
ef
f1
fe
02
fb
0a
0d
00
04
fd
04
04
f7
ff
08
ff
0d
fe
f3
0a
02
f3
04
12
01
fb
fb
f8
fe
03
f7
f6
f4
f2
fe
fd
ff
04
09
04
05
00
06
05
fa
00
02
fb
01
fc
09
08
f4
ff
f2
09
ef
f6
07
f1
fa
fa
03
fa
04
0c
03
07
1c
05
11
02
fc
17
f6
f7
0a
f4
f4
07
05
06
0a
00
fe
00
fb
02
04
07
08
00
02
ff
ff
03
04
fc
08
fb
0b
07
07
fe
09
0b
01
01
09
02
fc
00
f4
00
06
f0
09
04
05
00
02
ff
03
02
01
15
16
14
00
f5
fe
f3
ed
ef
fd
02
0b
fe
05
07
fc
06
fe
f1
f0
f6
f1
e2
e8
f8
fd
f1
fe
f3
05
f7
ef
fe
f1
f1
07
f9
eb
f4
f2
ee
eb
fa
f1
fb
ea
e1
e6
f9
f8
f2
ef
f3
fb
f0
f1
04
00
fa
fe
fc
ff
02
f5
ee
fa
f2
eb
eb
f1
f3
f6
ed
fd
fb
ed
f4
ee
e7
f3
f7
07
fd
0f
fc
f4
fe
f4
f6
f9
fc
f2
ee
f4
e7
ec
ef
e7
ed
f8
04
fd
07
0c
0a
07
07
06
ff
01
01
01
03
04
01
05
05
f7
fe
f6
eb
f6
f8
f2
f6
f5
00
02
f5
f8
f9
f1
f7
fb
ef
00
fb
f6
ff
fc
f7
01
0b
fc
fc
fa
f9
fb
fa
ff
f9
f7
ef
04
ff
0b
01
f3
08
0d
fe
0c
f4
0a
fc
f8
ff
f8
f6
01
fd
08
08
f8
0b
02
f3
0c
0a
f4
02
08
fc
00
fd
fc
f9
02
e7
fe
02
02
05
06
01
06
fb
0a
02
00
00
0b
f8
06
09
f9
02
fc
fa
00
fd
f2
01
04
f5
03
ff
fe
fa
fc
02
fc
f8
f7
03
09
03
05
0f
03
fd
0d
02
f3
03
02
0c
04
01
0a
fd
02
07
00
00
03
06
07
0b
06
06
06
fb
ff
00
01
ff
fd
00
fb
04
ff
07
fe
15
07
f1
0f
0e
02
04
f8
f9
fe
06
0b
fd
f6
04
fe
07
02
fc
fc
04
fc
fd
04
f4
fe
f6
f6
fe
01
0a
1a
18
e8
df
e2
eb
e8
e0
fd
fe
f5
ed
ea
ea
04
fe
fd
01
f9
fa
f9
f7
fb
02
03
02
0b
09
01
dd
ee
e4
0d
08
f9
1b
13
05
db
e8
f0
06
08
04
02
fa
f6
fc
fd
ff
08
0b
04
09
05
fc
06
03
fd
fc
fe
f8
06
0c
ff
f4
fb
fe
ec
fe
fe
f5
07
00
d7
e9
f4
03
0f
14
fa
07
0e
f0
e8
ed
eb
f3
fb
f0
ea
e3
e7
f1
fe
06
10
1b
08
0d
16
01
03
03
ff
03
02
fe
00
03
e2
e6
d4
dd
e1
d3
fa
f2
ea
ec
ef
ee
e9
f0
f3
f5
f2
f8
f5
01
ee
fa
fd
f0
fb
fc
f5
d8
e9
ea
f7
ff
00
f3
f9
e8
f5
f9
fe
ed
eb
eb
01
ff
f2
03
fe
02
f9
f6
05
f9
01
fd
0a
0d
fa
05
05
f1
06
09
f6
f5
11
fa
09
05
f3
02
f8
ec
2b
10
0e
17
fd
07
10
05
05
10
0a
03
12
15
0a
0e
03
05
02
f2
f3
fc
f0
f2
ff
fd
ef
f5
fa
0f
e2
f4
0d
ed
fe
0b
13
1a
0a
08
13
01
18
0c
ee
06
07
19
f5
01
12
ff
fb
0c
fd
fa
03
f8
ff
f2
ff
06
0a
fc
fe
fb
fb
fe
fe
05
06
05
f6
f4
fa
f7
fc
fa
08
08
f9
ee
f8
ee
fb
02
fb
02
00
f9
14
17
06
03
00
f6
fa
fb
f6
fb
ee
f1
03
fe
ff
f1
f4
f4
f4
f5
ee
f1
ea
f5
fe
00
f4
f4
f9
00
ff
fd
fe
08
10
0f
03
0b
03
09
0a
fd
05
07
fa
04
04
00
ed
ee
ea
f3
ee
f0
f4
f5
ff
eb
e6
e8
fa
f9
fc
f3
f1
fc
f7
f9
f9
fd
02
ff
01
01
fa
04
fb
f9
08
05
fa
07
00
06
00
00
02
f8
fc
01
07
05
0d
fd
f7
fa
f7
fd
00
f3
f7
01
eb
00
01
f6
fc
fa
fc
f8
fc
fd
f6
f9
fd
f2
f9
02
ff
fc
00
01
ff
04
04
00
f7
03
03
f7
01
ff
f9
03
02
fb
fa
f3
f9
fa
fb
fa
f6
f6
07
fd
fa
04
f9
f3
01
fa
f8
03
fd
00
fe
fc
ff
00
00
fe
05
fb
09
04
04
fa
01
fd
f1
03
fd
ff
ff
ff
01
fe
fc
f6
04
07
00
01
00
f7
ff
04
ff
07
03
f9
fc
01
fd
03
04
00
fc
fb
fd
03
00
03
05
03
01
fc
ff
07
fb
fc
05
03
05
00
03
fe
fc
03
fe
ff
07
05
fb
f7
f9
0d
fe
01
14
00
02
13
fc
f5
f8
00
fc
ff
00
fb
f8
f7
f7
fc
f9
fc
01
f5
ff
03
fd
fc
02
f6
f6
f8
f7
fa
fc
fc
fd
07
fd
fd
05
fc
fa
f9
fc
f0
00
eb
eb
fe
e8
f5
fd
f4
fc
07
f2
fc
04
f6
f4
f4
fb
f5
fa
fc
fa
ef
08
02
f9
ee
e9
e0
00
05
01
fc
e9
f6
ff
fe
01
ff
00
01
01
02
f9
f8
fd
f6
f8
ff
fc
00
07
ff
fc
f3
fe
02
f4
00
03
f5
08
f3
f1
f3
fe
18
09
fa
e8
fb
09
03
f3
fc
ec
ee
fc
fd
f7
fb
ed
fc
02
f8
fa
04
f5
fe
01
f2
f5
ff
f5
fa
05
f5
ff
f7
24
f6
f5
18
fe
ef
10
f9
f5
f5
fa
fd
f8
10
02
03
10
09
08
f7
04
01
f5
f4
f6
f7
ff
03
f6
01
06
f5
00
0e
00
fe
fe
fc
00
00
fc
00
fd
fa
f1
f1
e5
04
01
d2
0e
f8
e1
01
fd
06
01
06
01
ff
00
08
fd
fc
f3
f9
f7
f9
fc
00
09
ef
0b
e9
03
06
f5
f3
0d
09
fd
e6
ff
02
e5
fa
07
f1
e7
09
0e
08
06
06
ef
ff
06
09
08
fd
f4
07
fb
f2
08
fb
f6
04
07
ed
09
09
0c
0a
10
0f
07
0d
07
05
0e
05
02
0d
fb
fe
fc
10
ff
f9
0a
f6
f6
02
03
fb
12
ff
fc
11
01
fb
12
f4
21
08
f1
29
02
e6
2a
f1
fb
ea
d8
fa
ee
f6
f8
fc
ef
fb
04
f9
fa
03
fa
06
13
07
f5
fb
f8
f9
05
00
03
03
01
03
fe
f6
fd
fe
f6
fc
00
fe
10
16
10
0c
03
0d
0a
fa
03
01
f9
f4
fa
03
0a
f2
04
0f
08
0f
04
f6
0f
09
f3
11
0f
f5
ef
f2
ed
e4
ec
01
ef
f1
f7
f1
07
ed
db
f1
f2
e6
ed
0f
fd
f8
0a
f2
f9
0f
f2
f3
f8
09
0a
f7
00
ff
fa
fc
ff
ed
f5
ff
ec
fd
fc
fd
ff
fa
f5
f3
e3
13
fd
e8
0f
ef
f0
0e
ff
fc
11
f9
f8
15
f5
ef
04
06
0d
05
05
04
08
fe
f8
de
fd
0c
cc
f7
02
d2
f9
e8
da
f8
f7
e3
ff
e9
00
f3
e2
ff
05
0c
ff
06
fc
02
09
08
f8
02
fe
00
02
01
fd
fe
fe
ff
f7
f7
04
f6
ef
06
f3
e9
ee
e4
17
fd
f0
09
fe
f9
06
fa
fe
fd
fa
0d
f0
05
f9
de
02
ec
f1
fa
ec
06
f8
ef
0a
fb
ed
e4
f8
fc
f2
fe
0b
06
ef
ef
d3
06
df
db
05
e7
c0
f6
09
09
06
1c
15
0c
11
fe
fe
ff
1a
ff
03
20
01
fd
29
fa
f2
02
e6
f7
f7
12
0f
0e
f8
0c
f3
f5
0d
f3
f5
18
fc
05
0f
ed
fb
0e
f0
f5
08
e6
08
2a
ef
fd
20
e8
f3
2d
ec
f7
03
07
f2
01
0c
e5
fc
07
ed
01
ff
ce
02
0a
d8
06
0e
02
01
f9
08
fd
f7
06
07
03
f0
fe
00
f8
fd
03
fb
fe
03
00
fc
04
02
ff
fe
fb
fd
fc
df
f8
f9
f6
fa
ff
f3
02
fd
f5
f7
fb
f2
fa
fb
f1
fc
fe
02
00
07
0a
03
08
08
08
0d
eb
e0
fc
f8
06
08
09
05
f2
f2
fa
00
fd
f4
fb
f8
f8
08
04
fe
f9
fb
f6
f5
f9
f8
fc
07
06
04
09
05
05
09
01
01
fc
05
00
08
11
0c
0f
00
f9
05
11
fa
05
07
f1
04
f8
ec
ff
08
02
00
09
09
0a
03
04
06
05
ff
07
07
fe
09
06
f7
f9
00
fa
fe
fd
fb
04
f6
08
ea
00
02
00
12
18
17
03
f3
09
0a
05
07
0d
02
0e
14
0a
07
f7
ef
fc
fa
f9
00
fd
f1
03
fe
03
03
f9
02
00
fb
ff
fd
fc
12
f2
ef
ed
fc
fe
04
05
f8
fb
ff
07
f9
02
f9
f2
04
f4
e4
01
f7
e0
f7
f4
f0
f8
fe
f9
f1
fb
fa
0b
04
0a
fd
0a
04
01
1a
1e
0b
14
06
f1
f7
05
f7
fc
04
e8
ee
f5
02
f8
f3
fc
e7
f0
01
ed
f3
f5
f2
ec
ed
fc
03
09
ff
0e
f5
fd
ef
f4
09
06
fd
08
08
fc
f3
fc
ff
ef
fe
fd
fa
02
fc
fc
f4
f6
04
f1
05
fb
e9
e5
e7
ee
e5
eb
f8
e8
f0
02
ef
e9
ee
fa
f8
f3
ed
f0
f0
03
fb
f6
f5
fc
04
00
06
07
f0
0e
03
f6
07
05
f9
01
08
05
00
f3
03
01
fc
01
ff
00
fa
0a
05
fb
f6
03
ff
f3
f2
06
ff
f7
ff
01
08
f5
ff
fd
01
0e
00
fc
09
06
f8
0e
08
ee
e4
e6
f6
fd
fd
fa
ff
fc
fa
ec
f2
ef
d0
dc
f1
e3
de
0e
f9
fe
06
f2
fc
02
ef
fb
f5
02
05
f7
05
03
fa
0a
0a
f1
f1
f2
ef
01
f5
fb
fe
01
01
f7
ff
0b
f5
f6
09
f3
f9
02
fd
01
09
f8
f7
08
f2
fb
00
0e
08
07
0d
02
05
09
f3
f1
f7
fe
e8
ed
ed
f4
ee
f6
ce
f6
ff
ee
09
ee
f7
fb
f7
09
05
0b
fe
fe
ff
08
01
f9
04
01
02
00
00
01
0d
0d
05
02
fd
02
03
00
00
fe
fa
fe
ff
04
15
09
ef
f6
02
f5
de
f9
f7
fd
ff
00
08
f7
f0
f6
09
fc
f6
02
fd
ff
f5
f9
f8
ec
dc
e3
f9
f0
f2
1d
0b
05
ef
ed
fc
10
0a
0f
0a
fe
fb
fb
01
04
08
0d
05
fc
fa
e5
fe
f8
fe
00
f0
f8
0b
f9
04
e3
e5
ea
14
13
19
f3
f1
fa
f9
03
e8
12
12
0f
fb
f2
f9
f7
fa
f4
fc
06
fa
f8
fc
00
01
0d
f7
01
08
f9
08
0a
f3
ec
f3
f9
f1
f6
09
f3
f6
08
e3
db
d1
04
00
02
fa
fa
0b
07
f9
03
06
ff
0c
0a
03
0d
05
00
f8
ff
05
07
fd
fc
f8
fd
fa
0d
fb
f6
01
01
fd
fc
08
fe
ed
0b
ee
f8
13
07
01
03
07
08
fb
04
03
00
04
02
f3
fb
ff
ec
f7
03
e1
ee
f7
f5
e9
05
ee
f6
ff
f9
03
f6
01
fd
07
14
0c
18
04
00
0c
f4
fd
06
0f
19
06
fb
01
fc
0d
0a
fb
fd
fc
02
00
00
00
0c
07
ef
f2
00
ff
07
04
fc
0e
ee
ee
01
f4
f2
f9
f8
0a
fa
01
09
01
02
fd
ff
fa
01
04
0b
0a
01
11
13
06
0f
10
04
01
02
f9
f9
f7
fb
eb
04
04
fa
f9
11
03
f4
0e
11
00
17
09
13
04
fd
14
15
09
14
f4
f6
f2
28
2c
26
09
0b
fd
fd
00
01
02
01
fd
fa
ff
fa
e3
d6
e4
d5
d9
cf
d7
d3
ca
fc
ff
06
fd
fd
01
f8
fa
fc
00
ff
02
02
ff
02
ff
00
06
ee
f5
00
0b
08
0b
02
ff
fc
0b
12
06
ff
00
f6
18
0f
09
03
01
02
04
08
01
02
03
f9
07
05
07
08
fe
04
fd
f1
fc
fc
f7
01
fb
f8
f9
00
00
ff
2f
33
23
1c
20
0f
14
13
f8
1b
18
0b
3a
31
21
1c
13
0e
fc
ff
00
fa
ff
03
ff
02
07
07
fb
06
03
fe
08
02
fe
08
20
24
1d
23
26
22
0a
0c
09
df
dd
e4
d7
dc
db
dc
da
de
f5
fb
fa
fb
fc
0c
07
01
0a
0b
00
04
04
fd
fd
08
f9
f5
00
0b
0d
0d
df
f8
f2
dd
ff
09
12
04
11
07
03
15
10
01
fd
0c
0e
f9
0a
0c
fd
0c
0e
f2
e4
f0
0b
f1
fc
f2
f7
03
e6
ef
e7
e2
f8
f6
f7
fa
e7
ed
e7
05
06
e7
fd
f7
00
00
fe
ff
f9
f1
f2
fa
f8
11
04
f9
f0
f0
f6
0f
03
06
11
11
f7
e9
e9
f9
eb
f1
f8
ec
ec
ee
fb
f3
fa
ef
fb
07
f6
f5
04
03
ec
fc
02
f2
08
fe
ef
fd
07
06
0c
da
fe
0c
e1
02
fd
fc
f5
02
f7
e8
ff
0f
ff
f4
f5
f3
03
03
f9
05
f2
01
02
0b
09
fe
08
06
fc
08
07
05
07
07
fc
06
06
fc
06
06
f2
f1
05
fd
ff
08
01
ff
0b
fb
04
ff
fb
09
04
ff
06
03
05
fa
01
fc
fb
01
ff
fd
02
f9
fb
f4
03
f6
fd
05
f6
f7
07
0a
08
ff
0b
0b
04
08
0a
07
f9
ff
0c
fd
09
0f
ff
09
f9
02
08
00
02
07
07
00
05
f8
f6
f6
0e
ee
ea
07
f4
fa
fa
0b
09
0a
0d
06
02
0a
09
fa
0f
05
02
0e
fa
09
0d
02
00
fd
00
fb
ff
fe
fb
02
fc
fe
00
0a
ff
fb
0a
fd
fc
04
06
1a
0f
19
11
06
19
ff
0d
f2
fe
04
f8
05
06
e6
f4
03
08
0b
00
0d
0a
fc
01
05
f9
fb
fc
01
fb
ff
ff
02
00
01
f9
f9
f9
f3
fe
fc
ee
01
f3
ff
fb
04
ff
fe
02
fc
00
00
fd
fb
fc
00
ff
01
01
01
08
f2
05
f3
07
01
f9
07
fe
05
07
02
01
07
00
ff
09
07
03
03
fd
f8
04
fe
01
04
04
00
00
fe
03
02
fb
03
02
fc
0b
f9
00
06
f7
f3
fc
fa
f9
00
08
0b
0c
07
07
ff
10
0a
06
07
0a
04
0d
10
07
0a
07
ff
fd
fe
02
fa
fc
00
f9
fe
01
f5
f8
04
f7
f9
05
ef
f7
02
0a
07
03
0b
13
04
15
00
1a
ee
fe
ff
f3
f4
fc
f7
ff
0e
00
06
01
04
09
05
f9
02
00
01
05
ff
ff
04
ff
00
03
ff
0e
07
f9
f7
fe
fa
e7
f2
00
02
14
0e
03
0b
0d
00
0c
0f
08
07
0e
08
03
09
09
08
12
f3
f5
f1
09
0e
04
f6
f6
f4
18
08
16
01
02
0a
f8
f8
f9
fe
fc
f8
f8
f2
f6
14
0e
1b
ff
fb
fd
00
f3
ef
fb
ee
f1
05
f7
eb
07
0b
03
eb
ef
f0
e9
e8
de
ee
eb
e8
f7
f1
f1
f4
f5
ed
02
ff
f6
ff
fd
f8
f1
ee
ee
f5
f1
e7
f5
ef
da
eb
fb
f5
e3
f8
eb
e0
fa
f3
0b
06
f2
01
ff
f3
fd
f4
ee
fa
fe
fd
e7
ef
f2
ed
f1
f0
f0
f3
fc
04
04
05
f9
fe
06
00
fe
fb
ff
00
f5
fe
00
f5
f9
01
f4
15
03
fc
0d
09
ff
09
fd
f3
05
fd
ee
ff
ff
fb
00
f9
03
00
08
08
ff
0b
09
ef
e7
ee
fc
f4
f4
fc
f8
11
04
fb
00
f4
f6
f9
fd
f4
fa
07
13
07
06
08
08
00
fb
ff
03
0a
07
07
0d
10
05
07
0c
f9
fb
ff
f8
08
f9
06
0f
17
03
01
fb
01
01
0a
05
01
fe
04
02
f9
03
02
fc
08
ff
f8
f7
fc
f9
fc
f6
ff
03
f8
f1
ee
f3
fa
e1
f7
e9
ec
f7
fd
02
fb
fa
04
fe
06
00
fb
0c
ff
00
03
fc
ff
02
fe
ff
01
f9
f9
f9
26
26
24
0e
13
0a
fe
01
ff
ff
01
fc
ff
03
fb
da
ec
e3
cb
dc
dc
e6
e2
df
01
fd
ff
00
fd
f9
fb
f7
ef
00
fc
fe
ff
fb
ff
fa
fd
04
ee
f2
ef
0d
06
05
ff
fd
ff
0c
0c
0a
fe
ff
f7
10
0e
00
03
fc
00
fd
f9
fd
04
fd
ff
06
05
0e
05
00
0b
fd
f1
07
fc
fb
f6
06
00
fa
ff
05
10
28
2c
1f
21
21
1e
0c
0a
fb
11
17
14
2e
2d
29
17
1b
1d
fb
fd
fd
fc
fe
ff
00
04
01
03
ff
fd
03
ff
fe
02
fb
fe
2a
27
2c
2a
20
2a
1b
10
19
f1
ed
ed
e1
dd
dd
df
e1
e1
ee
02
05
ff
fd
f1
fb
fb
f9
03
00
f8
03
07
02
03
06
04
ff
fe
fd
00
ff
00
06
08
f6
03
01
fb
ff
fd
01
f8
f8
f9
02
05
02
06
0d
05
09
0a
07
f6
fd
01
15
14
19
ee
f0
f0
fc
f5
06
f4
f7
f7
f5
f7
f2
fe
03
04
fc
00
01
fa
fc
fc
04
08
04
05
05
07
07
06
05
f8
12
20
1a
12
13
f4
00
fd
00
10
14
ea
ec
eb
fc
fc
fc
01
03
00
05
02
07
00
fa
f8
09
06
ff
04
fc
09
08
06
04
fa
01
fc
f1
fc
f7
ff
01
06
05
0d
09
0b
04
07
eb
ea
ec
07
09
07
0c
fc
f7
f8
f3
f6
0f
06
0e
ff
ff
06
f9
fc
07
05
03
02
06
02
04
ff
fe
02
f1
fe
00
ea
03
05
f5
0b
08
fe
fe
f8
f8
02
f7
f8
ff
fa
fe
03
00
fc
fc
f4
f9
fb
f6
ff
03
01
ff
f9
f1
08
fd
f4
02
fd
04
fd
f8
04
ff
fc
05
f9
f8
fe
ff
f8
fb
01
fd
f6
05
06
05
06
07
07
09
0a
09
04
fb
f6
00
fa
fb
0e
00
05
f9
f8
fa
fe
fa
fb
f8
fd
f4
fe
fc
fe
00
ff
f8
02
00
f9
05
04
03
0a
fd
fa
0a
fe
f2
ea
e3
ff
e4
f2
f6
e7
f8
f8
0c
ee
03
09
f5
03
17
01
0f
07
06
00
05
06
fb
01
01
fe
f9
02
fc
fd
fd
0a
fb
f7
06
01
fd
02
00
00
00
ff
fe
00
ef
e4
05
f9
f2
0b
fd
02
08
04
fc
06
00
03
08
fb
01
09
f9
fe
fe
f8
ff
00
fa
fe
f5
e3
ef
00
f3
f1
0a
05
f6
fd
f2
fb
f0
f7
e5
dd
f3
ec
de
0f
08
04
0b
09
fe
ee
f1
f6
06
00
fe
03
fd
07
02
fe
0e
f0
f8
0d
fb
fe
fc
0c
0c
02
f7
fe
fb
02
03
f9
0f
06
07
06
03
0e
05
01
fe
0b
01
fa
0d
0b
05
07
07
03
02
01
fe
f1
ef
f8
e2
f0
06
df
f0
0a
d6
fc
14
e6
05
06
fa
f7
fc
04
eb
f5
02
ef
fb
fc
fc
09
fb
fb
fe
fb
fb
fa
02
01
ff
00
ff
ff
ff
fc
fe
fd
fe
fe
0c
05
07
0f
0d
09
06
07
0d
f7
fc
01
fc
02
fb
f8
f9
f8
05
06
05
ff
fc
00
ff
00
ff
0a
0c
05
ed
ea
e9
f9
fd
fb
00
01
01
00
01
ff
fc
00
f9
fc
f9
fa
00
03
04
f9
01
05
ff
ff
00
fc
fd
fb
ff
fb
fe
0f
10
09
ef
f2
f3
f6
f8
fc
08
07
05
03
03
04
00
fe
03
fb
fe
fc
fa
fc
f8
f7
f8
fa
03
06
fe
fd
ff
f9
fd
f6
f3
fa
fa
ff
fd
f9
fb
fd
00
00
fe
fe
fd
ff
07
04
01
00
fe
02
05
05
fd
f6
f5
fe
fd
fc
07
03
08
02
ff
fa
fb
f7
f1
05
06
fd
06
06
ff
06
02
03
1a
0b
18
fc
03
fe
fc
fa
f2
11
10
04
01
0c
00
f9
05
ee
04
03
ff
fb
f5
f9
f9
f8
01
03
03
09
ec
e0
e4
f8
fd
fe
0c
0c
0b
f8
ff
00
f8
07
04
fc
fe
fb
e8
e5
eb
f6
fa
fa
05
03
12
03
f5
05
f6
f5
fb
fd
02
fd
f8
f0
ee
fe
fe
fe
f0
ef
ed
e4
ec
06
0b
06
ff
01
03
05
f9
f0
fa
09
02
07
06
f2
01
08
fb
01
02
f2
fb
e5
ec
f4
f0
fa
f7
fa
f3
f2
05
07
18
09
fd
12
04
f9
f9
dd
e0
e3
ef
e6
de
fb
ef
dd
03
04
ff
02
ff
ff
04
04
02
02
03
00
03
03
00
02
01
00
05
07
fe
09
0c
fa
0c
0f
ff
04
04
f9
07
07
f7
06
05
f7
fd
ff
00
fe
fd
02
00
fe
03
ed
f0
f3
02
00
00
fb
f1
f4
ff
fa
fd
ff
f6
f9
fe
f6
f6
ff
01
f9
fd
fa
f9
ff
ff
f8
00
04
08
05
07
0a
06
07
04
fb
f8
f9
fa
f8
fa
02
03
02
07
0a
02
09
ff
00
0b
01
fd
00
fe
f5
07
fa
f9
02
00
f9
00
fb
03
ff
fa
00
ff
f8
02
f6
fb
03
f8
fb
ff
f6
fb
01
05
02
f2
02
f8
f7
02
f8
f9
07
08
06
09
09
07
04
05
0d
fc
fb
f9
26
21
20
1d
11
0a
ff
fe
01
00
ff
ff
fa
f9
fb
d6
dd
e7
c6
d6
e2
d0
f4
03
ff
fd
00
fa
f9
fc
f4
fc
00
fe
fa
fd
02
fd
02
01
00
08
ea
f3
f3
09
06
05
ff
f8
f9
0a
0d
10
ff
01
fa
19
13
05
ff
f9
fd
00
01
fd
fd
10
11
0d
09
0c
0c
04
0a
03
fb
00
f9
ff
01
fe
fa
fd
02
03
0d
2e
29
1d
26
1d
17
0b
08
06
1b
14
10
39
30
29
10
1d
1e
fd
fe
fe
fc
01
fe
fd
04
01
01
01
fd
02
fe
fd
fe
00
ff
1d
22
25
2b
2a
2a
00
1d
1d
e1
e7
e8
d2
df
de
ca
d5
e2
03
f9
fa
06
02
01
fe
f2
ec
fd
01
ff
00
05
fe
01
03
fc
f1
02
fe
ff
00
fe
ee
f8
f9
fe
f9
f2
00
fe
f8
f2
fd
f6
fe
fd
fc
fb
ff
03
06
02
03
f7
e5
ec
08
f3
ea
fd
fc
fe
fd
f1
fe
04
f2
f5
ff
ed
e9
ff
fe
fa
f5
fe
06
02
01
0c
02
f9
fe
03
01
03
03
00
08
05
fe
fc
f6
f1
f2
06
0c
05
00
00
ff
f6
0c
09
02
ff
04
08
0a
01
f4
fd
fe
00
08
fe
05
00
f7
06
09
ff
fd
fe
07
07
fd
f2
f8
ff
f7
f3
fe
fb
fe
f8
06
fd
f4
ef
07
02
f7
03
fd
08
f8
ef
f4
0e
07
fc
09
02
fb
08
04
fd
0d
0c
08
06
00
02
02
00
09
fb
fd
04
f9
fd
0e
fe
09
19
14
e5
0d
0a
03
04
ff
0a
10
f1
f8
1b
05
03
ef
fb
f9
e9
f8
05
f3
f9
f2
f0
0b
0c
0e
f8
f0
ec
0b
01
f6
23
10
f5
06
01
f6
f8
fc
ff
03
05
0a
f0
f3
f5
01
04
f9
fe
ff
fc
01
06
f6
f2
ee
ea
06
fd
fe
fb
fa
f3
f5
fb
00
0d
0b
03
fe
06
06
fe
f9
fc
0a
04
05
fe
f7
fa
05
01
01
08
f9
fe
04
ff
0a
ee
f7
fe
f0
01
02
f0
f8
01
f7
f8
ee
03
06
02
fb
fa
f8
f1
f6
fa
fc
f9
fd
f3
f9
fc
f5
ef
ed
fb
f7
fb
f6
f8
06
fc
f8
fb
04
01
05
01
fe
01
00
fd
fe
eb
e8
ed
ff
05
10
fd
f7
ff
fb
fb
00
f9
fc
ff
fb
f7
fa
02
fd
08
fd
fa
ff
ef
f3
f2
01
03
03
0a
09
05
f2
f5
e3
f4
e3
dc
f5
ea
eb
0c
09
0f
f3
fd
f3
d0
c9
d2
01
ff
01
02
01
05
01
fd
00
f1
ee
f3
01
fe
f5
06
08
05
ff
09
03
e5
f2
ea
04
05
03
fe
01
07
f7
fe
f8
01
04
f4
ff
01
f3
04
01
f1
04
00
ea
fa
08
eb
e1
03
ec
f5
07
03
0a
00
02
ee
f1
ec
e8
e3
de
ea
ec
ea
f2
f0
eb
fe
ff
fd
fc
fb
f9
18
17
19
03
f9
01
fe
00
02
01
01
03
02
05
07
e8
e1
e1
dd
d5
df
f1
ec
f8
fe
ff
04
f7
fa
fe
f5
fa
fd
fe
fd
fd
03
01
01
ff
fb
ff
e9
ed
f2
10
09
0f
03
f3
f7
03
04
06
f6
f6
f2
02
08
08
fe
fc
fd
f4
ef
ef
02
f9
f2
01
fe
0b
01
f9
07
fb
ef
04
f5
fd
f9
fd
fa
fe
06
ff
02
1a
1a
19
17
16
18
0b
08
02
0d
09
0e
23
22
24
11
0d
06
fc
f9
ff
fc
fa
00
01
fe
01
fb
0a
00
02
05
fe
fe
05
fb
19
1a
23
19
21
1d
f4
f4
f3
e7
ee
e2
d5
ce
d2
d3
c0
c9
f6
f6
f4
fd
fb
f8
f2
f9
00
02
00
05
00
03
11
fa
ff
0d
d7
e3
d2
d7
ee
03
ee
00
07
0a
0d
09
fb
03
0e
f6
fe
0d
f1
e8
f0
f8
fb
fb
fe
03
fc
f9
ef
db
1e
29
23
f2
f7
e9
fc
01
ee
fc
f4
e1
f0
f2
e4
01
00
01
04
08
0b
d1
d5
dc
f7
fa
f0
ff
fe
fe
03
f4
f1
e8
d8
cf
25
1f
1d
f9
f5
e9
ff
15
0b
f2
ef
e6
f2
fa
f7
01
fc
00
02
06
06
f9
f5
f0
fe
fb
e4
01
fb
ec
06
f8
f7
f1
07
f0
e5
0e
f4
fc
01
06
fc
fb
f0
13
13
12
f8
f2
e7
f8
f7
f2
f5
f3
ef
02
fe
fc
f1
ea
fa
fb
f9
fc
f5
ef
f5
fe
02
f9
03
00
fb
02
04
03
f4
e1
ff
fb
ee
f2
f9
fe
fe
e6
e4
e5
e7
ef
f4
e4
e6
e0
fe
00
ff
fb
f5
f1
f8
fb
f7
fc
ff
fe
ed
e1
df
17
03
d9
eb
f0
f1
eb
f5
fd
fc
ea
ea
f3
e5
f6
fa
f8
ff
11
10
0a
f4
f9
07
f1
eb
02
f9
f2
04
fe
fb
02
ea
ef
f7
17
07
fa
02
fc
f7
fe
ed
02
e0
db
f6
01
fe
0c
fc
f4
04
ec
f1
f5
fa
01
fa
00
f3
f5
0a
f7
ec
fa
00
27
00
f4
20
f8
f7
24
03
e8
0d
11
ef
25
12
e3
17
02
fb
ef
f2
f2
ee
05
f8
f3
04
04
00
0d
09
05
07
04
fd
02
fe
00
02
fe
00
01
f8
fc
f9
fa
fa
fe
07
01
ed
fb
f0
06
05
f5
06
0e
fa
05
08
fd
00
07
15
00
03
13
06
fd
0c
e8
e7
e5
0a
07
10
09
04
fe
fc
02
09
06
0b
0f
f6
e6
f5
fe
fa
fb
07
09
f8
fd
fb
e9
01
fd
f8
06
fd
fc
09
ff
fe
e0
ed
e9
13
1e
20
ed
fa
f1
f7
f9
e8
00
02
f9
e7
f9
ed
f5
02
e4
02
0f
f1
ee
03
e0
07
ff
ec
0c
01
ed
08
fc
f0
dc
e7
f1
e2
03
f6
ea
0c
f6
d4
d6
e4
fc
0b
07
d9
ef
e8
fe
01
02
f6
fc
02
fb
04
08
03
01
05
fd
0c
04
fb
02
04
f9
fb
04
fd
fe
01
01
04
00
eb
e3
13
fb
f3
fd
05
fb
f8
f8
f3
05
fd
fe
01
00
07
fc
f5
fa
f9
fb
fe
01
fe
01
01
ee
f9
10
0c
0e
1b
00
fd
08
11
0c
00
08
00
0c
ff
fd
0d
02
f7
fc
01
03
0c
01
fa
02
0c
09
f7
09
0a
01
0c
0c
fa
f0
05
19
0b
0f
13
f2
f9
ee
0c
17
25
f6
fa
0b
fe
fd
fe
06
00
08
07
07
09
04
00
fc
03
07
09
06
00
02
0a
fa
fc
01
06
17
f7
00
f5
f5
06
fb
f4
fb
0d
07
08
0e
fc
f7
fb
0d
09
09
f0
ec
e8
f7
ef
f6
f8
fd
04
fc
06
08
fc
02
08
fe
05
f3
00
08
f5
01
09
f6
e5
f8
e5
eb
fe
f6
ef
ec
f4
fc
fc
fc
fd
00
07
f8
06
0c
fd
01
0d
fa
fe
0a
fb
f8
04
ea
ec
df
0b
0b
08
0a
0c
11
01
f7
ee
13
f9
df
02
dc
df
0a
0c
0b
08
16
12
f0
ec
d3
06
fd
fd
05
ff
02
06
f9
02
eb
e0
d5
18
14
10
01
fe
06
fd
fe
ff
09
07
ff
f6
f6
f2
f9
fa
00
08
0a
05
f4
f0
ec
fa
e5
ef
f8
ed
ea
f3
dd
e0
f4
0c
eb
ed
18
fd
f7
14
fe
f7
e5
dd
15
05
05
09
f6
f2
fa
f1
e4
f6
f2
dc
f3
f2
e5
ff
01
fe
fd
f3
fb
fd
0a
fd
fb
fb
fa
fc
fa
fa
fa
fb
fc
fd
ff
f6
f7
fe
f7
04
f7
fb
fc
f5
fa
f5
f8
05
f7
f7
f4
f9
07
09
fc
04
05
ff
03
fc
fb
f4
02
f4
02
08
f4
04
00
00
05
01
00
11
00
ff
15
0c
04
ff
00
f7
fb
f5
f2
00
fe
06
fb
fe
0a
01
ff
06
fb
ff
f3
f4
fb
f3
01
03
f4
02
02
00
02
fa
ff
fe
ef
ff
09
02
fd
fd
fa
05
04
f6
06
0c
02
03
00
fd
04
02
06
ff
02
00
01
00
f4
01
fc
ff
04
f5
03
fc
05
03
f6
fb
0b
0a
08
10
0c
fc
fd
f2
f7
ed
fd
fe
04
f1
fb
09
f4
ee
fb
ea
e8
f0
ff
fa
fd
00
fc
04
fc
fb
02
13
13
13
06
0b
f8
04
07
ea
05
f5
fd
02
ff
03
06
fa
fd
fc
07
03
fb
02
07
fb
00
0b
ed
ef
f2
f0
f0
f2
ff
f8
fb
fa
eb
fb
fe
f1
fa
fd
fd
04
0e
06
ed
f0
f9
f5
02
05
02
00
fd
03
00
ff
06
00
03
06
f2
fd
fd
ff
06
f7
fb
e9
e4
08
01
fb
09
fd
02
06
fd
09
08
03
0b
01
f5
0d
fe
ee
fd
fa
fc
10
ff
fb
13
03
f7
0d
fd
08
08
01
08
09
01
0b
f5
05
02
0b
ff
f2
ee
f7
09
f5
03
ff
00
0c
18
05
11
1a
1d
09
06
ff
01
0a
04
09
09
03
02
01
01
ff
00
00
fe
00
ff
fb
fb
05
fc
02
fd
05
0a
01
fa
fb
f8
fc
00
fa
fb
05
fa
02
02
05
04
ff
06
02
ff
03
ff
f9
f9
01
fb
fc
01
00
fd
fb
03
f8
fe
00
f5
f8
03
f3
fb
fa
00
f9
fb
05
fb
f7
04
fd
07
00
fd
04
ff
fe
06
01
0b
06
ff
00
ff
f7
01
03
f7
ff
fe
f3
07
fd
f4
06
fc
f8
01
01
01
fe
01
fc
ff
00
f4
fc
ff
fc
fe
fb
01
fd
00
01
f2
fd
f9
f9
02
fd
fd
02
fd
fe
f2
f7
05
f9
fb
01
f9
f1
05
03
0e
02
02
05
02
02
07
03
f9
fc
f5
f8
ff
f6
f9
fb
02
03
fe
01
01
ff
02
00
02
fa
02
09
fc
ff
09
f8
02
ff
f6
f5
f6
f5
fd
f5
f8
fb
f9
fe
fe
00
fb
fd
00
fa
ff
00
fb
f8
f0
f6
f8
fa
f5
f7
f5
0b
07
07
09
05
04
02
01
f9
02
05
00
fd
fa
fd
f8
fd
ff
fa
00
05
fc
01
03
ff
01
01
04
f4
ec
ff
08
07
03
00
07
02
fe
f8
fc
03
07
f9
f7
07
fb
f9
f7
fb
fa
fb
f8
fa
f2
f6
02
fe
f7
fb
fe
fa
fb
fe
f9
fb
fe
fc
fe
f9
fc
fe
f8
ed
f1
ec
ee
ff
02
fa
fc
ff
07
00
02
03
fa
f7
03
07
fa
fd
00
01
fc
fc
ff
fe
fc
01
03
05
f7
04
05
fe
02
06
fb
fc
f2
fd
00
f4
fc
02
f5
ff
04
07
09
fa
0a
05
f8
0b
f6
ff
fd
fe
06
ff
04
06
03
ff
ff
12
06
fb
08
06
f8
05
05
0c
00
02
03
fe
04
06
01
06
05
fc
fd
03
f3
fd
f6
f5
f6
fa
06
0b
04
07
04
fc
06
05
1b
0e
0a
ec
fa
04
0d
11
0a
ff
ff
0f
fc
fe
05
fb
0a
09
08
00
fa
f9
f9
07
08
fa
06
ff
f9
03
fa
f8
01
fb
f8
ff
fe
fa
fc
fd
fb
fc
fd
f9
01
f4
14
07
f6
09
07
0f
0a
0d
0a
0b
0a
07
0a
08
fd
fb
fb
fe
04
03
05
06
04
03
05
08
00
00
01
f9
ff
00
f9
01
01
f2
07
00
ff
f5
06
fe
fc
0c
01
ff
fa
00
fc
ff
0e
ff
04
fc
00
fd
f1
ff
03
00
01
f8
f4
06
fd
08
0e
17
ec
f0
02
f6
f3
fa
f0
f6
02
ef
f2
04
f7
fe
05
0a
fb
0b
f6
06
0b
01
06
fe
ff
00
fc
fc
00
03
01
08
1b
24
20
1f
f7
00
17
03
11
0c
05
fa
0b
04
10
06
f3
fd
f8
04
f9
ff
01
02
ff
fe
07
02
00
05
07
00
f9
09
fe
03
fd
00
ff
fa
06
07
f9
fa
01
f2
fa
eb
00
fd
f9
f6
0c
0e
07
05
04
05
f7
f5
ed
09
01
fd
08
03
05
0b
08
01
07
fd
fe
0b
03
03
07
00
0a
19
ec
04
f8
f3
06
f3
f5
f5
0c
00
f6
0f
0e
0a
ff
f4
04
fa
fa
eb
f2
f6
ec
fc
f3
f0
f3
ff
f7
01
fe
0c
00
05
fd
09
01
fa
14
0b
14
01
0e
f6
0d
fe
09
09
04
10
f2
f6
fe
fd
fb
02
fa
f8
0d
fd
fa
05
ed
03
04
fd
f8
12
09
fe
f5
fb
ff
f6
fe
12
01
fc
02
fb
08
fc
f6
05
01
fd
05
01
04
fd
08
f2
f8
05
fb
fc
fc
fa
f1
f9
f4
ee
08
04
01
0d
fb
f8
fc
f9
fd
00
16
fa
f4
ef
0a
03
ef
f8
fe
ec
0a
06
f0
02
01
07
f5
00
04
06
03
fe
0f
03
f5
fb
01
00
ff
fe
fa
f8
ff
fb
f0
ee
01
f0
13
27
f5
04
ec
ea
fc
ea
fb
10
f8
00
fc
07
03
ff
08
ff
fe
0c
fd
f9
f8
fc
e0
cc
ef
f3
f7
01
fb
0b
f8
fa
ff
f0
f6
ff
d9
e9
ec
e8
f0
ec
0f
09
0f
f5
fd
09
01
ee
f8
fa
f1
ff
e2
e2
d5
e6
d2
c0
05
ff
01
e9
e9
e9
f1
f1
f3
0e
0b
19
e0
f4
d4
f0
ff
f7
f9
00
01
f9
03
fd
06
fd
eb
05
f8
e5
f6
f3
f7
f7
eb
ff
f4
05
0d
01
fc
04
de
de
ea
f8
fc
f5
ff
04
fe
e1
e8
f8
dc
e0
e3
0a
f9
fa
09
fd
f9
09
02
fb
01
f6
05
01
fe
02
fe
fe
03
e2
12
0c
ee
0e
01
06
07
02
ff
fc
08
ff
00
04
00
fc
07
02
ff
fc
01
00
f6
05
01
fa
0e
fe
fc
0c
05
ff
00
ff
fa
09
fb
05
0f
04
02
12
f8
05
fc
ff
02
fa
01
fe
f8
ff
fd
0d
0b
04
0a
04
02
01
01
04
f9
04
00
05
05
fa
02
03
05
01
00
fe
fe
01
04
00
05
05
fc
fd
04
fe
ff
03
fe
ff
02
0a
04
02
03
05
09
0a
03
04
f8
ff
fb
fa
ff
ff
00
fe
fd
26
03
04
06
fd
02
03
00
06
f5
ff
fb
f8
fd
fb
f8
fe
fb
00
f7
fd
00
fc
f7
00
fe
f9
03
fc
fa
04
fb
ff
02
f8
fe
f5
0a
fc
fb
fd
fe
0f
03
f8
05
ee
04
01
f8
fb
fb
fb
f1
03
fe
f6
04
00
ed
03
fb
ed
d9
f1
ef
f5
f2
ea
eb
e8
e7
f2
f1
ea
f6
ef
ee
04
f2
f4
ff
f3
02
f7
e9
f3
f4
ee
ec
0e
00
0d
0e
02
0e
0e
06
10
f0
06
fa
f9
f5
f1
fc
e8
da
01
e8
11
fd
e4
04
ff
f0
0a
03
fc
14
f9
f1
10
f9
f2
0e
04
0a
0c
fd
06
0a
f9
09
0c
ee
fa
fd
e5
ff
0a
f2
0b
06
08
c8
0b
f6
c6
09
f5
de
01
0b
ff
14
0b
02
12
13
0b
12
fe
fb
fc
14
17
13
fd
06
04
01
02
07
01
00
04
03
01
05
d5
d4
e4
d7
d6
e3
f2
05
13
f8
f6
f8
f9
f9
fc
f9
fd
fa
00
fc
f5
04
fe
fc
08
02
02
ea
ed
ec
07
03
01
fb
f2
ed
01
02
ff
f1
ed
ec
f6
f4
ed
fb
f9
f5
f3
f3
f5
0a
04
f9
09
09
04
06
03
fb
fe
02
fd
f4
f7
ec
f6
f5
f3
fb
f4
fa
1a
09
04
13
fe
ff
05
fc
fa
12
02
ff
0f
08
04
0c
fe
fd
fb
f7
fc
fe
f7
f8
04
f8
fa
ed
fa
08
eb
f7
fc
eb
03
02
28
17
22
28
20
1e
0b
04
ff
f8
f2
f6
e8
e8
ea
f1
ec
ec
09
08
f5
02
05
f3
0e
0c
0b
03
fe
fc
04
fe
fd
02
ff
01
00
f7
ee
ff
f2
f4
f9
fb
fb
07
09
00
fc
07
ff
fa
08
08
02
fd
f5
fb
ff
f9
fb
f7
00
01
08
fa
0c
04
f9
fd
f7
00
07
06
f2
01
09
fc
01
fa
fb
07
09
07
fb
fd
fe
fd
00
05
f8
ff
03
f9
00
01
fb
02
fd
f9
fd
04
01
fe
f5
fe
02
fe
fd
f8
f8
fa
fd
fa
00
01
f9
09
09
0e
05
ff
ff
02
07
08
fe
fa
02
fb
05
01
f9
00
fe
fb
0c
fe
fe
0e
01
00
0a
09
fb
09
0b
fc
01
00
fe
09
f1
fb
fe
f8
f9
f6
f9
f6
f9
fd
00
fb
fc
fc
fb
fb
fc
fb
fc
fe
fd
02
04
f7
01
06
f8
01
fc
f7
01
f8
f7
01
02
f9
00
ff
05
fe
06
09
f5
f7
fe
fd
f8
09
02
f9
01
03
ff
05
03
f6
02
f8
f2
ec
ea
10
08
12
03
fe
fa
06
f8
f3
04
f6
f5
03
00
0e
0f
00
15
03
00
02
fb
fb
fb
f9
fa
fc
00
f9
fe
f5
01
fe
f5
f3
04
08
00
07
fe
f0
f9
08
fd
08
fe
fc
fb
0a
fe
06
0c
ff
11
0a
fd
ff
04
01
00
04
fd
fe
06
fd
01
fb
f5
f1
00
01
fa
fd
09
01
f5
f6
f4
fe
ee
fd
1f
f6
12
03
f9
fa
05
f0
f9
04
ff
00
f4
fa
01
fa
fb
03
f8
f7
f0
06
01
fb
04
02
fa
05
04
f6
ee
e6
ea
ff
f6
fe
f3
ed
e7
03
03
f2
ff
09
f7
fc
06
f7
fa
fa
12
fb
f9
12
01
fb
16
fb
03
f6
0d
09
03
0d
0c
0c
fe
fd
eb
12
ff
e5
ef
ef
e8
02
0a
0a
08
11
14
ee
e8
e3
fe
04
ff
02
08
0c
01
ff
08
e9
ef
db
1a
12
1a
f6
f7
fd
f1
ec
fa
04
06
0b
e7
e6
eb
fb
f8
f1
fe
04
03
ed
f5
f2
0a
fd
f8
0f
ff
01
00
e8
04
e2
f3
02
f0
09
06
fc
00
f6
df
db
d7
11
0f
15
f5
f1
ed
0c
fe
f9
f9
f2
e7
f5
e9
e2
fe
fb
f5
2b
29
19
07
09
03
fe
fe
01
ff
fd
02
fe
02
04
e8
e9
e6
d9
e3
e3
e8
ef
df
06
02
04
fe
fd
01
f9
f8
f5
03
01
fa
04
fd
f8
04
fc
fa
f7
fd
fe
13
0e
0f
ff
fe
ff
05
05
06
fb
f7
fc
0d
03
09
02
01
04
fe
f9
fd
07
f4
f2
08
07
04
05
fd
02
01
f7
00
fd
fe
fa
f9
fa
00
00
00
03
20
1b
13
17
0e
0a
15
fd
ff
12
0d
05
2d
23
13
17
08
0a
fe
fa
00
fe
fb
06
04
ff
09
00
fe
05
ff
fb
fa
fc
f8
fd
20
1e
1f
27
26
29
12
09
0c
f0
ee
f3
e1
e4
ea
e0
ed
ff
ff
00
fc
fe
00
fd
f9
fe
fc
03
02
02
02
01
00
02
01
ff
0c
0d
02
fc
0a
00
fd
08
04
02
fc
01
01
ff
fe
02
fc
fd
01
01
01
fd
00
01
ff
01
02
fc
f4
fd
03
f7
00
00
fd
ff
0d
fa
fe
00
f6
fe
00
f8
ff
05
06
01
ff
ff
fe
00
03
fe
00
05
00
ff
02
01
00
02
01
03
fa
00
01
ff
fc
03
05
04
04
01
fe
05
05
fb
00
ff
fc
ff
ff
01
fd
ff
ff
ff
00
ff
ff
fb
fc
ff
fa
02
fe
fb
fb
00
01
fd
02
05
fd
fe
03
ff
ff
fb
03
00
f7
00
02
fc
03
08
09
00
0a
0a
00
04
01
02
07
ff
f9
07
ff
f9
06
fd
f5
fc
02
ff
00
00
ff
00
fc
03
f9
f0
0b
fe
e3
f8
0d
0a
fd
fa
01
fe
00
05
01
fd
f9
f8
f5
f8
ff
fd
ef
f9
f7
f9
04
f3
f6
f6
f3
f9
fa
ef
04
05
05
0a
0a
0c
08
0c
0b
07
0c
fb
04
0d
f1
fb
00
00
fe
fe
0d
08
07
0e
0f
02
0a
04
00
ff
ff
0d
ec
ea
f6
f7
1a
10
05
09
11
05
fb
fe
0d
04
01
05
f9
07
03
00
01
09
07
03
02
f7
00
05
fb
04
06
f7
07
10
08
f9
12
f9
ff
11
07
04
02
f2
13
10
f4
05
24
00
20
03
06
01
03
05
f5
09
0d
0a
f8
f7
f9
f9
f6
f9
fb
f6
f6
04
fd
fb
05
fb
fc
03
f7
fa
09
ed
14
f6
e8
10
fd
f8
10
fb
f4
f9
fc
f2
fa
fc
f3
ec
fa
fc
f7
fa
02
f9
02
02
fa
eb
d4
cb
03
f5
f7
f6
01
fb
fa
ff
ef
03
fa
fb
ff
00
f6
08
05
00
ff
f6
f9
f9
f2
f4
fc
03
06
02
04
02
fe
08
09
02
fa
f9
fe
04
08
fd
fd
fc
f4
f2
f2
ea
03
ee
03
06
fa
0d
08
05
01
04
fd
f3
01
f3
0a
0d
f9
0b
09
f8
07
0a
f7
fe
06
19
fd
01
0c
ef
02
0c
ea
ef
f4
ed
fd
00
ee
fb
fd
ff
ff
0e
f9
f4
06
11
08
17
f9
fe
fa
00
03
03
fd
00
00
01
ff
00
04
01
f9
02
00
f7
f3
f2
08
fb
04
06
fa
f2
fb
f4
fa
f2
ff
06
fa
fa
01
fe
01
fe
02
ff
01
08
fc
fd
07
c1
c8
cb
c0
c7
d7
fe
07
00
f0
ee
fc
07
01
0f
04
f3
fd
04
05
fd
0f
14
12
f4
01
04
00
07
02
fb
04
01
fd
02
ff
e7
e8
df
e2
ed
e0
15
19
10
f7
07
f8
ff
00
fc
04
0b
00
f6
f7
eb
ff
fe
f5
f8
f3
eb
05
04
f4
02
01
f2
06
02
f5
ea
f7
f7
e3
00
06
e6
03
06
df
e0
d9
f7
fc
eb
00
00
fa
ff
ff
f7
0a
08
00
0c
0b
02
f7
f9
f9
fd
fe
fe
f7
fe
00
03
01
fc
03
03
fd
01
ff
f5
f3
f1
f5
f2
f5
08
fb
fc
0f
fd
0c
03
ff
0a
fe
fe
0a
fa
f8
fc
08
ff
02
0e
01
01
0c
d9
c9
d1
09
16
0f
00
0a
01
f6
f2
f5
08
f5
01
fd
f0
03
fe
05
f8
07
11
09
e9
f1
ed
fc
05
04
ff
0b
09
fb
04
02
df
de
dc
1a
1c
0f
08
10
05
04
13
0d
fc
06
f9
fb
0f
f7
fe
06
f3
fe
08
f6
f1
00
e9
06
07
f3
06
05
f1
05
08
f7
f0
05
fb
ea
05
01
ee
fb
fd
eb
f2
e9
02
0e
fe
e8
ff
ee
05
04
fe
02
01
fb
0e
08
04
01
fc
ff
fd
fd
fc
ef
ff
fb
04
fe
02
08
ff
ff
04
fe
ff
0f
07
00
05
01
fd
08
0e
fe
ff
02
00
02
ff
ff
fe
fc
07
fd
05
04
04
04
00
02
01
02
fe
fd
fd
fb
f9
fe
f3
fc
05
04
02
05
ff
01
02
f5
03
f7
08
03
fd
01
02
fd
ff
02
f5
f9
01
05
fc
03
02
fc
03
01
fa
04
08
07
02
fc
fc
f8
00
fb
03
03
f7
00
fb
f6
02
f6
04
ff
fc
04
01
fb
ff
05
fe
0c
00
fb
04
00
ff
03
fd
01
f7
e8
f9
e6
f8
fe
ef
0c
ff
f1
01
00
f5
00
ff
ee
fb
fe
07
f8
00
00
fe
01
fb
fc
fe
07
06
03
10
0c
0c
0f
04
f6
fb
fe
fc
fd
fd
01
fe
fe
05
f8
07
16
e6
ff
10
f5
01
f9
f2
f1
04
f3
f2
fa
f3
f6
e1
02
f2
fa
fc
f4
ef
00
fc
f6
f2
f7
f9
f6
e8
f3
f2
ed
c6
fc
fc
f8
f8
02
e8
fe
06
12
f6
f3
01
ed
f3
f3
01
05
f3
fd
eb
12
fc
ee
15
fd
e6
13
f0
f0
ff
eb
dc
00
f5
e7
f6
06
06
22
05
0e
1d
0b
12
15
00
f3
1f
01
fa
1d
0b
02
16
fa
fc
0c
f9
fe
07
fa
fe
03
f8
0d
00
f1
07
fe
f2
0e
fe
05
f7
1f
0c
f7
35
05
fc
16
ff
fe
10
fe
f8
eb
f6
ee
ed
ff
fd
fa
fa
02
01
09
04
fe
00
ff
07
00
fe
00
00
03
06
f5
fc
1d
e5
db
d4
f6
ec
e0
f0
f8
f5
fc
0c
07
f9
04
05
07
03
07
fc
fe
00
f9
f6
f9
d5
e3
e6
e7
e8
df
20
19
20
f2
ef
e7
0e
0e
f3
f6
f4
ef
00
03
05
05
0e
09
f6
f4
f4
03
01
fe
01
ff
fb
08
02
00
d9
e5
d9
0b
0a
0b
08
0e
21
f6
f5
ee
06
04
0b
fd
f3
ed
f8
f5
fa
01
00
fd
05
06
07
03
fc
fa
02
fa
f7
08
ff
e9
f0
01
07
e0
08
0b
ec
15
02
e3
d5
c1
07
fe
f6
08
00
0c
ff
fb
f8
00
02
fa
fa
fb
f2
04
f5
f4
04
f5
f6
06
f3
f7
04
07
01
01
09
04
02
04
00
0f
22
0c
0d
10
23
12
05
1a
02
0a
09
00
0d
10
f8
0e
05
ff
00
fb
04
00
fb
f6
00
fe
f7
f8
f3
0b
f6
f6
04
f4
e9
fa
f5
ef
fb
f6
f2
f6
f3
f7
03
07
f6
f1
02
00
e7
ed
f7
0a
ff
02
07
05
03
09
07
06
ff
06
fe
00
05
f9
0b
08
e6
ff
03
00
0a
fd
05
03
03
ff
02
fe
f5
01
02
05
f2
f9
09
01
0d
fe
00
11
ff
fc
0a
05
fb
07
f9
f6
06
08
f4
01
0b
ff
01
f0
13
10
ee
14
09
00
04
12
10
06
01
0b
0a
05
15
02
fe
00
fe
fa
ff
fe
fb
01
ff
01
02
ff
00
ff
ff
03
00
12
20
fd
06
29
08
0b
22
03
f0
f6
0b
ee
fc
07
f2
fd
06
03
f7
fd
02
fa
fd
01
ff
fd
02
0b
02
15
11
ff
18
19
06
01
f7
ff
f7
f9
02
f7
f9
01
fe
09
fe
f5
0e
01
09
16
01
f7
f9
ff
f5
f7
ff
f6
f9
ff
0a
f8
f7
f6
f6
f4
08
00
fb
f8
08
00
ef
07
01
f2
ff
ff
f6
ff
ff
f6
01
00
f7
0e
04
f9
f9
f5
fe
f8
f7
ff
f7
f6
07
10
01
0a
0c
00
0c
0d
03
0e
04
07
07
ff
01
fd
fc
fb
f6
08
ff
ff
ff
fd
f4
fc
fd
01
fe
fe
ff
fc
fd
fe
f9
fd
fe
ff
ff
fe
01
01
fe
02
02
fe
fc
fb
00
00
f8
fe
01
fc
fb
fd
01
f9
03
01
fa
05
05
00
fe
fe
fe
fe
01
03
fe
fd
07
fe
fa
01
fa
00
0a
fc
fd
01
02
04
02
00
00
fb
04
fe
f3
f9
fe
fe
f7
fa
f2
f6
fb
fb
fe
ff
06
01
fb
07
01
fd
f6
07
06
ed
01
fe
f5
fd
02
09
02
01
09
00
00
0b
ff
fc
fc
01
fe
01
fe
f7
01
0b
02
02
00
ff
08
00
01
09
00
02
ff
fd
fc
fe
00
02
fe
fd
fe
fe
01
f8
10
fe
03
09
07
0a
fc
fc
00
f6
fc
ff
ff
02
02
fd
00
fc
01
00
ff
02
00
fc
fc
fd
ff
fc
fc
fc
fc
ff
fd
13
fd
f2
0a
fb
eb
01
ff
ff
05
06
ee
03
02
f7
00
ff
01
03
02
03
05
03
07
01
01
05
f5
f7
fa
fd
f5
f9
fd
03
00
07
01
fa
09
00
f8
0b
ff
f8
06
f1
0b
02
f1
01
fe
f4
03
00
09
fb
01
07
fa
ff
06
05
f3
fb
fa
00
0c
09
fc
05
07
f8
f4
f8
fb
f4
ee
05
fb
f6
f8
f7
08
ff
f9
07
02
fa
00
05
01
fb
00
00
00
01
02
fa
0c
eb
f9
0c
f0
f9
0d
f7
f9
f6
fa
f3
fc
fd
f1
0b
05
fb
fd
03
f7
fc
01
fc
05
05
f5
fa
fd
f7
02
08
00
fe
05
02
ff
03
fd
01
01
fb
03
02
fa
f3
fd
f5
ee
f4
f1
fa
f2
05
f7
01
fe
f9
01
00
f7
06
03
02
01
01
02
02
01
01
02
02
ef
ef
f0
ff
00
00
ff
09
11
01
ef
e3
04
ec
e0
01
e3
ef
04
fd
fa
03
01
f6
f1
ef
dd
03
fe
01
08
04
04
06
01
02
d8
e6
eb
fb
fb
01
04
08
0a
ef
06
fd
f8
05
fe
05
03
ff
fb
f9
f5
03
ff
fd
0f
00
ff
f9
04
e7
04
09
eb
0c
09
f0
02
f8
e8
f2
f7
eb
f3
ee
f4
07
e2
d1
0e
f6
ec
08
f5
f5
fc
f9
f8
01
fc
f5
fc
f7
f9
07
03
0f
02
ff
f0
05
fd
fc
fa
fe
0a
fd
f9
f9
00
f9
f6
06
07
00
f1
01
fe
ef
0a
13
f0
fb
08
fa
ff
fe
f7
01
fd
ff
f4
e7
f8
f8
01
fe
fe
03
f6
03
09
f8
f2
fa
fe
ee
e8
01
fc
08
fc
07
09
00
01
fe
f5
f8
fd
fe
fc
f9
0d
09
f7
f8
ef
ed
fe
ec
fb
fb
ec
fc
f5
f2
e5
e1
e4
f5
fe
ef
f4
fc
fc
fe
07
fb
ef
11
08
f2
f7
e0
01
06
f2
f9
10
f4
01
fd
ee
01
f5
f2
f3
f8
ef
f1
fd
1d
f2
fb
14
f9
fd
1b
04
f9
f6
10
04
f6
16
10
fb
10
01
06
0e
f7
f6
fd
e8
f0
00
ff
00
ff
02
f8
fc
0a
f3
06
ff
fa
fd
07
03
f6
07
04
fd
fe
fb
10
fa
f6
f1
00
f0
fa
fa
f2
f2
f4
ff
f6
f7
f9
fc
02
ff
f5
fc
01
f8
fc
fa
02
f1
ef
e5
f2
f9
e9
fc
f6
f8
f7
f8
06
02
00
16
18
05
13
f5
00
03
0b
10
ff
fc
11
07
f6
07
fa
f0
fc
f3
f8
fd
f8
f1
f8
f9
fb
08
02
01
f5
0b
f3
f1
05
01
06
0a
0c
03
01
01
02
f7
02
01
f5
07
02
fc
ff
06
f7
f3
f6
fd
f9
f5
f6
06
08
ff
f2
ec
f8
ef
ff
13
f9
e6
fb
f2
ea
f4
16
15
00
01
fb
05
06
01
0c
18
0d
12
f0
f6
f7
38
40
39
18
1a
0b
ff
02
02
00
01
03
fb
fe
fd
dd
e8
e2
ce
f0
d9
de
f0
e3
fc
fc
00
fe
f5
fa
fa
ff
f0
05
02
00
07
02
03
00
01
05
ec
ef
f1
12
0e
10
00
fc
fc
01
08
01
e9
ee
ee
0b
0c
05
02
04
05
00
fb
f9
01
01
03
06
01
06
00
f4
ff
02
f4
fc
f8
f9
f1
fa
05
f4
00
07
f9
32
2c
23
19
11
0d
0b
04
f1
20
17
16
3f
31
2f
23
1a
19
01
03
fe
05
08
09
03
0b
05
f9
e7
e9
ff
ee
f1
02
f6
f1
27
21
2c
21
1a
1f
18
0e
15
ea
e6
e9
dc
da
dd
e9
e5
e7
fe
04
05
0a
0b
0b
01
ff
fa
03
ff
02
02
fe
01
02
00
fe
fb
03
00
03
15
0e
07
09
fc
fd
fc
f1
0b
0c
fd
fd
00
f6
ff
05
ff
08
03
fb
05
f9
ea
f0
ff
03
07
06
02
fb
f8
f2
f5
fb
00
01
05
0c
06
00
19
01
fc
fb
f5
f7
03
f6
f3
f7
03
00
00
fe
02
05
f8
03
0f
f5
09
1b
fd
04
09
f0
ef
f3
fa
fc
ea
f4
fc
ed
f0
f4
e8
00
01
ec
00
fb
f6
f6
f7
ea
fe
f9
ec
01
fe
ed
ff
02
ec
fa
e6
fd
0b
fd
06
f9
e2
fd
01
09
05
12
0c
10
fa
f6
f6
26
1c
0c
0d
0e
06
01
f8
ff
02
fb
fa
02
01
06
fd
fa
00
02
04
03
00
02
02
00
00
00
ff
e7
ef
ef
fb
12
fa
f3
05
f6
01
0c
fe
fd
09
f9
fe
0d
f7
f9
fa
03
03
02
03
06
03
d1
c6
c6
e9
f3
d4
e9
f2
eb
e4
e3
f5
f4
f4
ff
f3
f2
fe
ed
f2
f5
0c
0f
15
f7
02
0e
f9
02
06
f7
02
07
f8
f8
f2
ea
d9
e3
de
d4
c5
fb
fc
ef
0a
2c
20
e6
e7
e6
ed
04
03
fb
03
0b
fa
f8
02
f8
fc
03
09
07
ee
0a
03
f0
06
03
ff
ee
08
06
f5
00
0f
f8
f6
0a
e8
ea
ef
ed
f0
ef
fa
08
f6
06
03
fa
0c
09
02
08
03
03
02
04
ff
fd
ff
fa
04
fd
fe
fa
ff
fb
fc
fe
01
fe
fe
fe
0b
05
f4
02
fe
f9
fe
05
0d
f3
f7
fd
f6
f9
f6
f8
fd
f1
f7
f3
fb
f6
f9
06
fe
fb
ff
ea
f1
04
fe
f7
02
fd
f3
0a
fc
02
09
fd
0a
0e
ff
03
0d
fa
f8
ee
f8
fa
f2
0d
0b
f4
f9
ec
07
fd
ee
16
fc
ec
1d
e0
de
f8
ed
ee
05
fe
e9
f8
fe
08
09
fd
09
0b
0b
10
fd
f9
e3
f9
04
f3
01
0e
f6
f9
04
f0
03
ff
f6
00
ff
f6
03
01
1e
ed
fe
13
fd
fe
13
06
f9
f4
06
07
fa
23
0e
03
0f
08
08
0b
05
fe
04
f5
f7
08
05
fd
fb
f7
f6
f3
f9
f6
f7
00
04
04
01
03
01
02
02
fe
fd
f6
00
fe
f7
fd
fb
15
1a
ed
f0
f6
f9
fb
f7
f3
00
f0
03
f2
eb
00
f7
f6
fd
fa
f9
f3
df
e5
e9
ed
ef
fb
fc
ef
f9
fb
f3
fe
fb
f5
fe
fc
fe
f6
eb
fa
03
fc
f9
0c
04
fd
02
fc
02
fc
fb
09
03
fd
0c
f2
eb
ef
f7
f7
fe
fd
f8
ed
fb
eb
fc
f8
e8
f4
fc
f2
ff
f8
ec
04
fe
fa
fb
fb
f9
fe
03
f8
fe
03
02
f3
03
06
f8
f1
f6
20
ee
fa
09
ed
0e
18
00
e7
0d
fb
e9
04
06
f1
08
fa
fd
0b
f0
f4
f6
fc
f6
fe
06
11
0b
13
11
02
0c
05
04
05
01
02
01
05
04
f9
01
00
fe
f1
e7
f5
fe
04
eb
ec
0d
0c
12
16
01
14
11
ff
0c
03
07
01
06
f6
fa
03
fc
07
05
0a
fd
ed
20
1c
1c
f1
f6
fa
0e
fe
fb
11
0b
09
f7
ff
e1
02
04
08
fd
03
04
ee
ee
eb
03
01
02
00
ff
02
08
f0
02
ff
fa
e6
05
00
18
f8
fc
ee
fd
f6
f5
05
05
ff
fb
f4
ea
01
05
06
0e
0d
0c
f2
f4
f5
04
02
fe
0a
01
f2
ff
ec
f8
f3
07
f9
e9
13
05
f6
f9
f6
fa
fa
f4
08
06
06
ff
00
f8
ed
eb
e0
f9
f6
e9
f3
f6
ea
00
fe
0b
f9
fe
0b
f8
fc
fc
00
05
fa
fb
01
fb
fb
ff
fb
00
03
0e
f3
fe
04
f7
03
07
ff
00
fb
f2
ff
f8
f6
01
f7
0a
08
04
04
04
03
ff
fe
02
fb
07
fc
fd
00
fe
ff
05
02
12
0f
0a
0f
00
13
05
04
13
f7
fc
fc
f0
f2
fe
09
0b
0e
05
06
03
08
06
06
04
03
02
02
0a
f8
02
06
fe
fe
08
08
05
0a
fb
ff
01
00
fb
f6
f3
07
0a
09
04
05
04
f9
fe
f4
05
03
02
01
02
02
07
04
01
01
f6
f5
f5
f2
ff
02
09
07
08
0b
08
00
06
f9
06
06
00
f8
00
07
08
00
05
f9
f5
f8
01
01
fd
01
ff
02
fc
f6
01
fe
f6
2d
fe
f8
3f
fe
f9
40
ef
f7
e6
ec
f9
ef
f2
f5
f1
0a
ea
0d
03
e7
1d
f5
e3
1a
01
f4
d9
01
f2
ca
fb
f4
d0
e6
ef
fb
07
0c
07
00
05
03
ef
fd
f2
ff
09
ed
e8
06
e4
0d
fb
14
08
04
1d
ea
eb
fa
08
f9
c4
01
fa
c0
0d
f7
c0
ec
f1
ea
13
04
0a
0d
fd
09
fd
01
fe
fb
08
06
f7
f5
06
0b
ea
04
09
f7
12
07
ef
0d
ff
eb
ed
06
e3
e6
06
df
f8
df
0e
f0
e3
13
fa
e8
0e
01
06
ee
e5
0f
00
f7
05
ee
e1
fd
03
f3
f2
04
fd
06
0f
06
f6
f6
f9
fd
fa
06
fc
f5
ff
03
fe
f8
03
ff
fa
01
fe
f9
f3
f4
0b
f5
fc
0e
02
02
05
05
ff
ff
04
01
02
fd
f9
03
fc
fe
fa
fa
00
fc
fa
fc
f8
e9
e7
ef
f4
f5
00
fe
f6
fd
f4
f7
e9
ed
da
e5
f2
f2
ee
06
05
03
08
08
ff
f4
f1
f4
05
03
06
03
03
07
05
02
0c
f1
f6
ff
f5
04
08
16
0f
14
f4
08
f8
00
0e
f8
0a
0b
fb
06
05
05
09
08
f6
0d
0b
ed
0f
12
fb
0c
0a
fb
07
0b
f6
ea
ea
01
d2
ec
0a
dc
f4
11
cb
01
f4
e7
0d
00
fe
0f
fd
09
f9
fe
04
f6
07
0d
0b
12
07
04
fe
05
02
fc
0f
03
01
f9
01
fe
f8
00
fc
f8
03
ff
05
04
19
05
e9
fd
07
ec
ff
f1
f2
f8
f8
e0
f5
fd
ef
f9
fe
fb
f2
fe
08
fa
f9
fc
f2
da
e4
fb
e1
e1
ee
ff
fd
f9
e9
f1
08
03
04
12
0a
ff
0a
08
09
1b
ff
ec
fe
f4
f3
f0
06
ff
f4
08
fa
ef
12
06
f4
10
fc
f5
fd
fa
03
07
f6
f0
02
fd
07
06
04
18
17
15
13
04
09
09
fd
02
f9
fa
01
f9
fe
fb
ff
fa
fa
fe
ff
fa
fe
e6
f8
00
d6
fb
19
d8
00
14
f0
f6
f2
fc
02
0a
ff
08
04
ff
ff
0b
0c
0a
08
10
17
13
f7
fd
09
04
01
fe
f7
f7
fa
08
03
fa
fd
00
fb
fc
00
fb
11
03
0b
02
09
02
fc
11
11
f1
ee
ed
fa
f7
f2
ee
f1
ec
04
03
f8
01
00
f5
07
05
fb
12
0f
10
fa
f2
f7
fa
f3
e1
fd
fe
14
01
fd
05
fb
01
09
f9
f1
f4
fb
f8
f9
04
02
fe
fb
fb
0d
f1
f4
02
f3
f7
0a
f6
fc
0f
f5
e9
f1
ef
f1
de
f6
ef
eb
ec
ef
e7
eb
ea
ea
f9
fb
fa
03
fd
fc
00
fb
f8
fc
fb
06
f4
fa
f7
fa
fc
f8
f6
f4
fe
f1
ed
fa
ee
f3
f3
0a
0c
21
07
06
0e
0b
02
00
fc
fc
ff
dc
e1
e3
e9
e0
de
f9
02
fc
fc
0a
06
fe
10
05
fc
01
fb
fe
07
fa
ff
04
f4
fe
02
ff
03
01
ff
ee
04
ff
f6
0d
f7
fc
ff
f9
fa
fe
eb
ff
03
10
f8
fb
04
ff
01
fb
ee
f3
f7
ed
f8
f1
fa
04
0a
06
fe
f2
02
f6
f1
06
fe
ff
02
09
07
fe
fc
f9
fc
f0
f7
00
07
0a
00
00
03
fb
fa
09
fa
fc
f5
0d
11
03
f3
0a
07
fa
f6
00
02
00
05
f7
ec
f8
fd
08
ea
fd
07
f4
fb
05
fb
03
fc
fa
03
f8
f6
07
f6
f0
f1
0d
02
e7
f2
08
fb
fa
f8
ed
ec
f4
01
fd
fa
ff
01
04
02
ff
07
fa
fc
01
f2
f5
01
0a
0b
00
05
07
02
0c
05
06
00
01
fd
03
ff
fc
03
00
ff
ec
f5
f0
f4
0f
f1
15
0d
11
02
f6
f2
fc
f7
f5
05
f6
f4
04
01
0b
0b
01
07
0d
fc
00
07
fb
ec
e2
d6
e9
e6
ee
fd
fa
0d
f9
ff
ff
f7
f9
03
fd
fb
f6
fe
f8
04
ff
04
fd
fd
fd
06
0e
f8
06
0e
ff
05
10
08
0d
10
fa
f7
e8
00
f7
df
03
0d
e4
0c
f8
f3
05
0f
f7
06
0e
06
fe
09
fa
fd
07
fd
fd
09
f4
fe
03
f5
fb
02
fb
06
f4
fa
09
f0
f0
12
f6
ef
ff
15
0c
f5
03
fe
ff
ff
fe
05
f3
1b
fe
f1
15
fe
f9
0f
02
02
04
fd
fb
02
fc
f3
fb
fc
fb
fc
fc
02
00
fb
ff
00
f2
ee
f2
f4
f0
f2
f7
f5
e9
09
ff
fb
fc
01
01
fc
fc
03
fe
ff
10
f9
ff
0a
fc
fe
04
ef
fd
f4
06
0d
0e
f7
03
0a
04
fe
00
04
fd
ff
08
ff
08
07
06
05
02
01
10
06
02
fb
ff
04
03
05
ff
00
fc
f4
ff
06
f7
f3
fb
f5
f9
f2
dd
e3
00
01
0c
fe
fb
ff
f6
ef
01
fe
fd
02
01
01
05
fe
07
04
06
03
f9
0b
fc
f7
06
fb
f5
09
04
09
0a
04
fb
07
03
02
fe
fb
f1
01
fa
f1
ee
f3
e9
f2
eb
f4
ec
e3
ed
ff
fb
01
ff
f9
f5
07
f4
f1
08
fc
f7
01
fd
01
01
fb
fa
02
fe
fc
05
05
07
0a
07
01
0a
ff
01
f5
f2
f5
fa
fb
fc
fc
01
f7
07
00
fd
00
fa
fd
07
fe
fe
ed
f0
ec
f1
ee
ec
f9
f5
fe
07
0a
0a
03
fe
0d
04
fc
00
fd
04
f8
04
01
03
f6
fd
f4
fb
06
03
00
03
05
05
07
08
f2
f7
fa
f5
fd
fd
04
02
02
04
fd
0f
06
04
11
ff
01
06
fc
00
fd
f7
f9
03
f0
fc
00
17
10
03
0b
05
05
00
0b
05
ea
f8
fb
eb
fe
fa
eb
ff
00
fe
ee
f1
fd
00
09
06
0c
06
00
ff
ff
0b
fd
03
fd
03
0a
08
fc
03
f9
fb
f8
fc
ff
f3
03
04
02
04
03
04
05
04
01
ee
ed
07
ee
f8
0c
f0
f7
ee
ed
f4
e6
ee
fa
f0
f0
fc
ec
f5
ed
f0
f2
e9
ee
fa
f6
ee
07
f7
01
ff
f2
f6
16
10
fd
ff
fb
ff
01
fd
fb
01
fa
02
f8
f2
f6
f9
fd
fa
f9
03
01
fb
fa
ff
fb
fc
01
04
fa
0a
ff
f9
04
09
f6
02
11
09
03
08
ef
08
fb
e5
f3
f5
e7
02
07
f1
fe
fe
eb
fa
00
ed
04
05
f8
f5
07
fb
f8
04
fb
fd
ef
ea
07
e3
f7
06
e5
09
01
0f
fa
0b
12
ed
05
0d
e6
0d
05
f1
f6
fb
f2
ee
09
f6
fa
02
00
01
02
07
03
f1
01
f9
04
f9
fb
09
ff
fd
06
fe
fb
fb
07
f7
fa
0d
fe
ee
fe
f0
f3
e7
eb
fe
ee
e9
f7
ec
de
00
f5
f8
02
f4
f1
0c
fa
ec
f5
f2
ea
ea
ea
ec
e6
f6
f3
ff
04
0b
05
05
08
08
03
02
fc
ee
f7
fb
f8
f0
ec
f5
ef
03
08
fa
ff
05
02
f9
01
0c
f4
05
f3
f3
f5
eb
f8
f0
e5
fc
f8
f1
01
fd
e9
fd
0b
ed
fc
f7
f3
fb
fb
f2
f6
01
f8
05
f6
fc
00
f7
fd
ee
ff
03
f9
0a
12
f7
02
0e
ed
04
08
f2
ef
04
e7
e2
f3
e9
ee
de
08
fe
05
0e
08
05
04
f6
f2
fe
f8
f9
02
f6
f7
04
f9
fc
fe
fa
f9
fc
f8
f8
ff
fd
fa
05
08
04
06
05
04
07
09
0c
f6
fa
f9
fa
fb
f8
f9
fc
f1
01
00
04
02
02
06
04
04
07
fd
ff
f9
fb
00
f9
04
09
09
f6
f8
08
fd
0c
07
00
05
03
04
00
fc
fb
fb
fc
f1
e6
f1
02
04
06
00
02
05
ff
04
0a
00
fe
08
04
04
f3
06
0a
02
01
fd
f6
07
ff
fa
08
03
06
03
ff
fd
02
01
fa
03
00
f7
ff
ff
f5
ff
00
f9
fc
01
f7
09
0b
fc
02
00
04
ff
fb
ff
00
fe
fa
fd
f2
f3
fe
0b
0b
07
0a
04
01
00
02
05
05
06
03
fb
01
01
00
f4
02
00
fc
f9
ff
03
fd
00
fd
fe
02
fc
12
09
fd
07
0f
0a
02
11
08
fa
f3
ec
f9
f2
f4
f3
f0
ec
02
03
06
fe
ff
00
01
ff
06
f2
e9
fd
f7
ee
ee
fb
fa
05
ff
02
e8
0e
0e
fc
0f
01
07
fc
fa
ff
05
0c
0a
fc
01
05
02
04
03
01
07
07
fd
09
0a
f1
01
09
fb
04
05
fd
ff
fc
fa
0b
03
f9
06
03
02
fc
fa
00
fb
f3
f9
08
fa
fb
fd
f9
09
fd
00
03
fa
04
fd
f7
01
fc
fc
f6
f8
fb
f5
fb
01
f7
f5
f7
05
f7
ff
05
f8
ff
0a
ff
0a
0b
04
04
07
08
05
09
fa
f6
f5
fd
fa
fd
fa
f9
ff
00
01
01
03
01
02
01
01
01
f8
e9
f9
ea
ef
fe
ee
f9
05
01
02
03
01
04
08
f8
ff
08
fc
01
06
fc
00
05
fc
fc
02
e7
e6
ea
fb
ff
03
0b
0d
0e
f4
f2
dd
06
05
f2
ed
e4
ec
fe
07
02
fe
0e
0a
d9
de
d4
03
00
fe
05
04
03
09
02
01
ea
df
e3
13
0d
10
0c
0b
10
ef
05
f1
fc
11
fd
ef
04
ee
f9
ff
f8
03
09
00
ef
fe
e6
00
05
eb
05
07
eb
02
03
ee
ef
fa
f6
e4
fc
f6
ef
fd
f9
e8
e7
d4
07
09
01
fe
00
f9
fd
fb
f4
fd
00
f6
06
09
04
f8
fe
fe
1b
1d
25
04
0a
14
fb
05
fe
f8
02
fd
fb
04
00
f1
eb
e7
e7
e3
df
f9
f6
09
f9
fc
00
fb
fd
ff
0a
06
ff
f7
fa
fd
f5
f9
fd
f6
f9
f5
fa
f8
fc
17
11
0e
ec
f4
fe
04
02
07
f4
ee
ef
04
00
ff
0e
07
09
06
02
00
1f
19
0e
08
00
04
03
01
ff
fe
f9
00
fd
07
f9
f8
fc
f9
f8
f9
f9
21
20
10
0d
08
00
0c
0c
0e
04
fe
00
1c
1b
0b
0d
0e
0a
f6
01
f6
fd
ff
f8
0c
fe
fc
12
07
f3
0f
0a
f7
06
00
ec
0a
1c
27
0d
1c
22
f9
0f
15
f4
ea
e8
eb
e6
df
ee
e9
e7
fe
01
02
02
00
03
01
ff
05
fc
01
fc
fc
03
fd
00
04
ff
ff
fe
04
fe
fd
02
ff
00
fd
fe
00
02
ff
02
01
00
01
01
fc
00
02
03
fe
02
01
00
04
fc
fc
f8
0c
04
fe
03
05
05
04
01
02
04
ff
04
00
02
04
ff
01
f7
00
01
fe
00
00
ff
fb
00
00
00
00
04
ff
03
03
ff
fc
01
0a
01
02
03
03
08
02
01
00
fd
00
02
fb
fe
fc
00
03
01
ff
00
fd
01
00
00
fe
02
02
fe
01
02
fe
04
01
01
03
fc
ff
03
fd
01
01
fc
fb
f7
fd
01
01
0b
02
06
04
fe
00
02
fc
05
05
fe
05
ff
fe
01
01
02
ff
03
04
02
03
04
fe
0b
01
02
15
fd
00
1d
01
04
e9
fa
11
02
e9
ec
dd
0b
ff
0a
0c
f9
22
fa
e4
24
02
0a
0e
fe
0a
fc
01
0c
fd
e8
f0
f2
19
1e
1d
fe
05
00
01
04
00
12
20
fe
ee
00
ed
fb
fe
07
08
0e
1e
f4
f4
00
07
01
e1
09
09
d7
0d
fc
d0
f0
f2
eb
35
27
2a
e9
ee
ea
eb
ef
e9
fd
02
fe
db
e4
e3
f9
e9
e6
11
08
fb
f3
eb
e3
04
d6
ef
07
cd
ef
06
c0
ef
c5
fb
f1
c0
11
f9
d7
14
fc
e5
e4
cd
26
12
02
f0
e4
d2
fd
04
f1
f1
00
e9
01
0a
f5
f1
ee
ed
f4
f1
ee
f8
f5
ef
fc
fe
fc
fa
fd
ff
fa
fb
00
fa
f2
f1
f0
ef
f1
e4
ff
f2
fe
02
f7
f8
00
09
f8
00
09
02
11
17
01
0d
12
fc
0a
12
11
f3
ef
0e
fc
ea
0d
0e
f5
f4
fa
e5
ef
0d
eb
f4
15
ec
fa
fc
0c
f2
f9
0f
fe
04
17
00
01
03
ff
fe
fd
02
ff
00
02
02
04
05
fb
f0
f8
fb
f6
0d
0d
0d
fd
0c
09
ff
fa
05
09
11
0b
01
0b
0b
05
fe
0e
fc
f8
fb
fd
fd
f8
fe
f7
fb
07
03
f2
09
0a
fe
0d
0c
fc
0c
11
0c
0a
08
15
fa
f2
00
f8
0b
12
f9
0b
0d
ff
fd
0c
01
fa
f4
09
00
00
fd
06
02
02
fe
05
fa
fc
00
00
f9
fc
f8
f9
f3
e5
ef
fc
00
06
04
09
ff
09
fb
f2
fc
02
fb
06
fe
f9
fd
02
0d
01
03
f9
00
f1
f2
f6
03
fb
f4
01
0a
00
f9
fd
fc
02
0e
0a
00
0b
08
fa
f6
f9
03
03
01
f9
e8
ef
0a
04
fe
05
04
02
0c
09
00
f7
f0
ee
f7
f5
fd
03
fb
f3
02
f3
e5
05
04
06
00
fa
05
03
0a
06
fa
0b
ee
fc
f8
f8
0a
01
02
06
02
0a
02
01
fc
04
fd
06
09
0a
ff
f4
08
02
fb
f0
f5
07
05
fb
09
03
07
0e
08
06
fe
03
09
00
00
08
0f
06
04
0e
08
10
07
00
09
fe
01
fa
00
03
f9
fe
ff
f9
00
dd
e1
f5
f6
09
f7
00
07
01
00
03
07
00
05
04
03
08
07
09
06
04
00
08
07
03
ff
ff
06
fb
13
1e
17
fd
09
11
13
fd
fb
0c
f8
10
06
f3
0b
f0
00
0c
10
10
0a
f5
02
04
01
04
00
01
fe
02
fe
ed
f9
20
0e
f5
0f
0e
0d
e5
ee
ec
04
03
ff
f7
00
ff
df
f7
ff
f4
fd
fa
ff
07
02
e9
f9
f7
f0
f2
ef
fe
f5
f3
f2
f7
f3
fc
02
02
fb
05
07
09
06
ff
1a
07
fe
18
0b
fe
cf
ee
fb
ff
03
ef
f3
ff
fe
20
0f
f3
fc
f7
f3
00
03
fd
f0
f6
06
03
01
f7
03
03
f6
03
01
f7
01
fd
ed
f5
f8
eb
fa
01
f5
00
0a
04
f7
ff
f4
fb
05
f7
0b
07
0d
03
fd
0e
0a
01
08
08
0c
08
12
13
0b
f1
fb
06
12
fb
f6
03
f9
02
fc
f6
ff
0e
0a
08
d6
ed
e0
e1
e3
e7
01
fe
09
03
ff
07
fc
f9
02
22
0e
01
05
05
03
ee
f1
f1
fa
f0
ef
f3
f7
f5
e6
f3
f2
f8
ff
fa
03
07
fa
f6
f6
ef
ee
e0
f0
f6
de
f5
f2
e9
f6
f4
06
f6
e8
05
fb
02
12
17
0e
11
0b
05
00
f7
10
f7
f4
f4
f3
ea
fa
fe
f7
d5
f0
f2
f2
f9
f4
ec
f0
f2
ee
f6
f8
01
fa
fd
04
fd
01
00
fb
fe
f6
f8
18
fa
fe
03
fe
f8
f9
fc
f0
f2
f8
00
fc
f4
f4
ec
fc
fc
01
f9
fa
03
fc
f6
fe
df
d8
e6
fe
00
fc
02
03
03
f6
f4
f6
0f
03
01
04
ea
ef
07
0b
05
0d
18
18
f6
f3
e8
01
ff
01
01
01
05
06
04
0a
ec
e9
e6
13
10
13
00
00
fa
ee
fc
e9
01
09
03
f9
fc
ee
00
f5
f6
08
05
05
f6
ea
df
06
09
f6
05
08
f8
01
04
f2
d9
1a
03
cc
1c
05
dd
19
06
da
d7
ce
0a
0c
07
d6
c5
c0
f7
f6
03
f8
ee
fc
12
1b
21
f8
02
0a
01
ff
05
00
0b
01
fc
f5
0a
00
fc
03
03
02
03
eb
f1
e5
fd
01
ef
f1
ff
f5
06
f0
d9
fa
e8
e8
f5
f0
ee
00
04
f2
f5
fd
f9
f2
f4
f7
f0
f1
f0
06
02
fd
f7
ff
ee
f4
04
ed
13
03
f3
fd
fc
fa
0e
0c
00
01
07
0d
03
fe
f7
fe
15
ed
0d
1f
ee
0d
1f
f7
fa
03
f5
0f
0d
0c
e2
ef
e4
10
fb
05
02
f1
09
fc
e4
f8
06
f6
ed
06
fe
04
00
f6
05
0f
e6
fa
0c
f0
f6
0b
f7
f6
ed
e5
16
fd
ee
0d
f2
f0
07
17
05
fa
16
10
13
01
f1
de
fd
07
17
ef
01
11
ee
01
08
00
01
01
ff
01
02
00
05
08
00
01
04
01
00
01
03
04
03
fd
06
ff
00
07
01
05
04
0a
02
06
01
05
05
fa
06
05
03
02
02
ff
02
04
00
00
00
fd
04
06
04
02
01
ff
05
f9
f7
05
03
fa
06
04
01
02
02
00
fd
ff
fd
f6
f4
f9
01
01
ff
05
02
06
fe
ff
00
fb
fd
fd
00
02
00
07
02
ff
05
f6
f2
f4
f6
f9
02
fa
fb
fe
f8
fb
04
fc
fc
fd
f9
fa
f9
f5
fb
00
fe
03
fa
fd
ff
fe
fd
fe
05
fe
ff
05
04
ff
02
06
08
10
0a
08
fc
fa
f4
fd
ef
e7
03
01
04
02
02
07
00
fd
01
f4
03
06
ff
02
04
00
06
0b
ff
ff
01
03
ff
ff
03
00
ff
fd
fd
f6
fb
03
f2
fd
fc
ff
f2
ec
e6
fa
f4
ed
fa
00
de
ff
ff
f7
01
f6
f2
02
f1
e2
f2
f0
ef
f1
ec
f1
fc
f2
e5
02
0b
04
01
02
0f
08
07
14
f6
fc
fb
ff
fe
f7
02
03
07
0a
0e
02
08
09
04
05
0d
ff
fe
0b
04
ff
fe
f7
f4
df
ce
00
05
08
03
fe
fc
06
fc
fb
fd
02
fd
00
f9
02
fe
f7
12
04
f8
fe
02
02
ff
08
05
05
e9
e7
0d
ee
ed
08
e9
f0
0f
0f
0f
09
14
06
07
12
fe
f0
06
09
1c
04
07
11
fc
05
0a
01
02
00
f8
f7
f9
01
08
06
ff
02
fd
02
05
01
05
03
00
06
06
fd
fb
fe
f6
e9
f6
f1
f2
fd
fd
ef
fa
f6
f4
f5
e5
0a
06
05
02
fb
fc
00
00
03
0d
07
09
04
ef
ea
1a
0e
fd
10
09
0e
09
10
0f
09
0a
05
f9
f6
fa
e9
eb
f2
14
0b
0b
03
ff
06
05
01
06
fd
04
05
0f
03
01
fd
f2
f1
17
05
fb
f8
ed
f2
f4
f6
01
02
08
fd
fe
fd
ff
fb
f5
f4
06
04
f9
0b
f1
fc
0b
fb
f6
09
fa
f6
f5
fc
03
0a
fe
00
03
fb
01
09
01
06
0f
15
03
15
0c
ff
e0
ed
f4
e5
ea
ec
f3
ea
ec
f3
f8
07
fa
05
0d
07
13
1a
ff
01
0a
fb
ff
06
fa
fe
08
f6
f3
fe
fa
f6
ec
08
e5
e9
f8
f3
f9
f5
fc
f8
f4
00
f8
fe
02
fa
fe
04
fc
fa
fb
f2
f3
e0
e8
08
ff
f5
f2
eb
e6
fb
fe
04
02
01
03
0d
07
06
f6
02
f4
f0
f9
f7
e3
ed
eb
04
0c
02
0b
0f
02
09
04
f5
fd
01
fe
11
ff
ed
0b
e9
c8
12
04
25
08
0c
1b
17
19
21
fa
f0
f3
f6
f6
01
f9
f6
04
ff
06
09
f7
03
04
f9
02
ff
e7
e3
e3
e8
e9
e2
e9
e8
e4
23
0b
0c
1e
14
0e
2b
fc
df
ff
05
15
ff
f6
ef
fa
0e
17
05
0e
0c
15
0d
11
0e
0b
0e
03
01
fc
fe
ff
fa
fd
00
00
08
06
fd
04
03
fb
06
0b
fe
fc
03
f9
fb
02
f9
f7
05
f8
04
ff
fd
03
fa
fc
00
fa
f3
0c
01
fc
03
f7
f9
f8
fb
fa
01
ff
0d
ff
fd
0d
01
fd
12
ff
fc
fa
05
02
f1
03
ff
f2
01
fc
09
03
fb
08
07
fd
08
00
fa
fa
fb
f5
fd
fb
f8
fb
fc
04
05
f3
f5
00
fb
01
05
08
ff
03
01
00
ff
fe
fe
01
fd
fc
fe
01
f5
fb
0b
f8
fe
f8
f7
f9
ed
ff
fb
ed
05
fd
07
f4
01
fc
f5
07
f9
01
00
09
08
01
09
08
08
0a
05
11
01
07
02
05
04
fd
0a
07
fe
01
00
0a
04
05
09
06
fd
08
f3
de
e6
f8
f4
e3
e3
00
ef
f6
fe
04
f9
07
08
fb
fb
0d
05
f9
f0
fb
f4
f9
f3
fd
03
e2
fc
02
03
ff
f8
26
21
1d
f2
fa
06
09
0f
20
fa
03
fa
19
00
14
10
fb
fd
06
07
06
fd
fa
e9
02
fe
f3
02
f5
f7
dd
ed
e0
2f
31
1d
02
fc
fb
05
09
01
19
17
0f
e3
e2
ee
fc
f5
ff
04
fe
fc
fd
0a
01
01
fc
ed
05
02
f2
1b
07
e9
eb
eb
ed
f7
fa
fa
07
04
08
d8
d1
da
11
04
02
10
f5
03
1a
12
08
f6
03
03
eb
f3
ff
00
f7
fa
02
fd
01
01
fb
fa
ff
fd
f5
01
01
fb
fd
fd
fb
e7
fb
fd
ee
08
13
e9
ec
e8
f4
01
f5
f9
fa
f5
f8
f7
ee
02
fd
ff
ff
f2
f0
09
06
0a
06
02
f8
fe
f5
f9
02
05
19
02
0a
ff
01
03
00
0d
11
14
f8
07
0e
07
0b
13
07
04
0d
04
04
0c
fa
fa
fd
f8
fc
fe
06
09
f4
1c
08
05
f7
ff
02
02
17
fe
05
1b
10
f7
09
00
f6
01
ff
0c
15
17
03
0a
11
03
0e
06
03
fe
ef
fd
fd
fd
05
0a
07
ea
f2
fd
01
0b
0a
0a
0b
06
12
12
06
11
19
09
ff
03
0c
e8
fb
ed
e0
f3
f6
f7
fb
f8
25
28
1f
03
05
01
fe
02
fe
ff
04
ff
ff
04
fe
d0
ce
e2
e1
e1
e4
e7
cc
d6
03
06
04
f8
fc
fd
fb
fb
fa
04
fe
fe
02
01
ff
00
00
01
f5
f9
f8
13
13
0e
01
f3
f1
0b
0e
02
fb
00
f3
16
11
01
fc
f9
fe
f7
f3
fa
05
03
00
07
05
0e
03
fd
03
fe
ef
ff
fd
01
fd
02
fa
f4
0d
03
05
2c
24
20
1d
15
11
05
06
fe
18
12
14
33
2b
25
12
13
0e
00
fe
00
fd
02
01
02
04
01
01
fc
06
08
f5
04
fc
f7
01
26
2a
27
2b
2f
2a
05
06
0d
d9
db
e0
da
de
dc
e2
de
e1
02
03
00
00
02
02
fb
06
ff
fe
fd
ff
fe
fe
fe
ff
00
00
ee
f7
f7
ee
f7
f6
02
03
00
04
06
05
07
08
07
01
00
fc
01
fd
fe
01
00
05
00
02
00
ff
09
03
ff
03
06
f5
04
05
04
07
09
09
09
0a
03
04
ff
fd
fb
ff
03
02
04
0a
08
07
00
fe
ff
ff
fe
fd
fa
f9
fb
05
fe
f5
f0
00
06
07
fc
f5
ee
03
03
04
02
fc
0b
fb
fc
08
06
00
04
01
fe
fa
f9
fd
02
01
00
ff
03
01
fd
ff
02
05
03
08
00
02
06
00
05
03
0e
08
07
06
03
01
f9
f6
f6
01
02
fa
f9
fb
fd
f6
fb
fe
fc
f9
fa
03
fa
fe
08
f6
fd
01
03
fc
03
06
fc
00
00
f8
e1
f8
04
f9
f9
04
f9
ff
0c
f8
02
03
02
05
03
f7
ff
fb
fe
fa
f3
fa
f9
f7
05
02
fe
05
f7
f2
10
1b
12
03
fa
fe
fd
01
f8
ef
f6
fa
f1
f6
fd
f9
08
08
06
05
03
f5
fb
ff
f5
fe
02
f6
02
06
f5
ff
07
07
f3
fb
f7
0e
09
01
fe
fd
00
10
fb
f8
04
f0
f6
07
f0
0b
14
00
0d
0f
04
f0
11
ea
03
09
f8
02
06
f5
ff
07
f1
f3
00
f8
f6
0d
f6
eb
fd
ec
03
09
04
06
00
ff
e9
09
f4
06
f4
f9
00
01
fa
00
05
0e
fd
fb
f6
2b
2b
25
11
0f
02
05
03
06
04
04
07
02
00
0b
dc
e7
eb
d2
e0
dd
dc
da
ea
03
01
00
04
04
05
00
f8
ff
fe
f8
f5
ff
fc
f6
fd
ff
f5
ed
ec
e8
0a
05
0b
fc
fd
ff
08
14
12
fd
fe
fa
0f
07
03
05
02
06
0c
0c
0d
09
0f
0d
0a
0d
0b
0d
03
08
0a
fa
fc
fa
f9
f2
f4
fc
01
01
04
ff
25
27
13
11
13
04
0b
09
00
20
14
0a
2d
2a
17
17
10
11
fc
ff
ff
fd
fa
ff
f9
fb
ff
05
08
0b
05
09
05
fe
08
fd
20
21
16
1e
1e
1d
07
0a
fa
f3
f0
f3
e4
e5
ee
e5
ec
f3
07
05
02
08
09
0a
04
02
0c
f8
03
1a
f8
05
1d
fa
06
1f
ec
f3
df
ee
f6
ec
f5
f2
f5
0c
ef
29
05
e9
3c
00
e0
40
f3
ec
d5
ee
ed
c7
e7
ea
c0
da
e4
e5
ff
ff
05
ff
05
0f
f3
00
01
f9
01
f5
e2
05
f3
13
05
20
09
03
17
fc
f1
00
03
ee
de
fe
eb
de
04
e5
db
f6
e3
d8
10
02
07
0d
f8
08
f9
0a
04
fc
07
03
fa
01
01
01
f1
15
01
f4
15
0e
f0
12
f3
f9
f0
f2
f0
ea
f9
f9
f0
e3
10
e9
dc
0d
f8
da
03
ff
fa
e6
e7
07
f2
ff
13
f6
f6
ff
05
ec
fd
06
ef
01
0b
f7
f7
f5
f7
01
01
fd
f6
f7
f5
07
07
08
08
01
00
04
fd
00
eb
e7
fb
f2
fc
0d
e1
e9
e9
f4
f7
f8
05
09
ff
fe
00
04
01
05
0a
fd
fd
fc
04
01
07
fb
f5
f8
0f
06
0b
06
02
03
f5
ee
f4
01
03
02
fe
f9
ed
e4
e5
e9
f5
00
ff
f7
0a
09
0b
06
fb
02
03
f9
06
04
f8
f0
f4
e3
0d
09
0b
03
02
04
ee
f5
ed
05
0c
08
f2
fc
fe
f4
f6
eb
04
01
00
f9
ff
fd
01
fe
e4
08
04
f0
05
01
f4
ed
f2
06
e6
07
0b
e2
0b
03
ea
ea
d9
20
0a
05
0d
07
fc
05
fd
f3
ee
ec
e5
e9
f4
e5
01
05
0f
03
04
02
ff
ee
f4
05
04
ff
03
02
00
01
fe
fc
06
05
09
f9
01
05
09
0a
0d
fd
00
fb
fe
00
fd
f4
fe
00
01
07
09
02
03
01
03
02
fd
06
03
f3
0e
0b
07
01
03
fe
02
fc
f5
f5
f2
fb
f8
f4
f4
03
fe
fc
fa
fb
00
00
04
07
fe
ff
00
04
06
03
02
03
fb
08
04
fa
0a
09
04
fd
fd
f6
ff
fc
02
fd
fb
fd
f4
f4
f7
fd
ff
f9
02
ff
fe
fe
fd
01
f8
fc
fa
fc
fd
ff
04
fc
03
0e
03
fb
fd
02
f9
fb
f5
f7
06
fd
03
0e
09
0c
07
fd
ff
04
ff
08
f9
f7
fb
f7
f8
fb
05
09
04
04
04
fd
03
f9
04
09
00
fe
04
fe
fd
05
fc
fd
ef
ee
fc
ed
f9
fa
ed
fb
00
fc
01
02
fe
02
f6
04
fb
06
00
fe
fd
03
fe
f3
0a
04
fe
f2
f6
f9
04
00
fa
ea
f7
ff
03
05
0d
06
05
14
04
0c
0f
fc
f4
f7
f1
ff
f7
fd
02
00
ff
02
f6
f7
09
f4
f6
05
ed
11
05
fd
0b
fd
fd
f5
ec
fa
ff
fd
0f
fd
fb
0c
0d
fd
04
fe
01
f8
fa
fd
f1
fc
fb
ef
fd
f8
06
f8
f7
08
f9
e8
00
f7
ef
f4
09
09
f5
06
00
06
10
e7
fd
ff
ec
f9
f9
f3
f5
02
03
0b
05
05
0d
09
03
09
f5
ee
ed
f9
f2
f1
f1
ef
fa
00
fb
ff
03
ff
04
04
02
06
f3
08
f6
e5
ed
f4
f6
f3
06
03
fd
f9
02
ff
01
fb
ff
fd
f5
f9
01
02
ff
08
01
04
05
f1
ef
ea
03
05
09
02
09
09
f0
f1
e3
05
fd
e1
f3
e5
dc
f5
f4
ff
03
0a
0d
ce
cd
c2
fc
fe
00
01
06
0a
09
02
02
eb
e5
ec
ff
fd
02
0c
0c
08
f7
01
ff
f3
f8
f3
f6
fc
fb
fb
f7
fc
02
05
05
f8
f4
ed
f6
02
ec
02
00
ec
02
fc
e9
ff
16
ff
ea
10
e9
fd
08
f9
03
f8
f7
05
f9
f8
ee
e5
e0
ed
ed
e4
f3
ee
e4
fe
f7
f4
0b
0c
06
0f
0e
03
0f
0f
02
06
03
07
02
02
05
ff
02
01
02
02
00
05
02
fd
00
0f
0d
06
04
ff
06
0b
0d
f9
0c
0b
03
fb
fb
ff
00
06
fb
02
0a
01
08
06
fe
04
ff
00
f6
ee
0c
0a
00
12
08
0a
08
03
04
fe
f5
ff
02
04
0d
06
0b
08
ff
f9
fe
02
fa
03
ff
f8
ff
06
0f
06
04
01
fb
f7
f6
f5
fb
fc
04
00
f9
f8
f4
f3
00
02
01
ff
0d
0f
09
ed
f4
f5
02
f6
fa
03
fb
fe
02
f6
fa
e7
00
f6
e2
ee
dd
f0
07
e8
0a
fe
f8
07
06
fa
fc
f7
ea
07
07
fd
f4
f0
eb
f8
f7
fc
f1
f6
f3
14
14
14
04
03
02
fa
fb
ff
fd
fd
00
f6
fd
02
f4
01
fc
ed
fa
fa
e6
f3
f1
fb
fd
fd
01
fe
fd
fd
f8
fb
05
05
04
06
06
07
08
04
04
f0
f3
f6
ed
e5
ed
fd
fb
fb
f4
f5
f7
fc
f7
f7
ff
ff
01
03
00
02
fb
03
01
fd
05
ff
11
0d
0e
10
09
0a
1a
07
08
f1
f6
fa
f4
f0
fa
03
f7
f9
10
0c
07
0b
0c
05
00
03
01
04
04
03
0a
09
07
09
12
05
03
01
02
fe
fd
f7
ff
fd
fd
ff
ee
f1
01
fc
f6
0b
09
07
06
09
ff
0c
0c
0c
0c
11
0c
f5
f1
f8
ef
ef
f7
f8
f9
f8
f9
02
fd
f0
ff
fa
ed
f9
f7
ff
02
0a
04
05
04
04
08
07
de
f7
0b
f4
ff
14
ec
02
00
fa
f2
f8
04
fa
f9
fa
f2
f2
fb
ff
00
01
00
fa
fd
04
02
e2
e6
f5
e7
e6
f1
ff
01
f5
db
fb
04
f2
f7
00
ed
f4
08
ea
f1
f5
ed
fb
03
f3
f8
f8
fc
ff
ff
fc
fa
ff
02
fe
04
f6
f2
fb
ec
f2
ef
ff
f6
e9
f8
fc
ee
02
03
00
f7
f4
06
f2
fb
ff
f9
01
03
02
fc
f5
ee
f0
fc
f7
f6
f1
f9
f4
ef
07
f6
fd
f4
f8
f9
f0
ed
fc
04
ee
fb
00
f2
f8
14
fa
02
0c
10
10
02
06
04
f1
fb
fd
f6
fc
f7
03
ff
f7
06
fc
fc
02
00
fb
01
fd
fd
01
fa
ff
fb
e9
0f
fe
ed
0d
ff
f3
fe
0a
04
ed
04
08
fe
07
ff
00
fd
02
05
fd
00
01
fa
fa
f9
ff
f9
f5
ff
f6
fd
ed
f8
f2
fd
04
fa
fa
02
f7
f9
f8
06
00
02
05
03
02
04
ff
02
02
07
0c
08
04
0a
04
ff
09
05
09
eb
f5
fa
fa
f4
09
0a
fd
fc
01
0b
ff
06
07
fe
03
13
02
fa
fd
fd
fd
fd
f5
fb
08
09
fd
fe
0c
fa
fa
06
01
ff
f6
02
02
f0
fa
09
f0
e9
08
01
e9
f0
f9
ed
e6
0d
06
f9
13
10
0b
0d
15
0a
09
06
0b
f5
f5
fb
fa
02
fc
f8
fe
fe
00
03
00
02
05
03
05
04
01
e6
da
dc
ec
f0
02
fc
fb
05
fd
00
00
fa
05
fd
03
0b
01
f3
fc
fa
02
04
fb
10
03
05
fa
f5
f1
01
08
0e
11
fe
f5
fa
ff
0f
ec
e9
fb
f1
f3
fa
01
04
fc
fb
f3
ed
de
f3
f6
00
03
03
05
05
05
01
ff
05
0a
0e
09
02
07
09
08
04
fc
fa
fc
f9
e9
f3
ec
03
08
fb
05
01
ff
f7
01
fe
00
00
f6
09
0e
09
08
05
09
07
04
fe
07
ff
f3
f8
ff
f6
0a
06
09
04
0c
0b
03
0e
01
0f
07
ea
f6
f5
01
fb
f5
05
12
09
12
03
09
04
03
09
0b
02
07
0a
03
04
f8
00
04
fa
f9
fc
f4
0a
ec
e5
15
04
04
f5
fd
ff
0d
08
12
10
11
1b
07
0a
14
03
0c
f8
0a
0b
05
0d
0a
04
f9
f9
f7
0a
1a
10
ea
ff
ec
17
fe
0a
fc
05
16
f9
00
05
02
fb
ff
13
16
18
00
06
11
07
04
f0
04
00
f5
fa
f2
e6
1d
0a
f5
02
08
fd
f0
f1
e5
1c
22
15
04
00
00
fc
f3
f6
00
fc
ff
fe
06
07
fa
f9
f8
08
f7
ec
01
eb
e6
f2
ec
e7
e3
05
fa
e0
07
0b
eb
08
0f
05
f8
f3
fd
f7
f9
f3
e8
ed
07
f9
eb
03
fd
f6
00
ff
f7
f3
f4
04
f5
f4
fd
f0
ed
ef
00
04
01
ff
05
01
fd
04
02
fc
03
fc
f2
f8
f0
f5
06
f9
fb
ff
fa
ec
f8
f5
ed
fd
f8
f8
03
fa
fc
03
f8
f9
01
05
02
fb
02
f9
fc
04
f8
f1
e7
00
fb
13
02
fd
0b
fc
fb
08
09
0b
fe
fd
09
05
f1
fe
f8
07
04
fc
0b
01
fc
0c
fa
fe
06
0d
0e
fe
fd
00
05
ee
e3
09
00
0c
00
f6
fb
08
fb
03
06
06
08
fa
fc
05
02
f2
ff
00
05
fb
01
f9
fb
01
f7
ef
ea
f6
0e
f5
fc
07
0b
06
18
0a
0b
0e
03
f5
01
00
f0
e4
05
05
10
fe
06
08
0b
10
19
15
17
15
0e
1a
16
fa
0e
1a
00
01
fb
fb
f8
f8
fc
fb
f9
fc
08
06
f3
f2
ec
03
11
12
f7
ee
ec
f9
ff
f9
fe
fe
04
0e
fa
06
08
ff
0a
04
fa
fd
1c
1b
18
16
1d
07
f9
f7
fe
11
11
18
10
12
21
1d
0e
11
e9
ea
e9
f5
f0
ef
f2
ed
f4
07
14
fe
09
0a
07
0f
0d
04
e6
e2
d7
ea
f4
00
10
08
05
f9
fd
02
04
ff
09
07
fe
fc
f6
f2
f5
f6
f8
f6
01
02
04
0b
0e
00
fe
08
04
fd
05
00
fd
f8
f2
fb
f9
ec
00
fb
ec
f1
f9
ef
f3
05
f9
21
15
0d
0d
0c
0f
fe
01
fb
06
06
07
f1
f4
f9
ff
fe
fe
fb
f8
f8
02
00
e7
08
01
e5
08
00
e0
e3
ec
07
f6
ee
11
ef
f0
f3
f7
0b
d3
fe
1b
d2
fc
18
cc
fa
fd
2e
f9
f6
2b
fe
f7
27
ec
f3
ea
00
04
08
0a
0d
0e
f8
f4
fe
0a
f8
fb
f9
d6
f7
fd
0a
fa
00
0d
06
fe
05
f9
fe
fe
17
01
01
1c
fc
ff
26
e9
df
ee
06
08
10
0d
12
1a
fb
04
eb
04
0d
fe
f6
07
f2
fa
07
f0
fc
09
f6
f1
09
ea
07
07
f6
09
07
ee
05
12
f1
f0
e8
fc
de
f7
fe
e0
fa
f8
f0
f7
f3
01
0d
0b
04
0a
0c
ff
f4
f2
00
f0
e4
f7
e9
e9
ff
04
04
01
06
ff
fb
07
01
fd
f8
fe
02
ff
fb
05
00
f9
fa
fb
ff
ff
e9
f9
14
0c
06
09
f2
de
10
f5
e5
08
eb
e3
fa
fe
f8
fe
fb
fb
fd
f8
fb
e7
ed
f4
ee
eb
f0
10
01
01
f6
fa
07
fb
fa
07
02
07
04
f9
fe
fc
f8
f7
fd
03
fc
ff
ff
09
1a
0c
0b
17
08
0f
1d
ef
17
09
ff
ff
09
f5
04
f5
00
0e
fc
12
12
f7
0d
0c
f9
01
04
f5
02
01
f5
fa
f9
f1
01
04
10
fd
04
07
04
09
04
08
f1
eb
ff
f4
fa
fc
fc
f7
fa
07
0a
02
05
03
01
fa
f2
0a
02
0e
0c
00
08
0c
fe
15
01
f8
fc
00
f9
fc
fe
fa
fc
fb
00
fb
03
fc
fb
fc
fe
f9
ed
fa
03
f9
02
0d
11
0b
0a
05
07
05
00
fc
fd
fa
fc
f9
0c
06
fc
07
08
fb
06
05
04
f7
00
03
07
08
07
f3
f6
f5
01
04
fe
02
00
05
fd
fd
05
fd
05
fd
f7
f4
f3
f9
02
00
05
05
01
07
04
ff
09
06
01
e4
16
f9
09
04
03
f2
f5
f4
07
fb
05
0a
f9
06
f5
f5
05
0e
00
06
07
00
04
ff
f9
05
05
fa
02
05
fc
03
07
02
07
04
fe
f7
f7
f9
f4
08
fd
f7
03
0d
13
0c
09
09
03
f3
0d
fd
01
fd
f6
f8
f7
f6
f9
ff
07
08
01
10
14
05
03
03
05
fe
00
ff
fc
00
fc
f9
ff
fd
01
05
04
06
04
02
02
05
04
fe
fb
fb
fc
01
fe
fd
ff
fc
00
ff
03
04
04
08
fa
ff
05
e8
ed
e7
fe
ff
00
f7
f7
fc
fb
fc
ff
00
01
fe
01
00
ff
fe
02
01
f9
fd
ff
01
ff
fc
05
01
02
01
00
03
03
03
06
f6
f8
f6
09
06
05
f5
f9
fd
fe
ff
01
ff
00
ff
01
02
ff
04
00
02
07
04
01
05
02
01
02
01
06
00
01
01
02
02
ff
02
02
fb
04
06
05
fe
04
04
03
02
05
04
04
04
f7
f8
fd
ff
fe
ff
fd
ff
00
fd
fe
fd
07
0b
03
0a
09
07
03
09
04
08
00
0a
09
ff
06
08
00
09
02
fe
0f
f3
f5
fe
eb
f1
f9
07
ff
f9
0a
08
fa
05
ee
f8
06
fe
d3
01
eb
c9
08
f3
d0
f2
ee
f9
03
01
07
17
13
11
09
05
06
15
1b
16
0b
0e
fe
f2
fc
f8
fb
0a
02
eb
ff
f8
05
01
f7
fb
fa
f8
06
07
f9
f4
00
02
fd
0a
11
11
06
09
f8
09
f0
fb
1b
05
f4
02
fa
07
00
ef
10
0b
f1
fd
05
f3
fc
fe
e9
fd
07
ec
09
04
f0
eb
ff
f0
ee
12
fc
e7
07
0a
f0
01
f7
08
13
06
fa
06
ff
09
00
06
fd
ff
04
0c
0f
10
f5
fb
fc
11
10
15
ff
05
00
fb
ff
05
fb
00
05
05
ff
04
f4
f7
e1
f7
f6
e7
08
02
01
f5
f3
0f
f5
fa
10
08
07
17
05
fc
eb
0a
02
f3
06
02
f6
f4
f6
eb
06
06
fb
ee
f3
ed
01
fe
00
f0
ec
e4
f8
f8
f0
f8
fa
fe
f3
f0
f0
fb
fc
fb
0a
fe
17
05
f6
11
fe
f1
10
fd
ff
fb
f7
ee
ee
04
ff
02
17
07
08
04
fb
fd
02
06
05
07
fe
07
ff
fa
07
04
fd
0a
07
fa
f7
02
ef
ee
f9
f6
ef
e1
df
e4
e3
e2
ee
de
e7
ed
26
17
1c
11
02
12
00
f5
01
fa
f8
03
fc
f7
fe
fb
fd
fe
00
fc
fd
fe
ff
fe
ff
01
ff
fe
00
01
fb
ff
02
fb
fe
02
fd
01
fd
06
04
ff
02
06
ff
f7
fe
00
f6
00
ff
f7
ff
00
03
ff
fb
01
ff
fc
03
01
ff
ef
f8
f8
f7
ff
ff
00
fc
f6
04
ff
fb
02
01
ff
03
06
fe
fa
01
ff
09
fe
fd
07
fa
fc
fd
01
ff
08
03
01
06
02
ff
fe
fb
fa
f9
00
ff
08
fd
ff
fe
fa
f8
fa
fc
fc
01
ff
fb
02
00
01
0b
03
04
05
02
00
08
fe
fd
0a
fe
fc
06
fe
fc
fa
fa
01
fe
fe
07
03
01
07
f6
fd
fb
0a
fe
fd
06
01
ff
07
fe
03
f9
ff
02
00
02
05
04
03
01
07
06
03
01
fb
fd
00
00
fb
01
fe
f9
05
01
f9
f2
f5
f7
ec
e5
02
00
e8
f5
05
fb
fe
08
04
f6
fd
f8
f1
02
0f
00
f6
05
0b
ff
fe
04
fe
04
e6
05
ef
ea
08
09
fe
f5
e8
dc
00
f7
f1
0c
eb
f7
ff
f7
fc
00
01
02
f4
f1
f5
fd
07
08
f6
00
06
f6
fd
0c
08
0c
00
f4
ef
ea
11
0c
0d
f1
fa
fb
f6
04
00
09
13
0f
fb
fe
ec
f5
fa
ef
f5
06
ff
02
05
fc
01
08
00
fe
06
f8
f9
f8
fc
00
fe
04
e9
f0
06
ee
f4
fa
f8
f3
e8
00
05
04
f5
ea
00
f8
fa
0b
f9
f2
01
fa
fb
11
f7
f8
10
ed
fb
0b
fa
fd
fd
fd
02
fc
fc
ff
ff
00
f7
fe
fb
f6
f9
f8
f9
fb
fc
f8
02
02
04
09
02
fc
03
0a
ff
00
06
f9
fe
06
f9
05
e8
e5
03
f5
f2
f8
f7
f8
f9
fe
fc
07
fd
01
08
0c
05
fe
08
0c
00
01
fc
00
0c
fb
ff
fa
f6
02
fb
f1
08
00
fa
0d
f5
ef
11
ff
07
08
f7
fb
00
09
04
0a
02
01
04
01
0a
05
fa
f8
f7
f7
fc
fa
f4
fb
fe
fd
f9
01
02
03
00
00
fc
f5
f8
00
f1
fd
fe
fc
fa
03
fa
0f
00
06
ea
f8
ef
00
e2
fd
fb
f9
f7
09
fa
f3
09
0a
03
fc
01
06
05
00
03
09
09
07
04
02
07
04
03
07
02
04
0a
ff
04
01
ec
e9
06
f5
f9
f6
f8
ff
03
01
04
0b
f9
01
0e
02
08
04
fd
05
fc
ff
00
fb
ed
f4
f4
01
07
0c
0c
0b
16
fe
06
eb
0b
0f
f9
f3
f8
f8
fe
03
0b
06
0a
0e
e0
e9
ea
0a
09
00
08
0b
fe
08
08
f4
fd
f8
ec
15
0b
1a
f5
ee
fc
f5
f4
f5
fd
03
06
f7
f3
f5
fd
f4
fc
0b
04
04
02
f7
f9
01
ef
f4
06
f1
f5
04
e6
e9
f1
fc
fe
e9
eb
f7
e6
e9
f3
fe
f0
d0
17
0c
00
0f
f7
f2
08
04
fa
f7
f5
e8
fe
f9
f1
0c
fe
01
0d
04
0a
0a
03
07
f5
ff
02
00
fe
ff
02
f6
f8
0a
c0
f5
15
04
0b
f6
f0
0b
f0
02
07
e5
01
fc
eb
ef
ee
f5
e8
e3
e9
e8
ed
e8
e4
f4
f4
f1
ed
e7
f4
ec
dc
06
08
f8
03
ee
f5
f2
f2
01
f8
e7
e7
02
01
f9
0b
0d
f2
f0
f3
f9
00
0c
fa
01
0f
fb
02
13
f1
eb
f7
f0
f0
f4
e9
01
09
ef
05
f0
e4
01
f2
e8
08
f7
fe
09
f9
fa
08
f8
02
08
fc
01
14
ef
fa
09
f3
ec
14
f3
08
06
ff
0c
0a
fd
00
03
fb
f0
fe
ff
d1
fa
01
cd
f8
fd
fc
fb
03
07
f9
03
09
fe
0a
05
f8
00
06
fd
08
0f
0a
19
00
ff
02
00
01
00
01
00
ff
fb
f0
f5
f9
ed
f3
f7
ef
f2
fa
f6
f9
f9
fa
f7
fa
fc
fa
fb
fa
fb
00
fd
fc
fb
02
07
fe
00
03
fe
f9
fb
f3
f6
f9
07
01
0e
0a
06
0f
09
00
06
00
ff
fe
fb
00
fd
fe
06
00
06
05
05
05
02
ff
00
02
f7
01
fe
04
f8
f3
f6
fc
fb
fb
03
fb
07
04
fd
04
07
fe
fc
03
06
0b
05
03
06
03
fa
fc
01
02
03
01
03
05
00
ff
05
03
02
01
02
06
01
03
06
00
0a
0a
0e
fc
f5
05
00
0c
fe
ff
00
fc
01
06
fa
02
00
ec
05
04
0c
28
30
2d
07
0b
01
fc
fc
fe
fc
fd
02
fb
fe
03
ec
f0
e8
e6
eb
e8
ef
f4
f0
ff
00
08
fb
01
06
07
08
04
09
05
05
00
fb
01
fe
fc
fc
ea
f2
ef
0e
16
0a
fb
fb
00
01
04
02
fb
fc
fb
08
07
02
00
01
03
fa
fe
ff
f8
fe
fd
04
02
02
07
03
04
ff
f7
fd
f9
00
fd
07
0a
0b
04
03
07
15
11
10
10
10
0d
06
05
04
09
0a
07
24
23
1a
0d
0e
03
00
00
00
00
02
fd
ff
01
fc
07
0a
09
00
fc
06
fd
02
03
17
13
15
23
1e
1b
0d
06
03
ed
ed
ef
e7
e8
eb
f0
ef
f7
02
00
fe
03
fe
fe
04
ff
00
00
05
fb
02
04
fb
01
03
fc
ff
fd
00
00
04
01
fd
06
04
03
03
06
06
04
04
06
05
04
fd
06
05
00
08
07
fb
ff
01
02
ff
02
00
00
01
02
00
01
05
01
fe
02
00
fd
fd
01
fa
07
01
01
01
fd
fd
fc
fb
fa
05
01
fa
01
ff
fa
fd
fb
fa
fb
ff
f9
fc
00
fd
03
06
04
07
06
04
07
08
02
03
0a
03
07
06
07
04
05
02
06
05
07
07
03
00
09
ff
fa
08
ff
00
fc
04
f7
fb
07
fe
01
07
fc
05
02
05
f9
04
05
00
01
00
ff
02
03
ff
06
03
02
fd
fd
01
00
01
06
05
04
03
03
05
01
ff
02
02
fe
00
02
fe
fe
11
00
f9
01
fb
fd
fd
ff
f9
04
02
01
fd
02
00
fd
02
fc
fd
fe
fd
fc
01
01
fe
02
03
fa
fa
f8
fa
f8
f9
fe
fc
fb
06
03
02
04
05
06
08
07
05
fa
00
ff
ff
03
03
ff
fd
fb
00
fe
02
fe
fe
01
fe
fd
03
fb
fe
01
03
fd
04
fe
fd
ff
fd
fe
fc
fa
fc
fe
f8
fe
fc
ff
00
fd
01
02
01
01
04
01
04
00
03
00
fe
03
fe
fc
fd
08
02
fe
f9
01
fc
fa
02
ff
fd
06
03
07
07
05
13
0c
0c
0b
00
01
07
fd
fd
08
fe
fd
03
04
07
03
02
02
00
02
04
00
01
ff
fd
ff
00
fe
fc
ff
fd
fd
02
fd
00
fd
f7
fe
04
ff
00
ff
fe
01
00
f8
f8
fc
fc
fb
fa
fd
00
fd
fe
fd
fc
f8
fb
fe
fb
fb
fb
01
01
fd
00
fe
ff
02
fe
01
00
01
00
01
00
04
04
00
01
ff
fd
00
01
01
01
00
ff
00
00
02
03
05
02
01
02
01
ff
fe
f9
00
02
03
03
04
06
07
03
05
04
00
ff
02
01
ff
00
03
02
02
00
00
02
02
01
02
02
02
03
fd
ff
00
00
00
ff
00
04
00
02
fe
ff
02
00
00
fe
ff
01
f8
f8
f9
f7
f9
fc
fc
f9
fc
f0
01
09
f9
01
00
fe
fa
fc
06
00
f6
fc
00
f8
fd
04
f6
f0
f9
fb
07
06
09
fa
f9
13
fd
f7
ee
f7
f4
e8
f4
01
fd
10
09
ff
06
0c
04
fc
09
01
f7
fc
f5
f4
e4
e5
ee
df
ea
ec
f7
01
f6
f2
ec
f4
f6
f5
04
fd
f4
fd
f9
fc
03
01
0e
fb
fc
08
00
fd
01
07
03
05
f0
fd
f2
e9
f1
e7
01
06
fe
fc
fd
02
09
fb
fa
06
fd
05
f9
fc
f2
ff
f9
f7
ff
fb
f9
fb
04
06
fe
06
05
ff
06
f4
f3
fe
08
f1
f0
f8
ed
f4
f5
e2
fe
f9
f2
fe
e9
0c
08
f2
03
04
0e
fd
f6
fd
ff
00
05
fd
f4
f3
01
fc
f8
f9
fa
fe
ff
fe
fe
02
ff
02
01
01
02
e3
ed
e6
ed
f1
02
f0
f7
0d
06
fb
f3
00
fe
01
fb
00
06
fa
fa
05
fd
01
0a
02
07
0c
f6
f5
e9
05
04
02
f4
fa
f8
eb
f0
e9
01
f8
dc
f1
e6
d8
f8
f4
ef
06
05
09
d7
d1
c9
f9
ff
06
fd
01
08
02
00
02
d9
d3
d8
fe
fa
f8
07
08
04
f1
fb
f8
f4
f7
f2
f6
ff
f7
f7
f8
f7
fe
01
00
fb
fc
e7
f8
06
df
05
07
e6
05
06
e1
f9
0f
fa
ee
04
f2
f4
fe
f5
16
ff
fd
08
04
ff
fc
ef
eb
fa
f9
f1
f8
f6
f0
fb
f6
ef
f8
f9
f7
1b
1b
16
08
04
fa
fd
fe
fd
01
00
02
fd
fb
00
f3
f2
f4
ef
f8
f6
f5
e7
f9
02
05
09
02
05
07
fb
f8
ff
04
ff
04
06
04
06
07
06
0b
ec
ef
f9
09
06
07
02
f9
f0
07
06
05
02
fd
fd
08
0d
10
fe
fc
ff
02
02
05
07
07
09
06
04
08
04
01
07
01
f4
04
f9
fa
02
f8
f2
f5
fb
01
04
13
11
0e
0d
0b
04
0d
09
05
0a
07
07
1a
14
12
13
07
08
fe
ff
04
fe
fe
03
fd
fb
fd
03
fe
02
02
fe
04
fb
fa
09
0e
0f
0b
18
14
16
0b
08
01
f2
f3
f3
e7
e8
eb
e9
e7
fa
fc
fa
0a
fc
fd
ff
05
fb
02
ff
01
08
00
fc
01
00
fc
f9
fd
f2
09
f2
0b
01
f9
05
fb
fb
fd
f2
fe
f9
ee
f9
f3
f8
fa
f0
fd
fa
f8
fe
fd
fb
fd
fd
04
0c
05
03
04
0b
0a
e8
ed
f0
fa
03
ed
00
08
f5
00
02
fc
fd
00
f8
ee
f9
00
f9
fe
f9
ea
02
02
ee
01
ff
f3
fb
02
fd
01
fc
04
04
00
f6
f9
ef
07
fb
eb
ff
ff
fc
15
02
ef
0f
03
f0
18
01
fc
12
05
f4
fc
06
f8
ff
03
fd
fa
06
0a
0f
02
0b
fa
06
0e
04
09
e8
25
07
eb
16
fc
ed
0a
fd
fb
01
fd
fc
fe
02
05
0b
1c
1d
1a
19
18
17
10
11
10
07
fd
02
fe
fa
03
01
fa
01
05
0e
fb
f1
01
e6
05
e6
e8
04
ea
f4
ff
fc
fa
fa
01
fb
fd
07
0d
05
02
12
01
fe
0c
f8
f1
d6
17
05
f6
01
fe
fa
07
f0
0a
03
08
02
00
0c
03
09
11
12
f0
f6
ed
fb
f9
fc
09
06
03
10
01
f4
06
03
f2
ed
f3
ec
0d
05
eb
fd
f0
f3
1e
fd
fa
0b
fc
fc
07
00
04
fb
05
1d
f9
ff
fd
03
04
fe
f0
f3
e8
fc
f1
ed
ff
fd
f4
e5
07
06
e6
f0
00
f2
f7
f8
03
03
ea
0d
0a
f0
0d
0c
03
ff
ef
dd
15
07
02
f2
e2
f0
06
f6
02
08
fc
fe
09
02
ff
00
fd
fe
ff
fb
fd
fd
f9
ff
f6
02
fa
f2
f7
ee
f5
ff
f4
03
fb
f7
03
fb
f6
06
fe
f9
f6
f5
06
fc
f2
02
03
f1
fd
02
fb
f9
08
06
08
01
ff
03
02
fc
00
03
ff
0a
04
02
fc
09
03
06
03
03
fc
05
05
fa
02
05
00
04
05
fe
08
01
00
f7
0b
ff
ec
04
fe
f7
08
0a
04
fe
fa
05
02
f6
0c
14
fe
f2
03
fb
f4
08
fa
f1
09
03
06
08
fe
07
0d
f8
05
10
fb
f7
f5
fb
f9
ee
f5
fc
f1
f6
f8
f8
07
fd
fb
06
f5
08
0a
01
0a
ff
01
09
08
09
0e
0f
f6
f4
f3
f4
f2
f1
f2
f0
fb
04
04
04
03
03
02
02
03
03
f7
f9
06
f1
f7
fa
eb
f7
fc
fb
f7
f5
ff
f7
f6
ff
f7
f7
01
01
00
ff
03
02
00
03
04
fe
04
fe
00
ff
fc
f9
fd
fd
02
fa
fd
08
fa
05
ff
fd
fb
0a
08
08
06
09
09
