00
01
02
02
02
02
01
00
fe
fc
fa
f7
f6
f3
f3
f3
f0
e0
dd
eb
e4
eb
f2
0a
1f
28
20
16
16
17
15
14
fb
e2
1c
05
0a
ed
fd
15
0f
08
06
05
05
03
ff
fb
e6
cf
cd
d1
f3
07
19
1a
15
10
0e
0e
0e
0d
0c
10
03
05
06
04
04
03
00
f6
ec
e7
e5
ed
e7
ea
e9
da
02
03
03
02
01
01
fe
fc
fc
fc
fd
ff
fd
fc
fa
f4
01
01
02
02
01
ff
fe
fe
00
00
fd
fe
fe
fc
f8
f1
03
04
05
04
03
01
01
fd
fc
fb
fb
f9
f5
f9
f9
fa
02
04
04
03
fd
fb
f8
f8
fb
fd
ff
00
ff
fb
fc
02
19
2c
dc
c0
c0
c7
c0
c0
c3
c8
d3
d7
d7
dc
d5
d3
db
22
28
f0
08
00
e5
ee
e5
eb
ed
f2
ee
ef
f1
f2
02
03
03
02
03
03
01
fd
fb
fb
f9
f2
f0
f2
ee
e4
03
05
04
02
03
03
ff
f7
f3
f1
f3
fa
f4
f4
f4
ee
c0
c4
1a
1b
08
0c
0b
06
06
05
ff
fc
f9
fa
fa
f6
03
04
04
03
02
02
01
fe
fd
f9
fb
fa
f9
fa
fa
f2
e9
c0
c4
09
26
18
02
fd
fb
fa
f4
ef
ec
f3
f2
e6
01
01
02
02
01
01
01
fe
f9
fb
fa
fc
f8
f8
f8
ed
02
04
05
02
00
fd
f9
fb
00
02
01
00
ff
00
fe
fe
04
08
09
06
03
00
f8
e7
db
de
e5
e3
e3
e7
e5
e2
fc
f9
f8
fa
fc
fd
fe
fd
01
05
0a
0e
0e
0e
0d
0d
01
01
01
01
00
02
01
01
01
01
02
01
ff
ff
fe
fe
01
02
03
02
02
ff
fd
fb
f9
f9
fa
fd
fe
ff
fe
fd
02
04
03
01
02
02
ff
fc
fb
f8
f6
f5
f5
f8
f8
f8
04
06
05
04
01
fe
f9
ed
ea
e7
ec
ee
ed
f0
ef
f1
00
01
01
01
01
02
04
05
03
02
fb
f9
f7
f5
f1
e9
01
01
01
02
03
01
fd
ff
fd
ff
fc
fd
00
f5
f4
f4
ff
00
02
01
02
03
02
01
01
fd
ff
01
06
04
04
03
15
ee
09
0c
e0
04
fe
fe
fd
ff
fc
01
03
03
00
ff
00
01
01
01
02
04
02
fe
fc
ff
03
02
00
01
ff
fb
02
00
fd
fc
fe
ff
06
08
06
05
04
01
ff
f8
f5
fd
01
01
00
00
00
00
fe
fe
00
02
02
03
02
03
03
06
1a
2f
c0
d4
d2
da
d8
d5
ce
d4
db
dd
e0
df
da
d7
02
04
04
02
01
ff
fb
f7
f6
f9
fb
fc
fa
f9
f8
f3
fb
00
ee
09
fa
f8
f8
f0
ef
f9
04
09
0b
0a
09
10
01
00
ff
ff
fe
02
04
0a
06
04
03
00
fc
fc
00
fd
ff
ff
ff
00
00
00
00
02
00
fe
fc
00
01
01
01
03
00
02
04
ff
00
00
01
05
04
fe
ff
ff
fd
ff
00
fd
02
03
02
03
04
00
fc
00
ff
f9
f6
f6
f5
f3
f3
ed
01
02
03
04
02
02
fe
fc
fc
fa
fa
fb
fb
fb
fb
ff
01
01
01
01
ff
fe
ff
00
fa
f5
f7
f8
00
00
02
ff
00
00
02
02
04
02
05
01
01
03
04
01
fd
fb
fa
fc
01
02
02
03
03
04
04
01
fd
fd
fc
fb
f9
fa
f9
f4
00
00
01
02
02
01
00
02
04
00
fe
fc
fb
fe
ff
00
01
03
02
ff
ff
fe
fc
f8
f5
f3
f5
01
03
03
01
03
10
2f
33
1c
dc
d3
cf
c9
c1
c3
c0
c0
c0
c0
c0
c0
03
05
05
07
05
fe
01
05
0b
05
06
07
04
02
fe
02
01
02
03
04
04
04
02
ff
fd
fc
fb
fa
fb
fc
fc
f6
db
17
13
10
fe
02
08
0d
0a
03
ff
ff
fd
fc
fb
fb
01
01
01
01
02
01
00
01
04
01
00
00
fe
01
00
00
01
01
01
01
00
02
03
ff
fd
fd
fc
fc
f8
f6
f7
f8
03
07
08
05
05
04
fe
f2
e5
ea
e8
ea
e5
e3
e4
e1
02
04
04
02
02
03
fe
f9
f5
f3
f4
f6
f0
f2
f3
ea
02
03
02
03
00
fc
f8
fa
f9
fc
fd
f9
f4
f6
f5
f2
02
03
04
03
00
fc
fa
fb
fc
fc
fd
fd
f7
f5
f7
f4
01
01
02
02
00
01
ff
00
fe
fd
fc
fc
fc
fe
fd
fa
20
3b
3a
dc
c5
c0
c5
c0
c0
c0
c6
c9
cd
cf
ca
c8
00
00
01
02
04
04
03
ff
fb
f8
f4
f1
f0
f1
f3
ea
03
04
03
04
02
02
fe
fb
ff
04
04
06
04
05
02
ff
fd
11
0f
f1
f6
fc
fa
fa
fa
01
01
01
02
04
05
07
02
00
16
29
20
ef
e5
df
d9
da
dd
dc
df
e1
d9
cd
01
02
02
01
01
02
00
ff
fe
fc
fa
f9
f8
f6
f6
ed
0d
ee
ed
ef
03
03
06
01
00
04
07
08
09
08
05
04
09
15
d1
12
04
dd
01
14
11
06
05
05
05
06
02
02
00
ff
00
01
02
03
05
00
00
01
00
fc
f9
f7
f6
f6
02
03
02
00
02
02
02
fd
fe
fd
01
fe
f6
f5
eb
f2
02
02
02
00
fb
f9
01
01
05
fa
fc
f8
f8
fc
f6
e7
01
01
00
00
00
02
04
05
04
01
00
00
fe
fd
f6
f5
01
01
01
01
02
01
ff
fb
f4
f0
f7
f4
e7
e6
df
e6
02
03
04
03
02
03
04
02
fd
f9
f9
f9
f8
f8
f6
f6
04
06
06
06
03
00
fe
f7
eb
ec
e6
e7
e7
e9
e4
ec
06
07
03
01
04
03
f8
f1
f0
f5
f3
f4
f0
ea
dd
e1
01
02
02
04
06
04
00
01
ff
00
01
fc
f4
f4
f1
f2
04
06
06
02
ff
f6
f1
e1
db
dd
e3
ec
e9
e9
ec
ec
03
04
03
ff
fd
fb
fe
02
02
00
00
ff
fd
fb
fb
fd
ff
ff
00
01
ff
00
02
06
09
08
03
00
ff
ff
fe
fe
03
f9
0c
2d
21
f9
e6
ea
ed
ef
ea
e7
db
df
d3
d3
db
e9
fb
fe
13
27
1a
05
fe
ff
fe
fd
fb
fa
f9
ff
00
00
01
03
01
03
04
02
01
ff
fd
fe
fc
f8
ea
ee
01
00
01
04
02
04
03
fd
ff
ff
ff
ff
fa
fc
f8
f7
00
01
01
01
01
02
03
01
fd
f9
f9
f7
f0
f5
e8
eb
ff
ff
ff
00
01
02
01
01
02
03
03
02
01
ff
fb
f7
25
35
c5
c0
d4
d1
ce
c4
c7
d2
d5
db
d5
d6
d0
d2
02
03
03
01
fd
fd
ff
fe
fd
ff
00
fd
fd
ff
fe
fc
01
00
01
02
01
04
02
fd
fe
02
01
fb
f7
fc
fb
f2
1d
2b
d3
d4
e7
df
d5
cd
c1
c5
c6
c9
c4
c8
c0
c7
06
09
0a
07
02
fc
f1
e3
d4
dc
da
e1
de
e0
dd
e5
09
28
35
2f
00
de
dc
d4
d5
d9
da
db
d3
d0
c7
c2
01
01
00
00
00
fe
fe
00
00
00
01
00
fc
fa
fa
01
e1
c0
d4
20
1c
07
01
07
08
04
03
02
00
01
fe
00
f8
fa
fd
fc
02
04
00
ff
ff
01
01
03
07
08
0c
0e
ee
df
c0
e1
11
10
0b
06
fd
03
0b
0c
0f
0c
0c
0b
01
00
02
02
01
01
fb
fb
fd
fc
fc
fd
fa
fb
f8
f2
00
ff
01
01
02
02
01
fe
fd
fd
fc
f9
f8
f4
eb
ee
04
e9
de
df
eb
f3
f3
f1
f4
fd
01
0a
11
0e
0f
10
19
2a
2f
dc
c0
d1
d0
c4
c0
c0
c0
cc
c4
c9
c9
cd
03
03
03
03
00
fc
fc
fe
fe
fc
fc
fb
f9
f8
f2
f8
26
3e
31
dd
c5
c0
c0
c0
c2
c8
c8
d2
c7
ce
c5
c9
fc
01
02
0a
09
fe
fc
00
05
06
ff
fe
ff
04
00
fc
fe
fd
fd
ff
01
04
05
02
02
06
09
08
08
06
05
02
00
00
00
01
02
02
02
03
06
09
09
0a
04
05
ff
f7
ee
e8
e3
e4
ed
03
13
1a
14
0d
0d
0f
15
14
18
16
e3
d7
d4
e8
f0
f5
01
14
22
21
1a
15
18
17
1b
11
f4
21
1e
fc
15
0a
e3
ed
f4
ee
ee
ea
e1
dd
ce
cd
02
01
fc
fc
fe
ff
01
00
02
01
01
03
05
04
05
04
fa
f9
fb
fe
ff
01
02
00
04
06
07
06
0a
09
0b
0b
01
02
02
02
02
03
00
fc
fc
fd
fa
fa
f4
f4
e3
ee
c8
17
18
11
00
00
09
02
f6
f3
f5
f1
ed
eb
e3
e5
02
02
02
fe
fa
f2
f7
f3
f1
eb
eb
f3
f1
f6
ec
ef
02
03
04
03
01
00
02
00
fc
fb
fc
fb
f8
f8
f9
fe
09
fc
d8
ee
fb
fd
fd
fc
02
00
ff
03
06
05
05
02
04
07
09
07
06
03
01
f5
f3
eb
f3
f5
ed
f2
ec
e8
01
01
00
01
01
01
03
03
01
00
ff
fe
fa
f9
f7
fb
00
00
01
03
02
01
02
04
03
01
03
01
fd
fd
fb
fd
ff
00
00
01
01
01
01
03
00
00
01
00
fd
fd
fb
fe
03
04
05
02
00
01
00
02
02
02
01
01
03
04
04
fd
00
01
01
01
02
03
02
01
ff
f9
f2
ef
e5
e5
de
ee
ff
00
00
00
00
fe
00
00
03
00
fa
f6
f8
fd
fb
f2
04
04
03
01
fd
f6
f1
e4
d9
d8
e0
e5
e3
e3
e5
e9
02
03
02
01
ff
ff
03
01
00
01
01
00
fe
fc
f9
fc
03
04
04
01
ff
fe
fe
fd
00
04
03
00
ff
fe
fe
00
c0
c9
1f
1e
0e
0a
04
04
03
01
01
fd
f9
f9
f5
fb
00
01
01
02
02
05
07
04
02
03
03
fc
fa
f8
ee
ed
06
04
fb
f4
fa
ed
e7
e7
ec
f6
f4
ed
ef
f7
f3
f5
02
05
06
04
03
02
01
fe
fb
f9
f7
f9
f8
f7
f2
ef
1c
01
26
1d
e6
e3
e0
d7
ce
cd
c0
c0
c0
c0
c0
c0
01
03
02
00
01
fb
f7
f3
f1
f1
e9
eb
e8
e6
de
e2
00
fe
fe
01
01
01
03
03
01
00
ff
fd
f8
f7
f1
f7
02
02
fe
ff
01
01
01
01
00
00
01
fc
f9
fa
f3
fa
00
01
02
03
02
02
00
ff
fa
fa
f8
f4
ef
e7
e7
eb
fd
fa
fb
fc
fc
fe
01
00
02
03
05
06
0c
13
13
0e
02
01
00
02
01
ff
00
fe
ff
01
02
ff
04
fa
fa
fc
ff
ff
ff
ff
ff
ff
ff
fe
fe
01
04
05
06
09
0b
08
14
18
1b
20
f5
de
dd
d5
d7
c8
d1
c0
c0
c0
c0
c0
02
02
02
02
01
ff
ff
ff
fe
fc
fb
fb
f9
f4
f4
f2
02
02
00
01
03
00
ff
ff
ff
fe
fe
fb
f8
f6
f2
f2
02
02
03
03
04
03
02
ff
fc
fa
f9
f8
f9
f8
f8
f5
03
02
02
01
fe
fb
fd
fa
fa
fc
fc
fc
fe
fe
fc
01
04
02
03
02
01
00
f6
e4
e5
df
de
d4
d5
d7
dd
e2
03
01
01
01
01
02
04
03
01
fe
f5
ed
ec
f0
e4
eb
03
03
02
02
02
03
01
fe
fe
fd
fe
fc
fc
f4
e8
f2
05
04
03
01
03
02
00
fe
f9
f7
f5
f6
fb
f3
eb
e4
02
00
01
01
01
02
01
00
fe
ff
02
02
03
f8
f7
f4
03
03
03
03
03
01
ff
00
01
00
fd
fc
fa
f3
f0
ef
00
00
00
01
01
02
ff
fb
fd
02
02
03
01
f6
f8
f5
12
0b
1d
f8
c0
f5
03
fc
f7
f8
f8
f2
e7
e9
e7
e7
03
03
04
02
fe
fe
fc
fd
fe
00
ff
ff
fb
f5
f1
fa
2d
2b
2d
e2
c0
c0
c0
c0
c0
c0
c0
c7
cc
ca
c4
d0
dd
e5
e2
e2
e7
f2
fe
14
22
29
22
1b
1a
1f
1f
14
01
01
01
ff
00
ff
01
02
02
ff
fe
ff
fc
f8
f6
fc
01
01
02
01
01
00
fe
fc
fd
fb
fa
fa
fa
fc
fd
fa
02
02
02
02
01
01
00
ff
fa
f6
f3
f3
f3
ed
f1
f1
2b
27
d8
c0
c8
cf
cf
cc
d3
da
d1
ce
cd
d0
cb
d6
00
00
00
00
02
04
05
03
01
ff
fc
f9
fa
f5
eb
f2
01
02
01
02
02
02
fd
f9
fc
f8
f6
f0
f1
fa
f4
f1
ff
00
01
01
00
03
03
03
fd
f8
fb
fb
f9
07
fc
f5
02
02
00
00
ff
ff
01
04
08
0b
0c
0b
09
0b
05
02
fd
fc
ce
1b
21
f6
ea
f3
eb
e5
e5
e9
d8
d6
ce
e1
01
00
01
00
00
01
02
03
04
04
05
00
01
03
ff
04
02
01
01
00
01
00
fe
02
02
03
03
05
05
05
04
04
04
05
06
04
01
fb
f4
e9
e8
e1
e2
d6
d9
da
df
e1
03
03
02
01
00
ff
fb
f6
f8
fa
fc
fb
fa
f8
f7
f7
01
fc
fb
fb
fb
01
02
fe
03
0b
0e
0d
0c
10
0f
0d
c0
15
1a
f0
0d
07
ee
f5
fd
f8
ef
fa
f3
f8
ed
fb
e2
d6
c0
e7
05
14
1d
17
0d
0a
0c
10
12
0e
0c
0c
01
01
02
fe
fe
01
02
06
02
fc
fa
f0
ea
f1
ea
ed
02
01
02
05
03
fc
f9
ff
fd
f3
f2
ee
e0
e0
e1
e2
01
02
03
03
01
01
02
ff
fd
fb
f9
fa
fb
fb
fd
ff
00
00
ff
00
01
00
02
03
01
fe
00
fc
fb
fd
fa
01
01
01
02
01
03
02
02
04
06
04
00
fd
ff
fa
f9
f6
c0
c0
09
15
15
12
06
03
04
03
02
fd
f7
ed
e8
ee
00
01
00
01
02
01
00
00
fe
00
00
01
01
00
00
fe
02
02
ff
fd
fc
fd
f8
fa
01
00
02
05
05
09
08
09
05
05
05
04
05
03
fa
ed
eb
e9
e2
de
e6
df
d1
d9
09
04
02
01
f6
fc
01
06
0c
0b
07
fe
fe
01
02
03
02
01
01
02
04
04
03
01
01
02
00
fe
fd
f8
f5
ee
03
03
02
00
01
03
01
01
01
00
fd
fd
fe
fb
fc
f8
ca
0a
0a
0d
f8
fa
15
19
0c
07
03
01
04
02
02
00
dd
12
0e
f1
17
0e
f7
f7
fc
f5
f4
f7
f1
f0
ed
f1
1c
19
25
14
e1
d8
d2
ce
d5
d4
d5
cf
d2
d3
cc
d3
c8
03
26
18
13
eb
f1
ee
ed
ea
e1
e3
d3
cb
cf
d7
2c
f2
e7
f1
02
f9
f0
f5
fc
fe
fd
f7
ed
e8
e5
f2
02
02
02
00
ff
ff
fe
fe
fe
fd
fa
f6
f3
ed
ea
f0
00
00
02
02
01
02
01
00
00
ff
fe
fc
fa
f5
f5
f5
06
06
07
05
05
02
fb
eb
e5
dc
da
d0
cf
d7
cf
d1
ff
00
00
03
04
02
01
00
fc
f8
f5
f4
f0
df
e0
df
03
02
02
02
02
02
04
05
07
06
00
08
0b
03
02
03
fb
fb
fb
fc
fa
f4
ef
f1
fb
06
13
18
1c
1b
1a
14
03
03
05
04
05
02
fc
f6
f6
fa
f8
f2
ed
df
d4
da
02
02
01
01
00
01
00
ff
fe
00
ff
fb
f8
f3
f1
f1
fe
fd
f3
f5
f4
f1
ef
f6
fe
07
10
14
15
10
11
12
03
01
00
00
00
00
ff
ff
01
07
06
02
00
fb
fe
ff
00
00
00
01
02
03
01
fe
f9
f7
f9
fc
ff
fe
ff
00
d1
ef
1e
0f
0d
0b
fa
f2
f0
eb
eb
e8
e6
e0
db
dc
fe
02
02
01
fe
fc
fb
00
02
f8
f8
f4
f4
f2
f2
fd
01
01
01
01
03
00
fe
fd
fc
f9
f5
f1
f2
f4
f3
f7
01
01
01
01
00
ff
fc
fa
fa
f9
f7
fa
fe
fe
00
00
02
02
02
02
01
02
00
ff
fc
f8
f7
f6
f8
f7
f7
eb
1a
23
26
fe
cd
cc
d2
c7
c7
c4
c1
c0
c0
c0
c0
c2
c0
0d
0c
07
0a
05
0a
0d
fd
f2
f3
f4
f5
f7
f7
f2
ec
f4
01
22
20
ed
ef
f9
ff
fe
f6
f0
ef
ef
ec
ec
23
26
c0
c0
c0
d8
d9
d4
d7
d8
db
dc
dc
db
dc
de
02
02
01
00
fe
01
01
02
03
02
ff
fe
fe
fd
ff
fd
00
00
01
01
02
04
04
01
ff
01
00
ff
fe
fc
ff
02
02
03
02
03
04
01
fd
fc
ff
ff
f9
f9
ff
f8
ef
ec
04
02
02
03
04
00
fd
fd
fb
f9
f6
f6
f4
f5
f3
ed
ff
01
01
02
03
03
02
ff
fb
f9
f7
f0
f0
f0
eb
eb
f5
f3
0c
14
e9
0f
20
08
f6
f4
f5
f8
f9
f9
fa
f3
01
02
02
03
03
00
fc
fe
fc
f9
f8
fb
f9
f3
f1
fc
00
ff
ff
00
02
00
00
ff
ff
00
00
ff
ff
00
01
00
02
05
04
03
02
fb
fb
f8
ec
ee
ee
f2
f6
f8
f8
fb
02
02
01
00
ff
fe
fc
fa
fb
fc
fc
fc
fa
fc
ff
fe
01
01
01
ff
00
02
05
02
fc
01
01
fe
fd
fe
00
05
03
02
01
00
01
01
00
fd
f6
f0
ef
ef
ec
f0
f5
f5
25
2b
27
d7
c2
c0
c0
c0
c0
c0
c0
c4
c4
c0
c0
c0
03
04
04
04
04
ff
f7
f5
f0
ef
e5
e1
de
e1
e3
da
00
01
01
ff
ff
01
02
ff
fe
00
00
fe
fb
f9
f8
f8
01
01
02
01
00
fe
ff
fe
00
02
01
05
06
05
00
fe
e7
e0
e0
d6
ea
fc
0e
14
17
19
1c
1e
1b
18
17
17
fe
00
00
00
ff
fe
00
02
00
fe
fe
fe
fd
fc
fe
01
01
00
00
00
fe
00
02
03
04
04
01
fd
ff
f9
f2
fb
01
00
00
01
02
01
fe
fd
ff
f8
f8
f7
f3
ef
ee
e7
00
01
00
fc
f3
fb
fe
03
00
ff
fe
fd
fd
01
04
05
02
01
02
01
ff
fe
ff
f5
f2
ea
e9
e6
e4
e5
e7
e8
00
01
01
02
00
ff
ff
02
03
03
06
06
09
09
0b
0f
05
06
06
06
03
fa
ed
e8
e1
df
de
e5
e4
e7
ec
ee
03
01
03
02
01
fe
fa
fd
ff
00
ff
01
04
09
08
03
fe
fe
fe
fe
ff
01
0a
0d
0c
0c
0a
0a
07
08
09
07
00
00
00
01
02
01
fe
fb
fa
f8
f4
f7
f7
f3
f2
fd
f4
fd
01
01
02
00
03
03
03
ff
fc
fd
ff
01
08
0b
03
01
ff
00
00
01
fd
fd
fe
fd
ff
00
ff
02
07
04
02
03
03
02
01
01
fc
f7
f4
f1
f2
ec
ec
e8
e5
e7
e1
d0
06
04
ef
f7
f2
fe
13
1d
15
0d
0b
0c
0d
0e
e2
d6
d7
e7
00
09
0b
17
18
15
13
11
0f
0e
0d
0a
01
02
02
02
03
01
fe
fb
f7
f4
f3
f0
ed
e8
f0
e0
04
03
02
03
02
00
fd
fe
fb
f7
f3
ef
e9
e8
e6
e8
1e
ee
f4
f9
f9
01
04
fc
f4
f7
f6
ee
f3
f2
ee
ec
02
02
02
02
02
01
fe
fc
f9
f9
f9
f7
f6
f6
f6
f5
f9
01
01
01
ff
f5
f7
f4
f3
00
07
11
12
0d
07
0a
19
1a
1e
1f
f0
d3
cd
d1
d5
cf
ce
d5
d2
d5
d8
d9
03
04
03
02
02
ff
fe
fa
f8
f9
fa
f9
f9
f7
f6
f4
00
00
01
01
03
03
02
00
fd
fb
fa
fc
fd
ff
ff
00
ff
00
00
01
01
03
fe
fb
fc
fd
fe
00
ff
02
00
01
03
03
02
01
00
01
ff
fd
fb
ff
00
ff
fe
fe
fe
fe
01
01
01
02
02
01
fe
fb
fa
f6
f3
f0
ed
f2
f5
e8
01
01
ff
ff
00
02
ff
03
04
fa
f7
f5
f2
f3
f6
fa
17
22
e9
d8
d6
db
e2
df
da
d9
d9
d4
d1
d8
da
cf
db
1a
11
02
00
fe
fc
fc
fd
fc
fa
f9
f6
f6
f6
f7
03
03
03
01
ff
00
fd
fc
fe
fe
ff
ff
fe
fe
00
fe
02
02
02
02
02
03
01
01
01
01
00
02
00
fe
f9
f7
f3
fb
f7
fd
1e
26
0e
f9
f0
f2
f8
f3
f1
ec
ef
e6
fd
ff
02
03
03
fe
fb
fe
ff
01
fb
f8
f0
f2
f9
fe
04
04
05
04
02
00
fb
f9
f7
f8
f8
f5
f5
f3
f1
f5
02
03
03
02
03
02
00
00
fa
fa
f7
ec
ee
ec
ef
e8
04
01
00
fe
02
03
0b
0c
07
04
05
06
03
fd
f4
f6
00
00
00
00
01
00
00
ff
ff
fe
fb
f9
f9
fb
fa
f3
dc
c0
e7
17
1c
11
10
01
f9
fd
00
ff
ff
00
fe
fb
