02
04
04
02
03
01
02
03
09
f7
d4
d4
d1
cb
cb
cf
fc
02
03
04
03
03
e0
ef
f2
f1
ec
f3
ef
f1
03
f7
fe
05
00
03
ff
fd
03
02
02
f8
f6
fc
f8
f7
f8
f6
04
08
fb
fe
fd
fb
fd
01
01
f8
fb
fd
fb
f9
f8
f9
ff
00
00
01
02
01
00
d5
e3
f7
ed
f3
f3
f6
f8
f6
06
04
fd
fc
fe
04
ff
ff
f0
fe
fd
00
f4
e0
f8
09
26
28
32
27
df
c6
c0
c0
c3
c0
c0
c6
c0
c0
c3
c0
01
02
02
02
03
03
00
00
fa
f9
e1
e0
de
df
de
dc
08
03
09
05
02
fe
f3
ed
f1
f6
ec
f0
f0
ee
e9
e5
c1
29
2f
2a
05
d7
cb
cd
cd
cf
d5
cb
c8
c8
cb
c9
02
01
01
02
02
00
02
fe
fc
f7
e9
eb
e9
e9
e9
e9
03
04
ff
07
09
fa
f2
f6
f3
e9
e5
e5
e0
eb
e5
c5
01
01
01
ff
05
02
00
03
f7
f4
e8
e9
e9
ef
ef
ec
02
02
02
01
02
01
03
02
fc
f8
e6
e6
e5
e5
e5
e2
04
00
02
03
01
fd
00
ff
fc
f0
df
e6
e2
de
dd
de
ff
01
01
01
03
04
03
05
fe
f6
eb
ec
ed
ec
e7
e3
01
05
05
05
02
fc
fa
f9
fa
03
f6
05
04
d3
c0
db
00
fe
00
02
01
03
02
04
01
fa
e5
e8
ea
f2
ea
e4
30
32
c0
f7
fa
ca
e2
e6
d3
e8
e6
c0
ca
d1
d2
cc
03
03
03
02
02
02
00
01
fb
ee
de
de
dd
dc
d5
d0
ff
02
03
01
02
04
02
01
fe
f3
de
e1
dc
d6
d6
d5
01
01
00
01
02
02
02
04
00
ea
e2
e3
de
dd
d9
d9
02
00
ff
03
02
04
07
00
f5
f3
e4
e6
e6
e2
db
d7
03
01
01
01
ff
03
08
02
fa
fa
e2
e4
e1
dc
db
f2
fe
fa
fe
ff
ff
f7
03
02
00
f6
f4
f7
f5
f5
f6
f5
04
fe
01
05
ff
fc
fb
f3
f9
fc
e5
ec
ed
f9
eb
e3
03
02
01
03
02
02
00
04
f4
f9
eb
ea
eb
eb
e4
dd
03
de
17
07
0f
24
e3
fa
f9
e6
d1
d8
dd
df
db
d6
02
03
02
ff
04
01
03
04
fa
f2
e6
e9
e7
e6
e2
df
fc
fe
fe
f5
03
f6
10
23
0d
04
de
da
e6
eb
e8
e2
00
f9
02
f9
06
03
fd
fb
f7
f9
f6
fb
f7
f6
f3
f1
09
04
08
01
f8
fe
f7
ec
ea
f2
e8
ea
de
dd
e9
ed
ff
00
fe
05
05
f3
01
05
f8
e8
e4
ed
dc
d5
ef
db
fe
f7
fa
04
fe
09
09
09
f7
f9
fb
fd
fb
fc
fc
fe
d5
e0
25
40
31
e8
da
d6
c0
ce
cc
c9
c1
c1
c5
c3
01
01
02
02
00
ff
00
fe
fb
f3
eb
ec
ec
eb
ea
e6
02
02
02
01
03
04
03
04
ff
f6
e1
e1
df
e0
dc
d9
02
04
05
07
fe
f3
f2
f6
f3
f3
ec
ee
ec
ec
e9
ea
2e
34
31
cd
c0
c0
c5
d3
c9
cb
c4
ca
c3
c3
c3
c2
02
06
02
01
02
01
02
fd
ff
03
e1
e4
dd
da
dd
de
03
01
01
03
00
02
01
04
fb
f7
df
e4
e1
e0
df
dc
0a
09
f9
17
35
36
d8
c8
d7
e8
cf
d6
db
e4
e5
df
e4
1a
1d
01
11
d5
eb
f2
d3
ef
e6
d6
dd
df
dc
da
ef
ef
ec
f4
eb
e1
fc
fb
e7
fb
15
31
37
3b
37
2d
01
01
01
ff
ff
ff
00
07
02
da
d8
e2
d5
d0
d7
e4
09
08
00
f8
ef
ee
01
fe
fd
f5
f4
fa
f7
fb
f9
f6
07
06
01
f9
f8
fa
fb
f6
f2
ef
ef
f0
ee
ef
ed
ea
01
00
01
02
01
fe
08
12
01
e7
d4
dc
d0
c7
c5
d3
02
02
04
01
ff
00
04
fc
fc
f1
e7
eb
e9
e8
e8
e6
f0
f4
f2
f4
f0
e9
f3
08
2f
0b
f2
ff
0d
0a
00
01
c0
c0
cf
1c
28
2d
20
1d
15
f2
cb
d0
d5
df
db
d7
eb
cb
0c
06
d2
22
2e
15
0d
ec
e0
f1
e9
ee
eb
e9
f9
f7
f7
09
fe
0e
13
e5
f2
1c
f5
c2
eb
04
fe
f5
05
01
01
02
02
fb
ff
02
05
f9
db
d3
db
d7
ca
cb
03
05
03
01
fd
f7
f6
f4
fc
f8
e6
d0
dd
fa
11
22
cd
10
0c
d6
20
3d
23
f9
ec
f5
d5
e4
ea
f4
ee
ec
fe
ff
00
fe
00
00
ff
05
d0
e7
e4
e2
f7
08
ed
e1
03
03
03
01
01
03
ff
ff
f5
f5
ed
ee
ea
e7
e3
df
02
01
01
02
03
04
04
05
04
f7
dc
de
dc
dc
d9
d5
f9
0e
00
12
f8
0f
fd
08
fd
e9
ea
f8
f2
f7
f2
ef
03
03
03
01
03
00
02
ff
f9
f1
e6
e7
e4
e1
e1
df
04
00
01
fe
ff
01
fe
f9
f7
f9
fa
fd
fb
fb
fc
fb
dc
db
d3
d8
05
18
0a
0d
15
24
39
1f
f2
eb
ec
ed
04
03
fa
fe
fd
fe
01
ff
f8
fc
f9
fd
ff
00
fd
f9
02
01
03
03
ff
06
fe
fb
fa
f8
e6
e0
de
db
dc
de
00
00
02
00
fe
04
05
06
03
f0
f0
f0
ee
ed
ef
f0
00
04
07
03
fe
ff
fd
fa
f5
f1
f4
f8
f7
f7
fb
f0
01
fe
fc
00
ff
01
ff
f7
fb
fc
fc
fa
ed
f0
f6
f2
01
00
00
ff
fe
04
03
04
04
f5
ef
ef
eb
e9
eb
ec
04
00
ff
fd
01
00
fd
fe
fb
f5
f2
f0
ed
ec
ec
ed
00
00
03
02
06
08
02
fd
fc
ea
e4
df
d8
d6
d8
dc
ff
ff
fe
00
05
0b
04
fe
db
e1
e7
e1
d7
da
d7
de
05
04
01
fc
f6
fb
f5
f4
f2
ec
f3
f7
ff
ef
ea
ee
01
02
00
01
02
05
03
00
03
f7
e4
e1
db
da
db
de
27
2f
28
c0
c0
cf
cb
c8
c0
c2
c0
c4
c7
c8
c4
c0
04
02
04
f7
ec
f9
05
07
02
f5
e7
e6
e4
e4
e3
e1
02
ff
ff
ff
fc
01
0a
09
0c
dc
e0
e2
de
e4
dc
dc
01
fe
00
ff
03
04
04
01
f8
de
e4
e3
de
da
e1
e2
0a
db
1f
17
cc
ff
12
07
07
e8
dd
e6
dc
de
e1
e3
df
ce
cd
d6
0f
1a
0f
26
39
19
1d
16
ea
eb
fd
05
02
03
04
fd
f3
0d
08
03
05
f1
f1
ef
ed
ec
eb
ec
e6
24
2c
f0
e8
d2
dd
de
c8
d3
e6
c1
ca
ca
c8
c7
03
02
00
ff
05
fb
01
fc
e8
e5
e3
df
df
db
d9
da
03
03
05
02
01
01
04
04
06
f5
da
d7
d2
d1
d3
d6
c0
f9
33
33
3f
f1
e1
d5
d9
e3
de
d7
db
dd
de
de
02
02
01
00
ff
ff
fd
f6
f5
fd
db
d6
c9
cc
cf
d2
f4
de
0a
25
3a
26
e4
e8
f5
f8
e9
ec
ee
ef
f2
f4
04
01
01
ff
ff
04
09
04
fc
f5
dd
d6
d0
cc
cc
cf
f9
f0
e6
eb
ed
17
26
1b
0b
f6
f4
f2
e8
ed
ec
ee
00
fd
00
09
03
02
fe
02
07
f9
f6
f1
ee
ed
ee
ef
d8
12
1b
f4
1f
26
29
f0
ea
f2
d8
e4
e2
e3
e6
e9
04
00
ff
00
fd
00
07
04
06
f6
e4
e1
dc
da
db
dd
02
02
ff
f9
f8
05
12
0a
09
fa
e3
e1
da
d9
db
e0
03
04
fd
fa
f4
f6
f6
f5
ed
e9
ed
eb
e9
e7
e8
e9
f5
ef
f6
f7
f9
f9
09
04
24
40
0d
d7
e9
ea
ef
f6
05
fd
03
03
04
01
00
ff
f8
f4
f3
f3
ed
ec
ed
f0
04
01
00
01
f6
fc
03
fe
f3
ec
da
d5
d3
d0
d0
d0
fe
00
05
04
f0
f7
01
fc
ff
f7
f3
ec
f2
f6
f6
f8
03
03
01
00
00
02
04
00
fe
fd
e8
e3
e1
e0
e2
e3
06
03
04
01
00
ff
fa
f3
f6
ef
e8
e3
e1
e0
e0
e0
03
00
00
02
04
04
06
02
02
f0
e1
e0
da
d9
dc
e1
01
09
fc
0f
f7
09
06
ed
fd
f4
d7
e7
e3
e3
e3
e4
02
01
00
04
04
04
01
f7
ed
e2
e0
dc
da
d7
d6
d7
00
01
fe
02
02
07
01
ff
f8
fc
f0
ee
ea
e9
ea
ec
ff
fe
00
01
02
04
08
08
08
df
e5
e3
de
db
df
e2
01
02
00
00
03
02
04
00
fa
f7
ea
e7
e4
e2
e4
e6
04
ff
fd
02
02
06
03
fd
fb
e6
e1
df
da
d9
d9
db
02
00
fa
02
fc
0c
fe
fc
fa
fb
fb
fa
fa
fb
fb
fb
02
02
ff
01
01
05
02
00
fe
f2
dc
d8
d3
ce
cf
d2
f1
ed
ea
f2
e9
f0
f0
e4
ef
12
29
2d
24
23
1c
0f
f3
ee
f7
ff
e4
e7
03
17
0e
fd
ea
08
29
28
16
08
04
02
03
00
fe
01
04
01
00
f5
dc
d7
d4
d2
d4
d6
25
29
c0
f7
10
e2
de
e2
d9
cd
d5
c4
cf
d1
cd
c9
00
ff
f7
03
03
fa
fc
fb
fa
f9
f7
f6
f5
f5
f5
f5
02
02
02
ff
00
04
03
ff
f9
f6
e2
de
d9
d5
d7
da
01
01
01
01
05
01
01
05
07
ed
df
da
d5
d2
d2
d3
01
03
01
00
f7
0b
07
06
06
00
f5
f4
f1
f1
f1
f2
03
01
00
02
01
02
02
02
fb
f5
e5
e2
de
dc
dd
de
04
02
ff
fb
03
fa
f1
f1
f0
e9
ec
ea
eb
ec
ea
e7
02
02
03
00
ff
05
06
00
f9
f4
e3
e1
dd
da
db
de
02
02
02
02
fe
03
03
fe
fb
ed
de
db
d5
d0
d2
d4
d5
c0
db
15
31
21
1c
1a
01
f3
e0
e7
ea
eb
ef
f1
1f
28
3b
22
ce
c0
c0
c0
c2
c9
c4
c0
c0
c0
c0
c0
04
fd
02
06
fc
05
02
06
04
f5
f3
ee
ec
eb
eb
ec
04
03
02
02
05
01
ff
fc
ff
00
e6
dd
dc
dc
dc
de
03
01
00
03
fd
00
fe
fe
00
fd
fd
04
f6
e4
f4
f9
01
02
01
04
fe
ff
fb
fb
f9
ed
ed
eb
e5
e4
e6
e8
08
00
fb
fe
f3
fc
fd
f8
f4
ed
ee
ee
ef
ef
e3
e3
2b
2b
3e
29
d2
c0
c0
c9
c0
c0
c0
c8
c0
c0
c9
cc
e9
01
f8
f4
d0
17
2f
27
08
e7
ec
de
da
e0
e5
f1
02
04
fe
06
02
fe
fd
f7
f3
f4
f4
f4
f1
ef
f1
f3
06
05
03
04
0c
00
02
fd
ff
00
ff
fb
f7
f7
f9
fb
de
e8
e1
c0
17
20
11
11
08
04
04
f9
f1
f0
f1
fc
fb
01
e6
02
02
03
f7
d6
f3
1e
32
06
e6
db
df
e8
02
03
03
03
04
02
04
02
0a
ee
e1
df
d9
d2
d7
db
01
01
03
02
05
01
02
05
ff
ea
e0
dd
d6
d6
d9
de
07
0b
ff
00
fb
f3
fc
f6
ef
e9
ec
eb
e6
e6
e9
ea
01
02
03
ff
03
00
01
fe
08
ef
e0
e2
d8
ce
d5
da
fc
02
02
02
03
02
01
fa
f6
ef
ed
e8
e2
e1
e6
ed
e8
e9
f1
f7
de
ec
02
23
12
fc
0e
17
00
e7
e7
f2
00
00
02
03
09
02
fc
fd
f1
f5
ea
e7
df
dc
de
e3
02
02
02
02
05
03
02
04
fa
e5
da
dc
d2
d0
d3
db
03
01
03
02
fd
fa
02
04
f6
ec
e9
e7
e0
df
e2
e7
fe
00
01
02
02
03
08
07
00
f3
ed
eb
e6
e3
e6
eb
f8
fe
f3
f4
f6
fb
f5
f9
22
1c
e5
c0
e7
04
fd
f4
f9
01
00
03
06
02
02
fb
f7
eb
e9
e8
df
de
e2
e8
09
01
04
01
fd
03
02
0a
eb
f3
f1
f1
e4
e8
ec
ed
01
02
04
01
03
03
01
ff
fb
ee
e8
e3
da
d8
dc
e2
fd
01
03
02
04
04
04
02
f7
f2
e8
e7
df
dc
e0
e4
ff
00
02
01
05
03
01
fc
f3
e6
e3
db
d1
d3
d9
e0
fd
02
02
03
07
01
ff
fd
f3
ef
eb
ec
e7
e3
e6
eb
c3
23
28
0c
3f
28
e5
d0
d4
d3
d2
d8
d2
d2
dc
e5
fd
fa
ff
08
00
03
ff
02
08
ff
fe
fd
fa
f7
f8
f5
14
10
13
d4
09
03
ed
f0
ed
db
f4
eb
da
db
e0
e3
01
01
04
01
03
ff
02
fe
fa
e3
e1
e5
dc
d6
da
df
02
fe
00
04
fc
00
0a
fe
03
df
e2
dc
d5
d8
d2
dd
03
06
00
fc
00
05
02
fa
f9
f0
ec
e7
e0
de
e2
e7
0c
09
05
06
02
f5
f2
e9
ea
ed
e5
ee
e9
e1
d7
c0
12
08
03
f8
fc
fb
fd
f7
ee
f1
f4
f1
e9
e5
e8
ec
35
2c
c0
f5
f9
ee
f2
d3
d1
d9
dc
df
d0
d1
d9
de
fe
e0
12
12
10
eb
13
15
d2
f6
f8
cb
d1
d6
dd
e4
03
ff
07
00
05
04
fe
00
f5
f0
f4
f7
f3
f5
f6
fb
03
01
01
02
01
fe
00
0e
f6
e1
e6
e8
e1
dd
e2
ec
01
01
03
00
02
ff
00
fc
fb
f5
f3
f4
f1
ed
f0
f5
01
01
02
02
01
02
05
03
ff
eb
e2
dc
d5
d4
d6
dc
05
09
fd
04
fc
fa
f9
f9
f2
f3
ed
ec
e9
e8
e9
eb
04
04
03
03
ff
ff
ff
04
f3
f6
e6
e6
e0
e1
e1
e2
31
37
36
c9
c0
cd
cc
c0
d0
d8
c9
d1
c8
c7
cf
d4
00
01
03
02
03
01
01
ff
f6
ee
e5
e1
d9
d9
dd
e3
01
00
01
04
01
ff
04
ff
e4
f0
f0
f1
ee
dd
e8
ff
05
02
02
ff
fb
00
ff
07
fa
f2
e2
e9
df
cd
e0
df
07
07
0d
03
00
03
f8
f2
f6
f6
f6
f4
e4
e7
f5
ee
e3
c3
2a
2b
1a
1a
1c
ff
e3
d0
cb
cc
c3
c5
ce
d9
fc
05
0e
fe
11
fa
f7
f2
f2
f7
f7
f7
f1
ef
f2
f3
02
fd
03
01
03
f9
fb
f3
f2
fa
fe
fe
fa
f8
fa
f9
f2
24
1e
3c
39
dd
c5
c1
cb
c3
c6
cf
c5
c2
cd
d1
03
01
02
02
ff
01
02
f9
f8
f0
ed
ea
e5
e2
e7
ee
03
02
09
07
02
fd
00
f8
f3
f8
f7
fd
0f
f9
c0
d1
01
01
00
02
02
01
01
fd
d6
df
e3
dd
e0
f6
ee
e9
fc
00
00
03
01
00
fa
fc
06
dd
de
db
d8
dc
dc
cf
05
09
01
02
fb
04
fb
f8
f8
f0
ef
fb
f1
c3
e0
eb
c0
17
1e
10
cd
f7
07
f9
03
dc
d2
e1
d3
d1
d3
d8
fb
fb
f6
e7
e9
ef
e7
d7
de
ea
ef
fd
17
2c
2d
23
05
fe
00
ff
02
01
04
d8
e8
f0
e3
e2
d7
d6
e1
ed
cc
c0
c7
19
3a
15
10
18
1b
e1
d2
d7
d7
e0
e7
eb
01
01
03
02
03
01
02
03
fa
f0
e9
e7
de
d8
dd
e2
ff
02
04
03
04
03
00
00
fb
e8
e4
de
d6
d6
da
e1
06
07
fc
01
05
f2
fc
f2
e9
ea
ee
ea
e3
f1
e8
df
ff
01
02
02
ff
02
05
ff
f4
ea
ea
e9
e4
e0
e4
eb
f8
fe
00
04
0b
01
ff
fa
fa
fd
ff
00
fc
fb
fe
ff
fd
04
06
02
fe
00
f6
e0
e5
f0
f2
f4
e3
d5
e8
e8
05
01
00
01
00
fe
fd
f9
f9
f2
f3
f1
ec
e9
ec
f1
02
03
01
03
03
03
ff
f5
e9
e5
df
df
e0
df
e2
e4
03
03
01
00
00
fa
f6
f5
f2
e2
dd
db
db
db
db
dc
fa
f7
fa
06
15
08
1f
0e
c9
d4
cb
cb
db
df
e0
e0
f9
f5
e9
de
eb
06
0b
f8
fa
0f
3a
27
f6
da
dc
e0
01
02
02
01
01
fc
f9
f7
f0
f2
ea
e7
e5
e5
e6
e5
02
03
00
f8
f8
fa
f8
f6
f1
ef
f0
ea
e8
e6
e6
e8
00
01
02
05
04
01
fe
f2
e1
e1
dc
e0
e2
e2
e4
e4
d6
c0
ce
27
28
14
fa
0b
0d
f2
fe
07
ea
e4
ea
ee
f4
ed
e8
e6
06
0f
0d
09
3d
17
cd
c4
e8
f5
f0
ef
01
02
02
02
02
01
fc
f3
ea
e1
dc
e1
e1
df
e1
e2
04
04
05
04
ff
f5
f0
f0
e9
ec
e0
e5
e4
e2
e4
e5
05
02
02
06
f6
ef
ee
ed
e3
e1
de
df
de
dc
dc
de
ce
e7
23
29
f2
f2
ec
10
00
c5
cb
d6
e0
e2
e3
e4
e7
d0
10
24
0d
21
14
db
d4
ee
e2
c8
e1
e6
e8
e8
02
00
02
03
ff
00
fd
fc
fc
e7
e7
e6
ea
ed
e6
e8
00
02
00
fe
fd
02
fc
de
e0
e5
e1
e5
ee
ef
dc
e5
03
02
f6
fb
08
0b
fa
ee
e8
ec
e9
e8
e9
e8
e8
e8
01
02
00
03
00
fd
f1
ed
ea
ec
de
e3
e1
e6
e9
e5
06
04
fc
fe
01
ff
fa
f4
ea
e8
e1
e1
e0
df
e2
e3
1d
29
40
2e
d2
c0
c8
c7
c0
c0
c7
c4
cf
d0
d1
d0
01
01
01
04
03
05
05
03
f7
e2
da
e2
e0
e0
e2
eb
e3
20
1c
c4
06
16
01
f6
d5
d6
ec
de
d3
d0
d1
d2
01
01
02
fe
03
0a
05
00
e9
e9
e5
e5
e2
e3
eb
f3
03
02
ff
01
02
02
00
fa
f0
e7
da
db
d9
d6
d8
d8
01
02
00
f9
02
fe
ef
f1
f8
f7
f1
f3
f6
f5
fb
e8
03
04
02
f3
fc
04
fd
f4
ef
ea
e4
e8
e7
e6
e8
e7
02
00
01
ff
03
03
f6
eb
ed
e7
dd
e2
dd
e1
f0
ee
03
01
00
00
03
02
fb
f3
e9
e2
d9
d8
d8
d7
d8
d9
0c
22
1d
27
1a
e5
ee
e8
da
d4
d6
da
db
dd
e0
e1
06
05
01
01
f8
f7
f6
f6
ec
e9
e2
e5
e7
e6
e7
e6
fe
ff
06
fe
03
03
f9
f5
f0
f3
ef
f5
f4
d4
d5
d9
03
01
ff
03
ff
fc
f9
f2
eb
ed
ea
ec
ed
ee
ee
ef
04
02
01
ff
fe
fd
fa
f6
e7
e1
d8
d9
d9
d6
d6
d7
f6
f4
f5
f3
f9
fa
e8
e1
da
e1
f9
23
2b
31
2e
2b
02
03
02
04
04
00
fc
f8
ef
e6
e2
e5
e7
e3
e4
e5
2d
39
d0
c6
dd
dd
d7
cb
ca
c9
c1
c1
c7
c6
c6
c4
c0
1f
2b
21
1f
19
e8
de
d4
d4
c6
d3
d7
d9
dc
dd
03
04
ff
f6
fb
04
05
f6
ea
e7
e3
ea
eb
e2
e5
e4
02
00
01
03
02
00
00
f7
e5
e7
e3
e5
e5
e5
e7
e9
ff
01
01
05
05
02
fc
f1
ed
e9
e5
e7
e8
e8
e9
ea
f5
c8
21
2a
11
de
fc
f3
f3
db
e4
e6
e8
e7
ea
ea
02
04
02
04
01
fc
f5
f7
f3
e8
e0
e3
e4
e2
e4
e4
04
03
00
fc
00
03
ff
ef
dd
dd
d8
dd
dd
dc
df
df
08
00
06
f8
f7
f3
f5
f8
f2
f1
f0
e9
e9
ea
ec
ed
00
02
00
06
04
fe
fc
f8
e9
e1
db
da
da
d7
d9
da
fd
00
fe
ff
00
fe
fb
fd
fd
00
00
f7
ef
ec
f8
f9
fe
f4
00
fe
05
02
f9
fa
02
fb
fd
ff
fe
03
f6
ec
02
02
02
01
02
02
fb
f1
e4
d9
d0
d8
de
dc
de
dd
05
03
03
03
fd
fb
f9
f6
e9
e5
e0
e4
de
dc
e0
de
00
fe
05
02
01
fb
f9
fc
f8
f7
f5
f6
f5
f6
f8
f9
01
02
03
02
ff
fc
fb
fc
f3
e8
da
da
da
d7
d8
d9
02
04
02
02
00
fc
f5
f3
ec
e8
e0
dc
de
dc
db
db
02
fd
fc
05
06
07
01
fb
f3
ec
e6
e4
e6
e5
e6
e6
01
01
00
02
05
01
00
f6
e8
dd
d7
d7
d8
d6
d9
dc
05
08
03
f3
f3
f2
f0
ea
dc
dd
dc
de
df
e1
e4
e5
01
03
02
02
04
00
fe
f8
f2
e8
de
e1
e0
df
e0
e1
01
02
02
04
02
fd
f8
f6
eb
e8
dd
df
df
de
e0
de
ff
fd
ff
04
03
05
04
fc
e2
eb
e5
e5
e2
ef
f4
e7
03
05
04
05
01
fc
f2
f1
f3
db
d0
d6
d9
db
e0
e1
04
08
fb
f5
fc
fd
f9
f5
e9
e8
e0
e0
e1
de
df
df
29
3c
36
c0
c0
c5
c0
c0
c2
c2
c0
c0
c0
c0
c0
c0
f6
f4
fb
fe
f6
ef
e6
e9
06
3e
28
f0
08
0c
08
07
02
01
03
04
01
fa
fa
fb
fa
f4
e6
e3
e4
e3
e3
e3
f2
ee
db
d0
e2
e9
f9
19
1d
0b
07
11
04
f9
f5
f7
