e4
00
00
00
00
00
00
00
00
00
00
00
00
00
00
00
c5
00
00
00
00
00
00
00
00
00
00
00
00
00
00
00
d7
00
00
00
00
00
00
00
00
00
00
00
00
00
00
00
e4
00
00
00
00
00
00
00
00
00
00
00
00
00
00
00
10
00
00
00
00
00
00
00
00
00
00
00
00
00
00
00
f4
00
00
00
00
00
00
00
00
00
00
00
00
00
00
00
e0
00
00
00
00
00
00
00
00
00
00
00
00
00
00
00
07
00
00
00
00
00
00
00
00
00
00
00
00
00
00
00
dd
00
00
00
00
00
00
00
00
00
00
00
00
00
00
00
08
00
00
00
00
00
00
00
00
00
00
00
00
00
00
00
f5
00
00
00
00
00
00
00
00
00
00
00
00
00
00
00
0e
00
00
00
00
00
00
00
00
00
00
00
00
00
00
00
c0
00
00
00
00
00
00
00
00
00
00
00
00
00
00
00
d5
00
00
00
00
00
00
00
00
00
00
00
00
00
00
00
d7
00
00
00
00
00
00
00
00
00
00
00
00
00
00
00
ca
00
00
00
00
00
00
00
00
00
00
00
00
00
00
00
dc
00
00
00
00
00
00
00
00
00
00
00
00
00
00
00
d8
00
00
00
00
00
00
00
00
00
00
00
00
00
00
00
e3
00
00
00
00
00
00
00
00
00
00
00
00
00
00
00
eb
00
00
00
00
00
00
00
00
00
00
00
00
00
00
00
0c
00
00
00
00
00
00
00
00
00
00
00
00
00
00
00
eb
00
00
00
00
00
00
00
00
00
00
00
00
00
00
00
07
00
00
00
00
00
00
00
00
00
00
00
00
00
00
00
e7
00
00
00
00
00
00
00
00
00
00
00
00
00
00
00
0a
00
00
00
00
00
00
00
00
00
00
00
00
00
00
00
0c
00
00
00
00
00
00
00
00
00
00
00
00
00
00
00
0d
00
00
00
00
00
00
00
00
00
00
00
00
00
00
00
f2
00
00
00
00
00
00
00
00
00
00
00
00
00
00
00
e1
00
00
00
00
00
00
00
00
00
00
00
00
00
00
00
0b
00
00
00
00
00
00
00
00
00
00
00
00
00
00
00
fc
00
00
00
00
00
00
00
00
00
00
00
00
00
00
00
10
00
00
00
00
00
00
00
00
00
00
00
00
00
00
00
e6
00
00
00
00
00
00
00
00
00
00
00
00
00
00
00
c5
00
00
00
00
00
00
00
00
00
00
00
00
00
00
00
04
00
00
00
00
00
00
00
00
00
00
00
00
00
00
00
fc
00
00
00
00
00
00
00
00
00
00
00
00
00
00
00
0b
00
00
00
00
00
00
00
00
00
00
00
00
00
00
00
08
00
00
00
00
00
00
00
00
00
00
00
00
00
00
00
d5
00
00
00
00
00
00
00
00
00
00
00
00
00
00
00
d1
00
00
00
00
00
00
00
00
00
00
00
00
00
00
00
d3
00
00
00
00
00
00
00
00
00
00
00
00
00
00
00
e2
00
00
00
00
00
00
00
00
00
00
00
00
00
00
00
d1
00
00
00
00
00
00
00
00
00
00
00
00
00
00
00
cf
00
00
00
00
00
00
00
00
00
00
00
00
00
00
00
06
00
00
00
00
00
00
00
00
00
00
00
00
00
00
00
0e
00
00
00
00
00
00
00
00
00
00
00
00
00
00
00
07
00
00
00
00
00
00
00
00
00
00
00
00
00
00
00
0f
00
00
00
00
00
00
00
00
00
00
00
00
00
00
00
0c
00
00
00
00
00
00
00
00
00
00
00
00
00
00
00
0d
00
00
00
00
00
00
00
00
00
00
00
00
00
00
00
de
00
00
00
00
00
00
00
00
00
00
00
00
00
00
00
0e
00
00
00
00
00
00
00
00
00
00
00
00
00
00
00
07
00
00
00
00
00
00
00
00
00
00
00
00
00
00
00
cc
00
00
00
00
00
00
00
00
00
00
00
00
00
00
00
d7
00
00
00
00
00
00
00
00
00
00
00
00
00
00
00
d1
00
00
00
00
00
00
00
00
00
00
00
00
00
00
00
c6
00
00
00
00
00
00
00
00
00
00
00
00
00
00
00
0e
00
00
00
00
00
00
00
00
00
00
00
00
00
00
00
e7
00
00
00
00
00
00
00
00
00
00
00
00
00
00
00
0e
00
00
00
00
00
00
00
00
00
00
00
00
00
00
00
d9
00
00
00
00
00
00
00
00
00
00
00
00
00
00
00
dc
00
00
00
00
00
00
00
00
00
00
00
00
00
00
00
e0
00
00
00
00
00
00
00
00
00
00
00
00
00
00
00
de
00
00
00
00
00
00
00
00
00
00
00
00
00
00
00
