ff
fd
10
05
ef
04
08
0c
0d
ef
00
e4
fa
f9
e4
f1
02
00
fc
0f
f6
e5
e8
f1
ee
ec
e8
d3
03
f7
dc
fa
d9
cf
d5
cd
f1
fb
05
d9
db
e1
e4
da
f4
f6
e9
dc
fe
fc
f8
fe
06
06
ef
fd
03
0c
07
19
06
1e
0a
01
04
f9
fc
f6
ea
eb
f4
f5
e4
d2
d0
dc
ea
d7
02
e5
ee
09
fa
da
09
01
e2
fc
0c
f9
01
f9
fa
13
ff
f8
04
11
fd
e7
08
cd
e9
0c
dc
ff
0b
f6
02
fc
fe
09
fe
fd
fb
07
04
00
02
de
04
0a
e0
f9
0b
f2
02
06
02
06
04
e9
fa
01
f0
0f
07
d8
06
01
f1
0d
02
02
f6
f3
f4
04
ef
f4
05
f9
f9
f6
ed
f2
f9
f7
f9
f4
f4
0a
f5
e7
e8
f9
f9
eb
06
02
0d
e6
07
eb
e7
f2
f8
0b
0f
0e
f9
eb
ed
f3
f3
f3
08
ea
0d
fb
00
fb
08
fb
f3
fe
f6
f4
04
ff
fb
00
f3
f8
f0
ef
fb
06
fc
03
04
00
03
f7
05
ff
fa
02
f2
f2
fd
03
fc
fd
f9
03
02
f4
05
00
f6
f6
ff
01
03
0b
03
15
07
f4
0c
04
00
df
e5
e5
f8
04
f7
f5
fb
de
f8
fe
fd
06
fe
fd
00
05
f5
f2
02
05
fc
08
03
00
06
fc
f0
ea
f2
f9
05
f6
0b
08
fd
f7
0a
fe
03
05
01
05
04
f9
27
34
3a
26
0d
10
2b
2f
22
f1
ec
f3
f6
04
f5
02
f3
f5
f9
0e
f7
f7
f2
fb
02
09
fb
04
e6
e2
0b
1c
08
ff
08
00
f4
e7
ec
09
0d
12
05
04
00
fc
04
e5
dd
f8
fe
d7
d1
e8
03
fd
fc
02
02
05
11
27
3e
fd
ff
f4
f4
f8
fd
f2
fc
f8
db
e5
f1
eb
fd
14
f8
f2
f9
fd
0f
05
e5
f1
fc
ec
e0
e3
ea
0e
02
cc
ea
02
f1
ed
f8
0f
15
ff
19
20
04
10
11
07
f8
fa
f4
d7
e7
f1
d9
df
f2
00
01
f7
cc
e5
fa
e8
d4
e6
10
09
00
e9
04
14
f0
ed
f0
fc
0f
f6
c0
f8
fc
f3
e9
f5
f7
ef
ef
00
03
ff
f9
0a
02
ea
f6
f3
f3
f3
ec
e9
f3
f4
fa
01
f2
04
f8
ef
07
09
fd
d8
fd
e8
fd
fe
f6
eb
07
0c
fd
f6
02
fe
ef
f7
01
f8
0b
01
00
03
f2
f6
f7
01
f4
f3
fe
ed
e9
f5
f3
e6
f4
f7
f3
f4
f4
05
0c
02
f8
f9
fe
fa
f3
ee
f2
fe
f9
f8
fa
eb
df
fa
ff
02
01
f3
f7
07
f4
fc
fb
01
f9
ff
07
fa
fd
08
07
fc
f3
e4
f1
f9
e8
df
fd
e8
fa
f5
f7
fd
f4
fa
00
01
f9
00
f9
07
f6
f7
f7
f5
f4
03
04
03
f7
fc
f2
09
00
0b
05
0e
ff
fb
10
11
00
07
13
f9
fc
e5
e4
02
f3
f5
f1
fe
f5
ed
eb
dd
f4
06
f5
03
fa
f9
02
ff
f2
f4
f7
f4
f9
07
f9
f0
f5
eb
ee
f7
ec
02
ed
08
05
fe
00
03
05
ee
00
f2
e9
fa
f6
05
f6
fb
00
f7
ff
f9
03
0f
f9
fd
02
f7
f0
04
fe
02
0c
0b
f4
07
00
f4
01
04
f9
ec
d4
e5
fa
00
f3
ef
fd
f9
09
ff
05
fe
05
0b
fa
fa
0d
08
03
0e
fc
09
00
07
0c
d5
ce
dd
f4
f1
f5
f6
ed
f7
ff
07
00
fb
04
f7
fd
f8
05
05
04
03
07
09
fe
08
03
02
06
f7
f1
0b
f7
03
03
01
01
ff
fc
fb
02
05
f9
05
01
11
ed
01
f6
f0
f1
03
fe
ef
03
ec
ef
ef
ef
f0
f6
e2
fb
f5
f3
ef
fd
f2
00
fb
f8
0d
03
f4
fb
ec
fb
fa
ef
0a
fc
f7
ef
f0
fe
f5
f1
f4
01
08
fa
05
0a
ff
07
fb
f4
f4
0a
f8
08
f3
fe
03
ee
02
0a
fb
ff
ff
f8
0b
06
08
00
08
fd
05
f6
ee
f8
05
01
01
fb
ea
ee
f9
03
08
02
fb
fa
04
04
f6
16
09
10
11
0b
f9
18
02
02
dc
e0
e6
f2
f5
f9
e3
e2
cb
08
05
05
04
fa
ff
fd
fa
f6
ff
07
0a
04
01
08
0c
01
f6
f1
f6
fa
0c
07
04
f7
fe
09
0d
05
ff
0f
10
15
1d
1a
13
08
06
06
f7
07
02
e3
f8
eb
16
0d
1c
02
0d
0e
02
04
00
fd
00
0a
06
fd
01
fe
f1
f3
f6
13
17
0e
28
20
27
18
29
e4
ee
fb
04
f6
09
06
f5
fb
f2
ed
f0
fc
e5
eb
ec
ef
f0
17
02
27
f6
fd
14
e3
02
0c
01
13
14
fe
0e
0e
0e
1f
0e
17
0a
10
16
2a
17
1d
21
20
f7
fe
f8
ec
e3
e5
e1
df
ed
f7
06
fa
e5
e1
dd
e7
e9
e7
20
37
02
14
2e
fb
13
3e
11
fb
f4
f3
e8
de
e3
ea
e2
e6
f6
01
ff
e5
f7
dc
f1
ea
e4
0c
11
0d
fa
e8
e9
fb
e6
ed
f7
f0
f5
e5
e2
da
e1
d1
ee
f7
f5
e5
e2
ff
e5
f1
e1
f5
f3
f3
06
ed
ea
fc
f4
05
21
f0
dd
ec
f5
f3
f1
13
04
0e
fb
05
02
27
30
20
07
fa
08
de
fe
fd
01
0b
0a
05
ef
0c
f2
eb
f1
f6
ee
fd
e1
14
f3
14
e8
03
f5
ea
e7
da
d4
de
04
08
05
fe
0b
fe
16
09
05
16
1e
04
1c
23
00
f2
07
05
f8
ea
ef
04
e4
f6
f7
05
07
00
f7
e4
fe
e0
eb
e4
fb
fb
15
0f
13
f5
17
0d
13
23
f5
ee
ed
f0
f4
ee
f4
e0
00
f7
01
e3
f4
f6
f0
00
eb
0e
fb
f0
f5
ff
08
fa
0d
03
19
03
00
e2
e4
f9
da
ea
dc
f9
01
07
0e
22
1b
fe
0e
0e
27
27
19
1f
19
16
05
0e
33
1c
0a
07
19
0c
09
05
06
f4
f1
fd
0d
26
06
f5
07
07
0e
00
ee
0b
13
fc
f7
ee
15
e8
e6
e9
f3
e5
e7
ee
e1
df
e6
e9
e6
09
f6
ff
0f
eb
fb
1b
10
17
f9
fe
f9
02
02
f2
fd
f3
eb
16
fa
16
0c
0e
1f
0d
00
1d
f4
e2
f3
e1
e2
ee
e1
e6
e1
f6
ed
fc
f7
ec
f9
f3
04
01
1d
1d
1e
f5
22
ff
16
2f
f8
f6
ff
f5
f1
00
fa
f7
eb
f2
fb
fe
01
f5
eb
ed
ee
f7
fa
06
fd
05
f2
f3
f5
db
de
d2
ec
ec
ff
e8
ee
f5
e0
f2
fe
10
ed
d2
21
ea
e3
01
fb
fb
f2
fb
fc
06
05
03
0a
0a
0b
28
40
17
22
fc
f9
11
fa
03
ff
1d
12
20
39
27
00
f9
18
1a
36
31
01
0a
1c
0c
fb
f5
da
f3
0d
f2
09
ff
09
fa
0c
ef
f6
09
ed
07
01
0f
0a
e6
09
0a
15
15
1a
11
1a
10
0a
d5
e5
de
f3
f0
fa
10
f1
19
e2
e4
08
e3
05
02
09
02
03
e2
ea
fe
e4
fc
f3
fb
0f
09
ef
11
ff
e0
fb
fd
0f
0b
07
de
ee
f3
e1
00
f8
fd
04
f5
db
f6
03
e9
ff
fe
f8
ff
fd
fd
f6
fe
f9
01
0c
f9
05
0c
d6
f4
0c
e1
fd
00
f4
09
07
01
fc
0a
07
0d
fc
1e
fa
11
04
0c
f8
0e
04
02
05
04
f4
fb
ff
08
09
0d
0f
fb
e2
eb
fe
f2
ef
ef
04
fa
00
e7
e7
ff
13
05
0d
01
f3
f2
f1
e3
07
fa
00
0e
05
f3
01
03
e4
19
fe
07
16
f6
f4
14
f3
e7
fe
02
05
f5
ff
e7
03
f1
f3
dd
f0
0f
03
00
05
07
0c
e1
02
05
fe
03
fe
ff
f9
fe
07
03
0f
f9
10
fc
13
ff
10
0f
f3
ef
0c
ec
03
f2
f8
0c
f8
0a
f9
04
04
f8
fc
fc
03
06
0f
05
05
06
0b
05
04
06
0c
f6
ed
e4
fd
fd
0c
ff
11
12
02
f9
05
fb
05
18
04
0a
07
06
09
12
08
04
ee
f7
da
06
03
fd
0a
0b
02
ef
f8
dd
de
fb
11
03
05
ff
ef
08
00
ea
ff
01
fe
0b
f5
11
0d
fc
14
05
09
01
14
0f
0c
f0
f0
00
fc
02
f9
07
f9
e5
00
e8
d1
04
fc
fa
0f
03
f1
0b
02
f2
05
0c
00
0b
07
06
0b
03
12
18
03
08
06
1a
f8
04
fc
08
00
f8
08
0a
06
00
fa
f2
ec
04
02
07
07
fa
fa
ff
06
f1
f6
f8
e5
ee
e5
e6
e5
dc
f8
ff
04
fe
fb
04
fe
fd
f6
f3
01
fd
fd
00
02
0a
06
fd
ee
04
f2
f4
01
0a
0f
0a
11
07
15
0c
09
02
16
0d
02
03
f8
e9
f4
e7
01
ed
e6
f2
fe
fc
f4
e7
e8
00
ef
ef
fa
f1
ff
f6
e8
ef
ff
03
eb
00
fa
03
df
ff
e1
e4
eb
f1
f5
fe
05
f2
fa
f5
fb
f9
eb
ff
f2
f5
08
fd
fa
07
f4
01
07
f0
f2
fc
03
f2
02
f5
02
f8
ff
f8
04
0b
0a
fc
0a
09
03
f3
0a
f0
ee
e7
ee
fb
e6
f9
ee
e1
f7
f8
03
f9
f7
fb
f7
07
fa
0c
05
07
fe
04
05
13
00
07
ea
e4
ed
04
e3
cc
ea
f7
e3
00
01
05
04
f8
04
fe
fb
fa
f2
06
f9
03
02
00
fa
08
f9
ef
f4
f5
f4
ff
01
fa
fe
05
0f
fd
0f
03
f8
03
00
0e
0e
08
fe
e5
fc
f7
e2
f8
f1
f1
13
fe
e7
14
fb
e0
f8
00
e2
09
20
27
06
03
f3
03
f6
fc
e4
df
e7
ef
dd
e7
e1
de
ea
f0
16
18
e0
e8
ed
e4
e0
e2
fe
f0
d1
01
ec
e4
ee
f9
03
13
fc
03
11
fc
0d
ef
f4
19
0c
04
04
05
03
ec
0d
fa
f8
e8
ea
e1
00
f0
dd
14
03
f7
02
e7
d6
08
f8
e4
01
07
fe
fd
fa
df
07
08
ed
fc
0f
fd
e5
ef
f6
ef
e1
f1
e4
f9
f4
02
fc
f2
00
f9
fc
fa
00
fa
f8
e4
ed
f3
f1
eb
fa
02
f6
f1
01
04
fe
fc
f6
f8
01
07
07
e6
e3
f8
fa
ea
0c
ff
0b
18
2d
fe
03
fc
e7
fb
0c
f9
10
01
04
e3
06
08
eb
07
0b
01
e1
08
fd
e6
01
f3
f5
ef
12
05
05
08
04
0e
02
09
00
0d
07
14
08
d2
01
01
e7
11
e5
e0
06
fd
10
00
08
07
06
f0
e3
ed
dd
d3
dc
e4
df
df
11
0d
03
05
fe
05
06
0f
ff
21
0d
f2
03
00
ef
07
04
f4
f8
02
f3
08
0a
f9
ff
07
f5
f5
ed
e9
f3
0c
00
ed
03
fb
2b
1f
02
04
1c
ff
15
13
16
f3
f1
ec
f3
02
ff
ff
06
f8
ee
f7
fd
f8
0e
ff
f9
01
f6
00
f1
ea
00
f5
0f
0c
17
f9
00
f0
f1
00
0f
10
06
0c
10
f7
07
f7
f5
0a
0b
08
f5
f9
f6
fa
04
ef
ff
f5
ef
ff
f9
f5
fb
f2
fd
f7
01
06
fb
fb
e9
02
f2
ff
05
eb
02
fd
f0
05
fd
f8
f2
fa
f8
ff
f8
00
06
04
08
01
06
07
03
fb
f5
ff
10
11
0f
0f
0a
0b
f6
f5
fa
ff
f6
05
00
02
fd
02
fe
e9
fb
ef
f1
f3
f0
fa
f1
f6
05
04
03
03
00
06
fc
01
00
0f
0e
0c
02
11
f9
12
19
10
f6
f6
fd
f1
01
eb
0c
07
e8
0a
03
05
fd
03
fe
06
f9
f9
07
0a
03
02
f6
f8
00
fa
f8
f6
ef
f8
f9
f6
f7
01
06
fd
07
10
f9
0a
06
09
11
14
f9
df
d4
f2
09
ec
dd
e8
02
f9
f6
f0
f2
fa
00
11
02
05
0f
e2
eb
f1
12
12
1b
fe
00
05
f1
ea
de
f6
01
ef
04
f7
05
f8
f7
fd
17
13
16
f6
00
0e
fb
00
fd
04
12
06
00
f8
f5
0c
15
11
f2
0c
f9
e8
ee
fa
11
04
fe
08
09
03
f6
ef
01
e0
fa
f8
f9
ec
00
02
f5
ff
0b
0b
03
fc
fb
01
0c
14
06
0b
f6
f8
0c
00
00
20
1b
03
e9
fa
e7
f9
08
05
fd
f1
fc
fe
05
fa
fc
08
07
0d
0d
fd
06
0e
06
f6
07
03
01
06
f3
11
17
fc
ee
ec
08
0b
0d
09
00
fa
f7
fb
03
fd
21
07
f8
2b
1c
2c
3e
0c
24
2e
1a
20
fa
00
fb
00
fd
09
f7
f4
f7
12
30
1a
0a
1a
ed
ff
00
04
f3
09
f4
e0
fe
f8
ef
f7
fe
f8
0e
09
fb
02
eb
ee
f9
ed
d0
f2
f7
c0
02
fe
da
10
f9
fd
ff
02
fa
0b
01
0a
16
04
fd
fc
fd
12
06
f3
18
19
00
e7
e8
e4
e3
e7
f8
f7
f6
01
d1
fa
fc
c4
07
04
c9
f4
02
cf
f1
06
c0
09
04
d7
f6
0e
10
f7
07
0a
eb
ec
12
08
fb
e3
f9
f9
c0
04
03
c2
fa
f6
cc
ef
f4
c4
f9
fc
ce
f3
fa
ff
fc
ee
e3
0c
f5
e4
f4
ee
c9
fd
00
cc
00
08
c3
02
0c
00
f4
fa
eb
f6
ec
06
04
0f
f8
04
11
e9
04
11
07
1d
19
ea
e8
fa
f4
f5
fe
00
fc
0e
e5
e6
f2
f0
01
07
e7
ea
12
d8
f3
f6
fa
ff
fc
f2
f1
0d
13
f1
f3
ed
f3
ff
07
fb
f9
ee
02
fb
de
ca
ec
dc
cf
d5
01
fd
f5
1f
29
08
ed
ed
fb
fd
12
ec
f2
f2
00
ed
e0
fa
0a
09
f9
f6
f1
fb
06
05
f3
f6
02
02
eb
d4
f8
0b
09
ec
00
15
04
11
fc
13
fd
32
25
fd
09
fa
fd
f7
fc
01
00
f0
fe
09
fc
fe
fe
f7
f9
fe
f6
0b
0b
ed
06
f9
08
17
0d
02
07
08
fc
ee
ca
f6
0e
1d
f5
04
00
01
f3
ef
08
f8
15
eb
f5
f1
ea
d8
d4
f2
d9
db
f8
fd
ef
fe
ec
ef
08
f7
e0
f8
db
d3
f6
de
d2
ee
12
0e
ed
e7
eb
ee
da
d7
df
f1
df
df
01
f4
f8
ea
cd
02
f0
e6
f9
00
f8
0f
10
f0
06
1e
f5
ec
fd
01
f5
01
19
06
12
26
04
fa
04
eb
fd
f8
f0
08
0c
07
ff
ff
f8
f7
e5
01
f1
c0
01
0a
00
06
0c
f9
fd
f6
e0
05
01
f6
e2
05
ee
e2
00
e6
e6
ff
05
fe
f5
f6
f7
f7
e0
fe
fe
fb
08
ed
ea
05
e5
c0
fb
f9
04
04
05
fd
ec
03
eb
02
f7
0e
0a
08
fc
ff
f9
e0
00
21
2b
2d
24
10
07
19
2c
0e
22
0f
0b
1a
00
04
07
f7
fc
05
f0
fd
f1
f5
fd
ea
eb
fd
fc
f5
09
04
02
f1
f4
0c
01
f7
e2
fa
09
f2
12
f6
f0
19
04
f0
ec
e2
dd
e6
e6
e3
ec
2f
0b
22
25
22
18
2b
1d
12
f7
f6
05
09
06
08
10
11
08
07
f6
f1
fd
15
16
04
04
fe
0a
03
fb
f9
f7
e5
f9
e2
e1
10
12
07
f7
05
f7
ef
e9
ed
ed
04
03
15
0f
10
1d
26
23
04
01
01
f8
f7
ee
ee
ec
e0
fe
0e
03
f5
f3
eb
f7
e0
f0
0e
1c
0b
04
06
e3
fe
ec
ef
08
0a
fd
f3
f4
e3
e3
d4
e8
17
08
16
1c
00
11
0b
19
09
03
04
fd
f8
f6
04
ee
f0
f4
fe
02
0b
f1
f6
f9
eb
ea
ec
ff
07
eb
00
ed
fe
07
02
fa
01
02
e9
e7
fa
f6
ea
dc
e0
03
f5
f6
f7
03
f8
00
fa
e9
fc
ff
f4
f9
fb
f9
f6
da
e6
f3
f6
fd
fd
fd
f9
ec
ff
f5
f8
f5
f9
f3
f7
fb
ff
11
e0
01
fe
fa
00
fe
fe
fb
00
fd
fe
02
f7
fc
f6
06
0d
07
f8
06
e9
f9
f1
f0
0f
f6
ed
0f
fb
fa
fd
01
fe
fd
02
fe
ff
fa
04
02
f3
f7
fb
08
f9
f2
e9
fa
07
02
f4
02
06
0e
0d
f3
f9
02
fd
f7
08
f7
07
ef
f9
f7
05
f6
0c
0a
f6
05
08
f4
f9
e5
e8
f1
f0
e5
eb
ef
f5
ef
ff
fd
f1
f7
05
02
07
fe
f9
f7
fc
04
f6
f1
0a
11
eb
f9
ec
05
f7
03
f3
f6
e5
02
06
f3
fe
fb
03
ef
eb
f4
f7
10
fd
06
f6
f4
f9
05
ff
06
fa
07
f7
06
0b
f5
fe
fc
fe
fd
fa
fa
f0
ec
f6
e0
df
06
f8
ff
fe
f6
02
05
f5
f6
f3
0e
06
04
fb
0a
fc
0c
fa
d8
fd
e7
c6
f7
cf
d9
fc
d1
00
00
f2
01
fd
fa
f6
fc
00
f9
05
fc
f6
f0
0a
06
f9
f3
f7
f9
04
f9
04
0f
fb
f7
07
09
11
07
12
f3
0e
12
f8
f7
f3
f1
de
eb
e7
f0
fc
ea
ed
06
fc
ec
01
f4
e4
03
04
e7
02
f1
0e
02
f3
ee
ee
f9
e9
16
fe
e8
ec
ed
fa
01
fe
01
00
e8
fc
eb
e5
07
df
ec
04
03
fd
08
0d
fe
00
08
ec
06
f5
01
f5
f7
f9
e4
f0
fc
f9
00
fd
05
f7
ec
f6
f9
fb
01
02
fc
14
00
ed
11
0f
e6
16
f8
ff
fd
fd
0d
01
fc
fd
00
18
fd
00
04
0e
f3
19
fd
06
0b
f9
e9
fe
e8
f3
f1
e9
e8
00
00
08
02
07
06
ff
fd
0a
01
08
fa
0a
09
fc
04
f8
09
eb
e7
13
07
07
fc
0a
15
0e
14
0f
0a
05
25
f9
19
07
0e
fb
fe
01
ef
05
ef
f8
fb
f9
f5
e8
ee
fa
ef
e4
fd
f5
e4
f6
ee
ff
ff
fe
01
03
05
0b
f8
06
01
ed
ea
ff
02
f5
ee
fe
ec
00
f8
ef
08
f3
e0
ee
fd
07
05
fd
fc
fd
fd
f3
f8
fa
02
fd
f9
03
f2
f0
ed
f0
06
01
fd
f6
f9
f5
00
f4
f1
eb
df
f2
de
e4
ed
de
dc
e0
01
f7
f8
09
05
fc
07
f7
fd
fc
08
01
12
fd
fe
03
10
07
d9
de
fd
f3
e4
d9
e3
e9
d7
fa
03
fe
01
02
fe
06
04
fb
f6
06
01
fe
00
07
05
03
fc
05
f4
ff
f5
f4
f7
09
01
f6
0e
fc
0c
fd
f3
01
0c
17
02
01
06
f1
09
08
05
f6
fd
fd
ff
dd
f4
f9
e9
df
e8
e9
f4
01
0c
13
f4
f3
ed
eb
f5
fa
f6
e6
f9
d7
e4
f8
f2
00
02
e7
00
fe
d8
e8
fc
de
f8
e1
ff
e8
02
ed
ef
e6
ee
dd
ea
00
f8
11
09
05
20
0c
13
1c
0f
01
07
0a
f3
fb
f5
09
13
0c
00
f7
f4
04
f2
f8
0d
ea
f7
ea
fe
f9
dc
de
04
e7
e2
0e
f2
0b
0b
f3
ef
0a
e1
dc
ed
f5
db
d0
fb
dd
c9
07
ef
04
f2
fd
fc
f2
ee
00
ef
e5
f7
d6
fc
f0
e0
e8
07
db
d4
f2
01
0f
f4
d2
ef
04
ef
f5
00
d6
05
fd
f2
fc
0b
ec
e3
01
fb
eb
04
f5
04
fa
f5
ff
20
0e
fd
0b
f5
f4
ff
f4
e6
14
2f
2c
e6
fd
f9
fc
e8
01
e3
e9
f0
de
d9
ce
07
f1
03
01
16
07
ff
f4
0a
fa
f2
f7
e2
e0
d1
e8
de
d7
eb
e5
e7
0c
f6
f7
0b
fe
21
10
18
0b
09
00
00
13
02
fa
05
01
09
cc
f4
06
c0
dc
f6
ed
fc
05
fa
f5
ea
f1
f1
e5
ff
f1
e8
ee
ef
db
ed
f7
eb
f7
e9
da
e3
f4
db
c5
cc
e3
fa
f9
f2
f6
f1
ec
ed
e9
ef
f9
e7
eb
ee
f3
f0
f7
f3
ef
01
f1
e4
06
06
f4
e2
f1
d9
ef
e3
e5
e1
f2
ce
eb
f1
e0
f5
de
d6
fa
04
f1
fa
02
f9
03
ff
fe
ef
ec
f2
f5
fb
f0
f5
f6
e6
fb
f7
ef
ed
f5
f9
f6
07
10
f5
05
fd
f6
fd
ed
04
f3
eb
f3
ed
ec
fd
ed
f7
f9
f9
f8
01
09
fa
06
fd
ff
fa
f3
01
0c
07
01
fb
02
fc
02
fb
e7
f7
04
06
ff
03
f7
03
fd
f7
f6
f0
04
ea
fe
02
f8
fc
e9
07
01
fa
04
02
f9
04
04
08
ff
00
ff
14
0b
fe
07
11
0d
ed
fd
e4
e0
03
ed
fa
e9
cc
01
f9
f6
07
fc
fe
06
f9
fc
f8
fe
fa
f6
f1
fe
03
f5
fe
08
f5
f5
ff
f1
fa
02
ff
09
0d
fc
0a
08
04
fd
0c
0b
12
f7
01
0f
f8
02
0c
32
00
ee
f7
04
fe
fa
09
03
f6
fd
fe
f7
08
01
ef
f3
fa
f2
fe
e8
08
0e
04
fa
07
1a
18
1c
1b
09
0e
f3
07
fd
f0
03
fe
f9
0b
04
fc
0e
09
f4
f2
04
11
fe
ff
fd
f8
f5
ed
1c
10
ec
03
fa
0d
0d
fe
02
1e
19
0a
1c
06
10
09
1d
0d
ee
0e
14
03
fd
f7
fe
02
02
e6
f8
0a
f7
f6
ff
09
00
06
dc
ed
04
e8
fe
05
03
0c
f7
00
1c
fe
08
f6
fc
08
00
04
e4
f5
0b
f7
fe
f6
fc
01
03
f8
09
01
02
fa
ee
0a
13
fb
e2
0b
1d
f7
0b
0f
f4
0b
fd
dc
ec
fd
f2
0f
06
fd
05
16
f9
fc
07
f6
f9
f7
08
fa
ee
fa
fd
f4
f9
09
ff
f2
0e
0b
fb
0f
0e
fc
fc
ec
0a
15
fd
ff
fe
ef
de
f4
00
df
f2
00
ed
01
03
fb
f1
de
03
fc
e7
06
e6
ec
12
05
02
ff
07
1f
0e
1e
2b
0b
05
fc
0a
18
05
08
1b
0d
10
fb
0a
07
f4
06
01
0a
0a
01
ff
de
0c
fb
ce
fd
f9
d0
f7
04
ef
11
00
e2
f8
03
ef
ff
09
fb
0c
04
0f
fd
0e
ec
f9
08
ed
0b
04
e6
06
04
ef
f5
ff
d0
09
f6
cb
f9
f3
c7
ea
11
01
ff
11
f0
ff
f6
c0
f7
f1
c1
0c
13
db
0c
fd
db
f8
09
0b
fc
00
ee
f9
f8
0e
02
02
fb
eb
eb
fd
ea
e7
ee
f7
fc
f7
f7
ed
fa
05
fb
02
ee
f9
fe
e9
02
f2
13
0b
05
fc
f9
f8
fd
f9
0c
04
f9
15
09
03
01
04
f9
f1
fc
ef
e8
f9
0d
02
05
ef
ed
f4
ef
f5
01
03
f5
01
05
f7
f7
ff
0c
f1
05
f0
f4
fc
02
00
f4
06
04
03
05
06
01
ff
f8
f4
f1
ff
05
fe
02
06
00
0f
09
fd
f5
03
ea
e5
dc
f5
e0
e5
d9
ff
fc
00
04
f5
fa
f7
02
f9
05
03
05
00
fd
fd
f3
f8
ff
f1
fe
01
0b
f5
fa
00
02
03
fc
0a
ff
01
14
0d
0e
0b
ff
f5
f9
0d
01
fc
fe
f1
f6
fb
ff
fe
07
fb
ff
0a
04
07
10
ff
fa
ed
02
04
04
03
0c
10
fb
f9
e8
0a
f4
03
f0
ea
fb
f9
f3
f1
01
05
0c
0e
f0
ff
06
0f
0f
06
0b
f4
03
0e
e2
10
0e
ff
f9
fd
0d
f7
fc
00
f8
fd
01
f7
10
14
f8
ff
02
09
08
0c
f7
0c
00
05
f9
01
0c
01
09
09
08
fc
fd
fe
f7
04
13
1b
10
fe
19
fb
fd
f7
f7
fc
0f
ec
e0
05
ec
f5
0b
05
0e
08
ff
fc
03
fe
f9
f7
09
03
15
08
0a
0a
01
fe
f8
f9
f3
fe
f4
f8
0b
0c
10
09
06
0b
1c
15
fe
07
06
02
0e
05
e5
c0
02
f2
cd
fa
f1
e4
e5
db
e4
f9
ee
d3
0a
02
ed
07
02
f6
06
09
f1
0f
fb
e5
01
f1
ea
08
f4
f6
f4
e2
f9
ef
e3
e9
eb
f9
f4
fb
ef
e4
06
ed
15
0f
03
03
0b
ea
fa
12
06
d7
09
de
d6
02
f8
e8
04
02
f4
fc
f7
f8
fb
fd
fd
f9
f9
e8
ff
12
f8
01
f7
ea
07
ff
15
08
0d
ef
04
fe
fa
08
ea
04
15
0d
dc
16
07
09
fe
fb
e7
e5
01
e4
fe
fd
dd
09
01
06
fb
0a
fe
fd
05
09
fc
f2
03
04
0c
dc
f8
0d
fd
f9
f6
09
ed
00
f7
0e
1d
fd
0e
e9
05
02
02
da
0c
04
f6
03
09
0d
05
f3
0b
fd
f5
12
fd
fa
f4
f5
f8
0b
00
08
06
00
13
05
03
01
fa
09
02
fd
0f
13
fe
f5
fd
f5
f8
fd
f3
01
f4
fe
e9
e6
e8
e1
d3
e6
01
ff
05
0e
0b
f1
0f
fd
e3
f9
01
fe
f2
f3
fa
ee
e7
ee
f8
f2
fa
f9
fd
f2
ef
f4
fe
f4
00
f4
f6
02
0c
14
f5
0d
f9
fb
07
01
fa
f9
04
0c
f8
fd
10
f7
11
0b
04
1b
13
11
fd
e2
f5
ff
f7
08
ec
02
07
fc
04
f8
fb
fc
fe
02
0a
ff
f6
f8
01
fa
08
07
fd
0a
fc
fe
fa
f6
ef
01
fc
04
02
13
fb
0b
10
ff
05
ff
16
10
fd
04
e0
e6
0b
ff
01
e3
db
ef
f9
05
01
01
fb
04
fe
f0
f3
f4
0a
03
09
06
15
fe
08
04
f6
f9
0d
17
01
1a
1a
1c
30
f0
f0
ef
0b
10
18
19
00
02
ea
07
f5
f4
e5
f9
f0
df
f6
0b
0d
0a
0b
0e
03
10
0e
0e
03
0b
0d
0f
06
fb
ff
16
0d
06
03
ee
04
f6
fe
0f
09
02
f8
fc
0b
f2
fb
fa
f8
e9
e5
ed
f2
fe
ed
ec
df
fb
eb
f5
11
02
e3
01
07
e9
02
0c
e5
fb
f1
fd
ee
e4
e9
e9
f0
e6
f9
07
f5
f2
ee
e7
f5
f5
f4
f7
0a
09
f4
f0
06
f2
e0
ed
eb
ec
fa
e2
e7
e5
f6
e2
f8
0d
f6
f7
02
f2
0d
27
f8
09
06
04
04
fd
00
fb
ed
fa
ff
f8
07
f7
fa
ef
05
df
ec
ff
0c
05
08
05
fd
ee
1c
10
f8
eb
f1
04
f4
f6
f7
ec
de
f3
f9
02
f9
01
f9
f4
f8
07
f1
01
0c
02
fa
05
fc
f6
ee
ee
f6
02
0a
f5
06
00
0e
f7
00
03
f4
0e
f9
eb
02
fc
e1
e8
06
fb
fc
04
02
f7
fc
01
05
0c
08
08
02
06
fe
02
08
0c
17
04
fd
04
ef
0b
0b
12
d5
02
01
fa
f6
01
fc
fc
f9
00
01
fc
00
05
0c
00
04
01
06
00
fe
ef
f9
fa
fc
0b
0e
10
09
04
0f
02
07
0f
f0
0d
03
f3
fc
05
00
f1
e7
f1
e6
07
01
f3
f9
0b
07
09
14
09
1b
fd
ef
eb
03
02
f6
19
15
07
00
0e
10
fd
09
1a
07
02
09
01
df
f6
13
00
0b
0f
e3
03
02
ff
fd
fa
04
03
08
05
02
f6
ff
fd
ef
f9
e2
fd
fe
fa
08
05
09
02
02
ff
ff
fb
04
15
fa
00
06
10
fb
0d
ff
fb
06
06
00
f4
fa
08
02
07
05
08
fa
00
f8
06
0e
f6
0b
fc
0f
10
03
e1
0d
06
f9
00
fc
ff
04
fd
03
05
0e
fd
fe
03
06
06
fe
fe
00
09
01
04
fd
f4
ea
f3
05
fd
04
f2
f9
f7
02
0f
f0
05
13
0e
0b
0c
09
0f
fc
14
18
04
06
14
05
07
ee
e5
f9
ea
fb
ee
ff
15
07
21
2b
1a
0c
05
fb
06
fd
0a
01
ff
f1
10
f7
fc
0a
f2
f3
08
ed
e5
0c
fc
e9
ef
dd
df
e0
f3
e6
fc
ff
06
f9
fc
ff
e5
e0
e2
d1
e7
e5
ea
07
ee
e6
e3
ec
eb
f7
e9
ff
fe
f9
d7
f8
f4
f8
ee
f2
fd
f6
e6
d5
e3
cf
ff
04
f7
f6
f4
03
e6
eb
d8
0b
04
08
00
fe
02
ea
f2
01
f6
08
05
fa
12
02
f1
e6
de
fb
fc
f9
fe
fa
06
db
e2
c4
02
09
f8
05
00
00
08
fc
f9
ec
ec
f3
fd
fe
04
de
df
ce
06
04
fd
fe
fb
11
07
13
0e
f6
0f
fd
06
02
0a
0d
0c
0e
f6
05
fa
fa
10
07
16
10
06
fb
05
ff
00
08
fd
f0
03
ec
08
10
fe
07
f2
00
f7
08
08
1e
01
ef
fb
02
ff
f0
f7
12
fc
0a
10
15
0b
f6
05
ff
00
fa
0a
1a
f3
02
02
03
f7
06
07
fa
00
e7
f0
ed
f7
fa
f7
01
0b
f8
10
23
f5
f7
fa
06
fd
08
10
12
01
fa
02
04
f9
08
10
0b
0d
09
fb
08
19
ed
fb
fb
0b
f8
0e
fa
02
fa
04
01
0f
03
0b
0a
f9
03
fa
06
fc
02
fb
15
11
fc
fb
f8
fd
f7
f1
01
26
09
15
f1
04
10
09
1c
1a
17
10
ff
27
1e
18
23
12
03
1e
1c
15
e6
de
e8
e5
f9
fd
ee
03
04
3b
26
09
21
f6
f3
03
fc
fe
ec
f6
f0
e8
ff
f5
de
f2
ed
f7
fa
f5
e3
df
ed
ea
e9
f6
d1
f7
f5
f2
0e
0c
04
13
00
c5
da
d7
e0
d9
e2
e2
d1
d8
ea
f6
fd
fb
ea
f1
0f
f9
ec
db
e1
f4
df
fa
04
df
0e
00
cc
f6
f4
dd
0d
03
f6
fe
04
c2
f6
f7
e7
16
10
fc
02
f5
d5
f1
f6
c7
00
f4
f5
05
11
d4
ec
f3
f3
0c
fa
f2
07
fc
c7
ed
f2
ed
08
fa
00
03
07
fd
fe
f6
f5
e7
e0
e6
1a
05
c0
ee
f8
fa
1f
0b
f5
04
0f
d3
e7
cb
df
fc
df
eb
f6
e9
c5
c0
e7
f2
ff
fe
f7
f4
08
fa
fe
fe
fc
04
00
02
0e
03
ec
e7
ee
e9
e2
f6
e9
e5
f2
ec
dc
fa
0f
fa
0f
fc
eb
e1
f0
f0
fd
08
15
0a
fe
ff
ed
f5
d9
e9
d3
df
e4
ee
f1
f0
0f
13
11
f9
f4
f6
fb
f1
eb
0d
f3
f5
00
ee
f6
09
01
db
01
01
f9
08
0e
05
f5
07
fa
01
f1
ee
fb
0a
08
f8
04
0e
c9
e9
df
cf
fa
dc
df
e4
e3
fd
fe
ff
09
0d
fa
f7
01
f4
0f
f7
0a
f8
0a
01
f6
fc
fc
18
18
30
f9
fa
ff
f6
fa
fb
0e
e4
f0
fd
0c
0c
fd
05
08
25
1e
22
19
1c
22
0d
11
1d
01
ee
ed
f2
e8
e2
f5
06
f5
eb
f0
f2
de
e0
d8
f1
ef
f0
03
1a
11
13
02
fc
fd
05
14
e4
ec
f4
01
09
0d
f0
f5
f8
ea
fa
ea
ef
ec
f0
fc
00
eb
fc
f1
eb
e6
05
06
fc
f8
f8
f1
ec
e6
08
ff
f1
f6
fd
02
ed
00
07
fc
fc
14
13
11
1a
f3
f9
fc
02
fe
ee
f9
f2
ec
e7
e5
ef
e9
e8
ed
ec
ee
e2
08
06
1d
11
09
01
31
30
19
f8
f1
f6
f8
e9
fa
ee
f1
ee
04
00
01
f5
f1
ef
00
ec
fd
fa
f5
f5
fd
e9
eb
f8
eb
f2
e6
e3
eb
ef
e9
f4
f9
fc
e9
18
16
11
14
0c
0a
03
fd
ef
13
09
0c
fe
f6
ef
03
08
0a
1a
0c
f8
fc
08
01
fc
07
0c
06
16
0d
e9
f4
14
11
08
10
e3
ea
ed
0e
f8
06
fe
f2
16
ef
f5
0c
fa
06
09
0a
fe
e4
05
eb
01
e2
d4
d6
f2
e6
d6
0e
06
0b
03
fb
f5
05
00
00
16
06
00
09
06
ff
04
04
f3
ed
e2
0b
f4
01
fe
09
0a
0b
e9
f1
0d
f4
fe
02
01
fd
07
1c
17
05
04
f8
ef
06
14
09
fb
ed
09
03
06
07
05
03
05
ec
f4
10
f9
03
0e
04
fd
00
fb
f3
1f
13
07
07
fa
08
16
ef
f8
11
0e
fd
00
05
08
10
1c
fc
f7
11
08
f8
0c
f6
04
11
02
10
0e
03
0c
0a
08
11
23
11
21
05
fb
13
01
02
04
f5
f9
e3
02
05
04
fc
f8
eb
23
18
18
03
06
18
e6
e0
f0
eb
f3
fb
f9
10
03
08
10
e7
e7
d6
db
fb
e8
15
f5
e9
f2
f0
fb
f5
05
0e
04
fb
02
fc
e1
d1
d5
0c
f2
ea
23
07
0c
f2
f2
f9
f9
f9
00
0b
00
06
fb
fd
fd
09
06
05
15
05
07
15
f9
03
ea
ec
0b
04
09
ff
f7
f6
ec
03
fc
ff
0b
0d
0b
ed
fa
fa
f7
fc
fd
01
05
0d
06
e7
eb
ee
f0
f1
03
08
1f
f6
f2
fc
fa
19
0f
1c
12
09
03
f6
fb
e9
ea
e9
e8
d3
e9
02
fb
f8
01
16
f5
e4
ef
d5
f7
0c
02
05
08
f7
fd
ee
f9
07
fe
ec
f6
f3
ff
21
14
f1
f9
e6
ed
0a
fb
19
fb
ea
f8
0a
03
0c
14
07
d3
11
eb
10
00
ee
02
e9
f2
fa
ff
02
21
01
0a
fe
0b
f5
02
0f
1c
39
f6
0c
0c
08
02
10
0c
06
0c
01
00
0a
04
ff
fa
fd
f5
cf
0b
0d
16
0c
04
fb
fb
01
d1
ec
e8
01
fa
fa
f5
f1
ee
04
fb
fc
00
fb
03
fb
0c
fc
eb
fd
f8
fb
fb
04
02
0c
fc
e4
ec
f1
f5
07
07
1b
0a
0a
d2
f7
ff
07
07
02
fa
0d
00
d6
1c
14
1c
1d
0a
04
2a
20
19
eb
fa
f3
03
08
f7
ea
f7
eb
fb
f5
f8
e4
e3
f4
d6
d4
db
f8
e4
ff
fa
f1
ee
d8
e9
cf
eb
e3
f8
f5
dc
f1
ef
da
eb
12
0b
03
07
f7
fb
ed
e2
0c
0b
f2
f6
04
fc
16
1b
2c
32
fe
fd
10
fd
02
03
0f
19
f4
0e
e6
e5
0d
f9
f3
e8
d4
f7
00
0b
ff
fa
0f
f4
f6
d1
e1
0a
08
f6
ff
0f
f6
f1
f6
e7
e0
ef
e8
1b
17
f4
05
0b
e9
f9
01
01
f9
10
fb
f2
f4
ee
0a
0e
fe
02
0e
fd
fe
e1
e6
f2
ff
04
0e
2a
0a
fb
da
e6
00
03
04
ef
15
0c
f2
e2
f0
e7
e3
e9
e3
ec
fd
e6
f5
eb
00
00
fd
f8
f2
fa
01
0e
19
22
2a
10
0c
06
05
1a
07
0e
f0
10
f2
0f
28
1a
08
12
f5
fc
f0
f8
04
fb
ff
e7
d3
dc
f2
e2
ec
fe
ff
fb
00
00
07
e5
dc
d5
fa
db
f3
e8
e9
da
f6
f3
fb
f8
04
02
01
05
fe
f2
e1
ec
10
08
0f
25
0f
01
fc
e8
eb
f4
f9
e5
fd
03
0b
fc
ea
e8
05
04
f9
02
16
0d
ed
0c
07
f1
0b
f0
0e
20
08
f7
ef
dc
f8
fe
e7
00
00
09
fb
f7
e7
f3
00
f1
fb
08
09
04
f7
fe
0c
f5
f2
f5
0d
0c
eb
ec
f2
09
07
f1
ff
10
13
1c
27
ff
0c
09
01
39
1a
2b
f7
f3
e8
ef
04
fb
f2
ee
ed
04
fa
f3
f9
ef
f6
00
fe
04
d9
ea
e3
e3
f8
ee
c8
e8
f5
db
d2
de
f5
e6
e1
e7
db
ea
0f
00
fa
f8
fe
04
ea
fe
0c
fb
f9
06
fb
d9
fb
40
3f
27
fe
06
fb
19
f3
fa
40
27
08
ed
f0
ed
ee
f5
09
e0
ea
07
00
02
fb
f2
04
f8
d8
ef
f4
f8
0b
f7
f5
13
06
e6
ea
ef
ee
f5
12
09
11
15
02
0a
f8
02
07
06
00
fd
01
ed
fa
01
f6
02
f9
04
0a
07
f2
f8
f2
0d
0b
f3
0d
17
01
d8
01
09
fd
11
00
00
0a
01
d1
ec
ff
07
fe
05
fe
04
05
f7
ef
fd
03
fc
02
06
ef
fa
f7
f0
e8
fd
fb
fd
ff
ff
dc
02
02
e0
0a
0f
f7
0d
10
f9
0b
01
ec
f7
ff
eb
f9
fd
03
1e
fc
11
f7
fb
02
fe
f7
ee
00
f6
e6
06
01
f8
03
fc
f6
f0
fb
00
ff
08
f9
fe
f9
f4
02
06
1c
11
09
09
0b
0d
14
0c
0a
08
f6
fd
fa
08
05
00
f7
fc
fc
0c
f9
07
ff
17
0e
0c
04
01
07
f4
fa
0d
ec
f6
fe
e5
dc
f8
f3
01
f9
ff
f9
fa
fb
08
02
04
01
fd
01
f8
f5
02
00
ec
eb
ef
fc
04
05
10
0e
12
fe
05
f9
01
18
12
0e
07
fd
f4
eb
fe
da
f2
d8
fc
f6
f8
e9
fd
ec
e4
e8
e3
f7
f9
00
d6
d0
ed
02
00
f7
08
ff
fa
e7
fd
02
f3
13
0e
07
12
ff
d4
d7
f3
10
0d
0c
11
01
08
01
08
fc
f7
f3
08
fc
09
f8
fd
05
03
de
c3
e3
da
e9
e8
0e
06
0f
00
09
00
fa
ed
e7
fb
06
f1
d5
f9
e9
fb
f2
f6
fb
06
ff
f8
e6
11
fb
01
01
00
13
fa
e4
d9
f3
eb
f7
f5
05
15
f6
f4
09
00
ea
f2
ed
f4
01
ff
fb
de
fe
f8
f9
f3
06
06
05
00
f1
13
ec
fa
fd
00
19
f7
fa
ec
fa
f9
f6
f5
f7
08
03
e4
df
f9
f1
0f
f4
01
04
04
ef
f0
f7
06
00
0c
e7
fc
ff
d6
df
f6
ea
f1
f6
ea
f0
f0
e5
fe
09
ef
f6
ee
04
07
0c
31
19
18
20
40
20
f8
01
f4
07
02
0e
0b
f7
07
0a
fe
ee
f1
f4
e7
fa
f2
f4
05
ef
ff
eb
d7
eb
ee
f9
f8
f3
ef
f9
00
04
06
f7
0e
0c
10
10
09
26
fa
08
27
fe
03
05
14
fa
f2
f5
e8
00
f5
f7
0e
06
f9
e7
e3
ec
00
e2
f5
f6
0b
06
eb
f9
0a
dd
e6
e0
f9
00
f5
eb
f2
db
fb
e7
de
00
11
06
e5
fa
e6
f6
db
ec
f5
fb
f3
e1
03
ed
f4
ee
f9
0a
1c
04
f1
fd
f2
ff
ed
e0
0c
0e
10
f5
18
00
18
25
18
fc
06
dd
0b
09
eb
09
01
f4
ea
dd
de
fe
09
fe
00
f0
ed
07
f3
f8
16
00
04
04
06
f5
ef
ce
e1
ea
f1
f5
de
e9
f6
04
fd
e6
08
f9
03
09
f2
07
21
ff
e5
08
f5
cb
f8
f0
f4
ee
f3
e6
ec
03
f0
ee
0e
fc
0b
0a
fd
07
20
28
21
10
21
08
05
e9
fc
f9
f5
00
00
ef
08
03
da
02
01
f5
09
0b
e0
08
f9
0d
01
14
20
24
f5
28
fb
00
fc
fd
fc
04
fb
f4
ff
f5
f7
e2
fd
f7
ef
f3
ff
e5
01
f2
f2
04
02
fe
f8
00
e8
ff
10
cd
0c
fe
e5
f5
ef
e4
fa
de
fa
ef
e9
e4
e6
e1
de
0b
08
06
f7
06
07
1f
11
12
ee
01
f2
0b
17
1a
1c
15
16
04
33
1c
23
32
1e
29
30
15
e7
ff
ff
25
28
22
15
05
03
f0
e8
fe
f5
f5
eb
f5
f3
07
f0
e9
ed
eb
d9
d2
02
ec
e8
f8
0c
f4
0d
0b
0c
00
07
06
2d
1a
18
23
2a
10
2e
11
08
fa
f2
ed
ef
ea
e7
ff
ec
f6
f6
e7
f0
e0
e2
ef
ed
f8
f3
10
40
0b
02
10
03
1a
31
ff
e5
e4
ec
ef
f2
dc
f3
f1
f4
e9
fd
e7
e6
f7
eb
ff
fa
fb
04
14
01
0e
f9
f8
f3
eb
ed
03
fe
e4
fb
ee
de
06
09
02
f2
f5
01
f4
0d
05
ee
17
ee
f9
ef
f2
fb
ee
07
07
d8
f4
03
ff
fa
12
d6
06
ec
e3
f1
eb
e6
e3
e1
cb
c2
d4
d7
e3
c8
ff
f4
d4
d6
dc
cd
eb
c0
05
d7
fd
f0
d7
0a
ec
e3
12
f7
f6
0b
fd
e3
f3
09
ec
f7
10
09
0d
07
1c
00
03
12
08
0a
f0
f3
02
f8
f1
f4
f0
ed
07
f3
01
00
d9
f9
03
ce
01
f6
fc
f5
07
ee
02
fc
ee
07
1f
f8
dc
fc
f8
c4
f8
06
f1
f8
fd
fd
07
f8
fb
01
fc
02
fb
f1
f6
f4
d6
07
ff
da
fc
f0
19
ea
fd
ed
01
f9
dc
15
0a
0c
06
04
e5
0f
16
f6
11
19
0c
fc
25
f4
fe
f8
fc
03
0a
04
da
f3
fd
01
f0
00
0c
0c
33
06
23
f4
eb
19
f8
f4
f5
cd
e9
dc
cd
d8
f4
d8
db
f6
ec
f5
e8
f7
f2
de
f3
ea
c8
c9
f5
db
16
fe
fc
00
fa
ed
e3
e1
e7
f0
f2
f6
f6
f5
fc
f5
f3
eb
ed
f7
10
fd
00
ee
e3
e7
e7
01
0b
00
01
f0
f4
de
f1
da
05
f9
ef
f9
fc
f2
e0
f4
d4
1f
17
f2
0b
fb
06
09
dd
e5
ec
e6
f1
f5
0a
f1
d5
f7
ec
0e
ff
f7
02
05
e3
de
f6
e8
02
f9
fc
09
f7
14
f8
fa
06
e4
f5
fa
03
03
ee
d0
f4
e4
20
09
0a
14
15
0b
f4
fa
03
00
02
05
ef
fe
03
ee
f5
06
0a
f7
07
fe
fa
f3
03
fa
06
fc
05
fb
05
04
12
fc
fb
25
24
19
12
16
09
ff
04
06
02
0c
08
f7
03
01
f4
00
f5
04
f3
ed
f0
e5
e7
f3
f2
e3
e3
e4
e2
eb
ee
e4
06
fb
02
0c
07
ff
23
13
10
0c
fd
14
22
1a
21
14
20
09
ec
ee
fe
f4
ed
f5
ea
f1
f0
f3
f7
ec
f4
eb
f1
ec
e1
e8
14
03
ff
1d
3b
11
19
2b
16
e5
ef
f0
f6
e7
f1
e2
ea
de
e5
f7
f3
ea
ec
e9
eb
e3
ee
00
f0
f5
f1
fa
ea
fb
04
04
f2
f7
f5
e6
f7
ec
eb
ee
e6
f5
02
e9
ff
ef
ff
f9
f0
00
0a
fb
01
06
ff
05
01
fd
01
09
ee
e8
04
07
05
07
0c
14
f0
06
fd
fa
f9
07
04
fd
1b
00
ed
fe
06
00
fa
16
f6
fb
03
fc
05
fa
0d
0c
04
f1
f6
0d
0f
08
eb
04
ec
f1
02
e3
08
14
14
01
04
00
f7
fb
f2
05
e7
fa
f8
ef
f8
00
fd
04
fa
fd
ff
fc
07
09
04
05
02
ff
12
04
0f
14
16
f9
fb
0f
0b
f6
1c
f5
fd
f2
0b
05
01
f2
03
fd
02
09
09
fa
fc
fe
f4
0a
fd
f5
fa
09
04
fa
08
f4
f9
00
f5
ee
09
00
01
10
00
12
02
f7
01
08
11
11
0b
fd
06
ef
ff
f6
00
0b
e7
05
f7
0e
f0
eb
04
f2
da
07
01
fd
1c
0c
eb
0c
01
dc
01
fb
e2
e1
de
dc
e7
ed
e7
00
d4
f5
ed
14
e5
fc
10
ea
e4
e5
07
ff
f3
f5
09
f8
f2
11
0b
f5
0b
05
06
01
05
11
f7
f3
02
fd
12
0d
01
fe
0c
fb
05
e8
04
ff
e3
02
da
e3
db
e7
0e
f9
08
fd
fd
fd
e1
03
05
0e
ff
01
f4
10
f8
df
fa
fc
e9
d9
e5
e2
f3
11
f1
0e
06
00
03
ff
00
0a
05
f2
05
03
fa
f6
ff
05
04
fd
e8
07
f5
04
06
02
18
18
f3
ea
15
05
10
10
fd
f9
0b
f8
d3
14
01
13
03
f5
e9
f7
0d
0d
f7
fb
d5
fe
fd
ea
02
06
f0
ff
05
1d
fc
00
eb
f2
f5
ee
fa
fb
d4
06
f1
f7
f5
e7
e2
f8
00
ea
e4
ef
e8
cf
eb
e3
e2
e8
eb
08
fa
17
06
00
02
fa
f9
d9
e9
04
e4
e9
fd
fd
03
f3
f3
ff
09
fd
01
07
05
fc
06
f4
f3
0a
04
e7
01
f2
00
00
05
f8
0b
02
02
fe
04
f3
06
fb
0b
0f
01
06
fd
06
07
0c
00
01
f2
fb
07
12
f1
18
07
05
08
02
07
08
f6
0c
04
01
f8
05
06
0c
f6
07
fb
04
01
1a
ef
fc
07
0a
08
14
09
03
e5
f8
11
01
f8
fb
0a
08
08
f8
f4
05
fe
e1
f0
e2
e5
f7
f3
08
02
da
f2
ee
e8
f4
de
d5
e8
fc
d5
e7
e3
eb
f7
d7
f1
00
fc
f6
0c
fc
f3
1b
f3
d6
d6
ed
e9
fa
ef
df
ed
f3
fe
f0
02
ec
11
ff
f2
ef
14
e9
01
06
03
d7
dc
ca
e6
e6
fc
f6
fb
2f
08
f4
f5
2b
0a
13
0c
fe
15
fb
f9
fd
f4
d3
04
f4
fa
ef
ff
02
f8
d2
08
f5
06
f3
ee
07
f8
e2
d4
fa
1e
0b
08
0b
0b
f6
e8
20
e2
03
f9
f1
fa
04
f9
f4
cb
f9
f2
fe
02
ef
0d
f6
f1
d9
f5
f9
ff
f2
ff
23
f8
03
fb
19
05
f4
06
fb
18
03
ea
d2
fb
e8
ff
f7
0e
f4
ee
07
10
01
e5
fa
03
fd
07
04
ff
0d
11
0b
ec
07
f2
f9
03
fd
f6
fb
e6
0b
f9
f6
fd
eb
fc
fb
f0
f3
ef
08
e7
d1
f6
eb
e5
fa
00
fb
00
fe
0e
02
0d
fc
01
e2
e0
f8
d6
02
f4
f1
f9
ff
fe
0f
0b
fe
03
f4
ff
fb
f2
ec
f0
04
fb
f5
f9
fb
f8
07
fb
fc
05
0c
14
f1
07
ff
fd
15
0c
06
02
08
f8
04
0a
07
f9
0c
f3
f0
02
12
0a
02
03
09
03
f4
0f
03
fd
04
09
f8
0d
03
01
0c
10
fc
fc
0d
f8
09
e4
ee
00
0d
f8
0e
07
fd
09
03
0a
06
09
f0
04
fd
00
ec
e5
d0
ed
ea
f4
fa
fa
f9
f4
dd
f6
ef
e2
e6
ea
fe
f8
eb
e1
f7
f7
e3
ee
04
00
fb
08
05
f7
01
04
fd
f8
db
d2
dc
fd
05
f4
17
03
13
fe
f1
f9
f2
07
0f
0f
13
00
05
00
0d
0b
fb
21
0f
03
0a
f3
ef
0f
16
16
eb
ff
fb
e3
f6
fc
04
f9
db
15
0e
e7
1c
f0
e9
05
04
f5
0e
0c
0c
06
0a
07
ff
06
fa
0a
fe
04
08
fe
f8
00
f7
e5
ed
0b
e4
ec
fb
e9
fa
03
03
09
05
02
01
0a
f6
f1
00
ff
02
0f
0e
ff
0c
07
f9
18
0e
02
ef
e7
08
0d
fe
f4
04
f5
04
fa
fa
02
15
ff
00
02
f2
06
fa
1a
14
06
08
05
fb
00
03
01
02
0e
08
01
fb
fb
02
08
04
f3
fa
ed
f5
09
08
0d
f8
03
09
10
08
08
f7
ed
f5
15
00
00
f2
fa
f9
f4
07
01
08
f7
f7
07
fb
f1
fb
f6
fe
f2
fc
e1
08
ec
f5
fa
ed
00
ff
fe
f2
fc
fa
ff
09
f7
13
13
07
fc
05
fa
04
01
06
f7
f4
f9
fe
fe
05
f6
09
fd
f5
03
fc
0f
01
0f
fa
04
06
00
e8
01
07
0c
fe
fc
00
01
fe
00
08
01
fb
04
02
02
09
f6
f7
01
03
f7
0c
f5
04
f1
ef
01
f9
fc
fb
fd
02
f2
0b
fc
0a
09
04
03
00
fe
f6
f2
fb
15
0a
16
05
03
fc
f7
d4
d8
e9
e5
d8
f4
fc
e6
fa
f0
f1
dc
e2
ec
e8
fc
ef
0a
de
f3
07
dd
00
f5
dd
f7
ea
f7
f2
01
fd
fa
fb
01
fa
f6
f1
00
01
0a
f3
f5
f4
04
16
d3
db
e0
e7
d3
04
08
fc
ed
ee
f7
f0
e7
e4
fb
fa
e4
0c
f6
ef
fc
f7
f1
fd
03
ea
ed
ee
00
07
05
f3
01
f5
07
fb
ed
08
00
0d
fb
00
01
09
07
fb
fc
fa
0c
0e
f7
1c
1e
01
f8
07
0a
09
ff
f7
fa
fd
fc
e9
05
08
04
00
f9
f5
f4
f8
04
00
25
f1
01
02
08
14
fe
e4
09
00
15
e6
09
04
0d
fd
02
f3
e9
03
09
db
f7
02
f1
fa
ea
03
ef
e4
de
e1
04
f8
02
0e
f6
fa
0b
ef
fa
02
f4
ef
fb
fe
f2
00
fb
f8
08
ff
ff
f2
fd
f5
f6
f0
fa
ef
13
eb
0c
09
00
0c
fa
ea
21
0f
06
d2
02
00
d6
04
04
ef
ee
e8
da
e9
15
0c
05
0b
18
0a
e9
c6
f9
f9
d6
fd
fb
fc
ef
00
fc
f4
f3
ec
f0
f8
f7
09
1a
0f
09
0b
14
07
f5
0b
0e
fe
d0
12
0a
d5
0d
14
f6
fe
00
00
ff
f8
f6
00
f6
06
ff
1b
24
ff
00
2a
08
05
17
01
09
16
03
1a
1d
0b
15
10
0d
15
18
09
08
12
07
fc
15
04
e4
f3
e5
de
fb
de
fc
ee
f9
ef
f0
f6
fd
fd
f6
e6
f7
fd
fa
f6
fa
ff
fd
fe
f4
f6
fd
fd
02
fd
fa
01
02
02
00
ed
f0
fc
f5
f4
f8
f6
fc
fe
df
df
ec
d1
e2
e3
c7
da
df
0e
12
0c
07
f9
07
05
fa
0f
08
06
f7
ee
02
fc
01
e6
fd
02
f5
f1
f2
f4
fe
fd
00
fe
01
fb
f8
ff
f2
fc
f9
fb
f4
fb
ff
04
f5
f9
fd
fc
fd
00
03
11
07
16
08
fc
0a
06
fc
11
03
05
07
08
fd
f8
fe
08
f6
fb
fe
f9
fe
00
fe
01
08
f1
e8
f2
f9
ef
f8
01
e9
fe
fb
f6
00
fa
03
fd
f1
f3
07
15
01
fd
16
09
04
f1
fb
ff
ef
d7
fc
11
32
2b
f0
fa
ee
20
0c
03
1d
14
f9
0e
11
09
0a
05
ff
04
07
00
ff
fe
fa
06
08
f1
fd
01
fa
f5
f2
f7
04
0b
06
06
05
0a
0d
0e
11
fd
17
fd
e1
04
04
e1
e4
f1
e7
f0
fc
e1
ed
fd
ef
ee
f4
fb
06
f4
d8
ec
f7
de
e5
e3
0f
0a
fd
1e
0c
ff
0b
13
02
f0
f6
f7
0a
12
fb
fd
04
fe
fc
0d
09
de
fa
08
ef
e9
f9
f2
07
0e
f3
fb
12
f5
f0
fd
ff
fe
07
fd
01
03
0a
fc
f9
01
f6
fe
f8
00
08
ff
04
0a
09
06
08
01
0a
06
0a
fe
0a
f8
ed
01
e4
d8
d8
d5
f8
e1
04
00
ef
18
0f
02
ff
03
f5
00
05
fa
0b
f7
f6
fc
fb
f6
09
0a
00
03
ff
fd
fc
ff
fd
fc
09
04
f6
fe
fd
fe
fb
00
06
f5
f2
e2
e4
e2
e7
e4
e9
0e
01
12
f9
fa
ff
04
07
08
02
ff
ee
fa
ff
03
ed
e8
e9
fb
f1
fc
01
fa
07
00
fd
07
01
f6
f9
04
f8
f7
fa
f3
f7
09
05
13
07
ff
08
f2
fd
fe
0f
f5
09
f8
f7
0c
09
01
f9
0e
0d
fb
08
04
01
04
fa
fc
06
04
fe
07
fe
03
fa
ff
f6
f2
f0
02
01
f0
fe
f9
fd
f2
fb
05
11
05
fc
04
fd
08
03
e5
ef
d6
eb
de
e5
c9
e8
d1
0b
02
1d
03
f8
01
08
ff
13
0b
fe
fb
00
08
ff
01
fe
06
07
fc
ff
05
fe
fa
07
01
02
ff
f9
fb
00
fb
05
fc
02
f8
fd
e4
f7
05
0e
fe
f7
ff
f4
04
07
0f
02
0f
09
0d
ff
08
f8
0b
fd
f5
f9
f7
fd
ed
f4
02
05
f4
fa
f6
f8
fa
05
01
0b
07
f5
05
01
ff
01
fc
fc
00
03
04
05
04
f4
05
02
f6
12
00
07
0a
0c
04
10
0b
10
0c
09
fd
09
fc
fd
06
01
01
f7
e8
f0
fa
06
ff
f9
fd
f4
03
06
f8
fd
ff
fc
f6
00
fe
03
05
03
0c
07
ff
0d
01
f3
de
fc
e8
f0
f5
d3
e1
e5
dc
0d
0b
06
f9
fd
f5
06
f6
f6
03
fb
f9
fc
fe
04
08
fe
03
fe
00
03
fc
00
00
08
06
04
00
ff
04
ff
05
03
f4
06
fe
f7
fe
ed
ef
ec
eb
f8
f6
03
18
16
14
01
fc
10
ff
fc
06
05
06
f5
f3
f5
01
f6
fc
fa
05
fe
f3
f9
04
f9
f7
fa
fe
00
03
fd
04
fd
ff
fe
fc
ff
fd
07
fe
08
06
08
f9
05
fb
13
05
05
04
09
02
0d
fb
fd
02
05
01
fd
fc
02
04
06
02
05
f9
f8
0c
f4
f7
fe
f7
fe
00
f3
fe
f6
00
05
05
ff
f9
0b
fd
fc
06
06
fc
00
0d
ff
07
28
34
07
0c
36
fa
00
20
f6
e7
03
ef
ee
13
f6
02
0b
f4
00
12
03
f9
fe
fb
08
fe
0b
03
fc
07
fd
02
00
fa
02
05
03
fb
02
0a
fc
00
06
f2
01
f7
f7
e1
f1
f3
f7
e5
00
fe
f9
ff
fd
ea
fd
e9
e9
eb
e2
d5
ff
03
e6
f8
e6
ec
fe
fd
ec
f7
e3
da
d1
ee
dd
de
01
f6
1b
ff
ff
16
fa
03
17
0a
fe
fd
00
05
05
ff
06
09
06
eb
f6
fc
e5
da
e9
e2
e6
fa
02
08
09
06
f2
fd
06
fc
04
06
14
fb
f3
f8
05
02
f7
07
fd
00
f5
ef
ed
ed
fd
ec
06
09
10
06
08
11
02
03
03
12
02
19
ee
01
16
0d
e9
f2
0a
32
25
f7
08
f3
e0
d8
e6
f1
f5
fb
f2
f9
02
f9
ef
fb
fb
fc
fa
f8
f7
ff
16
04
01
fc
fb
01
f4
fd
f3
07
10
09
07
fb
01
e2
ed
f0
de
d9
e8
f7
eb
ee
f2
e8
05
ed
fd
0c
06
e1
f3
07
e5
09
d3
28
04
eb
e2
e2
ea
e5
00
e2
fe
00
f5
ee
06
fc
f8
fc
e9
ea
f7
03
05
fb
f8
09
01
1c
ff
f7
03
e2
e7
03
f3
06
dc
08
02
00
0f
02
e8
0b
ee
0a
e9
ef
0b
fe
e9
04
f0
fb
00
f7
03
e8
f7
ed
f5
ee
f0
f8
d6
e7
ff
f6
f9
01
03
ef
13
0b
0a
1e
35
38
18
2e
12
11
2a
16
e9
00
05
e5
f8
12
de
0a
12
06
00
fe
f8
fd
fd
f8
f3
f5
04
02
06
05
00
05
03
ff
ff
fd
0b
03
f8
ff
fc
ff
ff
f0
f6
f4
f7
ed
e9
13
03
11
30
ed
ee
fb
f4
f8
f8
e5
e5
f7
df
d8
e5
d2
f0
f9
da
fc
e9
ed
e8
e3
d1
d3
d0
df
cb
e0
fd
fa
09
ef
f3
f6
f8
07
0d
fd
01
f3
03
f7
ed
fd
f3
fb
03
ee
ec
f0
f7
f1
fb
de
e6
f5
ff
f9
f9
f3
eb
04
fe
f0
1d
23
f7
0b
0b
fb
fa
f6
f1
20
0b
fb
1e
00
ed
1a
f3
ec
05
f7
ee
05
f5
ef
ff
f7
f7
0e
f8
00
f9
ea
0e
f2
04
0b
1a
1b
1f
05
08
13
f9
fb
ed
f4
f4
f4
0e
07
0e
13
fc
01
09
10
03
21
ff
fd
ff
fc
01
22
20
07
36
00
ff
0c
02
0d
f7
ef
f9
0b
e8
e7
08
f9
03
e3
f2
0c
df
08
ff
07
01
0f
c0
e4
19
df
24
09
0a
0d
05
ea
ea
fa
f1
05
f7
06
fc
fb
f3
e4
f9
14
fc
11
0f
f3
05
f1
1f
1c
1c
1d
04
f8
f4
09
da
ee
08
ef
fd
fa
05
02
00
02
00
05
40
13
22
ff
ff
05
f3
ff
10
06
0d
05
f7
01
fe
f3
f1
f7
03
09
0c
08
02
09
0d
24
23
07
0d
05
05
09
07
fc
07
03
f6
08
f1
f8
fe
e5
00
f8
11
f8
0d
0c
f5
e6
f3
f9
f7
f8
f6
0a
f6
fc
ff
03
f4
fd
00
fb
04
fa
f7
05
fe
f6
f7
f6
10
0c
ff
0a
12
fd
0a
0c
0c
14
15
04
2c
26
fa
08
05
08
0f
07
04
03
fb
0c
22
0d
fb
02
ef
e8
fd
ea
de
05
f3
03
f4
09
09
ff
fe
0f
fe
09
03
fb
08
fd
08
08
f8
fb
ec
f5
ff
01
e8
f7
ea
ed
14
04
f4
01
ff
fd
08
0b
17
fe
02
09
02
17
e2
09
f4
f2
04
f2
f5
fc
06
f4
08
fe
f1
12
04
f8
09
ff
f5
09
f5
ed
f9
f0
e9
07
0c
fa
f8
05
f2
03
fc
d8
f2
de
c7
05
dc
ef
06
0e
1a
fe
13
12
03
16
24
fc
00
fa
fd
f9
ff
02
fd
f8
df
fa
f9
fd
f5
fc
fa
fd
fe
f6
05
ff
0c
09
f9
f9
fb
f0
12
16
ff
0c
0f
fb
f2
f0
e0
07
fa
0a
0f
ff
fe
f9
09
fa
13
05
15
fc
e9
ea
03
05
eb
01
f5
07
f7
03
0a
f8
ff
00
01
11
fd
07
08
01
03
fa
f1
fd
f6
e0
06
04
0a
0a
0c
1a
04
0b
f9
18
13
05
08
04
e7
de
fe
00
0d
0d
fa
f9
f1
07
05
fa
e1
f9
fe
f6
f5
fb
e8
0d
fc
04
0c
09
ea
f4
f2
0b
08
fa
eb
11
06
03
17
f8
fb
f4
de
d3
d7
f1
e9
d9
ed
f8
ff
13
f7
0b
09
09
fc
ef
e5
08
fa
00
f8
00
fc
09
fd
f9
fd
00
00
02
01
01
ff
ff
ff
f4
f4
fe
07
03
f5
00
0a
02
fc
f0
ff
00
e7
f7
f5
f4
f4
0c
f9
04
09
f5
fc
0c
05
fe
0b
0b
fd
ed
fc
fa
fc
e3
f8
f2
03
07
f4
f1
f4
fa
01
f7
fd
00
fc
f8
fa
f9
f9
ff
fb
f6
f7
09
0a
0f
02
fb
f7
f8
0e
f6
0f
11
08
0b
03
fa
0c
0c
fb
01
ff
0b
10
f9
fb
08
ff
fc
f7
ff
00
f6
08
10
01
fd
f5
ed
03
ff
fb
02
f3
fa
fe
f6
0e
00
f8
07
01
06
07
eb
e5
eb
e0
ee
ec
e2
ec
e6
e8
1b
33
ee
05
11
07
f2
f0
fd
05
fd
f8
05
0a
ed
03
02
f6
ff
fc
fa
fb
fb
f9
fd
fc
14
03
fb
05
08
ee
fa
0b
fc
03
e1
17
07
e1
f4
10
ff
ff
09
fb
e5
0c
0f
ec
fb
10
05
15
d3
ce
f9
f3
fc
ff
12
fa
fc
de
d4
00
fa
ee
f6
ff
f3
f2
ee
f8
f9
fc
02
eb
fc
f6
03
0d
fa
08
04
03
04
fa
fb
06
f2
da
ff
0f
e4
07
00
07
09
07
fb
f2
0d
fd
f7
f7
fa
fe
1f
05
0d
01
10
05
07
02
0e
28
0b
fd
1c
0a
03
f3
09
0a
1a
09
01
07
0a
f9
f7
0c
25
1a
1c
fb
ee
04
0a
f0
22
14
ff
0d
f7
c2
d2
10
dc
e8
fc
ef
f8
f9
ec
fc
00
e7
fa
02
07
05
04
f9
f9
01
08
03
f8
00
0a
fb
00
05
02
0e
04
09
01
f7
ef
e4
e1
f8
f1
f4
fc
eb
fe
f5
06
00
fa
0c
f8
e8
e8
17
10
16
07
f2
ed
0a
f4
ea
e7
ef
f9
fd
f5
04
f6
04
f7
03
f9
e8
f2
f4
e9
0a
11
fa
fc
0e
f1
ee
fb
fc
fe
fa
e7
f5
f7
07
f9
00
0d
fa
0e
0c
08
01
ec
f4
09
05
07
07
f3
f3
eb
d5
e6
f8
ee
f8
f5
f4
0a
f0
db
f4
f1
e5
f6
15
07
f7
f7
f5
e8
f6
02
01
09
08
ea
ef
e5
dd
d6
e6
f8
fe
f8
f2
0d
fe
fe
10
f5
0c
fe
ff
fd
00
00
03
06
fe
f5
09
05
fe
07
ff
fc
04
f7
fe
fb
06
f8
03
09
fd
fd
fc
fe
09
fa
ff
0d
fa
f9
fb
08
f8
18
fe
09
00
fa
0a
fe
04
01
fd
06
00
f6
f7
07
09
fe
f5
f7
fe
f3
f8
fc
fd
05
0a
fb
09
06
01
fe
01
fe
01
f5
01
02
ff
03
06
04
fe
0f
ff
f9
16
fe
0c
04
02
03
fd
ff
ff
0f
08
fa
02
fd
f2
fa
f6
fe
03
f6
01
09
f7
01
0c
f7
f7
00
0a
ff
fd
02
06
fe
f8
f5
01
01
01
05
03
f7
06
07
fa
e9
c9
dd
f7
c0
d9
d8
df
cd
29
0e
16
1b
f7
06
fd
05
08
18
00
02
1b
0d
ff
fc
f9
fd
f3
fd
fb
0e
0a
fa
ff
04
01
fe
fd
fa
08
04
08
0f
10
04
21
0b
1e
00
fa
16
19
06
10
f9
0d
09
00
00
fc
1a
0d
0c
f8
e4
ff
23
09
09
09
ff
05
04
08
f9
f5
00
04
fb
0a
f3
0a
07
ff
07
06
fd
f4
00
02
eb
fe
fd
0c
0a
07
f0
fa
05
10
11
0a
f6
fc
09
08
10
ff
f9
fd
04
03
fa
f3
0a
fb
0b
ea
d8
e8
03
10
1a
ff
06
09
0b
ff
04
05
ff
03
fa
f0
05
f7
f2
fa
00
0a
18
fc
04
16
fe
12
03
0f
f5
f6
00
0f
f4
f2
f5
11
f7
08
13
f0
01
11
1e
0b
ff
28
0d
0a
32
10
fe
13
1a
11
08
09
00
07
10
0a
16
1e
10
1f
11
fd
10
f9
ff
08
17
0a
0b
1d
10
fb
0b
02
e8
05
0d
d2
02
08
d2
0d
07
c2
f9
fa
d2
0d
fa
d5
10
e7
cf
f0
06
d1
00
02
d5
00
08
0f
06
04
1b
10
09
23
16
07
f3
fe
f1
f8
f7
ec
05
09
02
cb
f3
00
c1
00
19
c8
04
fb
fa
f3
04
fb
fc
03
00
fb
00
f4
fc
de
e8
ef
ed
eb
f6
05
f9
0c
09
f2
f7
f1
ee
f0
f8
04
06
f7
00
fa
f9
07
f9
fd
06
f5
17
f7
f4
23
f6
e9
10
05
fd
e6
fa
14
f5
00
d7
d6
f4
f7
fd
fb
01
f5
ef
e7
f3
02
02
01
f9
fe
fb
fd
ff
f8
fb
03
0d
eb
f1
0b
04
0b
0b
fa
03
f4
ce
da
fc
ec
f8
fe
05
f4
fc
f7
d7
02
02
03
02
f4
e0
f8
e3
ee
14
f2
11
11
03
0a
ee
f0
f3
f1
05
fc
f7
fc
fa
fc
ee
fb
ff
e8
ea
fd
04
02
fe
19
f9
fc
f5
f4
0b
ff
00
f4
de
e7
f6
07
10
f2
09
f8
fa
f2
fb
fb
ee
dd
fc
f1
f9
ec
fe
02
f1
f9
05
0f
f0
ea
f0
f5
ec
fa
e9
e0
f2
f0
f5
09
06
01
f2
00
0a
10
e6
f9
dc
ed
fb
d4
df
01
ed
1a
1c
0a
36
3f
01
21
3e
ed
07
0c
09
11
1b
09
1a
2a
fe
fb
06
08
02
07
0e
02
0d
02
07
f2
fc
fb
ec
07
05
ed
08
1e
fc
09
0e
d7
fc
0f
f0
fc
08
10
fe
01
f0
fe
f2
c0
0f
08
db
f4
04
dc
13
0f
dd
f8
06
03
fc
f7
f9
fe
00
c4
02
12
15
08
0b
11
01
0e
19
0f
fd
03
fb
0f
1e
0d
fc
0a
fc
f7
10
11
f4
f2
0c
f1
cf
f6
f7
ff
0f
fe
0f
05
10
12
00
f5
11
e5
ff
0f
f8
fc
06
fc
05
e9
f8
09
f9
fc
02
f2
f0
0b
17
fa
04
0c
01
fe
05
fb
0b
ff
ff
03
fa
23
0b
05
0d
0b
0a
03
f2
f5
fd
0f
fd
fd
f9
f9
05
fb
ff
f7
fe
f8
06
f9
07
07
05
08
08
06
0c
0a
f4
03
fc
f3
fe
f5
f1
f7
f3
17
0d
28
00
f6
0e
fc
ed
1d
0a
fa
f5
fc
fb
fb
ed
db
ed
f1
eb
e9
f7
f5
0f
0c
f4
fe
f5
ff
e5
f6
dc
d7
e3
cf
da
11
0a
0e
fc
f2
f9
fc
f9
03
0d
0f
f9
15
0e
fc
ff
fb
f8
10
fa
ee
fa
f6
ee
04
db
e0
08
06
0b
0c
1d
05
13
00
f9
14
09
00
05
f6
f6
ff
ee
ef
22
fb
09
12
fa
07
11
02
f4
16
0b
09
1b
16
03
17
0a
fd
19
0d
05
0f
0a
0e
ff
f2
f6
e1
ed
fd
ec
e7
f9
ee
ee
f5
ef
f3
02
f1
fb
03
f8
f9
03
f2
f3
fb
f8
f9
00
f7
fc
00
00
fa
fd
f0
f8
ff
fc
f3
fe
01
ef
06
06
f9
fe
f6
fb
f0
f7
06
fe
fd
f7
08
01
00
f7
02
fa
0f
01
f8
01
f1
ff
e1
f0
f6
02
f7
00
02
05
02
fc
f1
fb
fe
f1
f2
f8
eb
ef
f0
00
fe
07
01
09
00
08
f4
f7
09
0a
f8
05
f8
05
01
10
f9
f9
fd
f9
f5
09
ed
06
ec
0a
05
ff
02
0d
f3
ff
0e
ee
ed
02
07
fa
02
fd
ff
fc
f7
e6
01
02
fa
08
0a
01
06
f2
fc
fa
ec
e5
ea
eb
ee
d8
ed
f2
ff
0a
ff
0a
0b
0c
ee
e4
ee
05
00
02
07
01
f1
fa
f8
fa
fe
01
01
f9
fc
f7
fb
06
fa
fb
f5
fd
f6
ef
f0
ee
fe
f3
f5
e6
fd
d7
dd
e9
da
df
d5
02
0e
0a
09
f9
13
08
f4
00
ee
fe
04
f1
fd
fa
0a
fa
0c
f2
00
f3
f9
fb
01
01
00
f2
fe
fd
fb
fd
f9
f0
05
f6
f2
f8
f0
f7
fb
07
fb
fa
00
02
0a
02
07
15
03
02
06
fd
0b
06
03
0d
0d
fc
06
e8
f2
fa
05
f3
e7
fd
f7
ee
fc
fc
fd
01
f7
f3
f8
05
f5
fe
fc
f7
0c
f4
f8
01
f5
ee
04
02
f8
06
f6
db
00
eb
cd
01
f7
d3
11
0d
06
f0
e2
09
09
f3
e1
ff
f8
fe
f8
f9
f9
00
ef
fc
f2
ff
fe
fb
f9
02
fa
f4
04
f3
ee
f1
fd
ea
e9
f8
f4
fa
ec
ec
07
f4
ef
d1
f1
ee
dd
0e
07
ff
0f
14
f1
0a
fa
fc
ff
06
10
f6
11
26
e7
db
1a
f7
f5
02
f8
12
04
07
fe
09
f7
f5
f3
f3
f5
f8
fa
f7
f7
f8
05
0f
f4
f1
10
01
03
f4
17
f2
0c
1b
08
f8
0b
04
00
fa
01
07
01
de
fa
f1
fd
0f
0a
04
0a
f4
06
f9
05
03
00
0e
f5
f8
f6
fd
f5
00
07
08
f8
fb
0c
f9
f5
ff
f5
fd
0f
ec
e8
ed
ee
fa
dc
de
dc
f7
f5
f0
de
f3
e9
e0
f9
04
e4
f8
01
f8
ec
fa
ff
f7
fd
01
05
06
fb
fe
ff
ff
fc
02
00
ff
ed
fa
f3
fe
00
f4
f2
ff
e5
e1
f7
f7
eb
ea
fb
f8
e7
fb
f9
f9
15
ff
0f
ff
0e
01
02
0c
ff
0f
ef
f2
06
ec
f6
f9
fe
fe
f5
02
00
fe
fd
fd
09
fc
f7
ee
f1
f1
f6
f5
e6
0a
fe
07
05
01
03
f9
ff
f7
0f
ff
f4
0f
01
03
16
fb
03
ff
05
f8
00
fe
00
01
06
00
0b
f9
fd
0b
0c
fa
f5
fb
f6
f5
fc
fa
f7
f7
f0
fb
f0
f2
04
fd
0c
08
fc
07
04
f8
03
d5
fa
ef
e4
ef
15
f8
f0
13
f8
14
2e
ef
15
1c
e8
0a
f7
01
fe
02
07
01
09
0a
12
17
01
02
fc
fe
03
00
03
06
01
fe
f4
05
00
f8
fb
f7
f7
f1
00
0a
13
0a
fe
1f
fb
08
09
05
e0
0c
08
d6
f1
fb
e3
de
02
ea
00
dd
e1
f2
e7
eb
f6
02
db
ee
fc
c1
cd
f5
d3
d8
fd
f9
f9
f4
f2
f9
ff
04
fe
f7
05
fd
fd
11
0d
04
11
0c
06
dc
01
f6
dc
e2
06
e5
ee
0a
fb
f7
fc
18
09
07
16
19
11
f4
ff
14
ff
0c
05
01
0b
08
f8
01
fc
fd
ff
05
01
14
0d
fb
08
12
09
18
0d
0c
08
db
f5
00
d7
ec
07
eb
f9
ef
ee
f7
04
11
0a
05
09
fe
f3
f8
ed
f2
f2
fb
f1
fe
fc
fb
04
01
09
fe
07
ff
fd
06
08
11
04
01
ff
f5
03
f8
f2
ee
05
f3
17
18
f9
1f
0c
fc
12
f5
03
e4
03
f3
e4
fc
f5
e6
dc
cb
d9
d9
e4
e7
03
fe
ea
e9
e3
e5
e0
e9
de
ed
eb
ef
ed
f6
f3
f2
ee
f7
fd
06
02
f5
f6
fb
00
f7
fe
03
05
fb
f9
f1
e3
e5
f7
eb
ee
f0
e8
05
09
04
02
0d
0e
0b
0d
16
fb
03
1d
f2
f6
04
f1
f1
07
0b
0e
f7
0a
06
f3
01
00
ff
01
08
ff
fa
05
fe
fd
fc
f6
fd
f3
01
f7
f5
f0
09
e1
e1
08
fd
f4
04
f6
e8
0b
00
04
fe
f6
fc
f9
f6
f4
04
01
f6
07
01
03
fd
03
fb
fb
04
01
f8
f7
f7
00
fc
fd
fd
fd
07
e3
ed
01
e6
eb
ee
da
e6
ec
05
04
02
08
05
02
05
f8
11
10
05
0c
f4
04
f9
08
f2
ed
fb
ff
fe
f3
03
03
09
f7
f8
03
fd
ff
03
00
f9
04
f7
f5
01
01
01
f5
03
ff
01
fb
fa
f9
02
f4
0f
f8
05
01
09
ff
f8
fa
ff
02
04
f9
08
02
00
06
f7
fc
07
f3
fd
fa
03
ff
00
fd
00
00
f9
fe
fc
fe
01
fd
fa
07
ff
fb
fd
f2
fb
fb
ed
03
f8
f6
1d
08
f7
fc
08
fd
ef
18
1b
0f
25
10
24
0e
fc
fd
fe
0a
05
01
0b
01
06
f8
05
fd
05
0a
05
fc
ff
f9
f8
fa
fd
00
01
09
eb
ff
f7
08
0a
f9
f8
1a
11
f1
f0
f2
05
04
0e
fa
00
08
d9
fe
12
0e
fd
0f
fe
f0
fa
04
f2
18
f9
00
fe
f6
07
fe
f0
0c
06
f8
fb
07
05
f3
fa
20
0b
08
f5
02
f9
01
0b
06
f3
02
01
0b
fc
08
ff
01
fb
ec
00
05
fd
fe
fd
05
04
fd
eb
0d
0d
f4
fa
e4
02
06
fa
f8
f1
f6
fd
00
f3
03
02
f7
f2
f0
f0
04
01
e6
ff
15
0b
fc
f6
ff
fd
1a
16
15
12
25
e6
f9
17
f0
f3
f3
0e
03
f9
f6
ff
01
fd
f4
09
03
fa
07
f2
ff
fe
f3
fd
03
ff
00
02
04
02
02
f6
f7
f4
f7
fb
fd
09
ff
03
f7
ee
e7
00
dd
ec
02
e3
fc
0a
00
d8
02
0d
d6
03
f5
d3
08
f6
d8
02
02
e3
fd
fa
f7
08
f4
de
04
f7
c4
fc
f9
c0
04
f2
fc
ff
f0
f3
ff
f7
f8
02
0f
1c
ff
12
28
05
12
24
10
0f
ce
0e
0f
e5
03
0a
d3
f8
f4
09
0a
0b
16
02
1d
25
0d
10
30
08
0e
28
0e
fa
16
09
ff
1b
fa
0a
2b
05
16
40
02
0c
2e
05
0c
3f
fc
07
2a
fc
ef
f2
db
ef
e5
df
d4
ea
09
f7
ea
f5
fd
fb
04
03
12
f8
fd
fa
fe
fd
f9
05
f2
05
f9
fa
fb
04
00
02
fd
f4
05
fd
f8
f7
f3
fc
f9
df
ee
ff
f0
f1
f5
d9
f1
f3
ce
cd
d7
10
02
01
02
fa
0c
05
01
f2
f9
f8
ff
f5
f3
fb
0a
fb
01
f3
fd
f1
f9
03
01
f3
f2
f1
08
f9
fe
f7
f9
fd
fd
fa
f1
f6
fe
f7
fc
fd
04
03
07
08
0b
fd
f3
02
06
08
f9
f8
fe
f5
05
03
fb
ff
fa
f8
0b
15
01
ff
f7
f4
fd
00
00
f7
fe
f8
02
f3
02
fd
f8
04
fc
05
fd
06
07
04
04
fc
f9
f6
04
f2
01
04
0e
fc
f1
fe
09
03
f4
ec
ea
f8
f6
f0
cc
f6
e7
fc
f8
01
f4
05
fe
f1
f7
02
fc
f9
04
f7
fe
0a
f9
fe
0b
f1
e9
fa
f2
06
09
07
0f
0a
00
0a
08
05
10
02
12
0f
09
11
14
08
05
0e
0b
0e
07
f9
03
17
1a
12
ed
04
15
ea
fb
fe
fa
10
01
f9
0c
fa
06
04
fb
0c
07
ed
07
03
e9
fe
0f
13
fb
ef
07
0e
ec
ff
08
04
06
00
05
0e
fb
15
0c
00
05
0d
f4
fb
f8
f6
f5
f2
07
ff
09
fd
e4
09
0b
eb
00
03
03
09
fc
02
02
fe
04
0a
09
08
09
f2
ea
09
07
ef
fc
10
09
07
ec
eb
fe
f0
01
cc
ce
e2
18
fc
df
1b
f8
11
0e
e7
fc
f6
07
02
05
fc
f9
ff
f8
fe
fd
06
04
09
00
f8
0a
fd
06
fa
f9
ea
ff
fb
ee
09
03
fd
03
0b
0f
02
f8
f2
0a
fe
f9
06
f8
01
02
02
e2
0f
00
fb
13
ff
17
fd
18
f6
ff
fd
19
fb
fd
06
03
0d
ef
fc
0f
ff
fd
eb
05
02
ec
fb
01
ff
ef
11
1b
f3
09
0f
2d
fb
fb
15
06
ec
07
07
09
dc
fe
fc
04
08
09
eb
0b
f7
05
05
f9
1b
19
0a
f5
0d
11
1f
04
f8
0c
f3
ea
f2
00
f6
03
f3
ee
0c
17
15
fb
fe
0c
2b
0b
fc
1e
f8
00
07
f2
f1
08
fb
eb
fb
0e
f4
13
14
e7
cf
f6
e7
d1
fa
03
fb
08
03
fa
f3
03
00
ff
00
f9
fa
fc
ff
ff
04
0d
f4
00
0a
00
07
02
fd
fd
ff
05
fb
0f
0e
f5
06
0a
05
fd
07
04
04
fd
04
02
09
06
05
00
fa
fd
fb
f9
0d
02
f4
e8
06
f8
f9
05
00
08
04
06
07
05
ff
ff
ed
f9
05
e9
f3
03
06
f9
09
0a
09
03
f8
ff
fa
07
01
fb
07
fe
fe
17
16
06
fb
fb
f6
fb
05
f4
f1
01
10
02
f8
0f
00
fb
09
03
f7
07
ff
fd
07
00
09
fc
fc
ff
ff
04
fd
0f
01
ff
fd
fd
04
fa
03
00
07
29
32
3a
f5
06
0c
0e
03
20
09
fe
04
08
06
0e
f8
02
08
f9
fa
fe
02
05
08
07
00
09
0a
05
07
fd
07
02
f5
f0
f3
fb
f7
fd
00
f6
f0
ff
fb
fc
ef
f9
fc
f5
e5
fc
f3
00
06
f4
fb
08
eb
e8
f9
fd
11
04
eb
de
e1
fe
00
09
f9
f2
fd
dd
d7
e4
eb
d6
e1
f9
00
05
f6
fe
fb
fb
f8
02
fc
fb
00
03
ff
04
fb
fa
fe
f0
fe
01
fc
f5
f2
f1
f3
eb
04
01
06
fe
0e
06
02
12
08
04
f6
04
ff
f5
f3
05
f6
f7
05
f6
fe
06
fb
f5
01
02
06
07
04
00
02
0e
ff
f9
01
f8
05
0c
f7
ff
fb
f4
e7
fb
f6
f9
f7
f8
07
ee
01
0e
f1
03
00
05
01
00
01
fe
03
f2
f2
fe
fb
03
ff
f8
f8
f5
fa
f5
05
ff
f8
ff
f8
fe
e8
fd
04
03
f4
01
ec
ee
f7
e4
db
ec
fd
01
08
fc
0b
0d
f6
09
04
ff
fb
f3
0f
ff
f1
07
fc
f3
fa
03
ff
f7
07
f8
ef
fd
fa
fc
01
02
fe
fe
02
fc
f9
f8
fb
02
eb
f8
03
f8
fd
fc
f8
f9
03
03
0b
00
05
f6
f7
07
04
04
f0
f9
f0
e7
fe
fc
f9
06
03
e6
fb
04
f8
f7
e8
f8
ff
f8
02
fa
f7
01
f4
f7
00
fa
00
dd
ed
0c
ff
e9
ed
f5
10
11
23
00
04
15
ea
10
27
fb
03
04
fd
f4
ea
0a
01
fc
f7
fd
fb
ef
f4
fb
f3
f8
f3
03
02
ef
fa
fd
fb
f9
01
00
f7
00
f2
00
03
f9
0b
0c
03
ee
dc
f8
df
e9
ed
14
f2
fc
04
f7
fc
0d
13
13
f6
fc
fc
1a
0c
17
fa
f6
f5
f4
fa
ef
fd
05
ff
03
f8
f8
f6
07
f9
02
ed
03
f4
f3
f9
fc
fa
f9
05
03
06
06
0b
f5
fd
fe
f2
0c
fb
f2
f8
15
12
fe
f3
01
05
1a
f8
fa
08
e4
ef
ff
fc
f8
06
f1
ff
fb
f1
03
fa
f2
fa
f5
f6
0a
f6
ec
10
fb
ff
04
06
01
f2
07
f2
f7
09
ff
25
38
38
0b
23
23
20
ff
fe
da
f1
fc
d6
f1
04
fa
f9
f6
f7
08
09
07
11
0f
fb
ff
fc
2b
0f
01
0f
06
03
06
04
fd
29
16
1c
01
fb
04
fd
07
04
eb
d8
ef
06
fb
ed
08
02
06
e6
e5
d6
01
01
fe
0c
fc
01
e5
eb
d4
0c
0c
ff
f3
db
f3
eb
ee
d5
04
ff
f2
0a
08
06
eb
f3
fd
ff
ff
01
fb
03
08
2c
40
31
07
fb
22
f9
f4
fe
e7
ef
d2
f7
16
06
04
fd
fa
fc
fd
f3
01
01
e7
ef
f7
f0
2d
2e
40
fe
f7
1b
0b
02
04
e6
f9
e8
f3
02
f6
f1
f5
f4
27
34
40
ff
fe
23
ff
f9
00
ec
1d
1d
e5
fa
f5
e5
f2
f3
da
ea
ed
f7
fa
f5
fc
c0
cf
fc
0b
05
01
0e
07
f0
0b
fe
06
0a
09
fa
fd
fa
fb
fe
08
f8
04
ff
f5
fc
f8
fc
05
f9
0f
0e
13
fb
0a
17
19
0d
29
04
03
fa
fc
17
04
12
11
0a
ed
fb
1e
18
18
08
21
07
e7
f2
01
00
06
10
fa
15
08
f8
fd
fe
fb
f9
03
04
ef
0c
10
0f
07
0a
0a
03
fb
12
f9
f9
04
fb
f9
08
16
0c
11
00
0d
04
0d
f4
0c
02
08
10
13
fc
0f
fc
fd
0e
04
0b
0e
19
06
fe
f4
0d
fa
ff
0d
09
0d
08
07
fa
04
12
08
07
07
14
0f
f9
0d
fd
0e
13
01
0c
ff
ef
d2
e3
e1
e2
f0
ec
f8
ef
f4
1c
11
04
2c
fa
08
19
f5
05
40
15
04
25
00
fc
12
03
01
40
1e
09
28
fb
f8
0f
f6
f7
01
e3
de
fa
eb
f2
e0
e3
f9
c1
02
01
f0
0f
10
f6
08
0a
d1
fb
09
f1
24
0a
0b
09
db
cc
e8
f6
e9
09
f9
00
0e
f7
ec
f3
04
15
ee
07
1c
f2
fa
f7
16
04
f1
02
f4
f6
02
fd
c2
f8
f4
da
17
fe
ff
02
fa
2a
0f
0a
27
f4
f6
15
ee
e3
f6
0f
13
f9
f7
0b
fd
04
05
e5
eb
01
e2
05
fb
ee
01
f4
ff
10
0e
f3
f0
f9
f1
fc
f2
ff
d6
d5
f3
f4
ff
f3
e1
e7
fd
05
0c
00
f3
f8
0a
00
fe
eb
f3
00
fb
fb
ff
fa
fa
03
0c
14
0c
ff
fb
f6
07
02
01
ea
f0
06
fa
f5
f8
04
05
fb
fc
d4
02
f5
f3
ee
15
ff
f0
13
f0
fb
01
16
07
fd
0f
fc
03
d3
e7
07
29
ff
fe
ee
e5
01
fc
fe
fa
09
f2
f9
01
01
05
f6
f5
e4
e5
ee
f9
fc
fb
19
37
23
f2
f4
17
f4
f7
05
03
f1
ee
fa
08
0d
f2
06
f7
f2
f4
f3
02
e3
ed
08
ed
00
15
29
32
f1
f6
09
ee
f0
fe
e8
fa
0d
ed
eb
f9
fe
f3
fa
0d
39
28
fc
fa
11
fd
f5
0c
15
25
1b
16
20
17
17
0e
1e
ff
ff
ef
f5
f6
11
05
02
fe
f8
ff
01
fc
f0
f0
f8
01
fc
09
0c
05
05
0c
00
01
09
02
fd
e3
e9
ed
ed
eb
fe
f2
f7
f9
e8
e3
ef
ea
df
fb
02
05
f0
eb
ec
ec
fc
fe
f0
eb
f9
e7
df
e1
fc
eb
03
fc
ec
fb
eb
eb
e7
f2
e7
fa
ed
f2
ee
00
fe
08
f3
f5
04
04
14
09
f5
01
f9
fd
fd
f3
06
04
fa
f2
e7
e2
f2
e4
e0
e6
e1
f0
fe
ff
f7
f7
fd
f9
fa
f0
fe
f3
f0
fd
ef
00
f4
f7
f7
02
f0
f5
e5
e9
ed
e0
ef
fd
e8
0a
03
04
06
03
03
00
06
04
14
12
09
00
ff
08
1b
0c
23
da
07
ef
f0
dd
fa
18
0c
f8
02
fd
07
fd
fd
01
fa
e7
f7
fe
07
06
00
f7
01
02
fa
fa
f6
08
15
fc
f5
f4
00
fc
fc
dc
e1
fb
e0
d7
d9
f8
e5
e6
f7
df
15
06
11
04
06
ff
f6
f3
eb
1b
03
0c
0f
00
12
e0
f3
e5
10
f4
02
05
fc
fc
fa
f4
ff
01
e9
f8
fe
f2
ef
00
fa
fd
ff
f4
ee
f5
05
fc
e6
e9
de
17
f9
fd
11
05
01
ff
18
0b
07
01
01
00
01
eb
e2
06
06
09
f6
f6
f6
02
01
ef
1c
01
0c
06
f2
e9
fd
e2
f2
fd
f8
f9
f6
f4
f8
0c
f2
f2
28
11
07
16
03
17
15
f6
01
f8
02
fd
14
12
15
e8
e4
f0
fc
fa
f3
0d
01
f7
ff
00
ee
11
fc
f1
08
ff
04
07
08
08
22
14
0d
0d
05
0d
07
05
0d
e8
fe
0a
08
fb
06
18
0f
00
ea
f4
f0
04
12
03
15
02
0d
04
05
f5
07
ff
1a
1b
f3
fa
f8
00
eb
fd
0c
fe
02
0a
08
f0
e6
ef
fe
f8
01
f9
08
00
f8
fa
fe
f8
01
16
06
04
f3
fd
ef
f2
0b
fd
fa
19
11
01
f1
f9
0b
f4
fc
11
06
0e
e9
08
08
0f
f7
f0
0a
f6
f2
06
0d
f8
07
14
0e
24
fd
f7
fd
07
10
0a
fa
ff
08
02
0c
f8
04
00
fc
f5
f4
f4
06
04
f2
0a
09
f2
06
dc
d3
1e
27
0f
f0
01
fb
fc
05
f5
fd
fc
00
ed
05
01
ff
03
00
fc
fe
06
f7
0b
ff
09
0b
fc
f5
e7
ec
f3
04
f1
fc
05
f6
e4
c0
d4
07
0e
01
13
0c
ff
00
fe
cb
0f
f1
15
05
df
d6
09
08
1a
fd
f8
00
fa
02
fb
04
f7
e3
f3
fa
f9
fd
f8
f3
ff
f3
e3
04
ff
05
ff
05
13
0d
11
2a
fe
0c
03
12
0f
ff
07
ef
c0
ef
08
06
ff
fc
08
02
17
40
fd
fd
09
05
06
19
fb
e4
ee
06
f9
fd
fc
fe
03
fd
09
15
ff
04
01
02
f8
17
fb
ed
fe
10
e9
f7
00
0e
18
04
1b
08
ed
ce
f6
f7
d0
00
f2
d3
e2
05
fa
06
01
f3
f7
07
f9
f9
00
f9
05
fd
f5
fd
00
00
fa
02
f6
06
ff
f4
fe
ed
f6
f3
08
09
00
0f
fe
05
fa
e8
f2
0d
0c
0a
f4
07
04
e6
d2
ee
09
18
e8
09
ee
ff
11
f1
19
f7
09
fb
03
0f
f8
e7
d9
e2
10
ff
06
1a
fc
07
0d
00
fe
ff
02
05
0b
11
0a
01
12
ec
05
11
0b
f8
05
00
02
f1
e8
02
ee
11
f2
04
20
f7
32
f9
f1
eb
f1
0b
f9
ed
f9
f1
ec
05
f2
01
fb
f4
0a
03
fa
f9
fa
03
0a
03
ff
0c
fd
05
f4
08
0d
27
01
1a
21
08
14
16
fa
ed
f3
de
ed
fb
ef
ef
e7
f6
04
f9
08
02
00
f8
0a
0e
08
04
f8
0e
01
01
07
02
03
0d
15
0f
11
04
06
14
02
ff
d7
e6
e3
f6
f6
f4
02
f4
02
f9
ea
e7
f8
03
ec
08
01
08
f2
f9
e4
05
17
fa
fe
12
08
ef
dc
e6
fe
09
e3
07
ff
14
eb
f9
f7
ff
06
0b
fd
03
04
1d
26
13
f0
04
29
0c
fd
0c
f8
da
eb
fd
04
f4
ff
13
16
f1
06
f5
05
08
05
ee
f1
fd
1a
28
17
f8
03
1a
fe
01
0c
f1
e7
ee
06
ec
f4
00
dc
e4
14
28
21
f9
00
21
11
03
0c
f0
ee
0c
ff
f4
f2
23
1d
15
0a
dc
f6
02
dc
dd
f5
09
00
03
f6
fb
29
f2
02
40
14
08
0c
02
f7
0a
01
fd
08
04
02
16
ff
f4
09
f5
f9
fb
fa
f8
f6
f8
e7
01
f6
f2
fb
e4
04
f8
02
00
ff
16
f6
dd
f0
f3
05
0a
09
ec
0c
ee
f0
0a
09
03
0d
f6
f4
fd
08
ef
f1
f6
03
f7
f9
1f
fb
f6
40
17
04
fe
ec
fd
0b
01
01
fd
04
00
ff
fb
01
f2
00
06
e1
fe
07
17
03
fd
f9
f7
0f
fa
06
14
01
ed
fb
06
eb
f8
00
f5
f8
f4
eb
01
f7
ff
07
0a
06
03
02
f6
f9
0c
00
09
0a
02
06
f6
09
09
f3
f5
ef
df
f4
d0
f6
ed
f0
fb
0a
e2
12
0c
ff
f7
fe
f8
f0
fd
ef
f4
f4
fd
ee
02
ef
ff
06
fb
f0
f6
03
f2
fc
fc
f5
f4
f1
f2
f2
f4
f3
f2
e5
ec
f7
d7
db
de
d2
0b
fc
f7
0b
06
08
05
11
0a
fd
f2
fc
f7
ef
eb
f0
e7
03
f7
03
01
f7
00
01
04
fc
ff
f6
ff
00
fe
ff
fb
f4
f4
e8
02
00
08
f9
00
fb
ff
fd
0e
03
08
f2
0e
01
f9
fc
fe
f7
e9
00
ff
fd
f3
ff
f4
07
18
08
06
fb
05
00
f9
fb
fe
fa
00
05
f8
fc
f2
f6
ff
f6
fd
03
04
0a
0a
09
07
04
ed
03
f3
f8
08
fc
0e
f1
01
e9
ff
e3
d8
fe
05
24
ff
08
ef
fb
01
01
06
fe
07
07
f2
f9
ee
f8
f3
fb
ff
02
02
07
09
fc
fa
ff
fd
01
01
fb
0a
fe
ec
08
fd
f0
d5
d4
e1
f3
fe
e8
08
ff
09
f2
ea
07
fb
f6
fa
1f
29
03
01
ee
20
ea
1c
03
02
04
f8
fd
e9
04
f1
f7
f6
05
04
09
ec
fb
f6
fb
f9
fb
0a
07
05
f2
fe
f8
fa
fb
09
fe
11
0a
fc
db
00
e4
00
f4
fc
fc
0e
e6
06
f7
ec
f9
f3
ec
f5
fc
fe
f5
00
fb
f4
f8
f3
fb
07
f7
ed
fb
f0
fb
fe
f2
f5
00
f7
fa
ff
00
05
05
df
e5
1f
e3
f8
1f
eb
00
10
f2
e7
ff
24
3d
3b
f8
22
0d
f6
fa
fb
01
fd
09
02
05
02
00
f7
01
fc
f7
04
02
ff
02
f6
ed
fb
f8
f0
ef
e9
ef
f4
16
fc
f9
f4
ce
ec
00
ee
ee
fa
06
03
ec
ef
f0
fa
d6
e6
fa
13
08
fd
05
f9
02
eb
ff
02
06
02
e9
f5
dc
ee
d2
e3
f3
00
0a
fa
f4
fb
fe
fe
f9
fe
f7
fc
09
1a
11
ea
08
01
00
0c
fc
ea
fb
d8
ee
d1
e8
fd
fb
07
fb
05
05
f8
0f
07
fb
fe
0b
02
f5
fe
fd
01
06
00
02
01
ff
ff
02
f8
0f
03
04
f5
e9
f1
08
fb
01
06
01
fa
08
17
00
0f
0e
08
0a
1e
e5
c8
f6
e6
eb
ea
04
e0
e4
06
fb
00
ef
f0
f0
f4
f1
fc
ec
fe
fe
f7
fa
03
fc
00
09
e8
f1
ea
fc
f8
f8
06
fd
f9
e8
0e
dd
f6
1a
d8
f3
fc
e2
01
fd
dc
f9
06
f9
04
f9
f0
0c
26
e2
fc
f2
0d
e4
ee
03
f9
0a
eb
05
fc
ea
fe
ff
f0
ff
f4
f7
f6
fc
f3
e4
01
f2
f0
fe
39
07
f6
1b
00
0e
25
07
fc
d2
fd
f1
f2
fe
09
e6
06
fa
0c
f4
f8
2b
07
ff
2e
ee
01
1d
01
07
02
10
f5
f3
06
fc
ec
f4
eb
ed
f9
f4
f7
f2
f6
35
ff
f2
14
09
02
15
20
3d
31
f8
3f
3c
03
2d
2d
e7
05
f8
f4
fd
f0
e4
ff
f7
f5
fe
f7
f2
fc
f3
f7
f1
f6
01
fb
04
00
03
fa
fc
fd
fd
f2
f7
00
05
04
07
01
fc
02
ef
de
e6
d6
c6
db
e9
e7
02
fa
f0
fb
06
fc
f6
f2
ec
fd
f8
f3
03
e9
eb
f7
1a
09
07
f3
dd
ec
ec
d5
de
00
ef
e7
f4
fd
f8
f2
ef
f4
f3
fc
03
fd
fe
0a
fe
fa
04
f2
ff
fc
07
eb
f0
f5
f2
e7
07
f4
f2
fd
05
02
02
f0
f8
f3
fa
05
fb
ff
03
02
01
04
06
00
03
f9
eb
e6
f6
e5
f8
07
f6
ec
fe
f1
04
f8
f9
f8
fc
fa
fa
d4
df
e1
ce
ec
f0
e8
df
e8
00
23
07
0b
23
ea
09
31
ec
00
0b
08
0a
11
04
09
13
01
fb
01
0c
03
03
ff
fb
0d
04
02
01
01
0e
ec
05
03
ff
f8
06
01
1a
08
01
19
13
e7
04
08
fc
03
0d
d9
05
00
d6
12
fa
c5
10
05
d1
0e
ec
ea
09
f4
f7
f8
f9
cf
07
fa
d4
fb
07
0a
03
08
04
01
12
02
fc
01
17
12
02
1d
07
f8
01
06
0b
f5
fd
f9
df
09
f5
e1
0f
fb
0f
02
f8
15
f9
fb
1e
fe
f6
22
02
fa
09
fc
f7
f0
ef
0d
fc
05
f6
fb
04
08
f7
fc
06
15
06
f7
05
10
fb
fa
08
06
09
08
ee
01
15
0a
02
f5
ed
e9
00
e3
df
f9
11
f5
f2
04
11
0b
21
15
0d
24
01
01
fb
18
13
27
0d
04
13
09
f7
26
3a
11
31
0c
f7
1b
02
fc
02
f8
e3
01
0d
ee
fd
16
ed
f4
e4
f9
d6
12
0b
04
0b
0c
d4
ce
fe
db
25
0e
13
0a
e4
f7
d9
04
f2
07
f9
f4
fc
00
f8
f9
f4
f7
03
08
12
f0
ff
f9
fc
1f
0b
f9
05
00
fa
08
f7
e5
06
e1
1f
06
f5
05
fb
db
05
00
14
10
fa
2c
ff
05
0b
19
1f
00
ff
01
fe
08
fe
fb
f1
f3
fc
fc
f7
f6
0f
fe
12
10
1e
0c
04
08
fa
fa
00
14
33
23
00
30
33
f8
19
1d
ef
0a
0a
07
08
11
fa
06
ef
f6
00
f7
fc
f8
05
03
f8
fc
06
01
03
04
fb
05
03
08
08
04
f8
f4
08
01
f6
fb
f2
ef
f3
df
dd
f9
f2
f7
f8
eb
f4
f1
e9
eb
f2
eb
ec
f9
ed
eb
02
f9
ef
f8
f4
f5
eb
e0
dc
e2
e3
e0
ed
f5
df
f5
f1
eb
f4
f7
f2
ff
01
f7
ff
f8
fb
f5
f3
fa
fb
fb
01
04
0f
09
e8
ed
fa
f3
eb
e6
e5
f5
f7
04
f7
f7
04
05
fa
fa
03
f9
f9
fb
f6
f7
f8
fb
fe
f3
fe
ee
e8
ec
ea
ec
f9
f3
e6
ec
08
00
03
f9
04
ff
0b
0f
13
f6
0d
1c
ee
f8
0e
f5
f1
0a
00
0a
0f
f5
ec
f5
f6
08
f2
10
04
03
0b
fc
02
10
fc
02
00
06
01
05
ff
f5
06
05
04
04
f6
fa
02
02
fe
0d
03
08
04
f3
f7
f8
f5
f4
02
06
00
07
10
0f
09
0f
0a
12
0e
13
02
15
22
0a
08
f5
f5
ec
e5
f8
07
f8
f2
fa
0c
07
f6
f9
0d
f2
f9
f9
fb
f7
04
f4
03
0a
06
fe
01
f4
f0
04
fd
02
f4
fc
01
00
01
12
fc
07
04
07
f9
04
08
fc
e8
09
f9
ef
09
f9
e9
08
f6
f3
04
08
f3
0e
ff
ff
ff
00
ff
fe
f2
f4
0d
f3
f6
0c
01
f8
09
0a
01
e3
e9
e0
dd
e4
f1
cf
e6
07
f9
06
22
f0
d5
e8
12
c8
eb
0b
f9
10
1a
09
0a
15
0a
0c
f6
fd
06
f4
0b
06
05
04
f4
0a
f8
f9
f3
08
fe
f0
fd
03
04
06
fb
07
0a
fb
e3
01
09
0a
ff
0a
f6
12
f7
dc
0c
f6
f7
12
fc
ed
0a
0d
04
2e
e7
05
ff
01
0a
05
02
eb
02
08
03
01
0f
13
fa
02
17
01
03
f5
14
19
eb
13
10
ee
00
f6
f8
0f
f8
f3
0b
fe
d7
0a
fe
e9
00
fc
f4
08
f9
03
ea
e4
f3
ff
02
f4
fc
0b
ed
f5
ff
f8
02
06
fa
01
fe
ea
f4
fd
0a
18
0c
fd
09
19
f6
01
0e
f6
0f
03
09
02
14
f8
f1
ff
f5
14
03
f5
e9
02
e5
ef
fd
0c
f8
08
0c
00
01
03
f8
fe
20
0c
ff
07
ef
00
fe
f6
f8
14
00
ff
f0
fa
f6
f6
fb
f8
e7
e7
fe
d6
0a
ee
e7
f0
06
f7
03
04
fc
02
03
02
07
fa
ee
08
f0
35
10
ec
13
ec
fa
f8
f5
fd
0d
ff
07
fe
07
0a
fe
fa
0c
f6
f8
0a
f7
ff
05
04
0a
03
fb
03
02
f9
01
09
f4
04
fc
04
01
0c
0c
08
05
16
07
fa
0a
ec
fd
ed
f4
f7
03
0d
f8
f8
00
01
f2
f5
06
e9
f0
00
ee
06
0a
04
f8
f7
f6
0b
fe
f0
01
fe
06
08
07
d8
f4
06
f1
16
eb
e9
1b
ee
08
f6
fe
f0
d6
db
df
12
ec
0b
fa
04
15
0b
04
f4
04
f8
0b
f6
fa
fa
fe
fa
f8
01
fa
06
f2
f9
f3
f9
ff
f1
ef
e2
ec
ff
f2
c6
cf
ea
de
da
ca
f9
fc
0a
f2
0f
fd
eb
de
07
06
f5
e6
f2
01
f2
fc
e9
08
f8
ff
fd
00
10
f1
f4
da
03
07
ff
08
1c
f7
06
f0
0e
05
04
03
14
eb
f6
f8
ea
fc
f4
fd
07
f2
f5
0b
fe
f9
cb
0a
0c
f8
03
fa
ed
f1
ec
e8
eb
f2
f1
ff
fb
eb
eb
ee
f5
ef
e5
f3
05
f6
e2
fd
ed
d7
ea
f9
13
07
ed
f1
fd
e6
f4
ed
02
ea
ff
16
f3
f1
05
f0
f4
02
02
07
f3
e7
01
ff
f9
06
04
eb
07
fd
ed
f7
f7
f5
02
11
ff
f8
01
f6
fa
fc
fa
fe
00
f3
00
f5
00
fe
fa
02
0c
ee
e6
f8
fd
fa
09
07
04
11
fe
08
08
05
0f
f6
09
f8
02
0f
ff
0f
14
06
f2
1a
f4
f2
05
00
f0
f7
01
f6
0a
03
fb
01
f0
04
fa
fb
04
f7
f0
00
fd
09
fd
fc
fa
03
f7
f6
ec
01
fd
fb
09
1d
f2
03
0b
f7
0f
fd
05
00
d9
00
f5
fd
da
fd
00
e9
05
f4
f6
ff
fb
f9
e5
f6
04
f1
fa
0c
02
04
ff
f6
fa
f7
ee
08
04
f5
fe
f4
e0
ef
f0
eb
f4
db
02
fb
de
3f
26
37
ed
0e
0f
f1
09
eb
06
fe
ff
f4
0d
10
fe
00
08
fb
02
05
ec
04
0e
01
0a
02
e8
ee
f1
ec
ef
01
05
14
fc
05
04
20
1d
04
28
02
05
06
00
0b
fc
02
01
0d
14
01
fe
14
f6
ff
14
26
27
13
0d
f0
f2
0a
fa
0c
ff
08
0c
02
06
0a
0b
ff
06
05
02
f4
ff
08
08
10
14
f7
0f
ff
fd
fe
f9
ff
fe
f7
0e
0c
fb
fe
0d
03
ff
0a
03
f6
12
f6
f4
e7
14
06
03
f9
04
ff
02
fa
02
fb
1c
1b
1c
0d
07
ed
06
f4
eb
0b
1f
18
fc
ff
02
0b
08
ff
1a
0d
09
08
05
f2
0f
06
00
e8
e5
ff
ef
fb
f1
dd
d2
f2
08
06
ff
09
01
f4
04
f7
f5
fa
f7
f7
fc
01
01
f6
fd
fd
f9
02
fa
04
03
fb
02
fc
02
e6
e2
f1
e4
eb
fc
f3
dc
fd
06
08
f8
0c
12
12
f8
fe
00
09
08
fb
02
01
ff
fa
fd
fd
00
ff
f7
f2
02
07
02
04
f8
01
f8
0b
fc
f5
fe
09
f7
f5
ea
ec
ff
f8
f6
f0
e9
de
ec
fa
fb
f9
0d
fd
fd
09
01
ef
00
e9
07
f0
fa
e5
f2
e2
f6
ef
e7
db
f7
ee
dd
f4
ea
eb
f9
ec
f0
f7
eb
ed
fd
e4
ef
ee
e8
f6
f7
f5
f6
eb
ed
ed
36
1d
ff
1f
28
11
0d
04
f3
fc
fd
ea
d3
e6
ed
d6
e4
c7
f6
fc
09
00
04
04
f7
fe
f9
02
07
f6
ff
ff
fc
f8
00
00
0e
fa
f8
f9
ea
ea
f2
f6
f7
11
f6
e0
0b
ec
ce
fe
01
e6
fe
e7
06
03
12
f7
f1
f1
00
de
00
05
f1
26
f4
fd
e4
fc
f5
f0
05
fd
0e
fb
fc
f4
fb
f6
f9
fa
03
03
02
f7
fa
f3
14
02
e6
f7
fd
16
00
f5
fa
f8
ed
f9
0a
00
e8
03
00
fd
05
fd
f4
ff
fd
ee
f6
f2
ee
fd
fc
e5
f1
05
24
fd
00
f6
f0
d5
d7
f9
ef
ec
f7
f2
e9
13
05
ef
06
01
1a
ff
fe
fe
fb
11
2b
f6
06
0f
01
fa
12
f7
e9
e2
fe
f8
f9
0c
fa
05
0b
00
e9
03
fa
ed
f5
fd
f2
0c
04
d9
04
1a
d4
f4
0b
eb
fe
fb
f4
fc
04
f2
f7
ff
f8
f3
cd
e4
fb
ed
f5
f6
05
04
03
03
da
09
07
d2
09
10
06
f4
ec
ec
e2
ee
e1
e2
e3
d6
06
f3
e0
09
11
f2
fa
00
09
07
f4
f0
fe
04
f0
f9
fb
03
f0
01
f3
fd
03
ff
fb
f3
00
f6
06
fd
d6
f6
e8
ca
e3
f4
fe
f2
d8
07
08
dc
05
fd
fa
fc
f9
da
02
fd
e8
09
0a
02
06
0e
fb
fe
02
0d
f0
f7
10
02
08
f0
08
00
ef
fc
07
e4
f9
f6
f0
02
ed
f2
00
f1
ea
05
08
06
fc
fb
f6
ff
02
f9
fd
fb
00
f9
07
f7
ff
03
02
f4
f0
06
fc
00
0a
03
f6
f4
f7
f9
02
f6
03
fb
fc
03
01
00
f7
f7
05
09
fd
f4
fa
fd
12
02
fc
15
05
0d
06
08
02
f7
f5
fb
ea
f3
fc
f1
f3
0c
f8
02
f8
fc
02
08
fb
0a
01
fe
0c
f5
09
03
00
f4
05
f9
fd
01
f8
f7
fb
03
fb
01
02
00
f1
e0
f3
f8
e8
fc
eb
ec
06
06
ff
10
0b
f7
fe
0a
fe
09
0f
10
fe
f8
ff
00
f7
f9
04
fc
03
fa
00
05
0b
05
fb
f0
fb
02
f9
03
f4
f8
06
fb
f2
0f
08
13
18
16
02
1f
33
f0
08
ef
d8
fc
f7
e5
d6
e8
e7
f8
f8
c9
eb
ec
d3
cb
da
e3
02
0a
fa
ef
f4
fb
f1
dc
01
ff
f8
17
0e
00
f4
04
15
f3
f3
e9
e4
e1
ed
e1
ed
ed
0b
15
14
f8
02
0a
f7
f7
03
1e
1a
fe
08
0a
09
0a
f3
f4
f5
06
06
ec
eb
03
fd
f3
f9
ee
02
f3
d6
f2
ea
e5
de
e7
fe
f2
f2
18
06
0c
0d
07
0b
db
ce
dc
05
fb
ff
ec
e7
f6
06
ff
fd
e5
fa
fa
e3
ed
f7
f3
08
fb
d2
ed
09
e0
f2
ea
07
02
f1
09
0b
fe
ee
fd
fe
01
05
03
f2
f4
05
e4
e4
eb
08
f0
f9
03
f6
f9
0c
04
ef
02
ff
fe
05
00
09
07
fa
fe
fc
f4
02
f5
ef
f7
f9
ff
fe
0c
03
03
ef
ef
f8
f3
fa
0e
eb
ee
f5
f9
fa
fd
fc
f2
f5
05
ff
ff
03
07
09
fd
00
f7
12
f9
10
05
06
15
00
04
fb
db
f9
fb
da
f0
f9
f4
e8
06
02
07
06
02
fb
fe
fe
f9
fa
fa
04
08
01
09
05
f9
02
04
0a
0f
06
03
fd
06
f1
00
fe
da
e6
c7
da
ef
e1
ef
e9
e7
0b
fd
fe
01
0a
09
0b
04
0d
f7
f8
11
f6
07
05
09
07
fe
01
06
00
00
07
fc
f9
09
ff
fa
fa
f5
f4
f5
fa
08
f9
02
05
13
0d
f0
11
0c
0a
ff
f2
03
0b
06
f3
f9
03
08
0a
02
f8
fe
f5
fe
05
01
fa
02
f3
08
03
09
ee
eb
04
ee
ed
13
fd
f9
fc
fa
fb
f8
fb
06
06
fe
f5
f5
03
ff
07
f4
fd
ff
06
13
07
06
13
0c
16
12
14
f3
eb
fd
01
f1
07
f4
f8
ed
08
ff
fa
02
03
08
fe
00
05
fe
fd
00
fb
06
fb
02
fb
00
ff
07
fe
00
f8
00
f9
fa
00
fe
f4
e4
f3
f5
01
ef
f3
fa
0b
01
fd
03
fd
fc
11
02
fd
03
11
0b
fe
0c
06
09
0b
04
f7
fd
0d
fb
01
fc
fc
08
03
f5
05
f9
f5
ff
04
02
fe
fc
0f
03
fa
f8
f9
fe
03
f6
ec
fa
fa
fe
01
00
f3
f8
01
04
06
fd
f3
04
03
08
01
f7
f7
fc
f6
0f
f5
ec
0d
07
f0
f9
fc
04
01
05
04
fe
11
02
07
ff
ff
f4
f1
09
ff
03
f5
fd
1d
13
16
13
13
18
05
03
09
fc
e6
f8
e3
ed
fc
e8
ea
f6
f9
0d
f8
01
0a
00
fe
00
07
10
02
fa
0c
0c
0a
0b
0b
03
0b
01
05
06
02
0b
fc
03
f8
f1
f5
e6
e6
f6
f1
e8
ee
e9
04
05
f9
fd
06
0d
00
fc
06
ff
17
06
fa
0a
09
fe
0a
0e
fe
08
06
03
0b
05
12
05
0b
f8
02
06
04
00
fc
ff
fe
fe
f4
f5
13
f4
f2
fe
0b
f9
0a
04
00
f2
f4
e8
e6
f8
e7
f7
ed
e8
f7
ee
d0
d1
ee
da
d8
07
11
e9
06
f3
e4
f3
ec
e3
0c
fb
08
00
f1
0c
01
00
fe
e9
e4
f0
d3
ce
d5
e2
c1
e1
0b
00
f9
fd
f4
e1
d8
e9
ef
09
08
0c
03
13
1c
19
2d
17
eb
f5
e8
e0
d6
d4
ed
da
df
fd
f7
fd
f0
f0
e2
e4
e8
f3
05
fb
03
08
03
04
10
0c
09
f6
18
0c
f9
06
0b
0a
07
ed
fa
01
f9
f2
fa
e6
e1
ed
e9
fd
03
0c
e9
e9
01
e4
e9
07
09
01
0f
f9
05
07
f3
08
05
fa
04
02
fc
ea
da
00
ea
f0
02
09
0c
f9
05
ed
04
f2
f9
00
fc
f8
ff
f7
08
ea
04
fd
f7
e0
da
ee
e6
ee
dc
ef
f0
f7
f7
f9
11
ec
f8
e4
06
0a
0d
ff
f9
ff
f4
0f
f8
e5
f7
f0
d2
d8
dc
d9
e4
d4
ff
ee
08
e4
fd
fc
ec
03
de
1a
0d
fe
09
0e
f7
0c
09
fc
09
05
f8
ea
f3
ef
dd
ee
ec
f9
00
f4
ee
fa
ff
e7
ff
e5
0e
fa
05
06
fa
11
15
07
1d
0e
ff
fa
fb
fc
12
fa
10
11
00
0b
05
f7
f0
07
ec
fe
e4
0e
06
0e
fc
07
08
f9
0b
e3
12
0f
f1
fd
06
f3
10
f2
0a
f4
ff
f5
fd
f1
09
f4
fe
f3
ea
f5
0b
1c
fb
ef
fc
08
d3
ec
0c
f9
f3
eb
e4
ef
e8
e7
df
e6
fb
f8
f5
f3
f9
fd
e5
f6
e3
f2
f1
ec
10
f7
e8
f7
d7
df
02
fb
00
02
01
01
ff
fc
fc
fb
e9
f0
ea
fa
f7
e8
de
d9
f5
e0
f3
f1
e8
db
f3
e2
f5
ee
07
fb
f8
f5
ee
0d
26
14
dd
dc
de
d3
e0
db
ef
f1
f8
f7
ff
f1
ff
ef
f5
fe
ed
ef
04
fa
fb
fe
fd
f7
f4
f2
f2
3b
3e
18
2e
1a
19
15
12
0a
ea
eb
f0
ed
f0
e9
e9
f2
f0
f0
f7
02
e4
f1
fd
e3
e3
f4
00
00
fb
02
04
fa
f8
f8
f4
05
f2
f2
e7
e0
ec
e6
e5
ea
ec
fd
11
f5
04
02
ea
f4
04
e0
e5
02
f8
0b
01
0c
fc
0a
df
e4
ec
e9
f1
fc
01
f7
fa
0f
e4
d9
10
f7
e8
f6
0e
05
07
fe
0e
01
05
0c
ff
0c
fd
ea
ef
08
f0
f8
f6
03
f5
01
ec
f0
11
ea
10
f9
0f
0c
15
04
0d
15
25
2b
2b
2a
2b
0f
db
dc
f9
dd
f7
ff
01
ff
fa
e5
ea
f2
e8
f7
00
0a
0d
fe
26
18
0d
40
08
07
09
fb
0f
f0
f5
07
f2
04
fe
05
f1
0b
f1
f1
02
ef
00
0b
0c
09
13
e8
ec
0c
f1
03
02
fd
0c
08
01
03
0f
06
09
11
0d
f7
0c
f4
fe
05
f0
04
f7
ec
f9
00
f9
10
04
02
03
06
08
0c
07
11
fd
f7
08
01
fe
02
00
f6
00
fa
fb
fe
08
f8
fb
00
0f
f3
f7
12
fa
fe
11
e8
06
11
05
03
0b
ff
01
f7
0d
f1
e8
13
0a
0a
0a
05
03
09
08
f7
00
0d
f6
03
fc
0c
04
06
05
11
03
07
0a
03
08
0d
03
ff
fe
ff
09
fc
02
00
07
11
0a
11
0d
f7
04
00
04
05
07
17
f8
ef
fc
f8
ff
fc
fa
01
fd
1b
03
00
07
02
fc
e9
e7
eb
01
0a
04
0c
09
fe
ff
fe
13
10
0c
fe
02
fe
03
fe
fe
0e
fe
fb
01
09
10
e8
05
fb
f6
fc
04
fb
02
07
02
0b
13
19
0c
11
01
f7
0d
0d
f1
fd
f0
ff
03
f5
0b
06
eb
05
f3
cb
ff
00
00
0a
f9
f6
fe
f7
f0
f2
fa
0d
ed
f4
06
03
15
09
04
03
fc
00
f5
08
19
08
1c
f9
03
03
00
ff
f5
02
f1
c7
03
11
fa
06
ff
fc
0c
fd
eb
05
f4
00
02
0a
08
12
13
f0
fb
f6
04
02
04
02
09
06
02
00
f6
f8
13
09
06
fa
fe
ec
eb
0a
fe
0f
03
f7
01
f9
0b
fd
f0
ff
f1
fa
07
f0
e8
dc
0b
02
0c
12
0b
0e
02
00
f1
0f
00
11
07
07
ff
f7
fa
f4
ff
03
eb
f9
08
05
fa
f6
12
f4
f8
01
00
02
13
07
fb
fd
fd
f4
f3
fa
03
ee
0d
06
ee
f8
f9
f6
01
fe
f0
05
f0
f1
fe
09
02
06
03
fb
f4
01
fc
ee
06
05
f7
0a
fb
03
0a
13
fe
01
04
f4
f7
fd
f8
ff
ff
f5
0d
04
f7
07
06
07
ec
f9
f9
fb
f9
11
06
01
01
0e
00
f5
ed
f9
ed
f8
f8
f5
ee
ef
08
f9
07
05
00
f8
03
05
00
fe
0f
f9
05
f7
fd
02
0a
fc
fa
fc
fd
04
04
fe
02
01
f7
e7
e3
e6
00
ec
e7
f2
ef
eb
02
0c
0a
0d
06
02
0c
0c
0a
06
0e
07
0d
f9
0c
02
04
01
02
0c
09
fa
04
0f
01
ff
02
f4
ff
08
fb
fd
f9
07
04
00
01
21
34
f7
fe
13
02
eb
02
00
ef
ea
fe
eb
f6
f5
f9
fd
f8
e3
e6
ed
03
eb
f4
f3
f4
12
f8
de
14
0d
da
fb
fd
0b
09
fe
fc
13
0b
fc
f5
ff
fe
01
ec
d7
f5
ed
ec
e6
05
ef
0f
f7
d4
00
00
ea
0b
05
12
10
d9
cf
0d
ed
e8
fc
18
03
06
e9
e0
0a
08
f2
f8
12
09
f9
f9
e3
ff
02
f9
0c
04
05
fc
05
fc
ed
fb
04
f7
fd
00
d9
fa
ee
f0
f1
ed
db
f1
f0
0b
f9
f2
fe
04
f6
fe
11
02
01
e7
dd
f9
05
e3
fc
fc
f7
0c
19
f9
08
10
f1
01
f5
f5
fb
ee
f3
01
07
ec
fd
f4
f2
13
e4
00
ed
c9
eb
fa
e8
e9
ee
ef
fb
fe
15
04
fa
0a
ff
f4
e3
f4
e4
f9
02
f3
f2
ff
11
14
ec
fa
0b
12
04
17
02
06
f9
ff
f6
e4
03
03
f8
0b
d3
e8
ee
fb
fd
fb
01
00
f1
01
f1
03
f8
03
fc
f5
02
0b
00
04
04
fe
10
0e
fa
14
09
fb
ef
f9
f3
0e
07
fc
12
fe
fc
f0
f0
fe
07
07
f2
fc
f8
11
00
04
00
fc
00
fd
06
f8
0b
f7
05
f0
f6
f7
00
f3
fc
01
f0
f0
f6
fe
fa
f4
05
09
01
ec
07
00
09
00
f5
08
fb
0a
15
00
fc
ed
f6
06
ea
f0
f9
e5
ea
00
f2
f9
0b
07
fe
07
07
f2
f3
01
fb
02
09
07
02
01
03
fa
03
fd
06
f6
f0
09
fb
fc
f9
f8
fd
fd
04
f5
fb
06
00
ea
f1
10
f5
08
fa
fb
08
00
fc
f3
f6
fd
f6
03
00
f9
0b
07
f1
f5
f8
07
ff
1b
05
fc
11
0a
ff
0f
18
0e
fb
0a
11
f4
02
ff
f9
06
fe
09
08
fb
09
09
01
06
0f
06
02
05
fe
0b
fc
f7
f8
fd
0a
00
01
fb
ff
f7
f7
00
02
fb
00
ee
f8
0c
07
07
ee
f9
f5
03
0c
f8
fe
fc
03
f9
05
04
0f
fe
fe
0e
00
f8
fa
0d
08
09
0f
08
0c
00
02
03
fa
00
f1
fe
f5
06
f4
02
05
09
07
23
03
0d
13
f9
02
08
17
06
05
00
f4
fa
01
ff
0c
10
02
f1
f5
f8
02
03
07
08
fe
f1
fc
1c
fd
f6
10
0a
01
17
f8
08
f4
03
11
05
02
e7
f2
05
ff
fc
fb
07
01
f7
07
0d
00
11
0c
07
fe
0b
0f
21
19
08
f0
06
fd
ed
e7
eb
0f
02
fe
09
f9
0a
ff
0a
09
0e
0a
ff
01
f6
fb
f2
fe
fe
10
10
f8
fb
fb
fa
15
01
09
06
fb
07
ef
de
01
1b
fa
1f
ff
fd
05
00
0c
fe
03
02
0c
19
10
fd
05
ff
0d
04
07
08
17
10
fa
fe
fe
00
06
11
05
ec
f0
10
03
02
0c
f1
ef
ff
07
02
fb
f8
07
04
ed
12
17
fa
fb
02
d7
f5
04
c0
fc
08
c6
08
f6
c8
fd
09
c0
f1
0d
cc
f7
f9
fe
f4
ee
01
ec
fb
ec
f7
f4
f9
11
04
ed
0f
00
fe
0f
08
df
ee
03
e9
0b
f3
dd
f7
f6
dc
fb
0f
cf
13
05
d0
fd
01
fa
07
06
03
ff
00
f6
ee
fe
db
06
fd
cf
0f
0a
d8
ff
0f
db
ea
07
c7
fc
0a
cc
f7
f2
13
0d
0e
16
03
04
14
0e
0c
f0
03
fd
df
e6
0c
f3
e5
f2
e0
f5
fe
d6
03
13
d4
00
fe
da
0b
03
dc
02
0d
d1
08
fe
00
13
02
16
12
04
10
18
fd
f1
fb
02
e1
fa
01
ec
f5
fb
ff
f2
f2
fa
f1
f2
f4
e1
ec
fe
fe
fc
f8
e9
0b
fd
12
f7
fb
ff
f7
f0
dc
f2
f1
fd
f5
01
09
f8
15
e9
d7
ec
27
02
fb
fd
ff
f8
fb
f5
f4
ef
ee
0a
ff
f3
f2
fb
fa
09
ff
01
fd
fd
f9
e2
e3
fe
13
1d
09
0a
fb
02
f2
fb
0d
10
f9
f5
09
0a
ee
ea
dd
fa
08
02
05
08
08
fc
eb
db
09
fe
11
ef
fe
f4
f9
13
07
02
fe
fb
00
f8
f1
f2
00
fc
03
0e
15
1b
07
06
02
e0
e8
06
fc
0a
f8
03
0a
01
e6
ce
0c
06
06
05
f7
ef
00
0a
17
ea
f9
d9
0c
08
05
ed
0a
ed
01
ec
07
fc
02
05
fd
18
03
e7
1b
1f
00
fe
fe
f0
ee
d7
09
e7
e1
0b
f6
fb
f6
ef
fc
03
f1
c2
fb
ef
03
0a
08
13
fb
06
ef
0c
fd
fa
05
08
09
fd
15
1b
12
f8
f7
f1
e5
c5
01
db
d1
0f
0f
0e
07
05
00
08
fe
d9
0e
f1
f1
fd
ee
d6
f0
fc
fc
03
fb
0b
07
07
fe
f7
03
d5
f7
f8
00
f9
07
f4
08
fb
c0
01
f3
ed
0c
f2
fc
0c
fe
03
fd
cd
ec
e0
e4
c7
d6
ef
e0
d5
0b
0e
01
04
fa
f8
f7
c0
05
0b
fb
fd
06
e9
0a
f3
c0
03
ff
00
fe
fe
1f
03
0f
24
fb
fc
fd
02
fb
fd
06
09
e1
02
0a
17
25
04
0c
27
f7
f6
1e
fb
f5
ec
fb
f0
f8
fe
f2
f3
04
ff
06
fd
f1
f3
e1
e6
db
fd
00
01
19
0a
eb
07
e3
db
08
06
0b
00
04
0e
08
fa
fc
f6
f3
c8
e3
e5
c6
df
d1
dd
08
fd
ef
0a
f1
e4
ff
f2
f1
0a
08
0a
04
08
0b
fd
04
0d
f9
01
fe
fa
03
fd
f3
f4
e8
0a
0e
fd
06
02
e9
ed
e8
db
00
fb
01
13
07
0f
fe
fd
0c
22
1b
10
0f
0a
1b
fc
00
17
07
fa
f3
fb
fc
dd
f2
e5
ee
08
02
03
03
01
fb
e7
e6
e9
08
04
07
ff
07
fb
f2
f0
e5
f9
f9
f6
07
f3
e4
f3
f2
f1
de
de
fd
eb
e0
03
ef
f0
f0
f5
f8
f4
f9
fc
fa
03
03
ed
f9
fd
fc
f0
f4
f5
08
fd
02
05
08
fc
ff
fb
0e
fe
fc
0e
f1
ed
fa
fb
ef
f3
ec
eb
f8
f1
fb
f3
ef
f8
fe
f4
0c
f1
fe
f8
06
fa
03
f6
f5
04
f9
f1
fe
f8
ef
e6
dd
f3
f7
f9
f2
fe
f6
03
00
fb
f4
06
f7
f6
ff
fa
fe
00
fb
fa
01
02
f4
0c
01
f6
0d
04
fb
ff
03
fe
f9
f8
04
f3
04
f3
09
03
f3
f4
01
03
f9
05
0a
06
f2
06
f4
f5
01
03
f5
09
fe
04
f1
e9
fe
02
f5
f5
f5
e8
06
fb
fa
fa
fd
fb
f9
ff
0b
0d
12
01
06
02
01
e9
f0
fa
e1
fc
03
f8
f8
fd
fe
02
f1
f7
fe
04
04
fc
ee
f3
f9
f5
fe
f5
02
fc
ff
04
05
0e
ff
f0
f8
03
04
03
00
f9
13
09
0e
f9
f8
f1
fa
eb
f3
f4
f0
f4
0c
12
0a
0b
fa
04
01
03
f7
ee
fc
02
df
ee
f9
f6
ff
0e
fe
fc
00
04
09
ff
f8
04
0b
f7
01
03
10
01
fb
f8
04
00
06
00
0c
0a
04
fe
f0
f2
fc
db
d6
c8
e7
ed
dd
db
e5
df
fc
00
ff
10
fe
11
0b
f9
fd
f4
0d
0c
fc
fd
0c
04
06
fe
02
f8
fa
01
05
fe
00
fe
05
f9
02
04
fa
f9
00
05
f1
f6
05
03
e7
f4
ec
f2
f7
01
eb
04
03
00
00
00
f4
0a
f0
fe
08
01
03
fe
15
fc
fe
fb
05
fa
13
ec
ff
11
f7
09
04
05
f3
01
ff
f8
f7
f9
02
fa
0d
02
f7
f8
0a
fd
f5
09
f6
01
06
f4
02
10
19
f7
07
09
06
f3
0b
f5
f4
f3
e6
02
e2
dd
04
0c
fd
05
0d
f6
0c
0c
00
09
0e
0d
08
0e
fb
10
0a
0d
f2
f7
f8
f6
e9
f7
f4
e8
fd
12
15
01
01
08
f2
0b
06
01
06
fb
fd
04
18
f3
14
fb
fb
fe
fb
07
00
19
f4
07
0c
03
f3
0e
09
f3
eb
16
f9
fc
10
fe
fc
0b
f7
09
06
09
0a
f7
f9
fa
eb
f4
f3
ef
02
f9
f5
01
fc
05
fc
03
fd
08
04
05
f4
0a
08
f4
f8
07
f6
04
01
f4
ff
f1
ea
03
fe
02
0c
f7
f8
01
01
f6
00
fc
ff
f5
ff
03
0a
07
f5
06
fc
f6
f6
08
0a
01
fa
11
0b
0b
12
0c
02
ec
f8
f5
e9
ee
eb
ed
ef
01
fe
01
05
07
f6
07
0a
00
03
fc
fc
00
07
fb
01
fe
11
0d
fe
00
0b
f4
f9
ea
f0
f6
f7
e2
e9
fa
f6
e3
f4
ea
fb
e3
02
05
fd
0b
06
07
00
01
06
fb
fc
05
f8
f3
f7
04
04
08
f4
07
02
fa
02
08
f4
fd
fa
06
f3
03
fb
f4
f5
03
fc
07
fc
16
3e
03
0c
40
06
0f
1b
f6
df
ff
f6
e5
f4
fc
e1
f7
f2
d0
f8
ea
d8
d9
f2
d7
d9
16
e6
f8
0b
eb
ea
10
f8
dd
f9
f9
fd
f2
ff
fb
f9
fd
08
fb
c9
e9
ea
c0
d1
e4
ca
d3
12
de
fd
f6
e5
ef
00
e2
e0
ed
e2
ee
ff
00
fc
eb
09
11
08
dd
e5
08
d2
da
f7
dc
e3
fe
e2
fd
05
d5
f1
0f
dd
da
07
09
06
01
fd
07
fa
12
01
e1
e0
fa
fb
03
fa
f9
fc
f6
fc
dc
fd
06
e2
e7
f8
d9
ed
08
e5
04
fa
eb
f9
06
e7
f2
f4
08
06
01
08
09
fe
0a
03
fd
f7
04
fa
e0
e1
fd
f2
f6
0b
10
38
14
0d
3b
0a
01
2b
fa
f5
ed
f0
ef
d9
fb
f2
f3
f6
f5
f0
f6
f7
e5
ea
e3
ee
17
f7
eb
07
e0
de
0a
de
d2
fe
07
0d
ff
eb
fa
f5
ff
f3
ee
f1
ee
ee
e4
ea
e8
e3
ec
fa
f6
d5
ea
f9
ef
00
e9
de
06
e5
02
21
fc
02
20
07
04
e6
df
e3
f8
e8
e3
f0
ff
fb
f8
ef
d8
e5
f7
de
ed
e3
dc
0b
0e
01
13
03
fe
0a
05
0e
01
0f
18
c5
e0
f2
ce
f1
fa
ef
f2
e2
ed
f6
e8
fb
eb
ed
f7
f9
dc
f1
f7
e1
f3
ef
e7
04
fa
03
fb
08
fe
f8
fd
00
fd
f0
ea
e8
f0
d1
00
f9
ed
fa
04
f1
00
ec
01
04
ee
e9
06
00
09
01
f6
02
08
f3
f8
fe
06
00
f5
f9
f5
f9
f4
fc
02
f7
fe
ee
01
f6
fb
06
04
ff
04
0a
05
fd
fd
07
01
05
f1
fe
08
f4
08
06
0a
fb
02
0a
06
fb
1a
02
05
0c
04
15
f4
ef
07
e3
e5
ef
03
f9
f5
08
0c
fc
0a
07
00
05
02
fc
00
02
03
0a
04
03
0f
f8
07
fc
03
0d
f0
fc
00
f8
fe
f7
fe
e8
f5
ea
f0
f8
f1
e3
f9
02
06
fe
0a
08
fa
ff
0b
0d
0d
0d
01
07
06
03
00
05
05
05
fc
fa
0c
fa
08
04
01
fe
fa
f9
ff
03
fc
f9
08
07
fc
0b
f4
fb
03
03
0e
f3
ff
01
0d
08
fe
02
06
f1
f4
07
0e
0b
06
06
06
0a
0b
f9
0c
13
e7
f8
0d
f1
f9
12
f8
09
0f
f8
0a
07
12
f8
f7
35
18
0d
f6
fd
f9
f5
f6
ee
eb
fe
f0
00
0a
03
f9
01
fb
ec
f5
06
02
01
fb
fc
0f
16
e9
fa
f8
09
fb
04
0a
ff
01
f3
f8
0f
0a
04
fc
0b
0a
fa
ef
04
02
04
03
02
08
06
09
01
0e
0b
ff
12
0d
dd
04
04
f2
f4
f4
f9
f9
f9
03
fb
01
ea
f8
fe
08
02
0a
fc
03
02
e2
05
fe
07
05
02
16
ff
fc
2f
2d
1d
05
fd
ff
0e
0b
0d
f8
02
0d
fb
fb
f5
16
ff
09
06
f9
01
f5
eb
df
06
f4
e1
08
f0
ec
06
fa
e3
ff
07
e3
f4
fd
dd
eb
0b
e8
0b
1d
c9
f2
fa
c0
01
0d
00
0b
16
02
02
19
f8
fc
e4
ed
fb
f7
e0
f9
e9
f1
05
fa
e2
01
0d
d8
0b
00
de
fa
e4
e5
fd
e8
e6
fa
ff
ed
f2
ff
d5
06
fb
cd
f6
f2
ca
fe
06
dd
ff
fe
e7
fd
fe
df
f4
f8
fd
fd
03
fb
05
03
08
f3
0e
0f
0b
13
fb
17
04
00
fa
09
e3
0b
01
dd
06
06
d3
fb
f3
e0
05
fa
e3
09
f4
d6
ff
0f
0d
f7
0e
1b
ff
17
20
f7
03
e4
04
0f
d4
fd
fb
c0
09
03
fd
f7
ee
f2
03
f0
f1
05
f9
02
08
ff
f2
fc
f0
f4
f9
06
ff
f3
02
f8
03
fa
f9
ea
f8
fa
02
fb
fc
f8
0d
f1
03
fd
f7
ff
f7
fb
09
f7
11
09
fa
fc
fc
f7
f6
03
fe
eb
07
03
07
12
04
15
02
fe
03
fd
fd
f4
fc
f1
01
e3
fa
02
0b
07
07
0a
10
10
fe
03
03
07
07
f9
fc
fe
f9
fb
ff
02
f5
f4
f5
03
ff
ff
ef
f6
07
f3
fa
f8
ef
f9
e8
f6
eb
e5
ff
fa
05
03
0f
0f
fa
04
f5
06
fe
03
07
03
0f
f3
02
f7
fd
0d
02
fd
fc
03
05
08
12
00
ff
f7
01
fc
fb
02
00
fe
f2
00
06
f9
ff
03
00
10
06
01
07
fb
ff
03
f6
0a
04
e3
0e
13
04
03
07
03
0e
0c
f6
fe
f5
20
f5
02
08
e6
fc
07
08
04
01
fa
10
0b
fd
f3
03
f8
04
0f
0f
f3
f9
fe
f5
ea
0c
05
08
17
08
08
10
ff
0b
0f
ff
f4
15
06
f6
fc
14
ff
fa
01
0d
07
fd
fc
04
10
0c
08
0b
0e
01
00
07
05
05
f9
02
f4
03
fa
ff
0d
f8
07
0c
04
f3
10
fc
0b
01
07
fe
06
02
14
04
fc
0c
05
fc
06
f5
fe
08
01
01
0b
0f
fd
0b
0c
13
0a
f7
e9
22
f3
f7
f0
0d
f5
04
0c
01
00
09
15
09
08
22
f8
f7
17
14
00
15
0a
0e
ff
f6
13
02
07
f9
fc
fc
ff
00
f5
09
fc
fc
f2
03
07
fd
ef
fb
e9
f1
25
d1
f5
17
15
14
ff
f5
06
01
fd
0f
fe
fe
08
ef
0e
f6
0f
ed
06
f6
0f
0d
ec
01
0c
10
db
10
0f
f2
f3
e7
d6
0b
f5
d7
f6
ca
d8
00
eb
0f
05
fc
db
02
09
00
09
ea
fb
06
0d
e1
05
0a
00
06
04
f8
0d
04
04
05
f7
fb
0b
db
da
fd
ff
e4
03
fb
f2
09
ee
00
0d
0d
ea
0a
09
fa
04
fd
0a
09
01
e6
12
0b
f2
18
1a
d8
13
fa
25
10
03
1f
f7
ff
0d
f3
15
00
07
0d
12
07
09
f3
00
fb
00
08
07
01
fe
f8
00
08
01
ed
05
fc
ee
fc
06
fa
f6
f4
04
05
08
0a
ee
f2
0c
eb
f8
03
ef
17
13
f5
fb
ff
03
f9
eb
f4
ff
fd
f5
f8
f7
09
0b
f8
07
f4
f7
0f
02
fa
00
06
02
0a
0c
fa
f8
fd
0c
fe
f5
08
05
ed
fd
ff
fb
0a
fa
01
fc
0c
ff
f9
0c
0c
00
fc
09
fc
15
14
00
03
07
fc
00
02
f1
fb
01
04
09
06
ea
01
02
fe
0c
06
f5
0a
09
fc
0a
07
03
12
04
ff
03
05
f7
0c
09
04
0b
11
07
f0
fa
12
00
03
03
f1
f7
fe
f5
03
0d
f3
ff
00
10
02
0f
0d
1f
1b
07
00
1d
09
0d
12
f8
06
fb
e8
ea
e2
f2
ef
e1
e2
f5
e2
e7
e7
dd
e6
eb
da
ef
fe
fb
06
f7
e2
f5
de
d4
06
fd
05
15
0d
10
02
f2
fe
cd
f4
f1
db
d3
d5
e4
ca
d3
fb
0d
0b
06
fa
f0
fa
ea
f5
0c
0a
13
13
02
f5
1c
23
2d
f1
f8
03
f2
e7
e2
f4
f4
fc
e9
02
03
f3
e8
f0
f0
e5
f2
0d
10
11
15
0e
09
0f
18
14
fe
fc
09
10
fe
12
ff
f6
04
fa
03
ff
e8
ed
ec
05
fd
ef
01
0b
0b
ec
ed
04
f9
fd
fb
fc
fd
08
09
01
ff
f0
f8
ef
f9
f6
0a
f0
e8
f2
00
f5
f1
05
00
fb
ed
e5
ed
ff
e2
ef
fa
07
03
07
fc
f5
fe
07
f5
04
02
f3
fc
f9
00
03
fb
0a
fd
e5
fb
d7
ea
0c
06
f8
ff
f9
00
fb
f9
fc
f2
19
fb
f8
f7
f8
02
04
09
f8
ec
04
f8
ff
13
10
0e
0a
0a
f6
fb
04
0d
f6
0a
f8
f4
03
0b
02
11
fc
07
04
fb
fc
06
05
0b
13
fc
03
ff
07
04
f6
fa
02
08
f8
ff
fb
ff
f5
fc
fc
f5
f9
00
05
01
09
f0
fc
f5
eb
ce
f8
ff
03
08
05
fd
03
f9
01
00
0f
11
ff
0a
04
ef
fd
02
0f
02
ec
08
fa
fa
1e
04
ec
04
f3
06
fa
02
f8
01
06
0c
06
08
e6
fa
f2
e7
ef
f5
f4
fd
0c
fd
05
09
fe
02
fc
fb
fa
f8
f8
ff
0a
08
f3
05
01
f3
e4
03
e6
f2
03
eb
04
0a
07
06
03
f3
04
fd
f6
f4
fd
f9
fc
fc
03
f8
f4
01
f9
03
f6
01
f0
07
07
09
02
fd
05
e6
08
0d
0b
02
0e
1c
1b
16
fa
05
f1
fb
05
01
03
f7
f6
05
07
f6
fb
02
02
00
04
fe
08
10
0b
fb
fb
f6
03
05
04
0f
f3
ec
04
f6
04
fe
fa
f2
fb
09
f0
00
11
04
f9
01
00
fb
fc
05
f5
01
07
07
00
09
fd
05
fa
e8
09
ea
e8
04
fa
f5
f3
fe
f1
00
06
f5
f6
fe
e7
eb
f2
ef
e8
e9
e8
f3
f1
ee
e2
d8
03
0e
02
04
f7
f4
fa
f0
ec
f9
04
07
04
02
04
fb
f7
e8
ee
0c
f6
f1
0b
18
f9
02
01
ff
ff
fd
0b
f9
03
f7
f5
ea
f3
05
01
04
09
fc
ed
f1
e0
0e
11
f6
fe
02
fd
d0
db
d7
ed
fb
de
fb
e9
f1
e6
e4
db
f8
0c
fa
f8
f9
f8
df
e1
cc
03
08
0c
04
06
ff
25
f8
eb
fe
fd
03
f3
03
fd
f1
07
f5
08
0a
13
11
15
0d
e2
ef
e2
06
07
fd
02
fc
04
f8
ed
de
09
14
fd
0f
0b
ff
0b
1c
09
05
0f
1f
00
02
03
f9
f3
e1
f0
08
f9
0a
0d
09
e1
ff
00
0a
0c
26
1b
0f
0e
fc
02
06
fb
13
16
04
05
fd
05
f9
01
06
02
fb
1c
0a
09
0a
f0
fc
f8
da
12
f9
02
14
01
02
ec
0c
0f
09
f1
f1
00
05
f9
fa
fb
16
01
fd
15
f9
08
f9
02
09
12
16
15
09
0b
07
fe
dc
13
ff
f0
f8
0c
fc
fd
fb
01
fb
0b
01
07
01
02
01
f9
fd
03
0e
fc
0c
03
f9
07
ff
03
fe
09
0d
fa
09
0f
04
2a
19
0b
13
08
04
11
ed
02
ef
0a
07
06
06
13
04
09
f3
f0
03
f6
0c
10
14
09
0f
f2
03
02
03
07
0e
01
eb
f6
01
ea
ee
01
f3
fd
1c
15
13
ce
d6
df
e5
e1
ed
f1
ec
fe
cf
ed
f7
f5
0a
02
03
05
00
cf
ed
00
e5
0a
0a
03
ff
01
00
f9
e4
ff
e4
06
fc
ff
0b
f7
03
08
f1
06
02
09
f7
ef
f0
fd
f9
eb
11
0b
fd
0d
f7
d3
ef
f4
ea
1d
ff
fa
0b
02
c1
d3
f1
e7
f5
07
e4
fb
02
c0
f3
f5
df
07
fb
fc
fb
f5
ce
f2
fa
e8
01
0e
f5
02
07
24
0b
f5
14
00
01
07
ff
fe
ea
fe
0a
f3
fe
08
ed
12
08
cb
fb
fb
f3
06
08
f9
06
02
d1
f2
fa
ef
13
01
f4
10
fb
03
0f
12
1e
ff
08
29
f6
f0
e2
ed
e8
fc
05
f6
04
10
0f
05
f9
10
f0
f5
e7
f4
f6
f6
f1
e8
05
fa
13
f6
f4
f8
f4
0f
eb
03
05
0d
07
f4
03
fc
32
18
cc
e1
f3
fd
fa
f7
fe
f5
e6
f5
06
ef
fc
f7
f5
f4
02
d9
fd
0c
09
f4
fe
fa
f4
0c
e6
f4
0b
15
09
0a
0f
05
df
e8
ef
f2
e6
f0
fd
09
fd
0f
f3
f6
f8
0d
04
fe
06
09
0c
e0
f9
05
0c
fa
f4
08
fb
1b
20
21
f3
f7
fe
06
0b
fd
e8
cb
df
fb
fa
f7
01
f1
08
0b
fa
fd
10
13
05
fa
0f
0e
07
f0
fe
03
05
fd
fa
fc
ff
02
20
0f
01
f0
12
f6
f8
f4
0d
1c
0c
e8
01
01
f9
02
09
cd
d6
ef
e8
df
ed
ee
fe
00
f4
f0
ee
f3
f3
f3
f6
f1
e8
02
00
02
f7
f2
eb
fd
fc
f5
ec
f4
f2
02
e0
e3
01
f2
eb
f8
fb
fc
e8
e4
f2
f0
ff
fd
e5
e3
f9
ef
f3
ee
f8
e8
e6
f4
ea
e9
e1
ef
f1
f8
ee
ed
02
e6
f4
fa
02
f5
09
04
f7
e9
f0
ec
fd
f0
f1
ea
ec
f0
f3
f7
e8
ee
f4
ed
f9
f1
eb
f0
f2
f4
fa
f8
f4
02
02
fb
0a
05
0b
02
e7
07
02
f3
0c
f4
fc
f0
f5
f4
ef
f3
f7
f2
f1
f2
ef
e9
ee
f3
f5
f7
eb
07
16
1a
fb
f8
fe
fb
03
f9
ff
f4
ee
f3
f2
ea
00
fd
fe
ed
e0
ec
f0
e2
fb
d8
cc
e8
fe
fd
14
fd
01
fb
fb
fa
f4
ed
f2
10
fe
fc
fc
fe
f8
f1
08
ea
01
ee
01
31
f0
fd
0e
f5
f7
16
06
fb
f6
13
f4
fb
e4
e7
10
f0
09
f0
08
09
fb
f9
e6
08
08
fb
f9
fc
07
f6
ff
0b
06
ff
f5
f0
0f
13
20
ff
e7
0b
03
0a
06
fa
fc
f7
ff
f6
04
f6
0b
01
06
fd
0b
fc
03
10
08
f1
f7
f7
0b
05
1e
19
19
00
18
0c
10
00
09
f0
e8
0c
09
05
fb
fb
03
07
f4
e9
13
05
03
07
ff
08
0a
0d
13
f5
f8
fe
0c
0c
f2
e9
fa
f2
04
f6
f5
06
f7
07
fc
ff
f2
09
06
f1
19
f6
ed
04
ea
03
f4
06
ff
0c
14
05
f4
fb
f0
f9
00
09
f7
fe
fc
0c
0d
de
fc
ff
fb
0c
f6
08
12
f8
01
f5
09
08
04
f2
fe
ef
eb
fb
ea
fd
fe
00
0c
0f
02
ef
ea
e8
0c
fe
0e
11
18
0e
f9
ea
d4
21
ec
02
1c
00
18
ed
f2
e8
f4
04
f5
0e
0f
05
ef
00
ea
0b
01
fb
11
17
0c
05
f4
e9
0a
13
11
02
00
08
08
ff
f6
1c
08
06
1d
f6
04
00
fe
f8
00
0c
09
07
11
10
f1
fd
eb
f9
fe
02
09
0a
05
f0
f4
ee
11
08
03
00
04
ef
ff
e1
00
f8
fd
fc
fc
03
10
09
0b
f3
0e
0b
f2
f4
f4
f0
07
02
00
0b
06
ea
fe
ed
fe
fd
f8
01
04
fd
f7
09
fe
f0
e3
f7
0f
f5
00
1b
12
11
d5
f5
00
f6
f9
ea
02
15
1e
3b
08
f7
fa
00
ef
e3
fe
fa
f8
09
05
06
15
02
05
fa
f4
c0
14
02
f5
12
0a
ec
f3
d4
e2
fc
f5
fb
f7
08
fb
03
fe
f3
0c
08
10
0e
04
07
fd
fb
ee
e4
09
0a
02
03
ef
0c
02
06
09
03
11
e5
f5
ff
d3
ef
f9
04
0c
07
fb
fe
04
09
f0
d1
07
ff
0f
0b
11
fe
09
f8
d6
f6
01
fa
0d
fd
07
0c
1e
40
01
f9
05
03
0a
09
03
fa
ec
fc
fe
f2
ff
ef
f8
f1
e1
e8
06
ff
03
fe
0c
09
f2
e4
f6
02
04
0b
00
fd
f8
fa
e6
f1
fc
03
f6
f2
17
05
0c
d8
d5
ff
f3
f8
09
01
05
1c
32
17
0d
01
0a
f8
e9
f2
f3
ef
fc
08
03
05
f4
10
fb
01
e6
de
07
fc
ed
f3
e5
f3
d2
e4
e9
f9
fa
03
f5
08
06
03
e9
fc
fc
09
0c
f9
0f
05
ed
dd
f1
03
f3
00
f6
e9
fc
ee
e8
f2
e0
e6
f8
e8
08
e0
cb
ed
e6
fd
00
04
01
11
ef
fa
ea
e7
fa
05
fe
ff
00
f7
ea
d1
dc
fe
f5
0f
0b
01
0b
02
25
fb
f9
fc
04
03
11
f6
f3
f4
ef
ec
e5
e5
ed
e9
df
03
ef
f2
02
f3
e7
05
ff
f9
fe
fa
0b
03
fa
fc
fd
08
f6
f6
fd
0d
00
f1
e4
00
02
ec
fb
0b
17
00
f3
03
03
fe
08
f7
eb
ef
f8
eb
e1
fe
0b
ea
fa
0c
0e
f1
e4
f1
0d
02
e3
05
04
07
c0
e6
e5
e1
f4
f9
f1
00
0b
ee
dd
e0
01
08
e8
ff
fa
03
f9
e9
e3
0b
0a
f9
0d
12
03
13
f3
f8
fe
fe
05
00
fd
f1
dc
fd
fe
02
fe
07
f4
01
04
ef
e7
ef
0b
0a
f3
03
0f
0e
f4
e2
f0
01
00
02
0c
0a
13
0b
0f
02
0e
12
17
09
f7
04
fc
fb
e7
fe
09
f3
0c
03
11
ea
e6
e9
ee
f1
f0
e5
e3
ea
fc
0c
fd
fd
08
ff
e8
f6
08
f9
07
05
02
05
fd
db
ef
03
eb
02
19
0f
15
02
10
f6
f1
07
f9
fa
03
f6
f6
40
2d
16
0c
10
06
ea
ec
f7
ec
fa
f1
f5
fc
f7
00
08
04
e9
f7
08
ea
f8
f2
e9
f3
fa
e8
dc
f2
00
07
f7
05
12
fa
f7
00
03
0a
06
f6
f8
13
fd
ce
f7
fe
0c
ee
ef
05
f9
0b
f6
fd
fa
ea
ed
e3
06
02
e8
e3
ee
f0
fe
0f
09
f1
04
f6
e5
ff
f2
f7
09
f8
ff
11
03
d7
ee
fa
0a
f2
02
1a
f5
f5
3e
27
09
0d
06
09
fb
05
0b
ea
fb
f9
ef
fb
e0
02
f7
e4
0a
fa
ee
fd
06
f6
00
f6
e9
f6
fc
f1
00
03
f9
fc
0a
04
03
0d
fe
f7
09
06
ea
f6
14
fa
05
03
00
fd
f8
01
04
fe
00
fb
12
00
02
fe
f9
fe
f3
f9
ef
dd
0a
fc
05
0a
0c
03
07
0f
f8
04
fe
f5
f6
f2
fe
f1
f3
ef
fc
05
00
09
11
08
04
03
f9
0c
fd
04
fd
ff
fa
fa
0a
00
db
fa
fc
01
f9
eb
ef
eb
f1
0b
04
11
01
f6
00
ec
fc
ed
00
fe
f4
07
07
0a
02
0a
ff
00
ff
ff
f9
11
f9
f5
06
fb
08
05
ff
00
05
0c
02
02
12
f1
f8
fb
04
06
06
08
0e
ff
f4
05
f5
ff
0b
ee
21
0d
14
02
0d
fc
f5
ea
0e
f1
0d
01
f9
06
fd
e2
d9
f8
f5
fc
f7
f9
06
fe
fd
e8
f0
e2
f4
fe
04
01
07
f7
15
13
03
ff
f6
f1
04
f4
ff
fa
0f
e8
02
fe
f8
15
08
fa
dc
ff
ec
00
f3
f4
05
04
ec
ee
e9
19
1b
f8
fd
0e
10
e6
e0
03
fb
0a
06
fa
02
f9
ec
ef
f8
f7
ff
06
f1
f0
f7
fa
0e
fa
03
f9
fd
da
df
ee
df
ee
f9
f1
f9
12
09
15
0d
f7
dd
0d
fc
0d
fd
fe
0b
06
f4
e5
05
f1
07
fb
0a
ea
00
f2
13
fb
f8
e9
0b
04
10
fc
f9
fa
fd
e9
fa
fe
fc
f6
08
01
ef
fe
20
1a
2b
08
ff
02
f4
f4
e2
07
f4
fa
01
04
f6
d7
df
e0
ef
e1
e3
dc
0e
13
ec
fb
df
0a
e5
e8
02
fb
04
19
f9
03
11
06
03
03
07
fc
eb
ef
d5
e6
e9
e2
0b
23
18
e7
f1
f7
f4
e5
e8
01
ef
0d
f9
e8
f9
03
08
08
07
13
02
e8
ef
e7
f7
d8
e4
ff
00
03
ed
fa
e0
f9
d8
f1
ff
f4
fc
09
0c
09
09
0b
01
dd
fa
07
eb
f4
0a
04
10
fd
06
17
08
e2
00
e3
f9
db
f3
04
13
10
de
ef
ef
f6
ed
f0
fd
fb
0e
05
00
05
f7
0e
08
f6
07
00
ed
ff
f6
f4
ea
e6
fd
03
ed
f2
ea
f0
e6
f8
f0
fe
02
ed
07
03
04
ff
f5
01
05
0b
e7
fe
f2
fb
fc
fc
f8
dc
03
dc
f8
fb
ec
f9
0c
f0
12
08
fa
02
10
04
e9
08
0a
00
05
f8
fc
f5
f2
00
e6
ff
07
04
d9
0b
fd
f1
02
07
f0
e7
e5
dc
f6
f6
d5
02
ea
e2
08
0b
e0
fb
09
f6
00
00
e7
fb
0f
dc
01
0b
fd
03
fa
e8
e8
ee
f9
03
f3
f3
fe
fc
07
17
1e
07
0e
22
00
f6
24
14
08
0a
dd
ff
00
ed
08
fc
f8
fb
0b
ec
0b
07
fb
06
0a
ee
f8
05
32
ed
00
24
e6
08
20
f2
fd
f1
05
fb
f7
fb
07
f5
05
ef
e9
ec
e8
e6
fd
05
00
ec
ee
04
e3
e5
e1
04
01
02
eb
ea
d8
eb
ea
e0
ea
eb
e5
13
08
ef
0b
01
e9
03
fe
fa
02
ed
00
03
f5
ed
f1
f6
f8
d5
cd
e7
da
dd
ea
ee
de
df
f7
f8
f2
ff
eb
e3
ff
e6
ed
0a
17
0a
06
16
10
13
29
30
eb
e1
e8
e9
e9
ee
f6
fe
f0
f9
02
e9
fb
f5
e3
02
09
0a
0e
fe
0a
18
14
09
0b
0a
05
1a
3b
03
1b
2c
27
1e
35
0e
f3
f0
f6
f0
f8
fc
ff
f5
fc
f7
05
08
e1
ee
f8
f9
f4
09
ef
ee
f9
f8
f0
f8
06
02
ef
ff
f7
f9
01
e8
ed
f7
ed
f4
0d
04
e2
0b
0a
e6
0e
f0
e9
f2
e9
fe
f4
d8
04
fb
ee
0f
fc
f2
04
fa
ca
f9
03
dc
09
fb
12
09
04
f8
f9
0b
eb
01
f5
f9
ed
0b
01
f4
08
f0
00
f8
da
ff
fb
d6
01
eb
ed
04
fe
06
09
0f
db
0a
fa
d0
01
eb
d1
e8
cf
d7
ef
e8
d1
dd
04
f4
ff
09
e0
02
08
e2
0f
06
fd
03
0a
e3
0b
10
d8
00
08
fa
0c
ee
e5
f9
ea
fb
fc
ee
f9
e7
f2
df
ca
04
d5
dc
03
09
02
08
e0
08
0d
d0
ff
0b
fd
06
05
cb
0b
04
d2
08
04
12
0b
f9
27
fd
01
17
02
00
16
01
01
eb
04
04
e2
04
e0
ec
eb
ea
dd
e0
e3
e4
eb
d6
e2
fd
d7
12
04
f7
05
0a
e9
d5
f4
da
f7
09
f1
fa
07
0e
fe
f6
f7
e7
0f
03
f6
03
f9
03
fd
f2
03
01
ef
02
05
de
d9
f1
e7
13
07
f6
ee
fe
e7
da
05
ee
1c
1d
fa
0d
05
d1
c9
cc
e1
fe
e6
e2
fc
ed
f2
d4
fd
d5
fb
02
f4
06
01
f2
e1
f1
eb
0d
01
06
0f
07
e8
09
08
17
0c
f6
05
02
f2
fa
d6
ec
ef
e8
e7
0b
f7
fb
fa
e8
0d
f3
0e
17
f4
fb
11
f3
e4
f9
dc
14
10
fe
12
0a
eb
fc
0f
02
fb
00
17
ea
04
07
fe
f8
f7
ee
ef
fd
0d
0c
05
f9
fd
ff
f8
12
eb
f9
0e
fe
03
fa
04
f2
fe
f5
f3
fb
d8
d2
d9
ea
de
d8
d5
e0
d3
ee
f3
e7
f5
e8
f0
fc
f9
ee
0a
09
04
01
07
fb
00
fa
f9
e9
dc
f0
f0
e4
e6
e6
df
da
ee
f0
fd
f5
fa
e3
ee
e4
e1
0a
09
f9
18
09
ff
0f
05
ff
f1
f3
fb
e8
f5
f6
ea
eb
e8
e7
ed
f8
f0
fa
f9
f2
e9
e8
03
08
06
17
18
02
1f
1f
08
fb
fa
0b
02
13
14
0c
1b
13
ec
f2
f5
fa
01
f0
f8
f6
f0
fd
f6
fe
f3
ee
fa
fe
f2
f0
04
0c
fa
00
fc
ff
05
18
06
fb
f4
f2
f9
eb
f2
07
ff
f9
05
10
fb
f3
00
01
09
09
fd
fa
fa
01
fd
fe
08
fd
fc
f0
00
fa
0a
02
fd
fd
fa
f3
f8
f4
07
09
ef
ef
0a
f0
fd
06
0a
0d
0b
f7
fa
fe
fa
f0
e5
ec
02
0a
f2
fa
04
f3
f4
f8
06
15
16
09
1f
1a
0c
0c
0d
08
09
1f
f0
07
13
01
0b
07
f1
04
fd
09
0f
11
fd
0c
10
f3
02
06
03
0e
04
0d
f8
03
10
0b
0b
05
03
00
09
05
12
13
f4
11
01
04
01
0a
fd
f0
f4
03
0e
07
01
0b
04
0b
0e
fe
fd
03
0d
14
11
ff
0b
15
01
01
04
03
fc
f0
08
f7
f7
ee
f2
00
f6
f3
03
fe
07
0d
f2
02
06
07
08
05
15
05
fd
00
06
fc
f5
f3
02
e5
1a
0e
fc
ff
01
f5
0c
04
e2
02
fb
0d
0f
ff
12
08
f6
08
e9
03
f8
fc
03
fc
fb
f3
00
09
f2
f5
ff
01
e5
fd
f2
f1
0e
04
01
ff
0a
f1
10
ff
e8
15
0c
0c
0f
0b
01
26
fa
df
fe
e5
11
09
0e
01
11
fb
f7
0f
fd
fd
09
04
f7
fe
fe
db
01
01
09
11
09
ed
06
09
fa
fe
f2
df
f2
f4
cf
f2
e1
c0
e8
00
0c
02
fc
fc
0b
01
d1
01
01
0f
08
06
f7
07
07
d6
0b
0a
fd
f9
13
0b
e9
01
f1
f0
e8
07
11
00
11
12
fa
fe
0d
fb
fb
d6
01
f7
e4
f7
f7
ec
fb
f0
0e
12
13
0c
09
03
0a
0b
f2
fa
fc
16
f6
f5
06
04
06
17
e8
fc
f9
f2
fb
10
f5
02
ef
f6
05
fb
ff
ff
12
05
f2
ee
10
fb
0b
f8
04
05
fd
fd
f5
fd
11
fa
fb
08
01
05
07
d3
fe
ed
e0
f7
fc
d5
ef
ee
e2
05
06
06
f9
f9
fe
f4
05
fa
0a
fc
0a
f9
09
0d
f5
09
29
10
ff
07
00
fa
f7
fe
05
f8
e9
ee
f7
07
f6
06
09
f7
eb
03
fa
02
08
03
05
f6
06
ea
04
0a
00
06
0c
0a
f6
0e
f4
fd
ff
0b
f6
f8
09
0a
06
19
f5
05
0d
04
02
02
f8
04
ed
ed
fe
ef
da
cd
10
0b
e0
f0
f1
fa
e8
06
05
ff
e8
10
f3
00
f3
ec
0c
03
f2
cf
ed
f7
08
f4
0f
1a
0a
08
f7
fb
f7
f3
00
22
f3
f4
e0
27
0a
f3
f7
fd
e6
00
f3
02
f4
07
f9
f5
f5
e9
19
f7
f1
cc
ff
04
0d
00
e1
ff
ec
e7
fe
dd
01
f7
ed
e9
06
f2
f2
d8
11
05
fc
f9
f6
09
fb
eb
e9
04
00
08
06
eb
f4
f9
03
fc
fb
f7
0c
08
eb
f3
d5
f4
f7
d5
06
ff
fc
e9
fe
fb
eb
d1
06
f7
00
f9
f1
15
fe
f8
cb
0c
00
f3
05
27
f7
eb
ce
2e
fc
02
ff
f7
06
15
f9
0b
fd
08
f6
e1
00
f0
e8
f0
0a
f5
f2
0a
f7
fb
fe
07
fd
05
06
05
14
06
01
06
0d
f6
05
f9
fd
0f
e8
fa
e6
fd
f7
f6
f7
06
e8
f9
f8
fc
fb
00
08
01
e3
09
fe
fa
05
0f
fb
06
fd
f4
05
02
f5
00
11
f9
fc
fd
08
e0
02
09
ea
00
0a
f4
0b
02
0c
f8
01
06
14
f6
0b
05
04
12
07
08
0c
19
f7
01
06
03
0a
09
07
fc
ff
f9
ee
f2
00
fe
fe
f4
f6
02
08
ff
fe
e9
fc
fe
03
08
19
04
0a
02
05
fe
fd
0f
fd
08
f4
0c
08
02
fc
04
f4
06
e3
03
09
f8
e0
0f
e6
fd
08
02
00
fd
04
05
16
14
37
ef
0c
1f
fa
01
fb
f3
f4
f6
02
0d
09
0f
0e
08
f4
07
f4
fa
fd
fc
fa
05
02
00
fe
fd
12
d4
02
f4
f6
1b
11
10
03
07
0d
01
f0
e9
fb
fb
00
05
fa
fd
05
04
ff
f1
f9
fe
f5
15
11
08
13
05
0d
05
e9
ec
fc
fa
e9
ca
e5
e0
ef
fc
fd
12
00
10
0c
04
ff
f9
0b
00
ff
fe
05
0b
11
06
13
07
0e
f3
05
02
03
09
01
f4
fd
fa
f9
fd
f0
fa
05
f5
f2
f9
f6
fe
02
0a
08
0a
fb
fc
0b
ff
12
07
13
03
0c
0c
06
10
0d
f0
0f
04
fd
e7
fd
03
02
07
05
db
e4
f4
fe
ff
fa
f9
f8
ee
e1
ee
f9
e0
ee
f4
fb
08
fc
07
f6
09
02
eb
f4
00
04
04
00
fb
f5
fb
f3
f4
0c
03
f8
02
10
03
0d
00
f5
04
01
06
fc
fe
0b
f8
04
05
fc
01
fb
f4
04
fb
fe
e3
04
03
fe
ff
0a
fb
fe
07
f8
06
04
0b
04
02
f8
0b
0e
0e
ff
09
f8
08
0a
fb
0d
05
05
f8
07
fa
08
06
03
04
0e
f5
f8
f1
fd
ff
fe
f7
01
f9
00
06
0a
f9
0b
fd
e5
0d
ff
02
f1
fd
f5
00
fc
08
ff
0f
00
ef
fc
02
05
ff
0a
07
fe
fc
f7
f1
00
07
09
ff
02
fa
0b
f9
f9
02
f4
08
0b
06
08
08
eb
0f
f2
f4
ff
f1
fa
06
02
f4
ee
08
0d
0d
f9
ff
08
fc
f1
00
03
0f
13
fc
f9
f9
fe
01
07
0a
02
05
03
ff
e9
04
f3
f8
e8
f7
ef
fa
fa
fd
fb
e9
f3
0a
fa
02
f6
f4
f2
05
f8
ec
f4
0b
16
ec
03
ed
fa
01
eb
de
e7
e5
e4
e8
e4
eb
f7
e8
00
fc
fa
f2
07
f2
f9
f5
f1
fc
0e
12
ef
00
ff
f3
f7
f3
f7
03
f5
f8
05
03
f3
de
db
fb
e1
e3
f2
fe
fb
fe
f4
f1
f6
09
12
e8
f3
fd
f6
f0
ee
f9
02
0f
f0
fa
06
0b
06
f7
e7
ed
f1
2a
fa
fc
ec
04
05
04
fc
01
f8
fb
f6
ff
fe
f0
fd
fd
ee
f5
fa
f9
0e
0b
f3
c9
fe
f6
ce
05
02
f4
1a
10
f3
05
03
ee
f8
ff
0e
03
05
de
05
19
dd
02
03
f2
f0
f6
d5
fa
ec
dc
08
f6
e1
06
05
d2
09
04
ed
0c
11
0a
10
0a
1a
f6
04
f4
e7
f9
0c
f5
eb
06
07
f5
0c
f4
fd
02
0e
0b
04
05
f9
fc
00
ff
0d
0f
ef
c9
0e
09
d8
f7
fd
f4
f0
f0
fb
f8
f3
fe
13
f0
fd
0f
fd
ca
0c
0b
d8
03
14
f8
ee
fb
f3
09
0d
e9
fd
ee
db
fa
ef
e0
fc
02
e7
fe
01
f6
14
06
d7
06
15
e1
fa
18
f6
f8
f2
dd
08
03
e1
fb
0c
fe
e9
ec
e8
f8
f5
fa
ea
f7
ee
f2
fa
f9
fe
f9
00
f5
fc
fa
04
e9
fd
f2
df
e4
fd
e0
eb
fb
02
f8
f5
0b
02
f4
03
04
fa
f6
01
eb
f7
05
f9
fc
03
f9
16
f7
02
12
0a
fa
13
0d
01
f0
fa
e8
f3
f9
03
f3
ff
d9
e6
f8
d9
d8
fc
d5
d5
ef
fd
f4
fa
0b
fa
04
ff
01
fd
fd
0c
f7
02
03
f4
f3
03
f9
fc
fb
f0
fb
fb
ff
01
f7
fd
07
fe
08
0b
fb
09
03
04
fe
05
f4
f0
00
ef
f3
04
f9
f3
00
01
fe
00
06
03
f5
05
01
10
20
03
0f
06
07
02
07
11
f4
0c
05
fd
09
00
fc
08
fa
ea
fe
f0
dd
dc
eb
e9
f5
fb
fe
fd
00
d9
df
ef
e1
db
ed
05
f6
08
f7
0b
10
14
ff
11
eb
06
02
f3
eb
ec
01
f3
ea
ff
fa
eb
04
fe
00
fb
f4
f9
f6
12
fe
ec
fc
fb
f6
fb
01
f0
fd
f6
f6
fb
0e
ee
e7
f8
0e
f5
f7
02
0c
04
f1
f1
f4
ff
f6
ec
01
27
06
f3
09
0f
f6
0e
fa
d3
f1
fa
eb
da
e1
f8
0a
f0
ed
f9
f7
f8
fc
00
03
13
01
da
eb
03
ea
ec
f6
0c
15
0a
10
1d
2a
11
05
0d
f0
fb
fb
da
f0
f9
d7
da
eb
0c
15
04
df
fb
fa
fd
f6
f1
f5
fd
03
d3
e5
ec
db
d9
d9
f2
e6
e1
ef
e9
f1
e5
ed
e4
0a
f9
fb
06
02
07
f8
f7
fc
f7
f9
0b
fa
f9
ec
f3
ef
e9
f9
fd
f1
05
f5
f9
05
fd
0b
07
ff
f2
f4
f5
f9
fb
f6
10
f7
09
13
ff
0b
10
07
04
06
f4
dd
e3
f9
e8
f7
0b
08
fd
db
e0
f6
e9
e1
f8
ef
e4
f1
fe
0d
00
0f
0c
f9
04
fe
0a
03
fc
08
f3
f5
0b
0c
07
f6
0a
0d
02
02
ff
01
01
02
f6
05
f3
04
fe
08
fd
0c
06
01
da
ec
07
da
f5
f5
da
f0
ea
ff
ef
f6
f3
02
02
01
fc
05
f7
fe
0a
fa
0d
11
15
04
f8
f6
02
fb
05
04
f8
06
06
00
05
ff
f4
f6
09
f7
f2
01
f8
fa
05
09
01
09
0c
ff
01
04
09
01
ee
fd
fd
f0
f4
f3
fc
02
f4
06
ee
ea
07
f4
02
07
ef
df
d9
f6
03
f7
f0
f5
05
fb
15
04
0f
0f
fe
13
fb
02
fe
ec
f4
f6
fe
f4
fc
fb
f0
f7
f5
ed
ea
f5
f3
e3
f1
f6
ff
ff
0c
00
02
f0
08
f9
f7
00
f8
fe
03
f8
0a
ff
fd
fb
02
f8
f5
fc
01
ef
fc
fa
ee
0e
ff
0e
fc
fc
11
09
12
08
fa
f5
11
fc
01
f7
f3
ea
0f
05
06
06
f4
05
fa
fa
f6
03
0d
1d
0e
18
f8
04
07
0d
01
02
ff
fc
f8
08
fd
04
f9
f6
e8
ef
ea
f9
ec
f4
ea
f4
ef
02
06
06
f6
fa
05
fa
0b
07
02
fa
fc
f6
f9
01
09
f1
00
fb
f7
03
ff
ff
07
00
fc
05
09
00
06
01
f0
00
f1
f5
09
02
14
ff
0e
08
03
16
0e
02
fd
ea
f5
f4
f7
00
15
03
f8
ea
fb
f4
e9
ec
02
e5
f6
f6
0b
03
01
ff
05
0b
0c
04
0a
08
05
04
0a
00
0b
fc
07
03
04
f9
ff
04
07
00
f9
f5
02
10
04
ff
0e
fe
0f
03
0b
08
e7
fc
fc
f8
ec
ef
ff
e7
fe
03
fd
ff
ff
f9
fd
fb
00
fa
13
1f
00
08
fe
0d
1b
ff
0e
fe
0a
00
01
fc
fe
fd
fd
f6
ff
f5
17
e8
e0
02
dd
ee
f2
f5
f1
fc
ec
e1
e6
f5
ec
ec
f5
f3
fd
f1
f5
f4
fe
ff
f4
01
fa
e6
09
f5
db
fa
f0
de
1a
29
09
19
14
f8
10
16
fd
f5
0a
f0
ea
f6
ef
e6
f3
e1
05
12
30
fb
fc
0d
f6
01
fa
07
f6
00
11
f6
0a
0b
fd
07
05
00
07
fb
fc
fd
f8
fd
fd
fc
01
06
f3
e7
f5
f2
e5
ef
f2
d3
e7
d4
d9
e6
d6
df
ef
08
fe
f0
00
f5
f1
dd
dc
ea
f0
02
05
ee
00
ed
12
25
fd
ff
f6
f3
ee
e2
dc
ec
e3
e4
fc
03
f0
ee
e3
dd
e9
ed
e3
01
05
eb
f9
e6
db
f1
f9
e7
f2
ee
ea
d8
da
d9
e4
cd
f2
f8
eb
f2
fd
e7
f8
e1
10
04
ef
f4
f1
f4
ea
e0
eb
c9
ef
00
f0
f1
08
ec
01
eb
f6
00
08
00
ed
ff
12
ed
19
18
0c
00
e2
e8
fd
f5
ff
dd
06
f6
fe
fc
ff
0c
fb
f8
ff
ff
fb
f5
01
f6
04
05
f5
f6
e8
f2
05
00
06
f4
fe
f2
0b
e7
fc
ff
fd
f9
fb
ea
0c
da
16
08
d0
df
df
c9
db
ec
d4
fd
f7
05
f6
f5
01
e7
08
e0
15
fa
ff
0c
fd
0c
1f
15
fa
f9
00
f6
e7
ef
04
f5
00
dc
05
f8
ea
eb
f9
ec
d3
f2
d5
18
01
f3
f5
f5
f2
f4
fd
f2
06
05
fa
05
fb
e4
f8
fe
01
17
1a
e9
d9
e4
eb
ea
ee
e9
e4
f8
07
06
01
ec
f1
e2
ff
fb
f8
f7
f8
fa
f9
f7
e2
f7
ef
e1
05
03
03
1c
09
ec
0d
0b
ec
fc
f4
fe
f2
fb
ef
ee
fc
f1
16
1d
17
ff
0b
17
ec
f2
07
f4
02
07
05
f5
f8
0f
fe
0c
02
fd
ff
10
02
f8
f9
fe
f7
ea
de
e8
e2
e5
ed
e2
dc
e6
e8
fc
01
f1
00
01
ec
f3
f8
f5
db
f7
f0
e7
e8
e7
de
ed
0d
1c
ff
ee
ff
d7
07
0b
ea
f3
ee
e7
ec
e7
ee
db
e4
d1
f3
fb
ea
e4
f2
ed
f5
fb
e9
ef
fd
e9
f2
f1
e5
ff
fd
eb
de
f2
f5
e9
ff
0b
fe
f8
e5
e0
f1
06
df
07
f9
fa
f7
f8
f5
fa
15
f5
15
20
ff
06
1a
f6
eb
e3
0d
ed
fd
f8
f8
0e
16
01
f1
40
f8
02
0e
f4
1b
db
f8
f8
de
05
0d
f4
0e
f7
01
20
24
f1
02
03
e3
f8
f9
ea
e3
e9
f4
ff
01
f8
17
0a
fc
29
2e
07
19
0f
03
05
0d
d2
e4
f5
ed
05
06
05
0c
fd
e0
ee
14
ec
03
09
12
07
f5
e4
f9
07
e4
fb
07
0f
10
0a
d6
e2
e4
f2
f6
0d
ef
f2
f6
ee
f0
f9
f1
f6
02
f9
09
f7
cf
df
fe
dd
0a
01
fb
08
07
e8
e6
fe
e8
f8
f8
f9
07
03
0e
10
fc
09
08
f4
09
fe
f6
09
0d
07
00
fa
fd
01
ff
1a
00
f4
fd
05
08
03
1b
fb
04
eb
05
07
e5
0b
fd
eb
f6
0d
07
fe
1b
f9
18
05
05
f9
ea
0c
fc
f3
11
fb
fe
fa
10
04
13
00
0e
06
08
04
f6
f9
01
0b
09
fd
15
0c
0c
0c
06
02
06
03
06
f2
10
ef
05
eb
dd
01
0a
fa
fc
f9
06
02
06
0e
03
00
ed
06
fa
fa
11
f5
f3
11
fc
04
f7
07
0c
f6
f8
0b
0c
10
0e
fa
fb
fb
fe
06
f9
0d
fd
05
06
fa
03
f6
08
ff
10
00
0a
fd
00
14
01
0d
1a
0f
f7
00
03
02
0c
ff
04
0d
10
03
05
05
04
fd
01
ec
ec
03
ff
0b
0f
0a
09
fe
f4
f5
13
fc
f7
07
fa
fc
0e
13
f4
f9
fe
fc
ef
04
03
f6
0f
fc
e5
00
fe
f8
04
f8
00
ec
ec
ff
f7
0d
17
0b
06
f9
07
f4
13
06
01
08
0c
00
ee
ec
ef
0d
04
03
0a
f6
04
f1
e4
00
04
0b
02
02
fe
05
0e
11
23
0c
09
08
10
fb
ff
f2
f1
ed
0c
07
ec
f5
f0
ec
05
ee
f3
0b
0c
06
05
06
0d
f2
ef
ef
0e
f6
fb
00
01
eb
f9
fe
13
08
02
05
ff
07
fe
fa
f5
ea
01
12
f5
01
01
06
08
f8
02
0c
f5
01
10
01
fc
06
03
fa
fd
eb
ed
f1
ea
f6
fb
f7
ec
00
01
02
00
f6
05
06
f9
fe
f9
fe
fc
03
ef
eb
fd
fe
eb
ef
0b
04
f9
03
0d
f7
fc
fe
02
01
fe
fd
eb
f2
fa
09
03
0c
12
10
fd
0f
08
0c
fd
fd
f8
ed
dc
fe
f4
e6
f7
04
fb
e7
ed
eb
ef
f7
f7
06
fd
fb
09
05
00
02
08
08
04
f4
fa
04
02
08
fc
f3
f5
f6
07
fc
03
f3
fd
01
f1
f8
08
f9
f7
02
09
08
12
08
01
0d
08
fa
ee
f5
fb
f5
f0
01
f9
03
00
f8
05
fa
ff
f5
02
f8
f6
fd
0d
0c
12
0a
fa
fa
19
0c
04
f6
03
f7
07
ff
ff
f8
05
05
06
ee
f0
fb
0a
ee
ff
00
e7
f9
e6
ee
0a
fc
e5
ff
fb
05
11
2b
13
ff
1c
0c
14
15
0d
0f
f1
d4
11
01
e0
f9
f1
0a
fc
da
e8
f0
ec
e9
f8
ef
eb
f0
e8
db
05
04
ea
f4
0b
01
ef
ea
0f
dc
d9
f5
e1
ea
e0
07
f0
df
07
f6
e8
fd
14
e9
09
21
06
01
0a
fa
fd
06
f8
f5
e6
e2
f8
fe
e4
06
09
f7
fe
e6
f8
fe
ed
f8
f4
f9
ee
f9
fe
d8
0e
f9
f2
0c
0c
fe
f4
de
f2
ee
d3
fd
ec
05
fd
f5
ec
ee
f7
fa
f6
03
08
f8
00
e5
e2
08
fa
ed
0a
14
fb
04
eb
e0
00
f0
e7
f6
02
f9
f4
fc
f8
f0
e0
ea
e1
e4
eb
fa
eb
ed
f6
04
f9
f8
0c
fa
19
e0
ef
f0
c8
d8
f0
d3
e5
0e
05
f1
ee
15
02
fa
11
01
12
17
f1
f6
15
f0
0e
16
fd
eb
e2
f1
00
fb
06
fa
00
f7
01
06
0e
e6
ec
02
ff
f5
ea
0d
e8
ff
f8
d7
f0
ff
fb
f1
06
fe
fd
10
db
e4
06
ef
ff
f1
e4
f2
f1
09
04
fe
08
fe
e5
e1
eb
fb
f8
f0
f6
fc
e8
fc
ea
03
fe
0b
01
f6
11
00
04
0b
fd
09
f3
fa
fe
01
02
fb
f6
f7
fe
09
04
f2
09
f1
f9
dc
f6
00
12
ff
01
10
f4
f3
f2
fc
fc
0c
f6
fb
0d
f4
09
09
01
00
12
f9
fc
08
f8
06
f8
f8
04
f4
fb
0c
0d
fb
fa
f1
f9
f5
f6
fc
fa
03
f3
04
08
0f
ee
f8
0b
f6
f6
fe
14
0b
06
f9
fe
fa
fa
06
f9
04
07
06
05
0a
ff
0e
0f
0a
fd
fe
f9
f8
f4
f7
02
ef
f7
04
fb
00
ed
e1
f9
02
f6
f5
04
00
f7
fc
01
fe
08
fd
03
01
fe
f6
02
f6
f7
01
fd
03
0c
f2
fa
09
07
e8
03
02
f0
03
fe
01
15
03
f9
0f
14
02
fc
02
0c
02
f1
f6
0d
02
f6
00
fb
06
09
f7
03
02
fa
ff
1a
0e
14
14
06
f8
0f
09
06
02
f6
fc
fa
05
fc
0b
0e
fc
fc
fa
f2
eb
fb
fa
ea
e8
f0
f7
f2
02
f3
fe
02
0c
0a
fd
15
05
17
f7
05
04
0d
0f
1a
04
01
f9
03
01
f3
fd
10
f8
f7
ee
df
10
0a
03
09
0d
19
02
fa
07
fc
0f
0f
14
12
f9
db
dd
d7
03
01
09
f6
f4
07
fa
18
0f
f2
e1
01
fc
f2
f6
f2
06
04
1a
05
f8
f9
fd
0a
f7
f7
f8
f9
07
09
03
07
f3
01
fe
fb
07
0a
f8
07
fd
ef
fe
10
12
05
fb
12
22
12
fb
0f
07
1e
12
02
ff
fa
ea
f4
01
fc
ff
f6
fd
fe
08
07
03
09
0f
ff
05
12
fd
11
1b
f3
02
fe
fe
f6
09
07
0c
0b
07
e1
f3
fd
e8
06
0d
ed
fe
16
ce
f0
08
c0
fc
0b
ca
03
07
e4
f5
fc
f2
f2
01
e0
fb
fd
f7
f4
07
e4
e4
06
00
e0
fd
14
11
0a
10
fc
04
01
f9
05
e1
06
fd
d6
14
00
cd
fe
07
e7
0d
f5
e9
01
0e
e4
fb
01
0c
ff
f5
f8
ef
02
f4
04
fa
f2
02
0d
f3
09
03
f4
14
06
cc
e6
01
c8
f4
0d
d2
f8
02
0c
05
ef
0f
0c
f5
06
0a
07
d2
00
00
c0
14
0d
d3
fb
04
09
fb
f8
fa
e0
0c
0b
f7
fb
cc
f0
05
c0
fb
01
c9
f1
02
e3
09
09
dc
13
1e
d4
03
03
cf
f2
02
c3
00
0f
c4
f6
04
db
e3
f7
e4
d1
e8
d9
de
eb
fd
05
03
e6
da
f4
06
04
fd
fe
fd
06
ec
e5
0f
03
da
f7
04
0e
f8
fb
f6
e0
fd
20
ee
ff
08
fd
e4
fc
00
fb
09
fb
fc
07
ed
e6
ec
08
0c
01
f5
dc
f7
e2
f0
02
ed
01
ff
02
08
17
15
0e
fa
14
e7
df
ee
0c
f2
f0
11
08
00
fc
e7
00
ff
f9
f9
ee
e1
01
03
01
ec
f5
fa
ee
eb
ee
ff
f9
e4
f3
fd
0a
f1
ea
d0
fd
02
13
00
00
1f
10
ff
0f
15
d8
f0
15
fb
04
f0
eb
eb
fc
fd
0d
fa
f1
f4
f3
d5
c7
f5
01
1a
02
fc
04
f8
e9
e2
02
f9
0b
f0
0b
05
fb
e1
e3
eb
e6
e6
e9
0a
fa
0d
0a
e6
06
f6
c7
fa
07
02
eb
00
eb
eb
f6
ed
0c
f5
f9
0e
0e
0e
f0
02
ec
03
ed
0a
13
ef
0b
03
0c
18
01
09
f8
11
fa
f5
fe
f8
c0
fb
f3
f9
db
f4
ed
d6
fe
fb
e1
1d
0a
05
f9
e8
fe
09
05
04
19
06
fe
0b
32
0f
0f
23
f0
03
fd
07
f9
f8
f5
f7
c2
09
fa
f4
fe
ef
fe
09
dc
e2
fb
0d
0c
12
0d
ec
0a
ff
d8
0f
df
dc
e0
f2
de
f4
fb
04
03
fc
00
fd
02
f4
00
fd
e7
f8
01
f8
0d
f6
f2
f4
02
c9
04
fa
f6
04
ff
eb
fc
f0
cc
09
15
fc
fb
0e
0c
0d
19
0f
0f
fa
0a
04
f6
fc
f3
f0
ec
f8
07
f4
ed
07
e2
de
f5
e4
fa
fa
fa
ef
10
ee
f3
04
d6
e8
0e
01
ff
04
fc
eb
04
02
e4
10
08
ff
f3
f5
f2
f5
ec
ef
0d
0c
1f
f5
f1
fa
db
ec
f4
02
03
0a
f5
f4
f4
00
02
fb
0e
0e
fc
0b
14
0f
0a
03
f8
03
09
f3
f6
e2
db
ea
dd
e2
fe
fc
fc
f9
f7
f7
f2
06
07
04
08
fb
f7
f6
e3
eb
da
e8
09
10
01
14
03
f2
23
1e
10
fe
f8
f0
00
e8
e8
e7
d3
df
fa
04
05
fe
02
de
e9
f9
df
fc
01
f3
f5
f2
e5
f4
f3
eb
fc
05
02
fd
ff
0b
f4
f4
fb
03
05
f6
fa
f6
0c
01
04
08
01
11
04
f4
f6
f9
f0
f8
f5
f0
fd
fa
f9
08
04
f7
fc
03
fc
f8
fb
f8
10
f7
02
09
06
f7
07
06
ff
fd
fb
f7
05
f5
15
fa
fa
f9
fd
02
fc
01
01
ef
ec
05
fb
01
fa
02
f8
fa
ec
ff
fc
f7
00
f9
05
ed
fc
07
f0
08
04
04
ff
06
09
f0
f7
03
fb
fb
ff
f2
0a
04
e8
f1
f9
07
01
06
02
f4
09
f6
0d
0f
04
12
10
0b
f9
02
0c
f6
02
f8
fa
00
fc
fa
08
fb
04
fa
01
02
07
01
01
08
02
f8
fa
00
05
f7
03
03
05
06
e4
f1
ee
f7
e6
e7
e3
f2
f6
fa
f8
01
04
03
02
05
fd
fd
05
08
fa
f4
fb
f1
fa
e4
ea
f9
04
02
06
f6
f7
08
f5
ee
e3
fb
f7
f2
f1
ec
02
fe
e5
08
09
fd
0e
fd
15
fc
09
0a
ee
e8
f7
ef
ff
ef
fb
fc
ff
e7
f6
e5
c0
e2
e7
eb
e6
f5
f8
f5
f8
fa
0e
05
03
07
fa
f7
f4
ff
09
ef
ff
fe
ee
fd
00
fe
f5
00
f1
07
09
f8
0a
09
04
fc
09
03
14
fa
f8
fd
f5
f7
f3
e8
f2
f3
f4
02
f1
f3
06
02
fe
fc
f5
f9
fc
fb
09
11
0c
0e
04
00
0f
0c
11
f4
03
f6
08
f6
ff
ff
02
fb
f2
f8
02
e7
f0
ea
ea
fe
03
fd
ff
fc
fa
17
ff
01
f8
02
fe
ec
1a
03
e8
f0
f8
ea
db
fe
15
ec
ff
20
ed
fd
12
fe
ec
e7
09
fa
ce
f7
03
e1
fd
05
0c
04
0e
1b
f6
0b
ff
0c
00
f5
f3
e9
ec
ec
f6
f7
03
ff
ec
fd
ea
e7
09
ef
de
f8
ff
06
0e
fc
f1
05
01
04
f5
06
fe
fd
00
06
ef
f9
05
fc
00
e3
02
03
e5
fe
09
d9
00
0f
05
08
00
15
03
06
0a
fe
09
03
f6
02
f6
fa
ff
f5
00
03
02
fd
02
09
fc
06
07
07
09
f8
fc
11
0f
07
18
fb
0c
fb
fc
fb
fe
14
fe
0b
ff
f9
ea
f6
f5
eb
ff
f4
f5
f7
e5
fe
fe
06
f7
03
06
09
ff
0c
f6
f2
02
e6
e3
e3
00
e4
f5
02
f3
05
ee
fd
03
fb
0a
0b
04
f1
f1
ee
eb
f4
f2
e9
fc
0c
10
02
11
0b
01
0f
06
ff
03
fc
fa
04
f0
fb
06
f2
fc
e2
f0
f5
e5
f0
ef
e7
ed
fc
f4
08
fd
01
fb
fe
00
f5
f7
fe
fa
f8
04
f5
f6
0d
fa
fe
f7
fe
08
fe
ef
f9
0b
f1
f9
09
f7
06
0e
0a
03
15
12
ff
f8
03
06
e9
f6
e5
fa
e7
ee
fa
fa
fd
01
02
fd
02
fe
f7
fa
0b
09
03
05
fa
04
12
13
fc
03
f4
06
f4
f9
03
fe
06
ff
e4
0a
f6
f4
06
f0
f4
03
f8
d9
05
f2
e0
e7
03
de
f4
ef
f7
01
ff
fc
18
0a
fc
08
11
e6
e8
0e
e6
e1
15
ee
de
ef
05
01
f4
fb
00
eb
09
f1
0c
e6
ff
09
e9
e8
0e
ed
ec
08
0d
1e
f5
fa
0a
e8
f4
ea
f7
0c
18
eb
fb
1d
ff
17
10
04
07
05
09
09
14
01
06
04
03
d1
f8
01
e4
e6
08
de
dc
dd
eb
fe
ce
e6
fd
e0
e9
03
01
f0
fc
0b
e2
f7
f9
d7
d6
f4
11
09
ef
1c
28
03
3c
40
f3
d6
f0
fb
d7
d9
f6
d7
ce
04
db
09
04
d0
f7
11
e7
e1
03
d7
f4
04
e1
d8
f9
de
e3
e5
fb
04
f8
f0
10
f9
0a
0a
ff
ea
e8
f8
ed
e9
02
f1
fa
0f
0a
11
12
12
1d
f8
16
12
ff
ef
ef
e9
ec
e0
08
ea
f1
15
f5
f5
06
ec
f6
0d
ef
ec
ee
de
e3
f6
ec
e1
e8
e3
e0
01
1c
40
d3
e4
00
dc
cb
dc
09
ef
13
19
e3
04
0c
f6
00
01
f8
05
fc
f4
fd
f5
01
f6
08
fa
ea
fc
fa
e1
f9
f2
dd
d4
d5
e4
c4
de
e2
e6
d4
df
ff
f0
d9
fe
f8
e3
f9
e0
ee
00
dc
fa
12
ed
05
1f
00
00
f4
ed
e0
f3
e9
e0
f8
e7
e2
fe
e2
cf
ea
f0
ea
f8
f4
d1
ea
e9
e4
e6
e5
e8
f2
f5
f0
ef
ef
f2
f6
f8
02
ef
f6
fe
f5
f4
f5
fa
f7
fe
03
f4
07
02
f0
ea
ea
f6
e5
e6
ff
eb
f7
07
fe
fb
fa
01
04
ee
09
f4
f0
00
fc
f5
f5
fb
e8
f8
0a
08
00
14
ff
03
ff
03
11
02
f7
f9
f3
f0
02
f3
f9
01
e6
ea
f0
e2
e1
df
f2
df
ed
04
01
03
06
fe
fd
07
f8
fa
ff
ff
fc
0c
fe
00
09
00
f9
0e
f5
f6
0c
08
f9
0e
07
f5
03
0f
02
0d
09
0b
07
0c
06
f6
03
f6
fa
ea
d9
f8
eb
f6
f5
01
f5
00
fa
f7
05
f8
f6
10
0c
fd
08
09
06
14
fd
13
06
07
fa
fb
fa
f9
06
02
02
19
11
0d
fe
03
f2
d8
f0
f0
fa
02
0b
f7
f9
03
e3
0a
10
ec
f4
05
05
0e
0f
fc
f4
f5
fc
09
0e
ef
f9
0d
0a
fb
0b
0a
08
0e
f4
f7
0d
f5
f6
06
0e
02
fe
fb
0a
fd
e2
fe
08
0a
0e
f5
00
04
06
06
f7
02
00
0e
05
09
1c
22
ec
fc
0c
06
00
f9
0d
07
03
29
1c
ff
f7
fe
0c
01
05
fa
e9
03
0c
0c
fe
fc
17
07
fd
06
06
0f
0e
03
0d
f3
01
fa
ec
00
00
f3
08
f6
01
fe
fd
f2
00
05
06
fc
f8
09
02
fe
f3
ff
06
09
fe
0a
fb
f9
fc
da
f8
07
f8
07
00
02
09
fc
fd
fe
10
03
fe
dd
f7
fb
ee
fc
ea
f3
fe
00
c8
0b
ff
d6
03
ea
c0
0a
ff
de
f4
fc
cf
01
de
ea
04
fc
e1
fe
0f
c9
01
fa
c1
db
f1
eb
ef
fe
e9
f9
ff
e9
04
f6
d9
ff
fd
d5
06
06
ce
0a
01
ef
ec
f0
e7
da
ed
f6
ff
fb
f7
04
0b
f5
06
0b
07
02
f9
07
f9
16
1f
05
29
27
02
ff
d8
0c
05
d2
01
f9
d8
07
f3
fc
f5
ef
f1
fd
e1
fa
f6
07
e6
08
0a
e1
fe
0b
d8
00
06
fc
10
07
fe
eb
e9
e0
fd
f9
d6
fe
08
cb
f9
f5
c9
f2
09
dd
06
0b
d2
f9
f4
d3
fd
fb
d1
04
fe
cd
02
fd
c4
f1
04
fc
f5
fc
eb
f7
f6
ea
01
f8
08
08
f6
09
01
05
07
f5
f6
f1
ed
e3
fb
ee
dd
e4
f9
06
fe
f2
04
05
f1
0a
f3
f4
fd
06
e8
fe
f9
ef
e7
f8
09
0e
0b
06
04
11
0d
0d
f4
f9
02
f2
f2
e8
f8
07
fb
0c
eb
f5
fc
d3
e3
f3
d9
d3
00
f5
ff
f1
02
fd
01
fc
09
06
0b
fa
06
05
02
fb
05
03
00
f7
03
f6
ff
f8
ec
fe
fd
fc
f9
0b
f6
05
03
fd
f7
ff
ee
0b
f0
eb
f9
eb
e7
e5
fa
ff
f5
03
05
05
f6
07
f5
f0
ef
0b
00
0c
03
11
02
0f
08
0b
ff
07
f6
f6
f9
03
ff
01
fc
08
07
fd
0a
04
02
00
fe
fb
08
13
12
0b
ff
13
0d
0f
00
f9
f1
e3
03
09
f9
01
0e
03
ed
12
1e
f1
fa
12
e3
f3
09
10
fb
01
fb
05
f7
00
0c
fb
01
04
0d
03
fe
16
10
13
ff
02
fa
fe
f2
fd
ff
0a
f6
f6
fe
08
fc
fa
f5
02
ff
0b
f9
07
fb
fd
ff
0e
fa
f6
f3
07
15
0b
0c
0b
06
04
02
07
00
ff
0e
fd
08
07
e0
08
fa
e3
0e
01
16
08
05
10
05
11
f9
14
16
10
15
0f
0e
12
03
04
05
0b
10
06
04
01
08
f8
02
13
19
0b
12
05
12
17
15
0e
03
04
06
0c
fb
03
10
05
fb
02
e0
dc
09
e0
d1
f9
e8
ed
f8
f3
04
f8
00
e5
07
0d
01
02
ed
0d
04
df
f4
00
f1
e9
0f
f5
e8
04
1c
e9
09
1c
09
f3
ee
ea
f6
f2
ee
04
04
fe
0c
e7
04
00
fb
ed
04
0a
ef
09
ed
dd
00
fa
e9
09
04
e8
e9
fb
fe
1a
00
fb
0c
0b
fe
23
18
ec
04
fd
1c
0d
fd
1b
fa
f6
0f
0c
06
e1
0e
11
f7
0b
e6
07
05
de
01
07
f0
08
f9
eb
03
0a
07
df
08
04
f6
04
0e
0c
08
0e
fb
00
ef
ff
fe
f7
06
f9
08
f7
01
0b
09
f8
fb
13
f7
fa
d6
0e
09
09
f5
f9
02
fd
02
e8
f9
fe
00
f4
ff
07
05
03
04
f0
f1
01
02
fc
f8
0e
09
01
14
10
0c
f3
f3
f7
00
05
ee
f9
f9
00
fb
0b
fe
f1
f8
10
f7
13
0e
e9
00
f6
02
f8
09
ff
fe
16
fb
03
f6
05
fe
f2
0f
09
02
fd
04
06
02
08
f6
16
f4
03
f8
fa
ff
f4
fc
fd
14
0c
05
02
09
17
0f
04
06
f4
00
fe
02
01
05
08
00
f2
0d
0f
01
f7
08
eb
04
0d
d7
0b
ff
d5
09
fd
03
0b
f6
02
19
0b
05
01
03
0e
05
09
10
06
01
15
06
02
fb
fb
fa
f6
0a
04
08
f9
14
04
01
03
0b
15
1d
0e
09
06
03
fa
03
03
ff
0b
08
fe
fa
ff
f3
fa
ef
f3
eb
ec
fe
f8
09
e9
f4
f1
fb
e7
f1
ea
e0
f9
f6
e9
fd
fe
fe
fc
f7
ec
fc
fd
ef
db
f8
ee
e4
11
12
ff
0f
e9
fa
06
08
f7
f5
ff
f2
e3
e7
e2
fa
f5
e5
0e
0e
20
09
0e
20
f8
e9
f5
03
09
14
00
f8
f0
ff
f5
f0
0e
0a
0c
01
0d
06
f8
06
f7
f8
fc
f7
ef
01
fe
01
f0
eb
d3
e7
f2
c0
d9
d7
cf
d1
ef
fe
06
10
f9
fb
f7
06
e4
e7
01
1b
f5
f6
17
fd
0b
10
0d
f0
03
f8
f2
f1
f7
f4
da
de
e3
01
fa
ef
d8
eb
ea
df
e0
e9
04
f6
e4
ed
e2
f6
eb
e5
fe
04
fe
fd
f3
f3
e3
e8
e7
fb
08
fb
fd
f7
fa
f7
f6
08
01
ec
06
e9
f5
06
03
eb
f5
e9
f3
0f
e6
f3
fb
fa
e6
0d
11
fb
04
fe
f6
08
01
fa
f4
f3
0f
03
f5
0a
0a
00
04
12
f7
fb
f4
fd
e7
00
13
f4
ff
f8
f3
f8
fe
f9
f0
fe
03
00
10
07
f4
0e
fe
f5
17
ff
00
f4
04
00
f7
06
09
f5
fe
02
00
08
04
09
fd
ed
f7
04
ef
00
05
fa
f9
01
0a
f7
fb
ff
f8
f4
0d
00
fc
e7
01
f5
ef
f7
f6
f9
f7
fe
fd
fd
fe
f9
f8
13
09
06
12
0a
0a
fa
12
fd
04
01
fa
02
f8
fd
07
09
fe
f8
f6
fa
f8
f1
05
ef
f8
05
fd
fa
fa
02
12
00
06
fe
e8
e8
e8
fa
f4
d3
2b
fe
11
f7
00
f7
f0
06
08
ee
01
f9
fe
07
01
00
03
f5
f3
03
fd
f7
0d
f8
fb
0c
0c
fb
0c
0a
ff
02
f3
00
0d
f1
1a
0b
05
09
03
0c
f7
05
fc
e4
f1
f3
01
11
ff
f9
05
f3
f5
08
02
02
f8
fc
06
09
0c
f3
f4
05
04
fa
06
07
f8
f8
f6
f1
f9
08
fd
01
f9
07
07
05
fe
f8
07
09
f8
00
ff
f3
19
fd
0e
f5
01
f1
fa
03
05
fc
f5
fb
fe
0d
f8
0b
02
03
f8
0d
0d
fe
fb
f9
f9
08
fe
05
0a
f8
d9
de
e2
ff
e7
e8
f9
fe
f9
e3
e8
c5
04
0b
f9
0b
04
08
eb
f1
f8
f0
eb
e5
f6
00
fe
f6
f2
da
f3
16
f8
00
fa
09
15
f8
e8
03
0a
fb
00
08
09
ec
df
d4
ff
0d
f6
10
fd
ff
ec
d5
dd
06
f4
ea
04
fb
fb
e9
f0
16
08
08
00
06
12
0b
03
0c
f9
ec
f6
09
00
f7
fb
df
d8
c6
01
08
f6
05
f7
09
f9
ee
ff
f8
f8
f3
0b
ed
e4
e8
f2
db
09
0c
f8
00
03
0e
ef
e2
f8
fa
fc
f3
10
05
04
e7
ef
ec
05
03
02
05
f9
00
dc
d9
cc
04
02
fb
10
08
f9
eb
e2
c0
f8
03
07
fb
fd
06
f0
f7
01
f4
00
f9
ed
03
0a
fd
06
08
0c
16
0f
1c
18
0e
02
03
f6
fb
f3
f0
f9
0b
00
0b
ee
05
f0
f2
0a
fd
f5
00
07
0d
ec
e3
f7
fa
03
0f
09
ff
f1
fe
04
0e
11
1a
05
09
01
12
07
0b
01
f7
01
f7
fc
e5
fc
01
f1
ee
05
0c
16
12
00
f3
f1
03
f6
04
f3
dc
f3
05
02
05
0b
0e
01
0e
16
0c
f6
03
02
f7
13
fc
14
0a
f4
fa
05
fe
f7
0d
05
17
12
07
06
11
06
06
1c
1e
0d
1d
24
f4
f6
fa
fe
00
0b
04
0f
07
01
f9
fb
13
17
03
21
0e
fc
fb
f5
fe
08
0e
fe
08
05
03
d4
e7
f7
da
f9
f7
de
ea
f5
c1
fe
ed
e1
0b
0b
ec
08
fb
de
e1
f6
f0
ff
f7
da
ed
f9
f1
f3
fd
f0
fc
17
f6
f4
0f
3e
17
ed
31
0a
05
10
06
0f
c2
f8
ed
ea
0c
ff
fa
0e
06
dd
e7
e4
ea
f9
fe
fb
07
fd
f3
f7
f2
fc
f9
09
