0b
ef
0c
fe
e9
f6
ff
f3
f9
ef
e9
0c
fb
ec
04
08
05
ff
e5
f3
f6
f8
04
ff
f6
07
06
fd
00
fb
f1
fb
05
ec
fb
f7
04
f9
11
ea
f9
0b
f0
fe
00
f2
f9
fa
0f
0f
fa
ee
01
0c
f7
13
11
01
0b
13
02
fe
08
f8
f5
f6
ff
08
03
04
00
10
f7
fe
f2
fb
ff
f5
fd
fe
f4
09
02
f2
0b
1b
fc
ff
1c
1c
0f
08
00
15
02
f8
01
23
fd
ea
1f
04
ec
18
f1
fb
2a
da
fc
12
fc
fa
17
00
ff
16
f2
00
01
19
fd
02
13
04
f5
15
f7
ec
0a
f2
f1
02
e4
ec
f9
f3
02
04
ff
ff
07
09
0a
05
f3
fd
fe
fa
f9
05
04
0c
0b
0c
09
0d
01
09
09
fe
f6
fa
fb
fc
f8
fc
01
f4
06
f9
f9
fa
fa
01
ff
f8
00
ff
ea
f5
f2
e5
ee
f7
f5
09
05
05
0f
fa
06
fb
fa
03
01
f7
f8
ee
01
fc
04
07
fb
01
ff
ff
fd
ff
01
f6
05
f1
0a
fa
f6
fd
fe
01
fd
01
01
ff
fe
fb
ff
ef
f5
fb
f9
fd
fe
fe
01
09
f4
02
05
05
fe
07
05
0a
07
fb
01
00
03
f2
f3
04
f8
fb
fe
ff
f9
01
fc
01
04
fb
fb
04
02
10
01
04
04
f8
01
fd
ee
ec
ed
f1
ee
f7
ff
f4
f8
f4
07
f9
f6
08
f8
f8
01
02
f6
f3
f1
01
fa
ef
06
ff
f6
fa
f3
03
fc
07
09
04
10
11
ff
04
fd
f1
f6
e2
e9
e8
e9
fd
eb
ec
ed
ea
f0
e1
e3
e7
ef
e5
0a
df
d3
ff
e9
e9
fd
f2
0d
fa
f8
ec
e9
eb
f0
04
04
f9
e2
03
0f
01
0e
19
05
fb
fd
ff
fc
08
f6
f4
ff
fb
f4
f6
f7
e8
f4
ee
e9
f4
e9
f8
ec
e3
f8
eb
ff
fc
f7
ee
0b
e5
d8
05
ef
da
0d
d1
e5
f8
01
ee
0a
f3
d9
0b
e8
dd
ed
e2
eb
f8
f1
e9
ea
e4
e1
ed
04
01
f1
f6
fd
12
ff
ff
f0
f9
f7
df
ee
de
e3
04
e8
fe
f9
03
15
0a
1c
13
02
11
04
02
18
fe
fc
06
f3
01
11
0a
02
ff
f7
05
f4
f4
fd
f8
02
00
03
fb
01
0b
05
08
07
04
06
07
06
08
f8
03
0a
02
04
ff
fb
fc
fe
f4
03
03
f6
0e
0d
05
fd
04
03
f9
f3
fb
02
00
01
09
07
06
ff
02
04
04
0d
0f
06
10
ff
f7
09
fd
f7
00
09
fe
02
fe
ff
ff
fd
05
fa
fd
fe
f6
fb
f6
ee
08
00
07
00
02
04
f8
04
04
f9
f7
fe
04
f5
0a
01
f4
fd
f9
fa
04
07
00
00
00
01
f7
11
03
02
f8
f8
fe
fe
00
07
f2
06
06
fe
15
10
ec
fd
0f
0c
00
fd
0a
00
fc
fa
08
fb
fc
07
02
07
01
fd
fa
fa
05
0c
f7
ff
f6
f6
00
ff
00
06
05
ff
fa
00
00
00
03
fe
fe
09
01
00
01
01
fa
ff
06
fe
02
fa
04
f8
06
0c
fa
fb
06
02
08
04
09
02
06
fc
f6
07
0e
03
02
03
fe
03
00
03
04
0a
01
00
02
04
04
ff
07
01
fd
00
01
fd
fb
fe
01
04
00
04
06
04
f9
08
01
00
0b
f8
0a
fd
05
01
f5
f7
fb
f6
f8
fb
0a
0d
05
01
01
fa
f3
08
fa
04
06
07
fe
f6
fe
fa
f9
04
03
f7
00
00
03
fe
01
02
09
fa
f7
02
f5
fb
f8
fe
03
07
f8
01
f7
08
05
f9
05
00
f2
fc
ec
fd
fe
f1
0c
fa
e9
05
ef
d4
f8
e7
e2
f8
f8
eb
f7
06
13
09
10
13
0b
0a
10
04
12
04
01
17
fb
04
11
fa
0f
14
ec
f6
11
f9
f9
10
f3
ed
fd
0f
0f
f9
04
10
ea
f7
10
f9
00
16
ff
fa
13
fe
f5
16
0c
11
f8
00
1e
04
01
11
09
01
01
08
05
03
04
07
05
0b
f7
17
04
fa
10
0c
f1
07
f8
ff
03
0b
08
08
11
13
09
0f
fa
01
e7
03
0f
f0
f9
fd
01
00
07
fd
04
06
fe
f7
00
00
f3
0b
1d
fa
00
14
fb
04
1a
16
07
fa
13
fd
fd
02
f9
f8
0c
27
05
0f
21
02
1a
26
05
ef
0c
15
f7
00
16
f3
0c
25
08
0e
00
15
1c
13
09
0d
ff
c0
de
e3
eb
e4
fc
e5
eb
dd
d6
da
ed
d6
da
dd
dc
d7
df
f3
f4
ec
e1
db
ee
f1
fc
0e
cf
ee
fe
df
f7
e7
c0
df
d9
fc
00
03
09
08
0d
14
18
14
e6
fa
fa
f5
f8
f4
c0
ec
c5
e5
eb
f6
c0
c6
d7
c7
d0
d6
ec
f3
f0
e4
de
da
f9
01
07
f1
e3
dc
f2
dd
d5
01
e1
c3
ec
f0
ee
07
03
f4
0b
e1
d7
d3
c8
dd
e5
d1
d4
f4
ec
dc
06
fa
ff
0d
06
06
13
18
12
d1
ef
dc
db
e5
ec
e5
f2
e2
1e
09
02
1e
1e
10
07
07
0b
ed
03
dc
f4
03
eb
f7
01
f0
02
f4
e7
f5
f6
e8
f9
f7
e3
0a
1e
f6
06
1b
f4
03
17
f0
04
06
fc
0f
02
fd
02
ff
00
04
fc
fc
0e
10
fe
12
03
f8
00
02
f8
f4
f3
f7
ed
03
fb
fa
ff
00
07
fa
ee
0a
08
f1
fa
15
f3
f5
21
ea
fb
10
f3
fc
fc
fe
01
fd
ff
01
02
01
f3
00
fb
00
06
03
18
fb
f2
15
09
f2
06
0a
f7
00
0e
f8
1a
12
18
11
01
1c
1c
00
1c
19
12
f5
13
08
f6
1d
06
ef
e4
e6
f1
ef
fb
eb
e5
ec
f1
1a
1e
ee
05
10
fa
fc
0e
07
e4
fd
f6
db
f6
ef
df
ef
fd
07
08
12
f3
04
08
f4
0a
04
f4
fe
f6
eb
fd
fe
e8
f8
fc
00
04
05
08
01
05
ff
02
01
fe
00
ff
05
01
fd
06
ff
f9
04
11
0e
0d
05
10
0b
fe
0f
fc
ec
08
f6
f0
e8
0c
07
fb
f6
ff
08
fc
03
00
fb
0b
01
04
02
09
fe
fe
05
04
02
02
04
02
01
00
fe
04
06
fa
07
ff
0b
09
07
07
fb
06
10
07
13
0f
06
12
06
ff
0e
02
0d
0f
13
fd
11
0a
ff
0b
0f
16
03
06
01
0f
02
0e
09
0b
fd
f7
f9
f2
fc
01
f1
f6
fc
f6
12
18
00
0a
1f
0e
00
09
f8
f3
e7
ed
ef
eb
ec
f7
ee
ff
ef
ef
ea
eb
f6
f3
fd
f7
f8
fb
f0
ec
f8
f8
f7
06
fe
f7
fe
ff
f6
0c
09
ff
00
fe
0b
0d
00
ff
06
08
00
08
02
00
fc
02
03
f3
ff
03
fb
06
00
04
0a
11
f3
11
05
e2
f5
ff
ff
fe
00
03
fc
fd
fd
f9
f5
ef
05
ef
fd
fd
f9
fc
02
06
02
0a
0c
06
04
03
0c
09
07
07
0c
0a
ed
f5
02
02
ef
ed
10
f7
f3
09
fc
f8
fb
05
f4
0a
01
12
17
10
1e
1c
08
1b
17
0b
02
1c
09
fc
13
06
fc
07
09
0a
f4
f5
fe
e9
f3
04
f4
0a
ea
fc
f4
03
f9
fb
09
f7
fd
03
f4
0a
0a
eb
0b
f4
f6
04
fe
fd
fa
00
f9
f5
f5
f4
f0
03
f8
fa
03
f1
f7
09
fa
fd
ff
01
05
f1
fc
f5
f7
04
00
03
01
ff
05
fa
ff
fd
f7
f7
04
fe
fc
f8
ef
ec
ef
11
09
06
f2
f6
ea
f2
f7
f6
fd
fb
fc
fc
fb
fd
f6
f2
fa
fb
fd
f3
ff
0c
fe
f8
fb
f3
ff
01
01
00
fe
ff
04
fe
fc
09
01
04
03
02
07
03
f9
fa
fb
ff
fd
fa
f9
fe
fb
f6
ee
05
03
fc
08
0e
fd
09
f9
fe
00
fe
06
05
ff
08
fb
f1
f8
f4
f3
f6
f6
fa
f5
f2
fe
f8
ff
f7
eb
f4
f5
ff
fc
fb
fe
fe
01
ec
00
0d
fc
03
02
f6
f2
ec
f6
eb
00
ff
ec
04
0a
06
fe
f4
06
02
02
fb
05
00
ef
fc
05
f4
05
03
01
0a
0e
09
09
17
09
06
17
09
0a
1a
f3
f3
ec
01
01
f5
fa
00
ed
0a
03
07
f6
f9
ee
06
00
11
ff
fd
f5
10
05
fd
04
07
f8
f7
fc
ff
03
ff
fe
07
04
00
fe
09
0a
05
06
05
0b
0b
0f
14
10
00
0e
0f
fd
01
12
fd
f7
f8
11
fd
f9
00
11
fc
0a
fe
ed
00
0a
f8
ff
07
0c
ff
0a
0e
2c
05
11
1e
13
24
30
0f
0c
fa
12
0f
fe
0f
07
05
f5
e3
d8
e9
ec
f3
fa
f8
04
00
f4
f0
00
02
ed
fe
fb
e4
06
04
03
02
f6
0e
00
fa
08
ef
fa
ff
e2
e8
f6
ec
f0
f5
0e
15
02
0a
13
07
06
0a
0a
06
f8
ff
07
fe
00
0a
fd
0a
05
fa
05
00
f8
fa
02
f3
f6
fb
f3
fc
f8
eb
0b
06
ee
0b
04
02
10
f9
04
09
f7
00
03
f3
0d
f9
fb
0e
f9
f4
06
fc
fe
ff
fe
fb
fb
01
01
fa
03
16
0d
10
0b
0f
13
0e
0b
0b
fe
fe
f1
06
f8
ff
19
0a
13
e9
05
f6
ee
00
02
fe
f9
f5
0c
fd
fb
0d
fe
ff
03
01
06
02
01
08
01
02
ff
ff
0a
01
06
01
01
f9
f4
f5
0a
04
fe
0c
1b
06
04
0a
fd
0a
0c
f8
05
02
f8
f9
0b
09
03
13
ef
ff
f7
04
fe
f5
f1
03
f3
ff
f5
fe
f8
04
fe
0b
0c
02
04
fe
04
07
03
02
09
0a
0b
01
0a
05
e5
0a
f2
f7
13
fb
08
10
f3
f2
14
02
04
02
f6
fb
ff
01
03
f6
05
08
f2
03
fd
03
f2
f6
0f
ff
06
04
07
01
ff
f6
fe
05
fa
ff
fe
08
07
0c
0e
fe
02
0f
1c
f7
0c
00
f1
09
f0
14
0b
ff
33
1c
ff
f1
00
f9
fc
fd
02
00
eb
ed
05
f7
0a
12
f1
11
19
0a
13
f9
03
04
fb
fa
fd
f4
f7
00
07
f8
f1
f7
fa
e9
04
1a
01
f9
f4
09
0f
fc
08
17
05
f2
fc
04
23
fd
fa
18
f6
f7
0b
00
fd
f8
de
f3
e7
f0
f5
f9
03
fe
fc
09
05
12
02
09
1a
f8
f3
10
00
f2
09
00
fa
0c
fc
f7
1d
f8
f6
13
f4
f4
fc
fb
08
f7
f2
fa
0d
f4
e3
f0
05
03
03
fe
0d
f9
ff
05
09
f8
06
f8
f9
0d
06
fd
0a
fd
02
f5
f5
05
f5
0d
08
f8
fd
0b
0d
11
f7
14
0c
02
16
f2
03
06
ff
fc
fd
fe
fa
fb
0f
ee
fc
f4
00
03
1c
07
07
14
02
03
0c
06
fd
1b
fe
f4
19
02
fa
03
01
05
f5
fc
fe
07
fb
05
16
07
05
25
ec
f9
f2
0c
0c
fa
ff
0f
f6
04
03
f1
ef
e8
06
ed
0b
1a
da
ea
f8
06
1a
0f
06
08
0a
00
00
fb
e4
dd
df
f7
f8
fc
f4
f7
04
e3
eb
ec
ea
f8
f1
fc
f8
fc
e9
01
1c
ec
02
29
05
18
16
dc
df
ef
06
0c
0f
de
f7
18
0d
0e
02
15
16
08
13
15
16
ef
de
fe
e9
e3
f5
f3
f3
fd
e6
e8
ee
e9
f6
ef
f8
f5
04
f9
f0
de
06
ff
ed
33
3e
0f
ea
df
ed
ef
d2
e4
21
f5
ea
1f
01
07
25
20
13
f4
f2
e4
e9
e1
e4
f4
f1
eb
fd
fd
f0
02
0a
f1
15
02
03
fe
0c
07
ea
ea
11
0d
fa
23
f2
e8
19
15
05
02
0e
07
ff
fa
f2
fe
05
04
ff
f8
00
fd
0b
f9
09
fa
fb
0b
ff
fb
03
ed
fb
04
ff
fe
02
03
fe
f5
fa
f8
fb
06
ff
fe
06
02
00
07
fc
fa
fc
f4
f9
fb
fe
f7
04
f4
fb
10
03
07
f3
f0
e2
fe
f3
f1
f8
fb
04
fe
fb
03
fb
fd
01
02
fd
f8
02
0b
04
fb
fd
fd
01
02
05
fc
fb
03
fe
00
00
ff
04
05
fb
06
01
01
03
0f
f6
00
fc
fd
04
06
f9
03
fb
03
0c
05
03
08
fc
01
fe
f8
04
fd
00
ff
04
04
fb
f7
ff
f4
03
f6
f8
01
fc
f3
05
01
fe
fc
e6
fa
03
f4
03
f9
00
04
01
fb
0a
fd
ff
07
fd
03
f7
08
15
ec
ff
06
ef
ff
fd
cd
d4
c0
0b
10
10
02
0d
17
ff
16
07
fa
fb
ff
e8
f4
e8
01
f7
fa
f4
f8
f0
ef
f5
f5
11
13
05
fc
fd
0b
f2
fc
0d
0f
1a
05
fb
12
06
f7
ed
f4
00
fb
f4
fe
03
f7
fd
07
07
f7
15
01
f5
f8
f5
f3
fc
e6
f3
fb
fe
fd
fa
00
f4
f5
f1
0b
09
13
fd
fd
fe
f2
f3
e5
0c
0b
ff
f0
e9
f9
fc
f1
ef
20
0e
ff
15
0d
01
01
f6
e8
ff
f8
f4
f4
e7
ea
ee
fc
eb
ef
f2
f0
ff
0c
0e
01
08
09
f5
0b
0c
ef
e7
f7
e0
de
01
ea
e9
da
0f
0e
08
11
14
06
df
f4
e4
ec
ff
eb
f2
01
f2
f4
f2
09
fb
ef
fa
ee
f2
00
08
ef
ff
fe
fe
12
00
f1
0f
f5
09
12
f3
10
15
f9
10
1c
fe
fe
f0
fb
fc
f5
01
01
f5
18
0f
09
09
0b
ef
0b
07
ef
00
14
0b
04
0f
0c
09
12
f8
ff
fb
fb
f8
f7
00
05
06
0e
f8
04
05
f8
01
07
f9
fc
09
03
0b
f0
fa
13
0b
f1
fb
04
f4
0f
19
f2
0e
1c
fe
03
1a
03
f7
0b
0a
ef
fd
0b
00
f8
f8
10
14
03
0f
13
09
09
18
00
22
00
f1
1a
fc
f0
0e
fd
f0
cb
c0
f3
f1
e4
e7
f2
db
1a
0d
ed
1d
05
e9
1b
05
e9
fd
fd
f3
05
f8
fd
10
15
0f
0a
0f
05
09
10
00
08
02
fe
02
04
f6
f9
09
f1
ff
fe
f2
fc
fa
f8
00
fd
f9
fc
f7
f5
f3
f7
fe
ff
0a
fe
17
12
0a
f5
f7
f4
ee
0c
04
e5
fa
f3
fa
ef
00
0b
fa
0b
0e
00
04
ff
f8
f3
fc
f2
f1
f4
ff
fa
fc
fc
fc
ff
04
fb
fe
fb
fd
11
19
f7
f5
ee
fc
11
07
07
f3
03
fa
fb
ee
fb
05
f9
f2
00
07
0e
f3
eb
f5
05
fc
fa
f0
f4
f6
ef
f7
fb
ee
e7
f3
ff
f1
fc
0b
fd
01
06
f9
f3
fb
fb
f4
10
0a
fd
05
0b
f6
07
fb
05
06
01
ee
01
f4
f9
f7
f1
04
f3
f2
f7
01
03
fd
f4
fb
f9
f5
ff
02
f3
f8
00
03
06
0a
00
f7
fd
00
05
fb
08
00
00
04
fa
ff
ff
fd
05
fd
f7
fd
f3
f2
f6
f9
fc
f1
11
07
02
f4
f2
e4
f6
ea
e2
f5
f8
06
ff
fc
08
05
01
0c
f7
08
f9
03
09
fc
f5
03
f6
02
ff
02
06
00
04
05
03
05
0b
00
f8
04
fd
fa
10
1a
0f
fc
04
0c
f1
f8
f4
f9
02
f4
05
0c
0f
04
01
0c
13
09
0d
0c
fd
09
01
fc
fb
f1
00
fc
f7
f9
f5
fa
fc
fe
ff
00
fa
f6
f8
f2
f8
f3
f7
f7
09
07
fb
04
f5
00
08
f3
f7
08
fa
fe
02
fa
fe
fc
03
f6
fa
02
05
fc
fe
03
0a
ff
05
04
fd
06
00
fd
03
fb
fd
02
ff
ff
00
fd
fb
fa
02
01
fb
ff
fc
f7
ff
00
fb
f6
01
04
f7
06
f7
fa
03
02
fe
01
f9
f9
fe
fe
00
01
05
02
08
fe
fd
06
fe
fe
03
ff
04
04
05
04
fc
fb
06
01
01
01
03
fd
06
03
f8
02
08
04
ff
06
02
06
00
03
04
fa
fd
fe
f6
fb
f9
fb
fa
f7
f3
fd
fc
02
0b
fa
ff
fc
fa
fc
04
06
04
fa
f8
fc
ff
00
ff
09
0b
0a
0d
04
00
04
09
fe
04
03
06
fd
02
0f
f8
f8
f6
07
fe
00
03
ff
ff
ef
01
f8
fe
fa
03
fd
0b
07
f8
07
02
08
01
02
0c
fe
f7
fe
08
ff
00
ff
f7
fb
06
ff
ff
fe
02
f7
fb
00
07
fb
04
21
03
fa
07
08
05
01
01
09
09
11
f8
ff
17
f7
f9
02
04
f7
fd
05
fd
07
03
ff
02
fa
f1
19
fc
f5
fd
fa
00
03
00
fd
f8
fc
fb
f7
fb
01
03
ff
f7
e7
fa
fc
ff
fe
00
fd
03
02
0b
eb
f9
07
ea
03
f9
e2
13
f1
00
03
02
06
fb
f6
15
09
fe
f8
fc
02
f5
ff
06
ec
f3
f9
f7
f2
f9
f9
f7
ff
00
0a
11
ec
07
0b
fc
fd
fe
09
ec
fe
f6
fb
02
fc
f5
f8
ef
01
05
ff
fe
fc
ff
fe
fd
0c
fc
01
f4
ef
04
fb
f4
07
f8
05
0a
0a
02
04
08
fd
0c
0b
fc
00
fd
06
f8
ff
03
fd
03
10
00
fe
06
03
f5
fe
05
fe
f9
00
02
0b
fb
fd
fb
f9
f5
06
fe
04
04
fd
0a
03
fe
0b
fe
0c
06
01
09
02
f9
0b
05
03
fe
01
05
fc
fc
ff
02
fb
03
01
fd
fb
fd
07
fc
fd
0d
fc
fe
0a
06
ff
ff
01
00
13
04
01
07
fb
fb
07
04
04
04
f8
0b
01
f9
ff
0d
07
06
06
f8
f6
02
fb
03
0a
f9
fe
0d
00
0e
ff
ff
09
f3
f4
fe
fd
00
fd
fc
fa
08
04
f9
fd
05
f2
04
08
f1
ff
1c
dd
04
f8
ee
fe
f6
e1
f7
d7
ec
f5
ec
0b
18
f1
03
1c
df
fe
18
f1
02
fd
fe
fe
f6
f8
03
f9
fc
16
ed
12
0d
f1
04
07
fa
10
ee
07
eb
f0
0a
e3
e3
f0
eb
05
00
02
02
09
f0
f9
0e
ec
fe
14
f4
f5
19
e3
fc
1b
f0
01
f8
f6
0c
fd
ee
07
f7
fa
03
19
07
fe
16
1a
f6
1a
f3
0d
0e
f5
01
01
f0
03
f9
f9
fc
07
fe
07
fe
f2
f1
07
f3
06
03
f8
f8
00
df
fd
f5
ec
f8
ff
f9
f4
02
f4
f1
f8
f8
1e
21
01
10
05
f8
f7
0c
f0
05
0c
e6
fb
09
df
fb
07
f3
04
f4
f4
ff
fa
04
02
e0
04
f8
f4
06
fb
f0
fe
f2
eb
03
07
fd
00
02
08
03
f6
04
ff
04
fa
02
fe
fa
01
f8
fc
04
f9
f8
04
f0
f9
f7
ed
f6
f3
0e
05
01
f5
07
f1
fe
0a
05
fe
06
13
04
04
13
0b
fa
0e
02
01
f7
06
0a
00
f6
0c
f4
fb
02
05
06
02
04
03
fb
05
fa
0f
0a
f9
06
fe
01
fc
10
fd
f5
ff
ff
f2
05
f2
f3
02
07
02
f0
07
0f
05
11
03
05
07
f9
0c
01
f6
06
ee
f4
06
01
03
11
f3
fc
04
fd
fa
08
fd
e5
00
01
f3
f7
f7
f5
fb
05
26
03
f7
1b
04
08
21
0b
f4
f8
fd
f2
fc
f4
05
09
f9
f7
fd
02
09
06
05
0b
02
ff
fc
00
0a
e2
ee
04
00
fa
12
f9
fc
0a
f5
ff
04
f4
02
05
f7
01
fe
f9
f6
00
f1
f4
f9
f5
fa
02
07
06
08
f9
f8
ee
ee
02
fc
f8
fd
fc
09
04
02
fc
f4
f1
f4
f5
f1
fe
f7
fd
fb
fd
fa
f9
01
f7
fd
fb
03
fd
ef
f8
fb
f7
02
fb
01
01
f1
f2
00
f2
fa
f8
fc
02
fb
17
12
ff
fc
03
01
04
05
fb
ec
04
fb
ed
f9
00
05
ec
fd
f6
fb
04
fd
09
fb
03
10
0b
f0
fd
09
eb
fc
e5
ee
02
ed
f5
04
04
fd
10
11
fd
0b
00
07
ec
04
04
00
fe
02
03
fb
f9
0a
01
12
0c
08
0c
0c
0e
f3
ef
fb
fa
f6
f9
f1
f5
fb
ff
01
f9
fb
00
fe
f1
f4
fb
eb
f9
15
eb
01
22
f5
0f
17
14
fb
dc
02
ef
ea
f9
fa
04
f7
06
f2
0e
12
f5
11
0c
f3
f5
f8
00
f2
fc
fe
01
fb
01
f8
07
fc
fc
fd
fc
fd
fc
fa
f1
f4
18
00
f9
f9
2a
1c
d1
e6
01
f9
e6
f7
03
db
fc
f1
16
05
0f
f9
f4
03
df
fd
fc
f6
f9
ee
ed
0a
f3
ef
00
d6
fc
07
0b
f6
ff
06
fb
f8
fd
ec
f9
fd
f6
eb
1b
01
ec
24
ee
f9
fd
f4
f6
07
06
fb
0b
ff
00
03
fc
04
fe
03
fe
0b
f9
f6
f5
f5
fb
f7
02
07
05
05
09
f7
05
08
ff
00
05
f5
01
fc
fd
02
04
00
00
f9
03
17
02
ff
06
f7
f6
00
f7
fd
ee
08
06
f8
01
f9
fa
fa
f8
06
06
ff
fb
02
f9
fb
05
06
08
08
fb
ff
0f
fe
f0
02
00
06
03
04
fd
01
00
02
01
00
09
04
0b
00
fd
04
11
0f
07
02
ff
fd
01
02
09
fc
02
08
f8
01
fb
05
fd
06
f6
01
04
01
fb
06
ff
03
02
f7
fb
fd
f9
fb
f9
f9
00
f9
fb
f8
f8
fc
11
f8
01
fb
eb
f9
03
08
f9
fb
f9
ff
00
f4
fe
02
ec
f2
0b
fd
ec
01
f5
f1
0b
ec
06
08
d0
0f
07
d7
0d
02
de
f7
0c
0a
fe
06
fe
f4
08
fe
fc
01
fd
fa
05
02
f9
ff
f9
01
00
ee
fa
0a
de
09
00
ea
fa
ff
f1
e7
f7
f9
02
0c
0c
0a
07
f5
17
0a
f1
09
fa
f0
eb
12
fa
f7
0f
f5
ef
08
fb
03
fb
00
fa
f7
f7
03
fa
fb
f7
15
ff
08
13
00
21
fa
f6
06
fd
f3
f0
08
f2
f0
0a
e8
16
22
15
fa
12
26
f2
0b
1f
07
0b
fd
fd
fe
fd
00
05
f4
f6
f7
f1
f1
fb
fc
f3
ef
fe
01
1a
f4
f2
1e
ec
f5
22
fa
fa
e5
fb
f2
f8
01
fc
f2
01
f5
e5
f2
f9
f7
f9
fe
03
f8
e1
d7
fd
eb
e2
f8
f5
df
fc
fb
04
fe
f7
00
07
fe
0b
09
00
01
fe
fb
fa
07
ff
0a
09
f0
ee
ed
05
e7
f3
02
fb
ee
fd
ec
f9
f3
eb
ec
fd
f4
e2
00
0b
05
ff
0a
13
01
01
0f
fd
02
fd
f4
03
07
fd
05
07
01
01
07
ff
fa
fd
00
01
09
06
fa
f2
03
06
05
fa
03
1a
f0
f0
f4
f0
f9
ef
0a
04
fe
02
06
f8
fb
0e
f3
03
0f
dc
02
02
03
fc
0c
fe
09
0c
fa
f4
0e
16
fd
0b
16
f3
fd
19
f5
d3
eb
ef
dd
e7
f4
ea
f8
fc
03
f1
fd
fc
fa
fe
ff
f0
f3
f6
ff
f9
f6
fd
f9
fb
ff
fa
fe
05
fb
02
03
f6
fa
04
01
fa
fd
f8
fd
ff
fb
f4
04
01
f8
f6
f9
fc
fe
f5
f8
fe
00
fd
f7
00
fa
f4
fc
00
ff
fe
09
fc
00
fc
08
fa
fd
09
09
00
0c
07
0a
02
07
09
01
02
00
fa
f6
fd
fb
00
fc
fd
fe
f6
f7
fd
fe
f9
f7
fd
fa
fc
0f
fc
fd
f4
ff
0e
07
00
fd
f9
f9
04
fd
f8
06
fe
f1
f4
f2
f9
f9
f5
fc
08
fb
fb
f8
00
f8
fb
f0
f1
f8
ee
ed
06
fd
06
03
07
05
07
0a
05
fe
f6
00
fb
04
02
fc
f9
fb
03
08
0a
0c
0e
10
02
04
00
f2
fa
f2
e6
ea
f2
f5
f5
07
ee
ff
05
0f
10
0d
09
0f
02
03
09
f9
ec
ec
eb
f8
f4
eb
03
fb
fc
fc
fb
fa
01
04
fd
07
f0
f7
0b
01
fb
f7
fd
15
04
15
f9
0c
1c
06
16
f8
ef
fb
f4
ee
00
fc
f0
f7
fa
eb
ff
13
07
e2
fd
ff
fe
01
f0
f9
fc
f7
04
03
05
0a
0b
fe
fb
03
07
04
fe
06
e8
e2
e4
09
0c
00
fb
04
f3
0c
f8
f0
12
0a
02
0c
09
0d
0c
ff
03
09
00
fb
02
10
f5
ff
09
e6
07
0c
09
04
ff
01
00
05
fa
ef
01
ef
e4
f5
f3
ef
fd
18
f1
08
f8
0b
06
02
11
05
00
ee
03
08
fe
0e
19
e9
f9
04
16
12
05
14
0e
01
f0
f9
f6
e1
e9
df
fb
03
fa
ef
ff
03
ee
f0
f7
f6
fe
f5
07
03
0a
fe
f2
06
fd
01
1c
1a
13
19
04
10
01
06
28
08
fe
05
1f
12
18
0a
1a
1d
0c
23
1a
15
f5
ec
e9
f6
f7
f4
f3
0d
f7
f1
fd
f9
ea
fa
f5
02
06
03
02
f7
f3
02
01
f1
28
2b
1b
05
f7
eb
fb
e6
fe
0b
04
07
1e
17
0a
35
18
0f
05
fa
e5
f2
f0
f6
fd
fc
ec
07
00
fa
fb
01
ee
0f
12
06
04
0b
02
f5
0c
05
0b
fa
f9
02
f8
e5
14
f0
e1
16
ee
e5
f5
e0
ce
fb
f6
f6
fe
ec
f2
09
f9
fa
ef
e6
fc
f3
ed
ed
f3
ef
ee
02
fe
fe
04
0a
02
07
0c
01
01
f8
f6
05
fe
01
08
00
04
08
f8
05
04
f3
ee
0b
f8
ee
fd
00
fa
01
04
ff
fc
f5
ed
08
03
10
06
07
17
0b
03
14
f2
fd
f0
f6
00
f0
f6
08
04
02
0a
00
fe
03
06
fa
01
00
15
13
f5
08
0d
08
15
f3
08
fc
f3
fc
00
13
12
ff
0f
1f
0e
ff
e4
06
01
f1
05
01
ec
fa
f8
f6
ff
09
ff
fb
06
0c
05
11
1d
00
0a
1e
f3
f6
1a
f4
de
f6
f8
dd
e9
f9
e6
ee
0e
21
02
15
1f
02
0c
11
00
f6
0b
03
f9
ee
fa
08
fd
03
e3
f3
00
f9
fa
09
fb
ff
01
01
f5
f2
02
fd
e6
ee
f2
ea
f6
05
fb
f3
0a
fd
fd
0d
ff
00
f3
f4
0b
e8
02
0b
e9
10
01
1a
25
15
20
1e
fc
fc
0e
f2
fd
0a
f6
fd
1a
fe
08
17
f4
ff
f6
f7
fc
e7
f3
0c
dc
f4
04
03
05
0b
03
fb
08
00
0e
06
12
19
18
17
e2
ef
05
11
0d
0f
11
1b
06
04
06
ec
1b
30
13
03
16
08
14
2e
08
f0
02
f1
01
0a
03
f3
fb
f0
fb
f9
06
f6
ff
0a
03
09
16
10
25
f2
f5
f6
df
eb
ed
ef
f6
08
ca
03
07
f3
0a
0c
ff
fa
f9
0a
f4
ee
00
f0
ed
04
f1
eb
e9
e9
f4
f5
ed
f5
00
06
10
f7
07
13
01
fd
17
0b
05
fe
fb
04
fb
ff
ff
fd
0c
24
ef
11
16
ee
fa
13
ef
f0
f8
07
e9
eb
f3
f9
e8
e6
02
00
00
ef
ed
01
fc
f5
07
04
04
11
f9
fe
1b
03
fb
18
fb
00
f7
02
03
f6
fe
01
f5
f6
18
05
fd
f9
05
12
fa
18
fc
10
05
e2
03
fa
f1
06
01
f0
f2
03
f9
fb
fd
f4
04
fa
f3
f8
f9
f1
fc
ec
fa
fc
f0
13
e8
e7
fd
f3
f8
fc
eb
fa
08
16
18
f2
08
09
f7
ff
06
fb
f9
0b
f8
03
05
fc
04
17
14
ef
01
03
f3
03
11
fb
03
19
f5
f4
f5
04
00
ec
07
01
f6
fc
06
05
f6
f6
fc
02
02
13
09
03
fe
fa
02
01
10
ff
07
03
0b
f5
f9
05
03
fd
13
04
fc
18
0a
f3
01
f9
00
f3
0b
fb
f3
06
f4
01
fd
f5
f6
ed
ec
f7
02
e7
eb
fe
ec
fa
0f
00
04
05
fa
01
fe
06
05
06
01
f8
09
0d
0a
1c
ff
01
03
00
02
f2
08
f5
f9
08
07
07
ff
10
17
06
03
0b
0c
03
16
06
0a
fa
f7
ff
01
10
0d
01
00
fb
fb
02
ff
f4
fd
fa
e4
f6
fc
fe
f9
05
0d
06
06
18
01
0d
f4
ec
ee
dc
ed
ee
d4
fc
e9
fb
f4
ec
ef
f8
03
12
de
ef
f5
f9
f1
f4
08
fd
09
09
18
06
08
1b
fa
fb
1f
02
05
f7
fa
fb
f1
fb
ff
f8
06
ff
f1
f7
0d
fd
f7
f7
fc
01
1c
12
16
18
1d
0e
02
04
00
04
fc
17
f0
f8
0a
02
02
0d
02
15
fc
00
10
f1
fc
0c
ee
fe
ff
04
02
02
06
01
fa
06
ff
13
00
02
fe
07
d7
e3
e7
04
fc
0d
f4
f3
11
f9
ef
03
fe
07
13
f7
ff
02
10
12
f0
fc
05
06
02
f7
fe
fe
f6
fe
f8
fc
0b
ec
ef
0b
06
08
06
f3
08
e5
f6
03
f3
eb
ed
f7
ec
10
fa
0b
1c
06
0a
1f
0b
e2
ef
fb
e8
dc
f3
fb
eb
0d
f6
0c
16
f2
16
23
e9
06
1b
fc
fd
f8
f6
fd
ea
fd
ed
02
ff
fc
fd
f6
f2
f8
ef
f0
f9
ff
01
f8
f5
03
ff
f0
fe
fd
f5
ff
f5
f7
f0
fe
ea
e5
fd
0a
f8
ff
0a
05
0d
0b
fe
0d
f4
ef
ff
e0
de
fb
ea
ea
fe
f8
f1
ea
02
02
00
ff
fa
fb
f0
ef
01
fa
ef
e7
ea
d5
d7
e7
ea
ef
f4
ef
e5
fa
d4
e5
fe
f3
02
ec
da
ec
01
02
fc
fc
f9
03
03
f2
f4
ee
ce
d4
30
20
19
2a
1b
0b
1b
1b
0e
d7
eb
0a
cd
e5
0a
d8
f3
0a
05
0a
09
04
1e
0b
07
12
f8
f8
fe
ff
04
f9
fd
fc
fb
02
04
f9
f9
04
06
f9
fb
05
f6
00
fa
02
fd
fa
ff
fa
03
00
00
04
03
fc
02
ff
06
fe
04
00
02
fd
00
f9
ff
fe
fc
fb
fc
00
06
00
f2
f1
f2
fd
f6
01
02
ff
03
02
fa
fa
f9
f9
03
fe
f8
00
04
03
02
06
05
fb
00
fb
fb
00
f9
00
03
04
04
fd
06
07
0f
04
04
05
0a
fd
03
06
02
f7
04
f7
f8
05
08
05
f8
f8
f5
05
07
fe
05
f9
03
04
00
03
01
ff
01
04
0c
02
02
04
04
00
09
fe
02
fa
00
ff
fb
08
f9
04
04
05
fa
0d
02
fc
02
fa
01
f6
f1
0b
07
06
11
fe
eb
fb
e5
de
f4
01
06
f7
08
06
ea
03
06
06
03
0a
04
f6
fb
fc
f7
08
06
08
0a
0c
ff
05
06
01
02
fb
03
0e
fd
f9
02
fd
ff
f5
19
13
0a
05
f3
f1
06
f7
0e
fa
fa
f8
ff
03
01
f9
fd
f9
0a
fe
03
0b
f8
f5
10
fd
ff
ff
0b
0f
03
09
11
07
06
0c
08
fa
03
ec
f7
fe
08
ea
e1
0d
11
24
18
0f
1a
fc
0b
1d
ff
0b
fb
0f
00
11
0a
f1
01
fa
fc
08
05
04
0c
f9
01
00
e3
01
ef
ea
fb
01
f3
f9
f2
09
0b
16
03
fd
ed
02
f0
fb
08
0c
05
13
09
0c
21
01
0a
fc
ff
f9
fc
fe
03
fa
ff
f8
fe
01
0c
03
0e
0a
ff
07
fd
f7
f9
ff
05
07
fe
00
01
04
f5
fd
03
ff
fd
06
fc
fe
ff
13
fc
09
0f
ff
f7
0b
fe
fc
f9
f1
f4
fb
fe
04
1f
01
05
0c
09
00
0b
06
02
01
02
04
01
0a
fe
f2
f9
fb
fa
09
ff
fd
00
05
00
fb
00
03
fe
03
fb
01
e9
0c
0b
f0
01
06
f4
f1
08
0a
f2
f4
fd
fd
fe
04
0e
0b
07
07
00
ff
15
f8
09
ee
17
fd
ed
ff
f8
f7
fc
f9
03
fc
fb
03
07
ff
fd
09
05
f4
f6
e6
ec
03
00
04
03
0c
fc
e7
e5
09
06
ff
07
ed
ec
07
04
0a
07
05
04
08
f5
f6
02
fb
15
f5
f8
fe
f0
ee
fb
02
01
fe
05
ff
f1
f5
fc
fd
02
ff
03
08
fe
ff
fb
f6
f2
02
fa
04
f4
f6
f5
f7
fe
fa
07
05
f6
f2
ee
ed
f8
fb
fa
ff
fc
fd
f8
f9
01
fe
00
04
ff
01
fe
0e
09
08
ee
fc
f4
06
f9
09
ff
f8
01
ff
f6
fc
0e
0d
07
fb
09
05
08
fc
13
f7
fd
03
07
09
02
e5
f1
e7
fd
00
fd
01
13
10
11
fb
f2
09
fe
ff
fe
f2
08
ed
f0
fe
f5
f8
fb
f8
fc
f9
00
f8
07
04
f9
f6
01
fa
f4
f4
f3
f8
0f
13
03
f4
03
fe
ff
03
01
f5
de
de
f3
d2
db
06
ef
f7
e0
df
f8
00
f6
f9
fa
ec
fa
f5
ff
09
f9
03
fb
f2
fe
f8
f8
fa
fa
02
fb
00
03
ff
00
f3
e5
f0
f7
ec
f3
09
e9
f7
0e
08
03
11
0e
11
fe
e9
ea
ff
08
14
07
07
18
fd
06
08
f1
02
fd
f7
fa
f7
f8
05
f0
f6
fe
03
fb
01
04
fd
02
06
fb
f6
e2
03
fc
0a
d9
d6
07
f2
f6
01
f8
0d
05
fd
fa
01
f5
03
fc
fa
20
00
0b
39
fb
f8
f8
f0
ef
06
f1
fa
06
fb
0d
0e
17
04
0c
15
0e
0f
1d
f0
d7
e9
ee
d5
e3
e7
ca
ed
0a
11
ee
0b
03
f2
23
0e
fa
f3
04
05
fe
07
ff
f8
fc
02
fc
fe
f4
14
13
0d
0f
0a
08
f8
fe
00
f4
f7
01
ee
f4
ef
fb
fb
f7
02
f7
f9
ff
ff
00
09
13
0a
f3
fe
0c
ff
06
0e
ff
f9
f1
07
14
02
fc
f5
e2
01
01
ff
09
13
08
02
09
fc
e5
fb
01
ed
f5
00
f0
f7
ee
fd
ff
fe
fb
06
ff
fc
05
02
15
13
1f
05
0c
0e
f4
e7
ed
10
06
f5
fe
f9
f1
f4
f8
ee
17
10
f9
0c
09
08
13
0c
00
fd
05
01
f4
fb
f6
0d
05
e9
10
04
05
01
02
06
0c
08
08
f1
f2
ef
ed
e4
f5
f0
06
06
f9
03
f7
02
07
09
ff
fe
f6
fb
ec
08
f2
fc
02
05
fc
10
ea
f0
03
f0
f3
03
ed
fb
01
08
0a
f9
08
11
03
ee
0d
f2
f9
0d
ff
03
0c
03
f8
07
fd
f4
f4
f2
fd
fe
19
00
fb
1e
f8
10
02
09
0b
ef
09
fe
18
ed
0a
0f
ff
05
1c
05
fb
07
07
01
ef
f8
0b
f3
f1
02
f1
f6
ff
fe
00
09
fe
03
05
fb
0c
08
04
00
22
fa
e2
fa
1e
fe
fd
10
04
fd
01
07
0d
07
07
17
16
fc
13
0e
03
1e
f2
f7
12
f2
f7
0c
05
f6
05
07
fe
03
16
fa
fb
f9
e6
f9
0b
e1
e8
f8
e6
ef
06
dd
f7
14
02
16
fe
ee
f2
f1
dc
f5
e9
01
fc
00
fd
0f
0c
fe
fd
04
02
fe
f6
01
06
05
0c
0c
08
fc
07
fd
fb
07
07
03
0c
04
ff
03
fd
fe
02
fd
02
07
07
fb
07
fe
06
fe
fe
fb
fe
03
fc
02
06
f0
fe
f6
ff
f7
fc
fa
01
ff
02
03
fc
07
00
fd
00
fe
02
fc
05
04
02
fe
01
04
fc
fd
fc
03
05
00
03
03
ff
f7
06
02
fa
f7
ff
04
04
f9
ff
03
fe
05
03
05
02
04
f8
fa
fb
03
01
ff
fb
04
fe
03
07
fb
01
08
fd
fc
04
06
00
f9
fd
03
05
09
0c
08
fd
f3
00
00
f8
f8
f9
f9
fd
fd
0a
05
fd
10
02
fb
0a
f7
ef
ff
fc
0a
ff
f4
fc
00
f6
04
f1
f6
03
f7
fc
02
f1
fb
fc
05
0b
fd
05
0f
03
f8
0b
f8
08
ed
f0
0b
f4
fe
0b
fc
fc
0c
f4
0a
02
f4
ee
ff
ed
f3
f6
f8
f7
ed
dc
eb
dc
d8
e4
fc
02
0b
f5
04
07
f8
02
01
fb
08
06
04
0f
0d
f3
08
ff
ff
fa
fe
06
00
02
fd
fb
f9
09
f6
08
01
fb
fa
01
fd
f2
01
ff
05
00
f5
06
09
03
fe
02
00
fc
0b
f9
02
00
07
0c
01
f7
f5
04
f2
f8
f3
fb
f3
e9
f3
06
f0
ef
f8
f7
ec
fd
03
dd
e6
01
ef
e8
fb
04
f4
0a
0c
e9
0d
14
fc
09
0c
f4
f3
ff
10
f5
f8
0e
00
f6
02
ee
ed
ee
09
fe
fa
1a
10
01
f2
fb
ea
f6
00
fd
fc
fa
fb
04
00
fd
fb
02
07
f4
f9
fc
00
fd
0c
fb
00
0e
fd
ff
f6
06
12
f5
e8
00
f2
e2
07
10
04
05
fe
0f
03
ef
13
04
ef
fe
07
ff
fc
0f
f6
f5
02
00
f6
fb
04
f9
fb
02
f1
f6
fa
07
f2
1a
0c
f7
07
1e
11
fa
f3
f9
f2
fc
fb
f4
f7
00
e2
11
0c
22
fc
10
11
f6
16
07
04
01
04
f9
ff
01
f8
fe
fc
ed
f2
fe
e4
e7
f4
f3
ec
fa
fc
0d
ff
f1
08
07
fc
0b
0b
ef
e0
ef
e5
e5
f7
f4
f4
ff
16
00
fc
09
fd
fc
0b
04
e5
04
fa
00
0c
fb
03
13
04
03
f5
07
04
f4
16
f7
e9
0a
06
01
f2
f4
ec
f5
02
ee
f7
00
f7
e9
25
ec
db
0b
03
f3
1d
f4
0f
07
10
0c
01
d4
01
05
fc
01
f9
03
0b
07
06
10
0e
ef
00
fc
ed
08
08
ee
09
07
f6
06
06
ef
fb
03
ea
f0
fa
09
0e
e4
0b
10
ff
ff
1c
17
06
f9
04
02
04
fd
13
11
f8
ff
18
fa
07
0b
e9
09
01
ec
ef
fb
fc
ee
07
fb
f6
00
fd
f1
0e
09
ea
fe
02
ff
01
f6
f2
11
f3
eb
02
fa
d8
ef
f8
01
03
00
ff
07
0a
0b
10
fe
01
06
fc
f7
00
f0
eb
fa
03
09
0b
da
03
0c
e3
14
0e
ea
ef
e8
00
f7
e5
fc
fd
ea
f8
f9
06
fa
fd
fd
ff
f9
01
fb
f1
09
f4
f5
0f
e7
f5
15
e1
05
02
f7
f9
ec
fc
fd
01
12
00
0a
fc
14
00
f6
0d
f4
06
f5
f3
f1
f7
f7
fd
e9
fb
f9
f2
fc
01
fb
fd
fc
01
fa
01
e5
03
08
fc
eb
00
31
cd
dd
f4
ff
ec
ef
02
f1
e6
03
e4
1f
0a
fd
05
f8
12
00
04
21
0a
f9
ea
fb
f6
f2
03
02
ef
05
f9
f8
05
f8
f6
0c
f7
08
08
07
f0
f9
08
0d
e5
ff
09
f4
e9
0d
fb
f0
1f
03
f7
22
f1
ec
f2
f2
dd
f3
f6
ef
fb
e1
d1
09
ec
e7
05
e5
de
f8
fa
12
02
f1
13
04
00
09
08
01
02
f8
03
00
02
04
ff
05
f8
f5
f6
04
ff
f2
0a
0d
eb
10
03
08
fa
fc
f2
f4
f6
f2
f7
09
13
fa
06
21
f9
01
0b
f5
00
fd
fb
04
06
fa
0a
06
04
02
02
fc
06
fe
05
01
02
0c
06
db
03
20
04
f9
05
23
f7
e9
02
fa
0d
05
03
0e
0a
07
13
02
13
14
10
17
29
ee
f3
08
f5
00
18
07
01
12
ff
ec
04
2c
f7
01
2e
e5
f3
19
f1
d5
14
e5
de
08
ed
f1
05
02
19
09
fe
16
05
fe
0b
f1
02
f5
fa
00
f5
ff
fb
03
04
fd
00
02
06
0b
04
03
fe
04
f3
f7
03
02
f9
f9
06
f5
07
f8
ed
fb
f8
f2
ef
f6
f8
00
ee
f5
ff
f1
f2
fc
00
f8
fd
05
f8
f8
05
ee
f5
09
00
07
ef
f8
fe
f8
05
f9
fd
00
07
fb
f6
0d
fd
f9
00
01
ff
06
fb
03
fe
00
f7
f5
04
fa
f6
ec
09
04
f7
fd
05
f5
f8
f3
f1
f4
f1
f4
f6
00
fd
01
f9
fd
f2
06
03
fa
fb
fc
f0
fb
f8
f7
e7
04
ff
fb
fd
f2
fa
f7
fd
fe
02
09
f7
02
06
06
ee
e6
09
f3
eb
fe
01
ed
fd
fb
03
f6
f5
02
00
03
0a
fd
fe
fc
f6
03
06
fa
fd
02
fe
fe
05
f9
f7
03
fc
06
fa
01
f3
01
00
f5
02
00
fc
fa
fe
01
07
01
f7
00
ff
fa
0a
00
05
fd
fc
04
05
05
04
ff
ff
0d
0a
07
12
0f
09
fd
08
00
fe
01
03
f6
fe
f4
f3
fc
fe
04
f3
fd
fb
03
00
07
f4
05
05
fd
02
02
03
01
02
00
01
0c
07
f8
0f
06
09
0a
0e
0f
06
05
ff
fe
fd
f3
0f
0b
0a
16
10
0c
04
0f
02
08
fc
04
01
fb
f7
01
05
ee
0a
18
05
08
0c
0a
fd
00
fb
fc
fa
01
0c
fe
fa
07
f8
f0
0c
f6
f9
03
06
08
ff
09
ff
03
0c
fb
f3
fc
11
f8
fc
00
f8
f2
f2
02
0d
19
04
10
0f
08
09
0b
03
fb
f0
08
05
07
0b
f9
f9
fc
fe
05
06
09
07
00
00
06
06
03
05
f6
04
0b
f7
f1
07
e8
f3
f9
fa
ed
ee
11
0d
fe
07
12
0c
06
0b
0a
fe
05
f9
f7
f5
f1
ff
ff
fe
fd
ef
fb
fb
f8
03
04
ff
00
04
ff
08
fd
05
01
1c
1f
16
05
f8
f7
08
fc
f4
10
0b
09
0e
05
10
fc
0a
01
0f
17
11
09
09
0f
f9
ff
fd
08
00
fd
02
00
00
1a
1d
12
0c
0e
03
fd
06
f0
e1
e8
ef
f1
f0
f1
e6
ea
ea
07
fe
f7
09
f7
f6
02
00
ee
fd
06
ec
0b
07
f3
1f
1d
14
06
26
17
0c
25
1c
00
12
07
e0
f9
f2
f1
ec
ef
ea
ed
f4
e1
dc
f2
e1
e0
fe
e2
eb
05
f5
d9
f4
f4
d9
fd
ff
f6
16
f5
ed
ea
eb
ed
de
f4
00
f0
d2
c9
cd
ec
f8
e6
05
0c
fe
f7
fc
ee
fd
00
02
f2
ed
f3
f3
ee
f3
e5
e7
ee
eb
e5
eb
cc
e0
ff
d4
d5
e2
0d
fc
dd
e1
e8
f1
dd
e6
ed
f5
e8
da
f4
f0
f7
f9
ee
db
06
e7
e1
d5
e1
f1
e4
de
e5
e6
da
c8
07
12
00
02
09
04
03
09
00
d6
0a
d1
e1
04
d4
f3
12
f0
0f
14
0d
15
10
0d
fc
fe
fd
ff
ea
02
e5
fd
07
01
f3
e8
fd
01
0e
f7
e8
fc
fa
f5
ed
fc
0c
f3
00
0c
f9
f5
09
f9
f8
02
fa
f7
08
fe
fb
06
fb
f7
02
15
f1
0c
24
0d
05
00
f4
f3
f2
09
03
f8
09
09
1e
ff
1e
08
fe
0f
0b
f9
f5
06
f8
f4
f9
fd
f5
f1
f6
f4
07
f1
f8
f3
f8
fe
fa
fb
03
fe
06
eb
fa
0f
33
f6
ef
26
29
f5
f8
03
10
07
03
13
1f
fe
0b
1c
fd
08
20
0b
08
25
fc
ed
fd
fc
f0
11
03
0a
0e
f7
03
12
19
03
f8
05
f7
f7
0b
ec
e7
e9
f7
fd
17
10
13
07
ff
01
fb
fd
fb
fc
eb
f3
e9
f6
df
f9
e9
cd
de
e6
de
03
e2
f0
fc
e0
04
13
ef
06
09
ee
fd
03
fc
04
00
fa
f5
ec
fd
01
01
fe
06
06
00
f7
f3
02
06
f9
ff
eb
e5
f3
f0
e5
ee
f4
f1
f9
0a
fa
eb
f6
e2
18
0d
1e
04
0c
1e
f9
00
11
e2
ec
f6
ee
ff
02
ee
f7
f5
fa
fc
ff
01
05
04
f8
fb
f8
0c
11
0f
11
0f
30
fd
03
f0
fc
01
f9
fd
fa
fd
0a
01
00
0f
04
02
0e
f8
ea
11
14
11
01
05
fc
fd
00
fb
fb
ff
f2
1f
17
21
0f
0e
11
1b
16
10
de
e5
07
e6
ed
ea
f8
e3
eb
ff
1a
f9
0e
26
fe
1a
34
fd
fa
09
26
f8
18
18
0c
22
27
06
07
06
fc
0b
00
00
02
f3
f4
f7
ee
f7
ff
f3
f9
f7
e6
03
0d
fc
f7
ef
f9
f8
e8
fa
fe
02
03
05
09
09
0b
05
f8
e9
02
00
04
02
f0
0d
0a
f4
f4
fe
ec
fe
fb
ea
ff
fc
f1
03
fb
f6
08
fc
f4
fe
f1
ea
fe
fb
f9
fd
f6
00
f7
f6
f1
0e
f4
04
09
e6
fe
07
05
02
c1
03
13
f1
06
13
09
f5
00
0f
ec
fa
14
04
04
13
fe
fb
05
f9
07
01
ed
f7
05
f9
fb
04
06
04
04
0b
fd
fc
f6
fa
f6
ec
fe
fb
eb
03
09
fb
16
09
fd
fd
04
fc
f7
e6
e6
f6
fd
03
03
01
01
f7
f8
f0
f0
f0
f9
fd
fc
f1
fe
fb
f8
fc
fd
ff
f8
f8
f7
fb
fa
f5
f8
01
fc
fb
fc
f9
fa
01
fe
fe
f9
ff
00
f8
f8
fa
ef
f1
ef
1f
0b
0e
ed
f3
f1
f4
07
ef
fb
f8
01
fa
f5
fd
02
fa
05
fa
00
fb
01
07
fb
fc
f9
ed
fd
fb
fe
03
fd
fd
00
fe
fe
00
fe
fe
f9
fc
fe
02
03
03
06
fc
0c
f8
02
05
ef
f1
ea
11
07
07
11
0e
0b
05
ff
04
f8
04
fd
01
01
05
f5
ed
fb
ef
f0
f2
fe
fa
fe
f3
f8
04
fc
f7
fa
f9
fb
03
f6
fd
f0
f7
02
f6
f4
04
f8
f7
05
fc
fe
fe
f5
06
06
07
f8
0f
0c
07
f4
fa
07
fa
f3
f1
f4
f1
05
01
09
0d
fb
00
00
fc
0e
fc
fa
02
05
00
ff
05
08
06
f9
05
ef
fd
02
f8
07
fb
09
0b
fe
15
0f
f1
fe
09
f7
fe
09
0a
06
0a
0f
04
08
06
03
fc
06
fc
05
0a
04
07
09
fe
04
05
00
ff
03
fd
02
fd
05
ff
01
02
07
02
04
f9
04
1c
fe
03
fb
fc
18
06
ff
06
0b
11
08
05
fc
ff
09
03
0c
fb
f9
05
04
08
1d
07
14
10
0b
fe
08
06
00
05
07
09
04
0c
f6
fc
f7
e7
f8
e0
f3
ee
f3
12
05
ec
06
fd
fe
0f
fd
ed
04
0e
15
11
0e
01
16
06
05
01
f6
00
f0
f8
02
f4
03
03
02
f8
0a
f6
fa
f9
f0
fb
f1
0b
ff
01
ff
fb
ff
fa
f4
f4
02
04
18
f8
04
12
fb
02
05
10
04
0c
e6
ea
ef
ec
e4
f3
f9
fc
fd
f9
ff
f8
fa
f1
f8
f7
f5
f4
fc
02
00
fc
ff
f7
fd
01
fc
f9
fa
ff
fe
ff
f8
f2
04
01
ef
08
03
ff
10
06
03
fd
f2
f4
fa
ee
f5
fe
ed
f6
05
16
f7
fa
ff
f2
f9
fc
fd
ed
06
f4
ed
00
e5
f4
f1
00
f6
f4
fa
fb
fe
f5
ee
fd
09
03
09
fa
00
f8
ff
08
11
fa
fa
f0
f9
f7
f8
f7
f7
f9
f7
ef
e8
f2
f5
06
0d
fd
08
03
07
05
fb
0a
0f
fa
04
0b
f9
f1
f8
00
0a
04
fc
f9
fd
05
03
05
06
02
fc
fe
fc
fe
fb
fe
f4
e8
ee
fa
f6
f6
ff
09
f3
0b
02
f5
e9
ff
e7
eb
f3
fe
00
03
04
08
0a
0a
15
ff
fa
ef
fe
fa
00
f1
fa
ef
02
fe
fd
03
ff
fe
f8
fb
fa
f8
06
fa
ec
fe
04
00
ff
12
03
f4
f2
fc
06
fc
03
00
0b
14
10
fc
26
20
11
06
09
ff
08
07
f8
ff
00
fe
ef
ff
f1
f9
ff
01
0c
0c
0c
0b
09
03
e2
e0
e7
f9
f8
eb
f7
ea
e7
f7
01
ef
fa
fb
e8
e5
fb
dd
01
f7
07
08
ee
13
0f
e9
0d
00
ff
02
0c
f6
ff
03
eb
f5
f2
08
eb
fa
10
fd
f9
0e
f8
fb
09
00
06
05
ff
05
0b
f8
0d
0e
00
09
14
08
10
04
ed
06
eb
fb
15
f3
0d
0a
fe
26
0e
09
fd
1a
f8
04
13
ee
01
eb
ef
f6
f1
03
02
f0
ff
04
fe
00
ff
fc
fd
01
f7
00
ff
03
03
06
10
1c
f1
26
f8
31
fb
fa
fc
fc
f9
ff
04
0c
04
1c
2e
1d
09
3a
0e
14
27
03
ee
05
fd
f3
01
fc
fd
f8
fe
01
f9
0e
e9
f2
12
de
d6
0e
f6
ed
07
04
09
16
f6
19
15
e8
ed
e7
dc
ef
f0
eb
ea
e7
ee
f2
e8
f1
f9
f1
f8
ee
f0
d6
f0
07
de
f0
0e
e7
ec
05
ff
0e
fd
fc
1d
00
fc
10
f9
fe
00
01
05
ff
08
fc
fe
05
16
ea
15
02
ec
11
06
f2
0c
f3
0a
09
01
06
05
f5
06
05
ec
09
00
e4
0b
15
e9
05
14
fc
10
f1
07
0c
f7
ff
09
00
00
ff
f5
01
fb
f6
fb
fb
ff
04
07
e0
ed
0a
ea
de
16
03
1b
f6
f7
13
fe
fe
03
11
00
13
20
01
1c
25
ee
14
1a
e3
ff
05
f8
fb
03
fb
f2
08
ef
e5
ff
18
e1
00
1a
e7
fa
14
ec
17
e0
fd
1a
e6
f1
1e
00
ee
13
fb
f5
09
fd
ef
15
fb
04
04
17
f4
fa
09
ee
f6
0c
e9
f8
03
f7
0a
12
05
05
05
e6
ed
e7
fa
0e
f5
f9
0d
02
05
05
02
02
06
fe
0e
0b
fb
0c
05
03
fd
02
0b
0d
0d
07
d4
e6
e9
03
0f
0d
e6
0a
fd
fa
ff
05
10
06
10
09
09
18
db
f5
f0
ed
fb
f2
f6
03
02
f9
f8
ef
02
01
fe
07
0d
0b
06
fe
ec
02
17
f5
17
14
0d
f8
fb
fa
0a
04
ef
20
1c
f7
01
f7
f7
f8
07
00
f2
07
ee
0b
08
f2
14
0f
fc
17
17
e8
03
02
0d
11
f7
f7
0f
0f
13
ea
fa
06
03
18
20
05
0d
19
fe
04
fb
ff
06
f7
ff
07
ec
00
e1
fb
f9
e6
fa
01
00
f5
f6
ef
f5
04
ed
04
fc
f3
fd
04
03
ff
06
03
fa
ff
0c
02
01
00
fc
05
f8
fa
08
fe
ff
00
f1
fc
0e
f8
f4
05
03
01
13
fd
fe
06
f1
ee
fe
f7
e6
07
ff
06
05
00
12
01
f6
06
f0
02
f2
fb
05
fb
00
17
02
f9
fc
01
fe
fa
fe
fa
fb
08
04
fe
ec
06
f0
fa
fe
e7
09
f7
f1
f8
fd
09
01
04
06
f6
10
05
f7
fd
12
fd
14
0b
eb
f1
fb
fd
f0
f8
fc
05
fe
04
f7
f5
05
f0
fa
0d
f0
f2
0b
04
eb
ea
0e
fd
f7
00
0b
03
f6
12
f5
f8
12
f9
ff
1b
f6
fb
1b
33
fe
0a
2e
01
1c
32
21
f4
e0
2e
04
f5
32
18
fb
e5
fd
07
ce
e5
fd
d8
f9
fb
e2
f5
07
e1
f7
fe
e7
ef
fb
fa
02
ef
ea
e0
e0
f6
de
e4
cb
e5
03
ec
ef
f1
e7
e1
e3
ec
f2
ec
f0
ea
ea
f6
f4
eb
f4
fd
ed
df
e7
f2
df
d3
e9
e3
ed
f8
eb
f0
f1
f1
f7
fa
fc
fe
f9
ea
f8
f6
cd
d8
f4
f7
ef
04
e8
db
fa
d6
e5
e3
e4
e2
fc
e3
e5
e8
eb
fe
ec
dd
ee
10
c0
f1
05
d4
09
f9
ea
e6
f2
e8
da
dc
01
f8
e7
f6
f2
e7
f6
f4
e0
ef
ee
f1
ea
f0
ed
e8
f7
e2
eb
f6
ed
fb
e5
0a
f3
de
04
f5
eb
08
e6
ee
15
f3
e3
0d
fb
e4
f1
ef
04
f5
f3
0a
f9
f4
12
fa
03
02
fa
00
01
03
fd
ff
05
05
fd
f8
0a
02
06
03
04
f9
fd
ee
03
ff
fa
f9
f2
f0
fe
f2
f7
04
fc
03
11
f7
f6
0d
fa
01
fd
f6
02
02
ec
10
fd
01
fc
05
fd
fc
fd
fc
02
fc
02
f4
f1
0b
ff
0c
00
fc
28
01
e1
fd
fd
f6
f7
02
07
01
17
09
f1
0c
1d
ef
09
2a
e0
f4
01
f7
f3
1a
fe
fd
0b
03
fb
10
1d
05
0c
29
f3
f6
1a
f3
e3
0b
f0
df
0e
f1
df
1a
f4
1e
fc
fb
17
fe
eb
10
f6
f9
ff
f6
01
02
f1
f7
01
03
13
fa
fb
12
f5
02
10
f7
fe
f9
0a
05
f7
12
04
f0
0d
fd
ff
0b
07
f6
06
03
f3
04
ff
0b
01
f6
0e
0b
03
07
04
f9
10
03
ff
09
03
fe
03
0f
02
fb
f6
fe
fe
00
02
04
00
0a
f8
09
fa
fc
07
f8
f6
04
ff
fe
f8
04
fb
fb
ff
f5
04
00
14
0f
fb
09
05
fb
0a
06
ff
15
03
14
0d
ff
02
0a
04
ff
f9
0d
09
f7
0d
0e
fb
07
01
07
11
f6
03
08
fd
0f
04
03
fb
f4
fa
f1
f9
07
f5
ed
ff
00
06
f3
ee
0d
f5
ff
08
0c
f3
ec
ec
f6
f4
06
fa
ec
07
e6
f2
ef
f8
01
f9
fb
03
ef
e7
fb
f5
f3
03
f5
ef
fb
00
00
0d
fb
fd
06
fd
fa
0d
0d
fd
fd
04
f7
fe
0b
fb
04
0b
19
ff
fc
00
fc
00
04
0b
07
0c
fb
fa
fb
11
fa
04
f9
fd
f4
02
04
f5
04
05
0a
f9
00
f3
04
fb
e8
01
fe
ef
01
f7
e8
fc
04
fd
fe
00
f4
00
ff
19
08
01
04
f9
00
04
05
fb
06
01
fb
09
05
06
fa
fe
06
04
09
f4
f6
15
01
ec
16
02
f9
08
02
f6
0b
fe
fe
06
00
f7
fe
07
f8
fa
06
fc
ff
0d
07
04
f8
fc
03
fa
e5
0a
02
0e
09
03
ea
09
06
e7
fe
fb
06
f8
f1
0d
f6
ef
0d
f2
ec
d6
f4
0c
e6
ee
11
df
f9
0e
f4
05
fe
fa
09
ff
02
03
02
04
02
fd
f9
01
01
f6
00
0b
0b
f4
11
02
f8
0c
0c
04
12
f4
0c
0a
0b
0c
fa
f9
11
06
f3
0f
fa
ec
0e
0b
e8
fc
11
05
05
fc
04
11
03
f9
10
01
02
03
f9
fe
fa
f4
00
04
f7
f9
04
e7
e6
11
ff
d6
0a
15
15
f0
fc
23
05
ef
09
0c
f6
1e
35
16
2c
32
0a
23
22
e1
f7
07
fd
f1
11
fc
f8
04
ef
db
08
15
df
00
19
d9
ff
17
fc
1c
ee
fc
17
fa
e9
0d
f3
ef
0e
05
f1
11
12
de
0f
0a
fe
fe
02
04
04
f9
fc
ed
fd
f5
f5
09
f9
fa
06
fd
fc
0a
03
00
f8
04
05
f4
fa
f3
f5
ff
ff
00
09
03
02
01
f9
fa
00
fd
09
fd
f5
f4
fe
f6
f1
12
08
04
e8
e7
ec
f3
f3
f6
fb
f7
fb
00
f7
f9
fe
ef
f8
01
07
f8
ff
09
06
fc
01
fb
fd
03
02
01
fc
05
01
ff
04
ff
03
02
fb
f5
f6
0d
ff
02
ff
07
ff
05
07
08
f1
f6
fa
07
04
fa
01
0b
0a
fe
06
f0
07
00
fe
fb
f5
fc
f0
f5
fc
f4
f7
fd
f1
f8
f9
f6
fa
f7
fa
f4
e8
06
ed
f2
03
f3
f3
ff
08
f3
03
fb
f4
f8
05
01
0b
03
00
fd
fc
07
fb
ed
eb
f5
08
0f
f7
04
03
f2
07
09
fc
00
07
05
02
ed
04
04
fb
0a
09
0c
0a
05
05
0b
02
00
01
09
fa
05
00
fb
00
f7
fb
02
f9
f1
fa
08
fc
ff
07
fb
07
f7
fc
04
04
fb
fc
06
05
fd
fb
ff
f6
fa
00
fc
fc
00
05
fe
f9
07
fb
02
05
01
03
fc
08
f8
fd
01
ee
00
f9
f3
0a
06
ff
0d
0c
f7
09
19
fd
0e
00
fb
11
04
05
07
0f
fa
10
0d
08
0d
0f
f9
14
04
f1
06
08
08
03
0e
ff
ff
0c
07
e4
fb
f3
f4
00
fa
fa
f9
f1
01
ff
f9
02
03
05
fe
10
00
fd
01
04
f7
fa
fd
fb
ef
08
fa
02
f8
02
08
fd
00
ff
01
02
fe
f7
fa
ff
06
fb
f9
fb
fe
02
07
fd
02
01
05
05
03
00
fb
ff
02
fa
05
07
ff
04
05
fe
0e
ff
fc
08
fc
08
fb
00
f7
fa
fa
fa
fc
03
fc
03
08
05
fc
fb
fb
03
fa
fe
06
fb
fd
04
fd
07
01
02
03
00
f5
0e
0a
fb
01
ff
fa
f7
07
fe
09
f8
01
f5
fb
f9
f6
ff
05
fb
05
0b
fe
05
fb
0b
0e
f7
f7
08
fe
0a
03
04
ff
07
04
02
fe
01
01
04
fd
01
00
fa
f9
ff
fc
00
06
ff
fe
09
0d
ff
fd
01
fd
fb
0a
06
f6
09
ff
fc
fc
fc
f0
f6
f5
ed
f9
ea
08
eb
f2
00
e9
f5
f7
0a
05
fe
fb
01
f6
fb
07
fe
09
f8
f3
04
f3
fe
04
f9
ff
0c
f8
00
f9
f5
ff
fb
f9
eb
f9
02
fc
f1
00
fe
f0
f2
f7
04
00
0f
f9
01
21
03
02
1a
fd
07
fb
ff
03
08
fe
05
09
fc
f3
fd
09
ff
ff
09
f4
fc
06
05
03
ee
04
f9
fe
1f
1c
0e
0e
ff
11
0a
11
0d
07
11
ec
fd
f6
fa
04
03
01
04
f2
ff
04
03
0e
f9
06
00
f4
00
fc
fb
18
f8
fe
19
f7
06
10
06
f4
02
ff
f2
fe
01
00
03
ff
11
10
fd
05
16
11
0b
0f
ea
e1
d3
ff
f5
f2
fe
ed
d9
dc
fe
0d
d7
fe
16
e7
06
15
0d
f6
ea
08
f0
df
03
f3
e9
03
f0
e5
fb
f2
e6
f1
f5
eb
01
07
09
ec
f7
0c
eb
f0
00
09
0f
05
03
fd
f4
ee
03
0a
07
f9
f4
fd
0c
04
f9
0f
0d
01
f4
f9
f7
f1
f2
03
f3
f7
04
fd
fc
fb
ef
ea
fc
ed
df
06
e9
e8
0d
00
ee
11
16
02
1c
05
e8
1d
ed
ef
26
f1
04
24
11
08
1b
09
e9
27
eb
ce
fe
02
da
f2
ee
df
f8
f9
d7
ec
0e
06
f3
13
13
fe
11
05
06
f3
e0
ec
da
e7
ff
d9
00
fc
00
09
0f
14
11
14
13
15
f4
0c
16
fc
08
17
ef
0a
08
04
fc
ed
0d
fd
f0
10
06
f6
f2
f1
fe
f8
fb
0c
fa
f3
06
ff
fe
09
08
f5
09
0e
f8
0b
fc
fb
05
f8
f5
01
fa
f6
fe
ff
fe
03
08
fd
e7
0a
01
e4
fe
fb
04
fc
01
06
05
fc
01
fd
fc
f8
02
f6
01
f3
f3
f8
fd
fd
fb
04
f7
ff
00
01
01
02
fa
fd
07
00
16
05
01
15
f7
ef
ec
f8
f4
f3
08
eb
fc
03
12
f2
16
ff
f8
09
05
f7
08
ef
0b
ff
f2
0f
fe
f7
0d
05
fa
fe
fb
f8
fa
06
01
f6
f3
f4
01
f0
f3
fd
f5
f3
fd
ee
f9
e5
ed
02
ee
ed
f2
e3
fa
f2
f9
f8
fc
f0
fa
f8
f5
ea
e8
f6
e4
e7
fc
ef
e5
f6
00
00
fd
02
07
f8
ff
0b
08
f7
fa
fd
04
f2
fe
fd
f1
08
fc
f4
0e
fd
f7
fc
f9
ff
fe
08
13
19
f8
11
15
f8
f8
0f
05
02
1c
08
01
11
06
00
10
fb
10
f0
f5
1a
f0
f9
1a
00
03
fb
07
03
fe
05
07
f9
04
fe
16
02
fe
08
ee
fd
fc
03
08
f9
02
04
f8
fd
01
fd
fe
ed
02
ea
07
05
ee
0b
f5
f6
fb
f5
fb
fb
ef
01
fe
f2
07
f9
08
15
f5
03
0f
02
00
15
08
0e
f7
00
fc
07
ef
0d
02
00
16
05
05
1b
fb
08
16
fc
f2
08
fa
01
1a
08
07
22
07
0c
f9
f1
0a
02
ef
02
fb
f5
03
11
fa
0b
17
e7
0d
0f
f5
f3
f5
f9
00
f9
f0
00
fb
ee
f8
f2
0e
f8
fd
04
03
07
0c
0a
1a
f9
05
13
04
04
03
f5
f6
fa
09
f9
01
0a
f8
01
08
0c
1f
01
0b
18
fa
07
13
f7
fb
08
07
fd
07
02
05
05
fd
00
15
12
ee
23
0a
04
1a
04
05
07
06
0f
08
07
10
03
f9
fd
07
06
0e
0e
f6
15
04
f7
0d
ff
fd
04
fb
fb
fa
fa
f6
07
ff
fd
03
06
08
09
00
fd
ee
1c
00
f7
15
00
fb
12
07
09
0a
f4
07
12
00
fd
07
eb
fa
fd
12
f9
02
12
05
03
f8
ee
f8
fd
f8
f6
ff
fb
f3
f2
f7
f3
08
fe
fe
07
f7
f9
09
02
fe
05
04
ff
ff
02
fe
07
ef
f5
f1
f2
f5
f6
ff
02
f7
fa
f9
ff
f7
f5
f8
05
f0
04
ff
00
ff
00
01
fa
02
05
03
09
f2
ff
07
00
0a
fd
02
fd
07
02
04
01
08
05
05
ff
09
06
03
f1
fb
00
06
f4
f6
f6
0e
ff
ff
09
0a
05
07
fb
fe
fd
00
fd
f8
07
01
ff
0e
03
18
04
08
07
03
06
0e
fd
07
02
10
09
03
00
01
01
fe
0a
e6
ea
fa
e6
ec
f0
f6
f1
03
04
08
f2
08
09
fd
01
08
08
ff
fa
02
fb
03
0c
fd
fb
13
ef
ed
ff
f5
f3
f5
ee
e4
fb
01
00
04
fe
05
00
fb
04
04
09
fc
fb
0a
03
fd
03
fc
05
00
f0
02
f6
fb
f0
f5
03
e8
0e
06
0c
f2
f3
f9
f2
fb
05
f8
03
14
02
04
0d
fc
ff
08
f8
fe
f5
01
06
fd
f2
07
fd
fb
00
08
08
fd
04
0a
01
02
fe
0a
07
04
ff
13
0a
0a
0f
07
01
fb
f8
f9
f6
02
08
01
fc
fd
fc
06
10
fb
0b
0c
15
07
ed
f9
03
f5
02
f4
eb
02
f9
02
12
fb
00
0b
fd
fe
02
04
f5
f5
05
fe
0a
fd
02
00
05
16
14
08
1d
05
fa
23
ff
fa
f0
e8
06
f7
e2
06
ff
ef
f7
02
01
00
08
0f
e9
fe
06
ee
f8
fd
f6
fc
fa
f5
fc
fc
04
04
00
07
05
f7
05
0e
fa
05
12
f8
01
15
f9
fd
0e
ff
f4
f0
e1
f2
f8
e4
06
ff
ff
e2
dd
ee
ee
ee
fb
f4
f5
f7
e5
fb
05
e8
fb
fe
ea
f5
00
02
07
05
fe
f4
f3
03
06
04
fd
05
0d
f5
fd
df
06
f1
f7
09
0e
f7
f9
fe
f8
f3
03
f4
02
00
f0
e0
e8
f9
eb
e3
ff
fa
06
03
ef
08
f4
f9
14
0b
10
02
0e
04
03
1f
02
00
15
e6
f9
f6
ea
f3
05
ec
04
0c
fb
f9
10
fc
fe
18
f2
f6
13
06
00
fb
fb
fe
eb
f5
f4
ec
f5
01
08
fb
fe
01
f1
fb
00
0a
0d
fb
fe
05
01
fa
03
06
05
fd
f9
06
ff
fe
02
00
06
0f
10
f9
04
05
fd
fb
03
12
fc
00
15
f3
fc
03
fb
07
07
03
ec
f7
01
f9
05
0d
01
0c
ff
09
06
03
0a
ff
fb
09
03
fa
02
03
06
00
0b
05
fc
00
01
f9
f4
04
f2
e3
0c
00
10
00
08
0a
fe
06
11
00
03
20
07
fb
ff
0d
0c
06
0a
06
f2
fc
02
fa
f5
00
0a
fc
04
14
f7
02
fe
f7
04
0d
ff
08
fc
01
05
f1
01
0c
f0
ef
07
f6
fa
01
ef
0b
fb
f3
02
01
f7
f3
ed
f2
f1
ec
e0
f4
ec
fb
02
f8
03
fd
f1
f5
ff
fc
f8
02
fa
fb
04
04
06
0b
06
03
03
fa
00
0c
08
04
04
05
07
08
0f
10
fa
00
fa
fc
fd
07
01
f2
f5
06
fd
02
fc
f9
f9
0a
09
16
fd
06
0c
fe
01
0e
f2
f4
f8
f3
fb
f4
ef
01
ff
fe
0a
07
05
06
04
00
fe
ff
1f
15
0f
10
09
0b
09
0c
f9
07
06
0d
0d
03
19
0b
13
0a
fe
0e
03
18
ff
04
09
07
0a
f9
09
09
05
02
11
fa
0a
01
00
09
13
fb
f7
12
05
ef
07
ef
db
ea
f0
db
e5
f3
ea
e5
f0
1f
02
0e
19
02
f2
1f
f8
fc
01
1d
0b
03
0c
0c
08
26
14
07
fd
1d
11
07
16
0c
fe
ed
ee
fa
e8
ec
eb
e3
e6
f6
f5
fb
fd
ec
fb
fd
e5
fa
fd
ee
e4
f6
ea
cb
ec
ef
e7
08
d7
e8
fc
da
dc
e4
ee
e4
ec
f3
ee
f3
f8
f5
fe
0b
0d
02
ed
f5
f3
ec
ed
de
e1
e0
e0
ed
f6
01
f1
f5
f5
ef
f8
fd
05
f7
02
ec
e9
02
f0
fa
0f
eb
f5
fc
f0
e8
ef
02
f0
f3
de
ec
f0
f6
f1
e6
fe
e5
f1
e8
f1
01
e8
e2
e9
eb
e8
f8
00
fd
fa
03
07
f5
0b
07
ef
cd
d8
ea
c9
c8
d2
db
df
cf
0b
ff
f6
0b
06
ed
fd
fd
f4
05
f9
01
f5
f8
0d
fd
fa
07
fc
ed
f1
f8
ee
f9
f9
e7
fe
f7
f8
ff
f2
fc
fa
fc
03
f5
f8
f9
fb
00
f9
f7
03
00
02
f3
f7
f6
ff
f6
f9
ff
fc
11
18
0b
1a
0d
0b
fe
f0
f7
ef
f2
08
0c
07
0e
13
04
00
0b
f9
f8
f1
ed
f3
ea
f2
04
f5
ff
fb
f9
fb
04
ff
fb
fa
fb
ff
f7
f1
21
f8
15
11
f5
13
ee
f5
ff
f1
08
fd
16
00
fd
0a
fa
f2
fb
0e
fb
0f
34
fc
f0
f3
ff
f4
f9
00
ff
fc
ff
f0
f8
10
f5
f3
05
06
00
15
ec
f9
f5
ed
f8
ee
ff
f2
f9
f1
1b
f2
f1
02
ee
fc
09
03
00
f8
10
ff
fc
03
fb
03
06
fc
0c
0b
e8
f1
fe
ed
fa
fa
0a
fd
fb
05
09
02
06
fa
fd
04
00
fb
05
01
00
06
00
fb
0f
09
0d
07
f3
01
fd
f4
fa
fb
f0
f3
01
07
07
05
f2
f0
05
0f
09
11
16
13
0d
0e
0b
f3
fe
01
fc
04
05
ed
01
f9
00
02
02
09
02
02
fe
04
01
0c
04
f4
0a
02
14
06
fd
fc
05
f3
f6
13
01
00
0d
08
0c
fa
06
0d
03
fd
05
10
fd
19
07
ff
fc
ff
06
03
0c
04
01
0e
04
09
05
06
07
09
05
04
fc
e4
e9
02
ea
ed
00
f0
d0
ff
0f
fc
08
12
f8
06
fe
f8
f3
05
ee
fe
02
e3
f7
f7
ec
fe
fe
fc
fe
f9
fe
fb
01
ff
08
fc
09
05
ff
14
08
ff
17
0a
08
09
03
0e
05
07
0d
14
f4
02
ef
fc
ff
f3
f3
fb
f3
14
0c
09
ff
00
ff
07
fa
fa
fc
04
05
01
02
fe
f7
02
00
fe
f4
fe
01
fe
09
0f
01
0b
fe
05
0b
01
07
0a
04
08
11
03
0b
06
fa
05
08
fb
fd
0c
fd
09
19
0d
08
14
29
15
16
05
f8
0b
0e
f6
00
15
00
03
01
03
02
03
06
0d
07
01
0d
f1
01
ff
f6
fd
fa
ed
fe
f9
00
ec
e9
03
f0
eb
0b
f3
e8
16
f9
f5
0f
f6
f9
17
f0
f3
0b
06
f1
13
1a
10
00
12
08
0e
13
12
10
05
0c
f7
fe
fd
f2
f7
f0
f2
ea
e9
f6
02
ed
f6
f6
f3
f5
f6
fc
f9
f9
f3
03
fd
ec
f5
fe
07
f0
f9
0f
ee
de
ee
f8
fb
f7
e5
ea
ed
05
f7
f6
06
f4
00
05
0b
0f
fb
fa
00
f9
fe
f9
f0
f4
e2
f5
e9
ee
f5
f6
f8
ff
02
fe
07
fa
05
09
13
09
e0
f0
00
ff
f4
fb
fc
f1
ef
e6
e5
f7
fe
f5
ed
25
29
1b
f0
f1
f2
eb
e3
ea
f4
f8
09
e5
de
fd
0d
fd
06
16
05
00
0d
0c
09
d9
05
19
e5
01
fe
f5
fc
05
1e
0d
09
09
06
ed
0e
fd
f4
f6
ed
ed
fa
fb
05
e9
e9
0b
f5
f6
10
fc
f0
01
f5
f7
08
fc
f5
fc
ef
f9
f9
04
03
01
f6
01
f8
f6
fd
f8
fb
08
04
f7
02
f7
f4
fb
ee
f3
ee
e8
0a
fe
09
f5
ee
e6
fa
12
f4
01
03
ff
fa
09
04
fa
0a
f7
fc
f5
f1
fc
f8
f5
fb
f6
fc
f7
f5
f9
fa
f6
fa
fc
f8
ff
f6
fa
f3
eb
06
0c
f2
f8
0a
ee
04
14
02
f8
0f
10
04
0c
08
f9
0a
08
0f
07
08
fe
e7
f3
fd
02
ef
09
04
02
03
fd
fb
17
11
ec
11
10
ea
0a
fe
e0
f0
e6
e9
fd
ec
e3
f0
f6
1d
16
f4
1c
fe
ed
1c
f7
e3
e7
f8
08
f4
fe
f5
07
07
01
f9
10
18
ff
01
02
ff
06
0d
05
fe
00
10
02
02
09
02
ff
fa
05
fa
00
06
08
fd
04
01
f9
06
f7
ff
02
0c
f2
f8
ff
fb
ee
05
01
f5
07
fd
00
0a
14
08
13
11
14
19
01
fe
0c
fb
e8
ee
f5
ed
fd
01
f4
02
fe
f5
fb
f8
fe
ff
ff
05
fd
00
ee
df
11
1e
23
f2
03
14
09
f5
ed
0e
17
fd
0f
10
06
0d
0b
fa
05
0e
02
16
17
0e
ff
fb
ef
fb
fb
fd
f8
02
f6
1a
11
12
fe
03
09
fe
00
03
f4
f0
f4
05
ef
01
fd
f8
f7
0f
04
09
ff
f0
f8
10
06
f2
09
ff
02
f6
f7
fb
f8
fe
f8
fe
f8
03
01
f8
f2
12
00
fe
09
00
f8
01
09
06
04
04
f8
fc
01
fd
fd
fc
fd
ff
f9
f5
0f
0e
ff
f3
04
fc
04
01
01
03
05
04
0a
0a
0d
fe
ff
0b
ff
00
0e
01
02
05
0d
05
0a
03
f7
fb
fb
f9
ff
f9
f5
04
fe
fd
02
fc
fe
ff
00
ff
06
03
04
0f
fd
f5
fe
07
09
04
fb
ff
fa
05
fd
07
06
0e
0d
02
ff
fa
02
f3
f8
0a
09
08
08
fe
f8
fd
fc
fd
00
00
04
f8
08
02
fc
f9
04
0c
fe
0b
02
f3
f2
05
fe
fd
0c
06
01
f8
fa
03
00
f0
f5
08
f9
f4
fe
f8
06
f8
03
09
f0
fd
fd
ff
04
06
ec
f1
f5
f6
f3
00
04
03
01
04
05
ff
fa
07
06
ff
fd
07
ff
f9
00
ff
f2
04
0e
f2
0d
04
fb
02
f9
f3
fb
f1
01
e7
fe
fd
0c
fb
fa
0b
0d
07
0f
01
08
08
00
0d
03
fe
11
08
fc
11
07
f6
09
ff
00
02
0e
ff
ff
ff
01
f4
07
11
07
00
f6
fb
ee
fd
0f
0c
0e
02
19
07
f9
0c
01
03
0d
fd
03
0b
f8
04
03
00
05
16
0a
01
02
00
fb
f5
ff
00
15
00
fe
f9
00
fe
f9
04
0d
fd
05
09
18
02
02
0b
fc
0d
ee
ff
0b
e7
04
0f
f6
02
02
01
f3
0d
03
e6
0d
15
ee
03
04
07
0a
e1
0e
14
da
05
07
e3
f3
0c
ed
00
ff
f2
06
06
ee
fa
f6
08
ff
f7
06
fe
04
01
09
00
d1
f8
fd
e4
08
02
09
f7
fb
f4
fc
19
0b
fc
14
07
03
f3
fc
13
fc
01
06
ff
03
e7
10
e7
f7
0e
f2
ee
09
ec
fe
f0
f6
01
02
f6
01
ff
fa
ff
0f
02
ff
f3
e4
17
0f
1e
fd
f4
ed
f3
08
ed
fd
fc
ec
1a
19
11
0f
21
21
0d
11
0d
e9
f8
f3
fc
fb
ea
f8
f1
ec
fd
06
f6
06
fe
03
fe
f6
f8
04
12
e6
f7
10
ec
fb
0a
14
ff
f5
ee
00
fc
fe
09
e5
e8
f4
ff
e8
06
0f
ed
fd
03
fe
17
0a
e8
15
0f
e4
17
06
e1
f4
ef
f5
fe
f5
f0
01
fa
f6
ff
ff
fd
08
04
fb
04
08
01
e5
0d
02
eb
20
0d
fb
24
05
0d
18
09
ed
f8
f0
fa
03
16
f3
09
ed
09
03
ed
08
f6
e4
ec
fc
05
f5
dd
00
f7
ef
01
ff
fb
fc
fd
04
00
06
00
ff
08
fc
0f
21
10
1a
2f
0c
ff
03
0d
e6
f7
10
f4
fe
19
f9
27
1d
1a
12
00
11
08
fa
14
10
fd
fb
10
09
ed
12
1d
e5
fe
ef
f2
ff
f8
e4
f3
f0
e8
03
f2
ef
ef
09
22
04
03
20
ed
ef
ed
dc
f1
f3
d2
e4
ed
f7
05
f1
05
f6
ee
18
f2
fa
d0
f1
08
ed
ef
16
e4
f5
06
f8
03
f7
f1
11
fb
f8
06
fc
fc
fa
01
f4
f2
0b
e9
fa
03
0c
f2
14
fb
f4
21
02
f3
1c
f9
03
fa
f0
fa
fa
ef
fd
07
e1
0d
fe
f4
15
06
03
08
0e
04
05
fa
fb
0b
f3
ef
02
03
04
00
f5
f7
f0
f1
fb
00
f5
01
f2
e2
f5
0a
f0
e2
16
ff
0f
f0
ff
1f
f5
f3
10
09
f2
15
23
09
0d
26
07
0c
1b
d4
f2
f9
f8
e1
0a
fa
dd
04
f6
dc
05
0e
d9
fb
12
e7
03
0b
fb
21
ed
ed
21
fb
f5
1f
ef
de
07
02
db
0a
12
c6
09
13
fe
f1
f8
f3
01
04
fc
fd
f4
01
04
f6
fb
f9
00
04
04
0f
fa
03
09
f9
08
08
fe
f9
06
f8
0a
09
fa
0a
11
f5
05
05
08
06
15
00
fd
15
f4
fb
ff
0a
0f
02
13
05
f7
08
02
f2
fd
04
ff
01
fe
03
f8
f9
0d
04
f9
06
fb
fe
fb
01
fe
07
01
09
f9
02
05
fa
fe
04
fa
0c
07
06
0a
0c
03
11
1f
fd
01
ed
0c
02
e5
06
ff
ef
ee
f3
03
03
07
f1
f6
f6
fa
18
fa
eb
f7
fb
f6
05
fb
f0
f7
f8
0b
15
f8
06
0d
f0
01
07
d7
f3
fb
e9
03
ea
ed
08
ef
f2
0a
0a
fa
0f
10
f5
03
11
f2
f0
fe
ed
01
10
f3
f3
e7
fb
08
12
e5
e7
00
fc
f1
f8
00
03
e0
04
ff
f8
f4
f6
fe
fd
f9
fa
f2
fb
fe
f8
00
f7
05
00
17
ef
01
23
10
07
06
fd
ec
f2
fe
10
0b
eb
fa
2b
03
0b
f7
f6
11
0f
f1
fc
0b
f9
e7
ee
f7
f4
f9
ff
f2
02
fb
fd
f9
fb
02
ef
fc
ff
f8
03
ed
f4
13
33
f7
f4
40
22
0d
ff
02
17
f1
f8
39
1f
fd
23
1c
fc
21
1c
fd
fd
07
db
07
f3
e7
02
f9
f7
0c
01
f2
fb
0b
0a
f9
0e
08
e8
f4
06
fb
f7
ff
08
fa
13
0a
07
0e
06
0e
0e
05
0d
fa
13
05
fd
04
fd
fd
09
03
0c
ed
05
fa
00
f7
dc
04
ff
eb
07
0c
eb
f7
ff
07
07
f5
fd
02
ff
f5
ff
01
f8
02
03
f9
f1
fa
f7
ed
11
f5
02
18
fb
00
0d
f4
0e
10
ff
f7
f5
f1
fe
08
03
f8
0d
04
0c
fc
f5
0a
f8
ff
e8
01
07
ee
f1
ff
f1
fc
ff
fb
fd
03
fd
fb
fe
ff
fc
fa
eb
07
03
fd
eb
10
2f
f0
f6
02
13
ee
f6
19
f8
eb
29
f3
13
0d
1a
fa
f8
1a
05
07
0a
06
ff
f6
09
06
f4
02
06
ef
f4
f5
f9
e9
f0
f8
f4
ec
f8
0d
10
f0
f8
08
1f
f2
fa
14
e5
eb
f6
ea
ed
03
f4
ff
0c
f3
f5
08
ec
0a
15
00
fd
fb
04
fe
0e
ff
f9
fa
f8
eb
f0
f2
07
f2
02
20
06
05
0f
ff
f8
02
fe
f7
02
fc
0a
0c
08
00
0d
22
02
14
24
23
16
0f
fa
05
f4
02
16
01
f3
08
17
09
12
18
08
0d
22
0f
01
16
f4
fe
ef
f0
13
fe
ef
06
07
f6
f9
f8
f1
fb
fa
00
06
fd
fe
06
e2
06
2a
00
10
26
23
ef
e5
f8
fe
fb
fa
1a
1e
fa
13
0e
ff
1a
26
1f
f2
15
e6
ee
00
fa
f4
16
03
03
16
fa
fc
01
02
0c
fe
0b
f1
f0
0a
ea
01
01
f5
14
1c
f3
12
12
fe
03
ea
00
05
f3
de
ff
d6
0b
fe
03
13
06
07
02
f2
f6
ff
f6
f5
03
06
f7
fe
08
0a
00
00
00
f9
fd
f5
02
f7
06
f0
08
ff
fd
08
03
fe
0a
fc
0c
02
01
09
06
f7
15
07
fd
00
fd
e2
12
01
f6
fa
ff
f7
ed
f2
f2
f7
f4
fc
0b
02
05
f9
fb
07
fe
00
09
02
11
07
03
fe
04
0a
03
02
02
0c
0f
18
ff
12
fd
07
1a
fe
ef
0c
02
fb
02
fb
03
0d
0a
03
0d
06
f4
0c
fd
fe
11
10
0a
06
f6
fa
01
f7
0a
ff
11
0a
fe
fe
f3
f9
fc
02
f7
04
06
ff
08
10
db
ff
05
f8
f6
f6
00
fc
fb
e9
06
ff
f5
02
fd
f5
02
f8
ff
f5
f3
01
03
f5
01
fa
f0
07
f1
ee
01
eb
e9
fc
03
fd
05
fc
03
fb
f7
fd
fc
04
f7
fb
ff
f6
fe
f5
ec
f8
f4
f7
fa
f6
f2
fa
ed
f8
f4
0c
07
01
f0
ee
f7
f4
fa
0d
f4
ff
fd
fc
fd
f9
02
fb
01
fa
00
ff
02
08
05
f5
ff
f6
02
fc
01
fd
fa
05
00
f9
fe
05
02
04
fd
0a
fd
0b
06
02
fe
fa
f9
00
f6
f8
f4
f6
e7
0b
00
10
02
0a
02
fc
fe
02
fc
fd
06
f7
fa
00
f3
f7
05
f9
01
00
f3
00
fa
fb
fb
fd
ff
f3
f4
f4
e3
f5
f5
f4
f9
f8
07
f3
04
00
f7
01
06
f9
fc
05
fe
fc
f5
fe
03
04
f9
0d
f2
d9
0e
fb
f7
0a
f8
ed
00
fc
03
04
f3
15
fc
ef
19
f9
08
0f
f6
fe
07
f5
fb
10
f4
17
f5
00
08
fb
0a
00
04
0c
fe
0e
ed
0e
0c
e7
0b
ed
fa
fa
ff
0c
00
fc
fd
f8
04
0a
fe
18
1a
f8
0d
fe
ed
16
f7
ff
fd
00
00
01
fb
06
0c
e2
e5
14
00
e6
fc
1f
ff
0d
14
19
f9
0f
07
f5
0e
0b
fa
15
1e
24
23
18
25
2b
18
25
10
06
0e
1f
12
0c
09
06
07
f2
f9
f4
ea
07
fc
ef
09
fa
fe
17
08
dc
12
13
d4
12
09
f7
01
ff
f0
12
00
f8
06
01
01
09
fd
04
07
ff
0d
07
fe
fd
f7
ff
07
f7
fc
01
ed
06
fe
03
fa
05
04
03
01
fd
05
01
fb
04
fe
f8
00
07
fb
03
02
06
ff
ff
08
f2
03
01
f3
02
01
0a
10
0b
0d
0d
11
12
06
05
08
06
0d
05
07
0a
07
fd
02
fe
01
05
f6
ff
09
f2
fe
fd
04
02
fc
00
00
fc
01
f9
f3
f5
05
fd
e9
f8
00
ec
02
00
f9
03
09
05
01
17
ff
06
02
0b
01
fe
0d
07
fe
18
fc
0c
05
05
04
05
05
08
f6
0b
ff
ff
fe
fb
05
fc
00
08
fb
f8
e2
f2
f0
e3
f8
fb
f4
f7
05
f2
fb
fd
fe
fd
fc
ff
ed
f9
f4
f5
f0
ee
02
fd
04
fb
fa
01
f3
01
11
02
04
09
03
08
f9
ff
fe
f6
ff
fc
01
05
00
05
05
fe
06
04
04
ff
f3
f8
07
fc
f6
fa
f2
00
f8
f8
0b
03
fe
f7
fb
f7
06
15
f7
fa
03
00
fd
02
00
01
f7
f5
0a
f8
fd
06
02
f3
fe
fc
07
00
0a
02
05
08
06
fd
06
fc
f9
f5
fa
01
08
f6
04
00
fd
fd
f8
06
0b
09
08
03
00
05
ff
00
10
0d
0c
03
01
08
fe
fe
06
03
00
02
fb
03
fd
05
05
02
fd
06
03
02
0f
05
f7
f2
fd
fc
f8
fd
f3
f6
f8
f7
0e
11
08
05
f3
04
03
0f
f7
f7
f5
fd
f8
ff
d9
e7
f2
f4
03
06
f0
fd
05
ed
fe
0d
01
09
04
06
0b
02
f7
07
05
13
0f
06
12
0a
fd
0c
07
01
fd
03
f6
fb
09
fc
f3
fb
fe
0d
fe
05
01
0c
ff
10
08
e9
07
fd
fd
01
07
01
ef
f9
ef
f3
00
ff
f1
04
07
fb
fd
f9
0b
05
02
04
07
08
09
07
08
05
f4
ff
0e
fb
04
f0
f7
e9
1d
0e
0d
15
12
f5
0c
12
f6
0e
f6
f6
07
ee
05
17
11
22
1f
18
06
18
13
fd
1a
1a
fe
13
0b
0c
03
0c
00
0a
0d
05
d6
f0
ea
dd
fc
f1
ec
f6
04
e5
f4
ef
e5
fa
ee
f7
fc
f0
04
01
fd
01
fb
05
08
03
0e
fa
fc
f8
0c
00
05
09
00
01
01
00
11
fc
04
09
01
f6
04
04
05
01
f9
ff
fb
fc
04
04
12
06
0b
00
09
19
08
0d
05
08
09
07
fc
05
fa
03
0f
03
f1
04
06
04
11
0d
07
03
03
05
0f
15
fd
fe
05
0b
fd
0b
fc
fe
02
fa
02
fe
fa
07
fe
f8
e1
fa
fa
01
01
03
07
f6
f4
fb
f4
f6
f9
f1
fd
05
04
05
0b
f7
01
00
fa
00
fb
0e
0a
0b
f9
fc
fd
fa
02
1a
fc
0c
fe
fb
0c
12
f6
04
03
00
fb
08
fc
f6
fd
18
05
0e
24
fe
f5
ff
fd
ed
f8
ef
f4
f6
01
fd
03
fa
f8
f8
18
06
fa
fc
fa
09
f4
02
09
f4
f5
fb
02
05
ff
ff
04
f2
00
fc
fd
00
fc
fe
02
ff
00
fd
f5
f7
ff
ff
02
fa
f9
fa
00
08
06
14
0e
11
f2
e6
eb
f8
f8
ff
f6
fb
00
fe
f2
01
00
ff
fd
fc
fc
f9
04
09
fe
fe
03
fb
fb
fe
03
fc
01
02
ff
f7
fd
f4
06
f8
f1
fc
04
0c
0d
0e
fb
07
04
fd
fd
fe
f7
f2
ef
0d
00
f9
0b
08
0c
fa
f5
fb
fd
01
04
00
fd
f7
e0
ef
fb
f9
f1
f0
f3
fd
fa
f7
fb
ee
f8
02
f4
fd
f9
03
02
16
0e
09
10
ff
03
10
08
f9
0b
08
d5
f3
f1
fc
fb
05
f3
f8
08
fe
fb
f8
0c
0e
06
03
04
0c
01
10
fc
f8
f3
ea
f5
05
05
02
0a
fe
f5
f1
f8
fc
f6
fb
00
fe
f7
0c
01
ff
fd
04
f3
f3
14
00
f8
0e
0a
02
fd
fa
fc
ee
fe
0b
fd
03
00
03
03
09
04
04
eb
f8
e8
fd
08
fe
01
09
02
f4
f5
f5
f6
fa
fd
fa
01
0a
ef
f8
fe
04
09
17
f8
18
0f
f2
f3
f4
03
fc
fe
09
06
06
0b
1a
17
fd
00
04
03
08
10
e2
ed
eb
f8
e6
f1
06
ea
f1
01
fe
06
09
0b
ff
fa
11
01
e8
fd
dd
f6
08
ff
03
fb
09
08
04
05
0b
05
02
03
fb
f9
fb
f4
ef
05
f3
eb
f6
fe
01
02
02
ff
05
f7
fe
fc
f8
06
f8
f9
fc
f7
fa
f8
00
fb
03
ff
04
f7
05
02
fa
f7
fa
fd
05
f7
f9
f9
fd
f7
1a
0d
07
fc
f0
f0
0f
fc
f0
05
fc
00
01
fa
02
0c
02
03
fe
fa
00
f7
ff
ff
ff
fe
03
fe
02
fe
ff
fb
04
fd
ff
fd
ef
fe
ed
f5
fe
f0
07
f7
01
05
02
03
ff
fa
05
fd
f6
07
0e
0a
01
f9
05
07
03
01
0e
07
f7
f9
fd
fe
04
00
fa
fe
f7
f8
f8
00
f9
f9
00
04
04
ed
f5
f6
f7
ee
fc
05
ea
e6
f8
fc
f1
03
08
f4
04
06
0c
0b
ec
fe
0a
f3
10
0c
fc
09
08
fe
f6
20
08
f4
12
0d
05
ee
ee
f9
f8
fc
f5
f0
ed
f3
fb
01
fd
f8
02
fb
f6
fd
fe
fa
f0
15
e3
f4
19
f4
fc
15
26
15
f2
09
f1
ec
f5
f4
ff
ec
09
e6
09
12
f0
17
0a
ec
f5
ee
02
f2
f7
f9
09
e8
05
fc
06
ff
fa
01
f8
f9
fd
fb
e8
0b
12
f7
0e
15
1b
34
e9
ea
09
0d
d7
f0
08
d4
ee
f8
1e
18
2b
08
f9
12
ee
0f
f8
f2
ff
f5
ea
f3
f2
e5
f7
ee
fb
03
04
f0
fe
fe
03
fc
ee
01
f3
ff
05
e5
1e
19
eb
1a
ee
f8
f0
ee
f7
fb
04
fb
01
fa
02
fb
fb
fc
02
ff
fd
07
05
01
07
0e
03
08
0b
ff
05
f6
f0
f0
f4
f9
fc
08
00
f5
01
fc
00
ff
fd
fd
00
09
00
fc
f9
f3
f7
fb
fe
00
02
f5
0f
17
12
07
f6
ef
02
fb
f4
fc
ff
f9
f8
f5
05
01
05
00
f9
fc
f3
f4
f9
f2
f8
fa
00
06
03
00
02
05
05
fe
06
00
08
08
0b
0e
04
02
f5
03
f7
f9
f9
f4
00
00
f6
f9
f3
f7
07
07
01
0b
1a
0e
0d
0e
0e
04
ff
f7
16
09
0a
08
0a
04
ff
04
ff
fe
02
03
06
01
f5
f8
02
06
ff
f8
f6
02
f6
f4
f5
f8
f3
f6
06
fa
ff
f6
f3
f2
fc
fa
fc
06
00
f5
ea
e0
06
0d
14
fd
0b
0c
fb
07
fd
fc
00
f6
f8
fa
fd
f7
fd
f0
0a
08
01
05
01
05
08
06
fd
f9
fd
0a
ee
e9
e6
f5
02
f9
10
0b
05
e2
e7
f7
0c
ea
e8
00
ff
fa
fd
f3
f3
11
0a
0a
f4
f2
fc
fc
f4
f0
fa
f1
f2
04
05
03
fb
03
0a
01
ff
01
09
ff
07
fe
ef
f8
13
01
00
f9
fb
0c
13
fc
14
29
19
11
16
06
06
23
06
fe
11
0c
1c
01
03
fe
0e
10
14
09
0b
11
fb
fc
fd
0a
03
f8
06
fc
01
f6
d1
ee
f8
e3
db
f1
e9
df
07
0c
f4
16
08
f3
f5
ff
ed
0d
01
0c
0b
fb
02
09
0d
07
04
ff
f8
07
f9
f3
00
f6
f1
03
08
08
02
fc
05
01
06
04
06
02
ff
04
05
03
fd
00
01
0d
04
ff
ff
08
03
08
05
0b
04
00
0f
fc
fd
0d
03
08
fe
f4
f9
f4
ff
fa
fb
fe
f9
fe
03
ff
09
05
fe
03
08
05
01
01
ff
03
04
04
02
fe
01
03
02
0d
01
10
05
08
09
07
ff
00
fa
0f
09
03
0b
ff
fc
06
03
0a
04
02
05
04
0a
0e
08
fd
0d
fc
04
04
fe
fb
02
fd
fd
f8
f5
f7
f8
f8
07
fd
fc
0f
10
06
08
08
08
08
0c
17
f4
fb
fb
f1
07
ff
fc
02
fa
04
fc
05
08
f6
08
17
15
0b
f1
f1
10
f7
f8
0d
fa
fe
02
06
07
fd
fc
07
f7
f9
03
f3
03
fd
01
08
fb
fe
fb
fc
ff
fd
fd
05
01
fa
fe
f4
03
0d
15
10
ff
fe
f8
ea
ed
f9
f6
fa
f8
f9
ff
f3
fd
00
ef
f4
fc
ff
fa
02
03
04
f6
07
fb
00
01
00
00
ff
04
00
fe
fc
0a
0c
0e
fe
08
09
fa
fb
0f
fd
05
09
02
02
03
fd
f9
f6
fd
02
07
05
0d
0a
fe
f5
f0
02
06
03
f8
07
08
f0
00
09
f8
fd
f9
ef
f1
f9
f0
fd
fa
f5
f6
f2
01
f2
ff
f2
00
0b
06
0e
f2
fe
ff
ef
e9
01
07
f9
f9
f8
ff
02
fe
06
fb
f6
f1
03
03
0e
15
0f
04
12
14
f8
fa
04
fa
05
fc
02
04
f2
f8
04
08
fe
fd
01
fb
04
06
fc
12
ef
02
04
fa
ff
f9
fa
04
03
f8
f4
03
fc
0a
fe
f8
fd
09
07
fa
08
05
0d
09
05
f3
02
00
07
07
06
fe
01
fd
ff
fb
f3
01
fa
03
05
00
02
09
0c
0b
05
02
0d
08
11
14
ef
00
fd
00
f9
02
ea
ef
ff
ef
f2
e9
05
fc
ee
04
06
f7
ef
07
fd
f2
fa
03
fe
ff
fc
f1
f6
01
f4
04
06
f5
fa
04
08
02
f6
ea
fd
0d
ed
03
e9
f7
07
09
0f
16
11
04
0a
0e
09
03
0c
1b
12
17
03
f3
07
0b
0d
fd
12
0b
02
f3
f6
f9
03
08
03
03
05
ff
ff
fb
17
07
ff
f7
03
05
fc
fa
f8
f6
f5
fb
09
f1
04
10
fc
09
09
07
ff
fd
f1
f3
f6
01
fe
05
fc
fd
f3
fb
01
01
f6
fd
f5
f5
fd
04
08
07
01
fd
e8
05
09
08
08
fd
fc
fe
fe
fd
fd
ff
f0
01
ff
fb
ff
0b
09
0a
07
f3
f0
10
f4
f9
01
f8
fb
0e
fc
08
0e
0e
10
1c
12
01
01
03
00
03
01
f9
e9
fa
fe
05
08
f9
f9
f5
fb
eb
ed
e7
f5
ef
f6
fc
f5
09
03
da
17
05
fd
00
0b
09
01
f5
e8
f0
05
09
07
05
f6
e6
f6
f4
f8
e8
ee
f0
f9
0c
09
0c
24
22
e8
fa
f9
e3
ed
f5
e3
ea
e8
e7
e7
fc
e4
df
f8
c0
dc
ee
ed
f2
08
e4
ef
01
f5
e8
f9
04
01
f6
f9
ef
e2
eb
00
f6
e2
f2
e6
fd
0b
fa
0e
10
08
ef
fa
00
f7
fe
06
e9
f9
03
ee
f8
ff
ee
f3
f9
e1
e8
e5
ea
fc
09
ef
f2
e9
eb
f3
d4
fc
dd
f2
e4
db
e6
d9
d0
c0
fe
fe
fb
02
f3
dd
fd
ee
f4
e9
e8
f3
e2
e7
f3
ce
ce
c8
f6
0a
07
e1
e1
e3
13
10
0b
d9
06
05
d9
ff
0b
e9
f4
f9
fd
f3
fb
11
06
06
35
24
17
06
fc
03
f8
f0
01
00
f7
f3
fb
f0
00
f5
f1
fd
ef
f4
0e
09
fc
fc
07
02
fd
f5
fe
f6
ff
f8
01
03
02
01
f5
f2
ff
00
fd
f8
fc
ff
f4
f5
e7
eb
08
fd
0d
e8
e6
ee
f8
f7
00
fb
f5
ff
fd
fd
fe
01
06
08
fa
02
fc
07
0b
07
f9
07
fc
f8
fc
05
00
01
06
03
ff
fc
0a
06
00
fa
03
f0
fa
13
10
02
06
07
05
02
03
04
04
06
fb
fe
10
05
0b
04
fa
fb
01
07
f8
09
0e
f6
0d
04
03
fd
f7
f7
ef
fa
fa
05
f8
02
f6
fc
fe
01
fc
eb
f2
ef
06
f9
fe
03
e9
02
0e
f7
0a
0d
f4
f0
f0
f9
02
fd
fa
0d
03
04
0d
1e
1b
15
25
20
f4
15
02
fa
fd
f0
fb
f6
ef
ea
f3
e6
f3
e9
f8
ea
e4
fd
df
e5
f9
e9
e9
f6
ef
e3
00
fc
f2
0c
0a
f9
fa
e5
eb
d7
f9
05
f0
f4
ed
e4
fc
07
fd
04
06
fa
04
f6
fc
03
ff
03
fe
ed
e9
00
fe
09
df
e9
e9
e6
e6
e4
f3
e6
ea
e4
fb
f6
0b
f8
d8
fe
ee
e2
fc
f2
d4
e8
e5
e0
0d
00
f9
0b
f7
e1
0e
df
e0
ef
ec
f4
eb
03
df
ea
d1
d6
05
17
08
01
0b
11
09
ff
fa
d2
fd
e8
d7
ef
e7
ec
ff
ff
1d
10
04
1c
17
20
13
fd
0a
ee
eb
0a
e4
fb
00
ec
e3
03
f9
f8
05
fe
f6
f7
f9
eb
dc
03
04
05
f3
f5
f7
eb
f9
eb
fc
f8
f5
fd
07
01
02
0a
0c
e2
e0
0d
eb
fb
0b
f1
0c
04
1a
06
07
01
ea
fa
03
e7
17
f5
06
f9
12
04
fd
13
f4
f4
f8
fb
fc
f1
ef
f7
ef
f5
f5
00
09
02
fb
05
06
fc
04
07
07
f5
fa
f7
12
04
09
02
0c
fb
f7
f9
fb
03
f8
f7
0d
fd
15
12
00
0c
13
0d
0b
28
18
f7
00
00
01
07
01
f2
fd
f9
f4
f6
06
02
ea
f7
08
e7
05
d8
d7
03
c8
cd
18
d8
fe
28
fb
f3
e7
f2
f8
fa
e4
eb
ef
e9
ff
03
fb
06
0c
ec
fc
f9
f7
05
f8
15
1a
13
00
07
fc
ef
03
f5
f4
fd
f8
e9
f2
fe
04
04
06
05
04
06
06
07
02
08
0a
1c
02
03
25
0a
07
15
02
06
fc
ea
09
01
f0
f6
f7
06
06
f7
0e
0f
fc
04
04
f4
e2
fd
eb
eb
ff
f1
e8
f9
f2
05
0e
0d
fd
01
07
04
06
06
0a
1c
0d
02
0e
ef
fe
1f
f7
fa
01
0a
fd
f9
00
ed
e0
fb
12
0e
fe
f4
f6
f5
ef
e5
f6
0a
0f
12
04
00
fa
fa
f7
02
0a
03
f5
0e
03
f7
03
04
ee
da
0b
06
e3
fc
04
e7
0b
fd
fc
ec
df
07
05
de
08
f6
de
eb
e2
dc
03
0a
ff
13
0a
01
f9
f8
f8
f9
f5
00
f8
f3
fc
e7
f7
05
0e
07
fa
f8
f0
04
fd
01
07
fd
0a
08
fd
0e
0c
07
f5
f6
fb
00
0a
04
03
fb
f2
fa
08
f9
fc
f0
fb
f3
eb
12
12
0a
19
1f
22
fb
07
02
f7
f0
f7
04
f3
fe
0a
ef
fd
00
03
04
fe
04
01
02
03
0d
00
e1
f9
10
19
17
01
05
17
fd
f3
02
f6
f5
0a
02
07
12
0e
00
dd
fb
f7
fb
12
10
fd
ed
ef
09
02
08
0c
01
06
0e
fd
09
fb
0b
0b
fe
fa
0e
00
02
ec
dc
02
f1
e4
fe
e4
fc
20
ea
ee
12
fb
fe
0c
dd
e8
f0
f0
fb
f1
f0
ff
d2
f5
03
f8
0a
0e
fd
23
1a
ec
11
10
ec
04
e4
f8
f7
f5
f3
fa
ee
f0
e5
f4
f3
eb
db
ec
ec
d7
07
ef
e9
f7
e1
e3
f8
ec
fe
e9
f5
e7
e1
00
e7
ee
fd
ee
fc
ef
f1
02
02
05
0e
0c
12
e5
12
f5
f5
0a
ef
db
11
dc
f5
fe
00
f2
ec
e3
ec
ec
e3
f5
ed
e7
e1
d3
c9
f8
eb
f0
f6
e9
d7
f2
e5
da
f0
e5
dc
f2
ef
de
f4
fc
f2
ec
df
c1
e4
e3
e0
dd
e4
c8
ef
e2
d4
0a
fa
03
0e
0e
18
10
0b
1b
f2
02
f2
08
fd
fa
ef
08
e5
06
0b
0f
09
11
21
00
09
0c
04
00
02
11
06
09
10
05
18
f0
06
ff
f8
f6
f9
f8
fc
fe
00
fb
11
06
fc
01
04
fe
08
05
fa
02
fd
ff
fc
fd
f7
fc
11
ff
02
0f
fe
0b
02
f9
00
00
03
ff
f3
02
05
f2
fc
01
fd
fa
00
f1
f8
02
fa
fb
fa
f7
00
00
fa
02
f8
fe
fc
09
05
fc
00
03
02
fd
fe
00
ff
08
08
0b
00
0a
06
f3
09
fc
00
00
ff
01
fd
ff
fb
fc
f7
00
00
f8
f9
ff
ea
09
04
fc
fc
08
fe
01
03
00
f4
fc
ff
f4
f3
02
fb
fe
03
fa
f5
fd
03
f7
fe
0c
f6
10
ff
f6
0e
f3
fd
fd
f9
00
fb
f1
f5
0e
f0
fd
e6
f1
08
e7
f0
ff
e3
09
06
ff
f8
07
fa
e9
f8
f1
03
ff
f5
fe
00
fd
fa
09
03
01
fe
f2
04
fd
01
02
fb
00
fb
fc
f2
04
f5
f6
fd
fc
fe
f1
fd
e7
05
0d
0d
fd
0c
fd
10
ff
03
0f
00
07
01
f9
0a
f7
05
f5
fb
04
f0
f4
08
f5
05
fa
02
fe
04
04
04
05
0e
14
07
06
fd
f3
f4
09
fd
fc
fd
fa
f8
05
08
f5
01
02
fa
fa
e9
e7
03
00
0b
0f
ff
fc
0b
07
09
04
00
f9
fc
f6
f7
fc
f5
09
fe
fd
06
f9
ff
08
fa
11
eb
f9
05
fa
f0
fe
fe
f5
00
f2
fd
f8
f6
f4
ff
eb
f6
02
f8
03
01
fc
f8
02
fd
07
f7
f4
08
01
f9
fd
00
f7
00
06
fa
fb
f9
09
fb
09
04
fe
ff
02
04
ff
fc
07
fe
fe
f6
07
07
f8
0a
fc
fd
0e
fd
0d
00
06
f9
06
fb
01
06
03
00
02
05
06
01
04
03
f8
0a
fc
fa
03
f9
03
f4
fb
01
f6
00
04
06
fb
fe
ff
fa
fd
fc
f9
0c
f8
02
f6
05
f9
f5
f7
09
02
02
05
01
f0
06
00
f9
06
0f
04
08
09
06
05
f8
ff
03
03
f8
0b
f7
fc
fe
02
f1
01
f2
01
05
fb
03
06
fe
08
00
0c
fa
08
0d
fc
09
03
f9
ff
06
fb
ff
fe
fc
fc
fc
fd
f8
00
0c
f3
ff
02
f7
0b
ff
fd
06
01
06
f7
fc
fe
ff
fc
f9
fe
0b
fe
04
05
fd
07
08
03
fd
fe
05
fa
fe
fe
f9
00
0a
f8
f8
06
02
fa
fa
08
fd
17
f5
00
0a
05
05
10
04
04
05
ff
fd
01
03
07
0c
06
07
fe
f8
0c
f8
09
0a
fb
00
08
ff
04
01
00
03
00
01
07
04
01
f6
f9
f9
00
fb
04
0b
fd
04
ff
fa
0c
fc
fe
04
08
07
0e
fd
fa
0b
0f
05
13
fe
07
05
fc
f8
05
0d
04
fe
0f
04
02
02
04
00
09
0a
04
09
01
13
02
f2
07
00
01
08
06
fe
0b
01
ff
fc
08
fb
ff
0c
f7
f9
f9
ec
fa
f8
fa
f5
f6
f2
09
0d
0e
ff
0a
12
06
03
0f
f2
f9
fd
f5
fe
f3
f8
ff
f5
fd
f8
01
f7
fc
f9
f6
fc
fd
05
08
fc
0b
08
02
fc
08
f6
e7
ff
08
f1
ef
01
f4
f9
fb
fe
fb
fc
0b
01
02
03
0c
08
07
ff
fb
f6
f4
fd
fc
fa
f5
fb
fb
02
fa
f9
fd
f9
f5
f7
02
0e
ff
fb
f8
fa
0a
12
06
fb
f2
ef
f7
f9
eb
ef
f1
f2
14
09
03
06
0b
04
05
fb
01
e4
ee
f7
ec
f0
f8
e7
f8
f9
08
0c
09
0a
07
0e
03
06
07
f9
05
03
f5
05
f2
12
f5
f2
07
12
00
13
0d
08
0b
04
05
f8
0f
07
0c
f8
fd
06
16
00
05
03
03
fc
01
04
03
fa
0b
f6
04
03
01
03
08
06
0e
12
03
02
01
fb
08
04
05
0b
ff
f9
00
07
02
fa
03
09
f4
f5
f8
ff
f2
e6
fe
fd
ef
f2
01
0c
04
01
02
fc
07
f6
0a
0a
07
fe
ff
fc
0c
04
08
01
fd
00
fa
09
fc
01
01
06
09
0c
07
fa
ff
08
09
09
0e
0a
0e
10
12
0c
17
10
08
0f
f6
0e
fd
05
16
06
f7
e6
12
e5
ec
07
12
00
07
0d
10
ff
11
12
05
03
13
f5
f5
06
f8
f7
06
12
f0
f0
00
0d
f7
f9
07
06
f9
02
09
ed
fc
0c
f6
17
00
00
e9
00
18
e9
f7
0c
f7
e2
ef
f1
f2
ed
fb
01
f3
fc
08
01
00
fc
f8
04
fa
ec
f7
ff
0c
fe
fb
fc
f2
fa
fa
f9
01
06
04
f6
f2
fe
0a
f2
06
11
ef
1e
04
0d
16
05
ec
0e
07
02
00
f7
f6
00
0e
f4
0d
13
fe
04
f9
f6
08
03
03
f8
06
08
07
08
fe
f9
fd
fe
f1
fa
09
06
f4
04
0a
0a
f7
20
fe
13
03
06
0d
0c
ec
15
fd
ef
f9
16
ff
1f
1c
fe
2b
08
f0
fd
f9
0a
f9
fd
03
fd
f1
fd
e7
fd
fe
f6
07
10
f3
fe
04
25
0b
03
02
e7
ed
ec
f0
e9
f3
00
06
ee
0d
08
f9
16
09
05
0b
0f
e7
f1
08
f5
ff
12
f9
f7
d9
06
0b
f8
1c
10
00
f0
eb
f5
f7
f2
f7
f2
ec
f9
f9
f4
f7
fc
06
04
f2
fb
01
14
0d
0a
05
ff
06
03
09
14
d3
dc
e5
fc
0d
08
05
04
fe
12
05
04
05
0d
fd
f3
07
01
ee
ef
fd
eb
f5
02
e0
f3
f4
06
fb
fa
06
12
0a
fc
06
09
1e
18
1e
07
01
14
09
0c
17
fe
f1
f3
0b
06
fe
1c
01
fc
01
00
f2
0a
fe
f5
05
09
fc
05
03
05
f3
fb
03
fb
03
f5
07
fe
02
f3
f6
e2
ff
07
f0
e4
e6
f7
ea
f3
fe
d6
f9
0a
dc
ed
e7
01
fa
fb
12
06
e3
0d
04
06
06
00
f7
07
09
04
f7
07
04
01
06
03
fa
0a
fa
04
05
ff
00
01
00
fa
06
03
06
04
00
07
01
06
03
03
02
fc
0c
00
06
02
00
04
06
fe
ff
fe
f2
f8
01
03
18
07
09
fb
02
f9
04
01
fb
05
0d
07
f3
ff
f9
01
f8
ff
04
00
07
02
01
ff
06
03
fd
08
02
02
ee
ff
0d
ea
ff
08
05
02
fe
f6
0c
00
02
07
01
00
05
03
05
04
fc
f9
01
f8
00
03
f7
09
05
05
fd
fd
09
f4
07
fa
fa
fe
fb
f9
fd
02
fe
fe
00
07
ff
05
f8
f9
f9
f8
10
05
fb
f0
00
06
ff
09
fd
fa
fa
fd
ea
f5
fc
ec
ef
07
ed
f3
1b
e6
f6
1a
e9
fa
11
dd
f3
02
ee
0e
fb
f1
08
06
ec
11
f7
08
0c
ff
0a
0f
08
0d
07
f7
08
d2
fc
0e
d6
04
08
e3
0d
f5
0e
f5
dc
f7
08
06
07
10
03
fd
10
08
f9
f9
f9
f5
e9
ea
fe
ed
eb
03
f8
ec
06
f9
ff
04
fd
ff
ff
fa
fe
03
f0
ff
f4
09
01
0e
23
ef
11
de
f6
ef
ed
fd
f2
07
fd
fb
0b
1c
1b
05
1b
17
0b
17
02
04
0a
ff
04
05
04
17
f9
f2
f0
06
f9
e3
04
f9
d8
ff
fa
fd
e2
e5
f1
fe
ef
f2
0a
06
fb
f1
e1
f0
e1
ef
ef
d9
e0
f8
f6
f4
f1
fa
f5
f0
f6
fa
ed
f2
01
f0
01
04
f5
fc
07
fe
ff
03
f8
05
0b
00
01
01
01
fb
02
00
f5
fb
ff
f9
04
f3
00
fe
f0
ec
fd
f7
f1
fb
10
fa
f4
06
f8
ef
00
f7
ea
ff
00
08
fa
02
00
0f
06
ff
ee
f3
02
f7
00
05
f2
f7
00
03
03
02
03
ff
f8
00
f7
fc
fe
04
fe
fb
fd
03
00
02
06
03
fc
08
06
f4
ff
07
07
08
05
f2
f7
0b
02
f8
fd
fa
ef
07
05
05
02
fe
01
f6
08
f9
f5
fd
fe
f8
fa
f9
02
fb
fc
e4
d5
e8
e3
d9
ed
ea
eb
ef
0b
15
01
0d
09
00
fd
09
ec
ff
00
02
00
08
fb
02
fa
fa
0d
03
0d
09
06
01
03
02
0c
09
0e
fe
03
08
fe
f9
05
fe
ff
f9
f8
fd
01
03
00
fb
00
09
fd
0a
f5
01
f8
fa
f5
fc
0b
10
fd
02
f3
ef
01
0b
fe
f7
f4
03
f7
fe
f8
f9
f8
fa
f8
0a
09
f4
07
fe
fa
03
f5
01
02
0c
03
ff
f9
fc
04
fe
ff
ff
f2
08
f4
05
f9
0b
f7
f5
f6
f7
fb
ff
fd
f8
04
06
10
02
03
0b
05
0e
08
0b
17
01
f9
0a
f6
f3
04
e7
fc
f7
fd
08
05
03
02
fc
f7
f8
05
fc
f9
08
fc
fb
11
f2
04
00
ff
05
12
f5
07
01
fc
00
0a
f1
ed
03
fa
ea
fa
05
ef
ff
f1
fb
0d
fe
04
04
f7
04
00
0c
01
02
08
07
0d
fa
f5
09
04
00
03
05
fc
07
0a
fc
06
0f
00
ff
0b
07
fb
11
06
f8
0a
04
06
01
03
01
0a
08
05
ff
07
0e
05
07
ff
fc
fa
00
01
fb
05
f6
00
05
01
02
06
03
05
02
07
fc
fb
fd
02
01
06
09
07
06
00
0a
09
12
06
ff
02
fe
0d
ff
fe
09
0b
fd
0d
0e
0b
07
fe
fa
01
05
f6
fc
fd
08
07
f6
11
10
02
0d
02
11
02
02
f8
fb
03
02
ff
03
eb
0f
fe
f6
05
10
ee
ff
08
05
fd
0e
03
f7
10
0c
fe
04
f6
ec
03
fa
ff
e9
e2
f6
eb
02
0a
02
0f
16
f5
01
11
0d
ec
eb
03
f9
fa
f0
01
fb
f5
f3
f0
f5
e9
dd
f0
f1
ea
03
16
09
f6
05
fe
ef
01
08
04
f2
ee
fa
fa
f6
f7
f5
f0
11
06
fd
0d
08
08
fe
10
14
f9
ee
f9
fb
00
f3
e9
f5
f7
f8
06
f9
e8
ed
f4
ea
ef
e8
0a
f3
ec
fc
d5
cc
15
04
fd
f9
ea
e3
ff
f1
e7
07
f7
ee
0f
0f
fe
12
11
03
12
ed
d8
f1
ea
dc
ee
e5
c4
ef
f2
d8
00
01
f1
06
0d
1b
ff
07
07
12
ec
07
04
f6
0c
e2
f4
ff
0d
0a
11
0d
13
12
ff
0d
fc
05
01
07
04
f5
fe
19
fc
f4
fa
f8
02
fc
fa
03
f8
f9
07
05
fa
fa
ff
05
fa
04
fb
04
07
fe
fe
04
ff
f9
fe
f1
fa
f9
fe
08
01
01
02
fb
ed
fe
0e
fc
05
fa
ed
ef
f0
f7
00
fe
06
fd
03
fb
04
01
07
08
01
f9
f4
07
06
fc
05
04
03
02
fd
03
02
fb
00
fe
f8
f4
00
02
06
ee
01
01
f8
02
0d
fa
07
fd
02
f9
fd
f9
05
06
07
0f
0e
0d
0b
0f
ff
0b
fd
0a
08
07
f7
f2
f7
f1
ed
01
ee
04
fd
f0
fb
ff
f8
ff
f3
f3
f5
ec
fb
ef
fa
04
03
fa
0a
01
f5
01
07
03
0d
0d
fa
f4
f9
06
02
ff
05
04
fe
07
0c
fa
01
03
04
04
04
fe
07
fb
ff
05
ff
02
ff
02
03
fe
fd
fd
01
fd
fe
fc
fc
02
04
fe
ff
04
02
06
02
00
f7
f9
04
fc
fd
fb
f4
fe
fe
fd
04
05
f9
ff
fe
05
ff
01
02
fe
fd
fc
02
fc
f6
00
02
f5
fe
00
fe
03
01
ff
02
00
fe
fc
04
ff
ff
0f
fa
fe
0b
09
01
fd
fc
fc
07
04
fe
07
00
08
fc
f8
f5
00
ff
06
ff
02
ff
0a
fa
fe
05
06
07
0a
05
0e
04
fd
03
06
fc
fe
fa
02
01
f4
fd
0b
04
fd
04
ef
06
fd
fe
02
04
02
04
fc
fd
04
fc
02
09
fa
0a
06
07
0b
0c
0f
00
09
00
00
0f
01
fc
0c
02
f2
04
09
ff
01
09
07
fa
0b
fd
fe
fb
fd
fe
06
ff
ff
02
15
ff
fb
0b
fc
02
fe
ff
05
01
0c
0c
06
03
f9
00
08
ff
f9
f5
00
f7
ff
08
00
ff
09
fe
04
ff
fe
07
ff
03
05
05
fa
06
03
03
06
05
03
06
00
06
09
02
ff
05
05
02
19
18
fd
fc
02
f0
01
f2
0d
12
fe
0a
fa
05
f6
fc
00
fe
0c
01
f2
01
02
02
01
0a
fc
06
00
f8
fd
f5
01
fe
0a
13
0d
0f
10
fc
18
ff
ff
0a
f5
f5
0a
fb
fd
f8
03
fd
0e
04
0e
0a
01
f3
f1
15
02
fb
0a
fe
ed
f1
f4
fd
01
f3
fd
04
f4
00
f2
f5
03
f6
fa
05
fc
04
0b
06
01
f9
07
fe
f7
03
fe
fc
03
fc
f6
ff
ff
f5
02
0c
04
01
01
0d
03
0b
01
f8
03
ff
ec
ea
fe
eb
f2
03
f0
f3
ff
e8
fc
ff
f4
ff
fe
fd
02
0a
f9
fe
fd
f9
ff
f9
04
fd
fa
f3
fe
f0
e0
e4
f7
00
f0
e9
08
fc
f6
05
fe
f1
f3
08
e5
f8
01
05
04
02
ed
14
1c
fa
05
05
f7
ff
06
eb
03
fc
eb
ed
f1
0f
f3
f8
1c
f2
f5
11
09
18
f4
02
06
f1
05
00
f4
f1
04
f8
ee
0b
10
e5
0a
02
00
06
1a
07
13
0f
17
1c
2a
ff
03
08
05
16
0c
fb
f5
fc
f4
f8
f3
f4
f7
ef
fb
f8
f2
02
f9
02
fe
fb
ff
06
fe
01
06
ef
02
f6
fd
11
f7
09
12
e7
e7
dd
ef
f4
f2
02
04
0d
dc
e8
e4
f5
fd
f9
01
fd
fd
f6
fa
f7
f5
fa
f5
f9
f9
eb
f8
f6
f8
fe
fa
f2
09
03
02
f1
df
ec
0f
07
ef
f6
0b
fb
ee
f2
00
fc
fa
f8
10
fd
f7
fd
f6
00
08
01
fe
fc
f0
e6
f5
f9
f3
fa
06
ff
fb
13
fc
fb
03
07
fe
0b
0b
01
04
00
db
f0
e8
e1
f0
fa
09
fe
10
f1
fb
02
fc
fe
0a
df
ed
f1
06
17
03
0e
18
11
13
2a
22
08
19
0a
12
17
12
f7
fc
03
f3
fb
fa
eb
fa
f6
f8
f6
f8
fd
ed
fa
f7
f7
01
fb
fe
07
f6
f6
fa
ee
f6
fd
05
04
27
e3
e9
ed
e4
f1
ee
fb
09
f5
d8
cf
dc
e7
eb
e6
fe
fe
ef
ee
00
fc
fb
f7
f7
f4
f7
f6
fa
f7
fd
f9
ec
eb
fd
f7
fa
f3
00
ec
e4
ea
e5
f6
0b
e6
e3
fa
fe
ec
ee
f8
f4
eb
ea
e9
e5
f4
ff
e8
eb
f3
ed
f3
ee
ec
03
ec
ef
f7
f5
f1
ed
f9
05
f0
ff
ff
f1
00
05
f2
e1
0a
f4
f2
08
f2
fc
0e
04
f7
f5
f7
f9
00
02
f2
f3
f9
01
06
f8
ff
fc
05
f1
f6
02
fa
f7
02
00
ff
f7
00
01
f9
01
08
09
f6
02
06
f8
02
03
0c
fd
01
0b
04
05
03
03
06
02
03
07
05
fc
0a
08
fc
05
06
06
0b
0d
f4
02
eb
0c
fd
fa
fd
07
05
ff
03
0a
02
09
fb
fe
fc
ff
01
f8
fd
01
fe
05
ff
03
02
ff
fe
07
01
02
0c
f8
ff
12
f8
05
15
04
01
f9
fd
ff
fe
07
08
fd
02
06
eb
0a
07
fd
13
03
07
04
05
fe
04
fd
02
f7
03
06
fe
fd
fb
f7
02
fc
fb
05
06
f6
09
02
06
f4
fc
fe
fa
fb
0c
ef
df
05
01
e6
07
07
e8
02
f9
fd
f5
0f
f5
fe
13
e4
fd
14
ef
e9
01
f0
e5
09
f4
e1
f4
0a
1b
f6
06
0d
fb
ff
15
ec
03
f8
f7
0a
f4
fc
00
f0
f1
18
e8
04
12
e2
e7
14
f4
04
fc
fc
04
ee
f8
fd
dc
eb
f3
fa
ff
0f
f1
03
14
fd
0a
1f
f7
11
f5
05
16
04
f1
16
fa
fc
f8
ff
03
fa
02
05
fb
fb
0f
fc
0b
f3
05
19
04
15
30
0e
f9
f3
0a
03
ef
05
07
f8
e3
07
10
f0
00
02
04
0c
08
f9
03
eb
ee
f5
fc
ee
f8
e7
e5
e5
f5
e1
f3
f9
ef
f1
06
10
0c
ff
09
03
fb
06
16
fb
f9
05
c7
f6
0b
d4
f9
06
dd
f4
fb
15
ed
f7
0a
f7
f0
ff
10
1d
1d
12
1a
14
0f
09
09
e5
d9
d6
f5
f9
ee
f9
f4
fe
df
dc
ea
e4
e5
f2
f2
f3
f1
fb
fe
09
e6
03
18
02
0a
14
e2
f1
ea
06
0b
01
e6
ea
06
02
06
02
10
14
0d
12
1a
16
e7
ef
f9
f4
f3
fa
f6
fc
00
eb
e1
e2
f5
f2
fb
f6
f6
f7
fe
fe
e4
02
06
f9
1a
20
11
fc
e1
ed
07
ea
ea
2b
ff
da
ff
02
ed
19
26
07
11
ff
e3
ec
d3
d0
ef
f2
e7
06
04
ec
10
15
04
10
13
0a
0f
15
10
ee
ee
13
0f
fd
24
f6
03
1c
18
12
07
0b
0e
12
06
0a
03
fb
05
15
06
fc
0a
0a
09
0e
0d
0e
f5
0e
15
fa
1a
1b
fc
06
fc
07
05
0e
07
01
02
0d
02
00
ff
fe
f9
02
04
00
07
f2
05
03
03
12
07
fa
05
fd
fc
04
06
11
12
fe
fe
00
15
0a
f8
f0
0f
04
03
09
07
f0
0b
f0
f1
01
f8
ee
fe
fc
fc
03
02
02
03
fe
01
fe
02
00
dc
fd
0b
fa
f1
05
10
05
f9
03
05
0f
ee
00
15
f5
07
1a
f8
fc
ed
01
f3
ed
fb
ec
00
fc
05
13
fa
10
09
ff
11
03
16
fa
fd
0e
02
f6
1a
11
04
ed
f6
fe
fb
00
11
fe
01
04
fb
06
f5
14
01
f0
11
ef
f5
14
03
01
10
06
04
01
11
00
fa
00
ff
01
04
05
02
ff
fe
fb
ed
fd
f6
f5
06
f1
fd
03
f7
03
04
f3
04
fe
f9
02
fd
12
0a
fd
14
05
04
0a
fc
01
04
fa
fa
ec
15
02
13
15
03
07
f7
fa
f8
fb
fa
fc
fb
06
04
fc
ff
02
07
00
01
04
00
fe
03
ff
f8
fb
01
f3
00
00
1b
fc
04
01
f2
fc
eb
f4
07
e5
fa
fe
ec
f3
06
e8
f5
06
fd
f8
f9
f8
f6
fb
ed
f4
06
f1
fb
09
f2
fa
05
e9
fc
0b
fb
f8
f9
f8
fc
fd
02
ff
fc
e5
f4
fc
f7
17
06
01
11
03
0b
08
03
06
fd
05
f5
f9
02
00
f3
06
f4
03
0a
f4
fd
01
02
fd
00
f6
f6
f4
f8
00
f8
f8
fe
00
00
03
fb
01
09
01
fb
04
06
06
00
03
05
02
fd
f3
f5
fd
f9
00
fe
05
06
01
f7
fa
fa
01
02
f8
ff
ff
fe
01
00
04
0b
01
07
02
fd
07
fc
03
f9
fc
fb
fa
04
00
fc
00
07
00
fe
00
fb
09
03
03
fa
01
07
fd
05
06
0e
01
08
fe
09
05
f9
ff
09
03
05
06
0d
07
fd
09
08
0f
f0
03
06
fe
07
02
09
fa
03
0f
f8
f6
fa
fe
fe
01
01
f9
f6
f4
fc
07
00
f9
f8
03
f9
03
f9
fa
01
0b
fd
fc
0d
01
f1
0b
fc
f3
f7
06
fa
f4
fa
fc
f8
f1
07
fd
00
00
f7
06
f6
fa
01
03
04
ef
01
f7
f4
00
fd
f1
fd
05
01
00
05
04
07
05
07
f0
04
04
f7
03
05
f7
fe
09
ff
04
f4
02
0a
f9
07
fd
06
fc
01
09
03
03
06
fc
06
0a
fd
fe
02
09
ff
fc
ff
00
f2
ff
00
07
07
fc
0a
06
02
09
06
ff
0e
0a
0b
16
07
06
12
09
ff
11
19
f9
11
0b
08
09
13
06
fa
23
fc
0c
19
10
02
04
fd
ff
03
01
09
06
09
07
fb
fe
05
fb
fc
05
fd
fe
ff
fd
f4
fc
04
e4
f9
02
e6
fe
00
07
fb
f8
01
f6
0b
ff
fa
0e
0e
23
06
11
1a
12
17
21
37
0e
ed
3d
15
fe
31
0b
ff
d7
ea
fa
c8
d3
f2
d3
d7
ef
dc
ef
f5
ce
e4
f7
cf
ea
f7
e0
e4
ff
e9
e8
fc
02
f4
fc
dd
02
09
d7
df
f0
e7
d8
eb
f8
fd
00
01
01
02
02
06
0d
e9
f1
f2
ec
ea
ec
d3
de
ea
e0
fa
01
c6
e5
fa
cc
da
f8
eb
f9
e5
f0
f8
08
f2
fd
0e
fa
e0
f2
f9
e0
e7
fb
dd
de
eb
f1
f9
ef
f3
ec
03
f6
ec
c6
e1
01
d4
e0
ed
db
e6
e4
ec
f8
e5
f2
ef
e9
fb
03
f1
ee
d0
e6
de
ea
ed
d8
e7
e3
f3
f2
e9
fa
03
f2
ed
0b
f8
fa
01
eb
ee
fa
ee
f1
f8
fe
fa
f3
01
ee
f2
f2
ee
f8
f7
04
1c
03
fc
0d
fa
01
18
ee
05
f7
fb
fd
ef
fc
07
f1
f7
15
f5
02
0a
f0
ea
07
f7
0c
f9
10
04
08
07
fc
f5
e6
da
05
06
08
fc
05
05
fe
12
01
00
1f
f9
fd
21
f9
00
20
f7
f9
f8
08
00
fa
f6
03
fc
03
10
fc
f1
f9
10
fe
eb
12
0a
06
fc
f5
07
01
f5
04
08
f4
f6
06
0a
f6
f3
f1
02
09
06
0a
fd
0b
f4
fc
f3
05
f6
e7
ee
f0
08
f9
ff
fa
f7
09
09
16
23
e4
12
1c
ee
fc
1e
e9
f7
12
08
00
0e
fe
04
0a
f4
f1
f9
ff
f0
f9
05
11
f2
0f
e7
e3
03
f3
e3
03
f5
00
fc
04
13
f6
02
0f
fc
0d
07
fb
f9
04
fa
02
03
f9
05
05
03
07
f7
fd
07
08
ff
14
06
f6
01
03
ea
0b
fc
06
17
0c
10
f0
12
0d
ef
01
13
f5
fd
ff
06
05
f1
fd
0d
f2
0a
14
06
00
fe
fb
ff
01
fe
fb
04
00
04
ec
e9
01
21
ea
e5
fc
15
02
ff
f3
13
03
f0
04
0e
05
06
00
fb
06
0d
fa
f7
05
e1
fc
07
f3
01
0a
fe
06
fc
fe
f0
09
1e
f7
fe
10
ea
f3
0b
fb
f0
fe
fa
04
fd
02
34
13
fe
ff
03
e8
fd
f7
f2
ff
ff
fd
fc
f5
00
fd
ee
0a
fe
f8
fa
f7
03
f3
01
05
f8
f7
0a
f9
fe
f1
f9
fd
ed
ef
ff
f8
04
f3
f7
06
fb
f5
f3
ea
f1
09
fd
00
00
fa
f3
f7
03
04
05
03
f6
e8
dd
e0
e8
f9
ff
02
f8
04
fb
fa
fb
fa
f0
f7
fb
0a
03
01
08
fd
f4
05
f4
06
fe
04
fb
fa
03
fd
f9
fc
07
f1
f8
fe
f8
02
0e
06
12
fe
03
fe
f6
fc
f2
f7
eb
eb
f2
01
0b
fe
06
fe
f3
f7
f1
f0
ea
f0
f8
ee
ee
f1
e6
02
fb
f6
f6
ff
fe
03
f7
f4
f1
00
f1
f7
fe
f7
e9
0e
11
04
0c
06
fa
10
0e
fe
fd
fe
fb
f9
ef
f6
eb
eb
f9
f8
f4
03
f1
f3
09
f4
02
04
f6
fb
ff
fc
0b
fd
01
fa
06
04
0b
0b
03
fd
fd
04
05
08
0f
01
11
f8
fa
f9
00
fc
f1
ec
e9
ec
09
10
03
05
07
04
f5
fb
e6
01
0f
19
06
11
15
06
04
0a
f8
0e
fa
f7
0c
04
fc
05
09
06
04
f9
09
02
ff
0c
05
09
f9
1f
f4
f7
11
fa
fe
f6
05
f5
f7
fc
f4
08
05
fe
0a
06
0f
0a
ff
fa
f8
ea
01
fc
f7
f3
0d
07
fd
13
fd
fc
01
0c
04
0d
16
04
05
12
08
02
02
ff
09
17
f4
e5
fc
e2
d5
f4
0e
19
0b
11
0f
01
08
02
ea
fd
04
fa
10
19
05
36
35
29
24
20
1a
0f
18
16
f1
e9
e5
e2
ef
f9
dd
d8
e6
e7
de
ea
ec
f0
ef
e0
eb
f7
e5
f0
f9
00
e4
d7
07
f2
04
05
07
27
d8
e0
e1
e6
cf
e0
fa
fe
fb
cf
c0
cb
f8
f4
e4
fd
01
f9
f6
ed
e6
f6
ea
ec
fe
e0
df
f2
fb
f6
f0
dd
e8
f2
f3
f0
e7
f2
08
e9
d5
db
10
0d
f1
d8
e7
f0
eb
e4
ee
04
e7
f0
ef
de
e5
f3
ea
e0
f8
e2
e1
c5
da
ea
df
ce
d5
e8
cd
de
0f
10
01
0d
11
0d
ec
f4
ee
f8
fe
ca
ed
e7
d1
04
06
fc
07
0d
12
ff
01
17
dc
e1
f4
fc
09
fe
fe
00
fc
e0
f7
f7
e7
f2
09
de
e8
01
e7
ea
f3
02
16
05
06
1a
fe
04
17
fe
fc
f4
01
03
f9
fe
fd
fa
fa
26
ec
0a
17
eb
e6
08
fc
00
00
1a
0e
f9
05
f2
fd
f9
ec
03
fc
08
f6
03
08
fb
0a
03
f7
1e
fd
00
26
0d
f7
16
06
fa
f9
fd
02
f7
f7
04
fc
03
0f
14
08
fd
0d
fe
03
07
f4
08
09
00
07
07
06
0d
fb
f9
e4
f8
f1
f6
f3
17
f9
ff
0b
0d
01
f4
0a
fb
f6
09
02
ed
f9
e5
0a
f5
f8
03
fe
04
08
1d
2c
f5
12
12
f1
03
0c
01
f6
0e
02
f9
12
08
00
1a
08
01
f5
09
03
f0
0b
fe
ff
0c
dc
e9
f0
ea
f3
f8
f7
ea
f7
fd
f0
07
03
fd
03
f0
f5
fd
fd
f4
fd
01
ff
ff
ff
02
f9
fe
f9
02
fb
fa
f4
00
fa
fe
0c
f4
10
0c
f7
01
f1
e5
eb
fd
fb
04
03
05
12
0c
06
ff
f2
f0
08
f6
ff
0c
fa
fe
02
fd
05
06
01
fd
ff
fa
fb
00
03
f4
f3
12
07
fd
05
02
0e
fc
f8
04
fb
06
03
08
fd
f2
04
f9
f7
07
fa
f7
09
1c
f9
ff
f5
f6
02
06
02
0d
0d
07
f5
fe
07
f5
ff
0b
13
13
1b
e7
da
fb
fd
da
fc
04
f8
13
12
13
e5
16
17
fc
11
15
fd
04
04
fe
06
06
03
de
e2
ee
04
0d
10
fd
04
11
e4
ed
08
04
14
fe
fe
05
04
ed
08
fe
04
04
05
fe
fc
f4
f1
f3
f4
fa
fe
07
00
08
fd
f1
e4
ed
fc
fb
fb
f7
ff
fc
fe
06
1d
12
fe
00
0c
09
08
05
06
0a
f6
04
00
fc
0a
fc
e9
fb
eb
09
0b
0d
fa
fc
f8
f9
f5
f7
fd
ff
0f
00
f7
ef
07
0e
fe
16
fe
ed
1a
06
ed
fd
f6
e8
16
02
fc
01
0c
06
f4
ed
f8
f2
02
fe
fb
06
f7
de
e5
e8
09
0c
fd
02
0b
12
04
0b
0f
06
08
fd
ff
fb
13
da
f5
fe
f2
07
04
07
0a
12
ee
0c
fd
ea
ee
01
f5
f0
f0
07
f0
fe
fa
ef
f0
01
07
02
04
ff
03
f6
f6
f8
f3
e8
f3
fb
fc
03
05
ff
fb
07
fb
01
02
03
fa
fa
07
fd
ff
05
fd
f7
fc
fc
0e
04
05
0f
02
06
04
e9
ea
f5
fb
f9
00
02
02
05
06
04
fc
fb
f4
fc
fd
f7
fd
f6
fa
09
06
03
05
04
fe
fc
fb
02
09
f8
f1
fd
fd
fc
f1
f3
f1
05
f3
f8
0d
f8
fc
08
03
fc
0d
05
02
0f
fb
04
01
0c
03
09
05
fc
03
07
05
09
fa
07
fe
f0
fa
04
00
01
01
0d
06
fb
04
ee
ee
ef
e6
f6
f4
ea
fd
00
fd
04
08
01
fc
08
fa
f9
e9
d3
10
ea
d7
05
e3
de
ed
0a
0d
f5
05
1c
e9
01
10
f7
ed
eb
f2
f1
e6
f2
ee
f6
04
f2
ee
fa
f7
e6
f5
fa
e7
0c
fa
00
fc
f2
06
f6
fb
02
11
08
f0
0c
01
00
f4
fb
16
f3
f6
ed
f7
13
08
fb
0a
00
eb
e7
f6
f1
ed
fa
ef
ea
fa
01
f9
fd
f2
f1
ea
f3
ef
eb
02
ea
fe
08
f9
ec
29
08
ee
10
f9
f0
09
e2
e7
09
eb
f8
03
11
f7
0c
f4
df
fe
d5
d2
f8
ee
e5
ec
eb
cd
e4
f2
d3
f9
07
1d
fe
0f
24
01
06
13
f9
ea
cf
e7
e0
e6
e8
eb
ef
02
02
0b
08
02
1e
05
f8
18
0c
f0
04
0e
f8
0b
0c
00
04
06
02
fd
0e
09
fc
08
fe
02
ea
f7
fd
fd
f6
04
fb
f8
05
fd
f7
03
fc
04
ff
f8
fc
04
f0
fc
08
e7
04
12
f7
10
04
19
fd
f7
fc
fc
f4
02
fc
06
f0
03
fe
04
11
f4
13
06
ec
fb
f6
04
fc
fb
09
03
f8
0e
f5
05
fe
f6
fc
f9
f7
ff
04
f4
ff
14
fe
08
08
2a
26
f6
e9
02
00
e6
f3
fb
d9
03
f2
0b
05
26
05
f7
19
ee
00
03
ef
02
fb
fc
07
ff
ef
0c
f1
ef
f2
03
f3
f8
f8
fb
ff
f0
08
f1
fd
fe
fc
13
03
f1
1a
f2
eb
f4
eb
f5
fe
f1
ee
f8
f9
f0
fd
05
fd
eb
07
f5
e9
07
fb
fd
fd
e2
f0
e6
dd
de
00
09
0a
f8
01
07
fb
f8
0f
fd
00
fd
04
02
01
0b
0b
fc
0b
0b
f4
04
03
f2
06
02
e9
0d
f0
ff
1d
18
0e
fa
d7
e3
01
07
09
fd
09
0c
f3
06
06
f1
f9
fb
f7
fd
01
01
01
03
fa
fe
f5
02
01
f8
03
fa
fc
10
14
e7
fa
10
ef
ee
f4
fd
e5
02
00
fc
0d
0a
1d
12
11
04
f5
e6
07
f4
f9
01
ee
e4
03
eb
fd
0a
fd
f6
16
04
fd
0d
0c
05
07
07
ff
ff
f8
fb
15
04
05
13
0c
16
05
f9
f4
12
02
f6
13
0c
f7
08
f8
e4
ee
f7
07
f5
f9
0b
f8
f5
12
fe
00
fd
ee
f5
f5
e5
e8
e1
fc
fe
ff
f7
00
fe
ea
fa
fd
fb
ee
f8
00
04
ff
06
ff
0e
ff
f8
0d
f1
f2
09
f7
ff
05
fc
f2
ff
08
fe
f8
dd
e1
f1
09
02
0a
0e
08
0c
0a
08
0b
ef
f9
fb
fc
02
0b
eb
ec
02
f7
00
01
fb
02
07
f7
fa
01
05
fb
fc
0c
00
0a
ff
f9
07
ef
eb
f3
fa
fa
f7
07
01
fb
f1
f8
e9
f7
f4
e4
14
0f
08
fb
ef
f7
07
0e
12
05
08
fd
f7
ff
07
fe
fe
fb
0e
11
16
f2
da
01
dc
eb
ee
f4
ed
f2
0b
0d
fb
1a
14
fc
04
01
f5
fb
02
00
08
10
0a
f7
04
0b
06
04
05
09
0f
0e
0a
0e
ff
f5
e9
f6
fd
02
09
ff
ff
07
f9
ff
fd
fc
f7
fa
ff
f8
fc
e4
ff
05
f9
07
02
fc
05
02
f7
0c
06
fc
00
fa
fa
f4
fb
01
fd
04
06
02
fe
09
08
fd
fc
fa
00
fa
f3
03
f3
fc
0c
f1
fa
fb
f4
fd
00
fd
fc
fc
f6
f7
06
03
f6
07
0b
00
02
04
f6
02
fd
f7
03
fe
f7
f9
fc
08
04
01
fe
0c
f9
fd
11
fb
f7
f6
fc
f6
fa
fd
04
f0
08
06
fa
09
11
02
08
11
fd
fa
ec
09
eb
06
10
00
f8
0d
fc
ff
f6
00
03
ff
03
05
f0
0d
07
ef
0d
16
0d
13
02
01
f6
f3
05
fa
f1
03
ee
f5
fe
0a
0b
f6
0c
0a
00
07
04
08
03
01
ff
00
fd
02
06
01
04
0b
02
16
07
0b
13
04
04
0d
18
f8
08
0f
f8
04
0c
04
1b
08
06
0a
08
09
05
07
01
0d
fd
f2
0a
07
f3
ff
fe
ff
fe
09
05
00
07
fb
03
0c
fd
06
00
fe
f0
fd
f2
00
10
fb
f7
f8
f8
fe
f4
f8
f5
0d
f7
ee
1a
12
ff
08
01
f7
26
fe
eb
14
f5
0a
13
01
fb
1d
fd
05
18
1a
19
0b
00
03
f7
03
0a
03
0c
f2
f0
09
f0
ef
06
f2
11
0f
0e
02
0c
f4
fd
0d
02
ed
ee
f2
ef
f0
f9
f0
00
fd
f6
02
05
fd
00
0b
f4
f8
04
04
02
fd
fe
fe
f8
fb
04
fd
ff
07
ff
06
01
06
03
06
01
00
f3
ea
f8
f2
fc
05
11
ff
f7
f9
f1
e9
ea
e3
f1
f4
fd
fe
fe
f7
ff
04
01
07
0d
ff
f5
f8
fe
f4
0a
fd
f8
08
f7
04
00
ff
03
fc
05
02
05
07
00
ee
e9
0d
01
f8
17
00
ea
f8
09
03
ee
01
fd
ed
fe
07
02
02
ee
13
08
06
06
14
0b
13
0c
02
07
01
05
16
11
06
02
00
06
04
09
11
0e
01
f8
fc
f9
e8
f2
f9
ee
f8
ef
fd
ff
fc
e5
fe
fa
e7
06
f9
ed
04
fe
fc
07
00
06
08
fe
fd
05
ee
fb
0b
f3
fd
04
f8
00
fe
f9
fb
f7
03
04
f7
fc
01
00
02
00
fc
00
01
fa
fa
04
00
fe
f3
f5
fb
fa
02
03
00
09
fb
06
02
fc
06
00
ee
f6
08
00
ee
02
01
f8
03
fe
fc
00
f9
02
f4
f8
02
f6
fc
06
fb
00
03
ff
fb
02
fe
ff
04
02
08
f8
00
06
ef
f1
fb
0d
ee
fe
04
fb
f8
08
fc
08
04
08
01
04
07
05
0b
04
00
06
00
01
f7
01
fa
01
0a
02
00
0a
0c
02
fe
00
f9
01
07
f9
fc
f4
ff
fe
04
f2
00
fa
fd
ff
f7
fa
fc
f7
08
f6
f0
f6
f3
dc
f5
fb
e1
0c
f0
de
ff
eb
f2
06
e9
f3
05
f9
eb
03
fd
f0
fc
f3
00
fa
fc
f9
f5
02
ff
f1
02
00
fb
01
fd
05
ef
ee
ec
02
e8
f7
ff
f7
fe
18
f5
19
18
f9
f6
02
f6
f5
0a
04
05
15
12
0e
0c
0c
03
f5
ef
f3
fa
fe
f8
03
f4
07
ff
02
04
ff
05
04
f3
fe
04
f2
fd
f4
00
04
01
0f
fd
13
ea
f5
05
f7
03
f9
fa
06
e9
0f
11
f9
0e
16
13
0b
19
0f
f9
ee
ef
fe
03
fb
02
05
f9
f3
05
0b
00
0e
06
02
0d
10
fe
ea
ea
f3
e1
eb
f7
d6
0f
01
09
f1
fe
00
f5
fd
01
f2
07
f9
ed
07
03
03
0c
07
0a
f7
e9
fc
ee
ed
f8
f3
f1
e9
ff
08
04
fd
07
03
fa
08
05
01
01
02
09
05
01
0c
07
05
03
f6
01
0a
fc
09
13
0f
06
fc
0c
0c
08
03
07
01
f9
f4
f6
f7
ff
00
ff
06
fc
04
0c
00
0c
02
fb
0f
fe
f7
0b
02
02
02
01
05
00
05
07
fd
05
fb
02
f5
f0
fb
fd
f2
fe
06
f1
e8
00
02
f2
06
03
00
0a
0c
03
e4
15
0a
f4
1b
0d
ea
00
fa
04
02
0b
02
01
09
04
eb
fc
0b
f6
f6
0e
f1
f8
02
ed
ed
04
f0
f4
05
ff
0a
f2
f9
0c
f7
f9
0d
ef
e7
07
f1
ff
02
05
02
03
03
f9
05
0c
fb
06
fd
03
01
0a
0d
03
00
f2
0d
07
f8
01
04
ff
0a
0a
05
fb
03
f8
fa
04
fd
fe
04
00
08
05
01
04
fb
0b
05
04
f9
ff
1d
fd
08
02
f8
0e
03
f5
f6
f8
fb
0e
06
fd
0b
01
00
15
03
04
0f
fa
ff
0c
04
fe
02
09
fe
00
01
03
00
06
05
0f
01
0c
08
09
ff
02
09
03
f0
09
fb
ff
03
f9
fb
04
08
0f
18
f7
02
06
01
0f
0d
fc
fa
02
08
0c
01
08
01
00
07
fa
00
06
03
01
fe
05
01
08
1a
07
01
0c
03
01
05
ff
fc
03
fb
f2
0d
05
fc
04
02
f3
f5
0e
ec
f9
09
f5
f9
0a
03
0a
03
fd
06
08
11
0c
07
fe
05
fa
ea
ed
e8
fd
05
01
fa
03
ff
fb
04
04
f9
fc
06
fb
f7
04
f9
fa
0c
00
f9
01
06
05
00
f5
00
03
fa
fc
0a
00
04
ff
f1
06
0a
00
06
07
02
00
f8
fd
fd
02
00
02
fb
ff
04
fb
02
fd
03
fd
fe
01
07
04
f3
ff
17
f5
ef
0b
09
fd
ea
f2
fa
fe
ec
06
0a
00
0e
04
f8
09
0a
03
03
03
06
fd
02
f7
05
0b
f3
02
f5
fc
04
0a
03
fa
09
09
0a
ff
04
fb
0e
0a
f6
07
0e
f9
03
12
f6
03
fd
f3
fc
fe
fa
03
f7
01
01
0a
09
09
06
0e
0c
0f
fa
1a
16
13
30
2d
f2
0c
0a
f3
f8
f9
eb
f8
ed
e1
ed
f0
f0
e3
f9
f5
ed
fb
f1
f2
fc
f0
ec
11
ed
ef
11
f7
f9
22
ea
eb
ef
ec
ef
e5
ea
ed
f7
ed
f5
ee
08
03
fd
11
0f
01
f0
fc
f8
f3
f8
f4
ed
ec
f2
f7
fd
fb
f1
f1
e6
f3
f5
f2
f3
fa
e9
ee
e4
d7
02
14
f2
f6
e8
fe
f8
e4
e9
fc
f5
eb
f5
f5
e1
f5
f7
dd
e8
d4
c0
e5
e0
ec
ee
ee
ea
e8
f2
e7
05
fe
f6
12
09
fd
0f
06
f9
e8
f3
fa
df
ef
f6
dc
f7
f1
0c
05
f6
0e
06
0d
02
fa
fc
21
fd
fa
0d
01
fa
08
fb
f0
fd
e3
f3
f4
ef
f5
fe
f5
f9
fe
06
0e
06
04
0c
f0
05
0b
fc
f8
fa
fa
f7
f7
fc
f2
fb
05
0e
f6
f7
fb
f2
01
01
ec
fe
f3
00
de
e2
de
ee
f2
f6
f5
fd
f9
f4
fa
eb
fe
09
02
f3
00
01
fe
0b
0e
f9
ff
fd
f8
ff
fe
f8
fa
fa
f4
fa
f9
0b
03
fc
15
06
02
12
10
09
eb
e5
f6
ed
ee
f2
f2
fb
0b
f2
eb
eb
e8
f9
e2
d1
e9
f3
f8
fa
fb
fa
f3
f4
fc
fd
09
ed
f0
ec
e8
f2
f8
ee
e8
fb
03
fd
03
fe
f4
0d
f8
04
15
ee
0a
e0
f1
05
f0
00
0c
e5
04
0d
fa
fd
01
f8
06
01
ff
03
ff
f9
0b
fd
f9
fc
fd
01
02
06
ff
fd
ff
fe
05
08
fa
fe
ff
fc
01
fe
02
ff
04
02
fc
06
06
f9
fd
fe
fa
02
fe
fc
f6
f8
ff
fb
f5
00
fe
00
fa
00
fa
02
07
fc
ff
fe
03
fd
05
fd
fd
fd
03
f9
fe
00
ff
01
fe
fc
02
02
fe
fb
fc
f9
ff
08
0a
02
09
ff
06
fb
f9
ff
f8
00
ff
f8
fb
03
03
fd
02
ff
01
ff
fc
fd
f8
01
02
fc
fe
05
06
06
07
fd
ff
02
fe
0c
04
fd
0d
05
08
07
f6
06
fd
04
fc
ff
f7
fe
01
05
0e
04
fc
09
ff
05
04
0a
f4
ec
01
f6
f8
0e
e6
f0
f7
fd
15
11
fb
20
15
ea
0d
fd
f0
fb
fc
f5
f9
03
eb
ff
fc
0d
0a
03
00
04
00
02
ff
f9
0f
1c
11
06
18
1b
f4
0b
0b
0a
06
f8
f7
01
ea
f8
02
f4
06
01
ee
06
04
f5
f1
fb
f2
e4
f5
fc
e2
ef
fa
e4
f6
fa
00
ff
08
fc
00
03
09
0b
00
0e
09
f7
08
f6
f0
2e
05
f0
0b
0c
ff
00
f9
f4
fe
f1
f2
04
01
ff
0d
04
f4
03
e1
f7
08
0a
07
00
fa
e7
fa
01
e9
15
08
f6
1a
18
10
01
00
f5
e7
f6
04
df
f9
fd
ce
ec
fa
fe
f0
f5
16
06
0b
f1
e4
f9
f7
19
06
04
16
16
fb
1d
11
f0
ee
06
eb
ed
05
e9
ed
05
06
16
f2
09
06
f0
fd
09
f5
f4
0b
fd
f8
01
f6
fc
05
fd
0b
fe
ff
12
f5
0b
0b
f7
0e
0f
f7
fa
12
f2
ef
19
f4
02
f3
f8
09
ef
ff
02
f6
f7
ff
0e
ff
fa
0e
f8
fc
08
eb
fa
fc
f7
f4
05
f6
f9
04
f8
fe
08
f1
e7
05
fc
06
06
f9
f0
04
f6
ed
06
fc
f5
05
0d
f2
fd
0d
e9
05
1b
e6
0e
1d
ea
03
0d
fd
0f
16
f7
17
0d
f5
00
0c
03
fa
0c
02
fd
04
05
08
15
01
07
16
07
f5
0d
01
03
09
fe
0d
f2
fc
09
ee
f5
02
06
15
03
12
13
0c
0b
f1
06
f8
fe
03
fa
f5
f2
ed
f7
10
0c
f5
02
05
fc
fc
04
f9
fe
02
04
ff
fa
fd
02
04
03
fe
0c
00
f6
04
02
fc
06
07
01
f0
f3
06
14
11
f7
f7
f6
fb
01
fe
f3
ff
fa
f6
fa
fc
04
0d
0d
fb
05
05
04
fe
02
02
03
ff
05
fc
04
03
01
ff
fc
f0
ff
01
0d
06
f8
fd
f2
fd
fe
f8
f6
f3
f5
15
00
01
ef
f2
f9
fb
14
06
00
09
09
f5
fd
05
ff
06
00
ff
ef
09
fe
f1
f9
e8
f5
00
fc
f0
f3
0d
e9
fc
fd
08
1e
f7
ef
02
fb
f9
f8
f4
05
02
e5
eb
f1
f0
ef
f1
fa
f0
f3
eb
fb
01
e1
01
1b
d5
f6
15
c7
f3
fe
fd
f9
f6
03
fe
f2
fa
f5
fc
07
06
04
06
03
fe
10
07
03
03
f0
ea
f5
f4
f0
e4
d9
f9
fd
e7
ec
00
f0
dd
07
05
00
0f
f4
fa
fb
02
0e
e6
f4
ff
f7
fc
f4
05
f9
f4
f3
fb
e5
08
fe
fe
05
fb
f0
0d
06
06
f9
f6
fd
07
f9
e0
fc
1c
0a
fc
06
fb
07
f9
f6
13
06
fc
20
0b
f0
15
06
f6
f0
ed
f6
18
19
14
0e
14
fc
18
11
15
20
10
16
1a
18
1a
06
09
13
dd
cc
f0
ea
eb
f6
d4
d5
e0
fc
06
21
f9
0a
18
eb
fc
fe
df
f1
fe
f0
f3
f7
de
e9
11
e1
05
12
e3
02
0f
e6
09
0a
03
f9
f9
06
fd
ee
f5
f1
f8
01
05
03
fc
fd
f1
f6
f0
f2
e7
f8
ed
e7
fb
f5
f2
fb
00
ff
e8
f3
f8
06
ed
0c
06
0d
10
fc
02
09
07
06
fd
06
ff
f1
ef
fc
f9
fa
fa
ec
ea
e9
02
01
01
ff
fb
f8
ff
fe
fd
0f
14
19
0e
09
f4
1f
0b
f9
12
11
06
09
f7
ec
fd
f6
f2
19
04
17
25
04
fb
02
f1
07
10
0f
0c
0f
08
f5
fe
fe
fc
1f
1e
05
13
0c
fc
12
0c
f5
d6
f6
12
f6
f1
f9
f9
f1
f9
f8
05
00
03
ff
f9
10
fb
ee
f8
fe
f6
f0
ec
ef
e9
e4
ea
dc
f6
02
e7
f5
02
f6
fe
02
f0
0f
f1
f9
0f
f5
ed
fd
f4
04
fc
fe
ff
fa
01
08
fc
06
17
02
09
ff
f4
fa
12
fb
ff
04
0a
fa
fd
09
f4
f1
fb
0c
00
00
f5
09
0c
13
04
08
09
e0
14
f2
e8
0e
f6
f1
0e
f9
00
fe
fe
00
02
f9
02
01
ff
0c
fd
fe
e5
ed
dd
08
16
f6
f6
f7
fa
fa
f4
f3
fc
ff
ef
15
1a
01
11
2f
19
fd
18
e9
f7
0a
ef
fa
1b
f7
fb
0a
fa
fe
01
0f
fe
09
1c
f2
fe
0c
fe
12
f8
ef
0c
fe
e3
03
03
f9
06
f7
fa
0f
ff
fd
06
fc
eb
ee
02
f9
fd
f1
f1
0d
02
ee
ff
06
f1
04
05
fa
03
0b
13
06
01
0f
fb
fc
0b
0e
24
00
08
01
fb
05
0f
f6
09
0c
ea
09
f6
f3
01
02
ff
f3
f1
1a
27
ff
1f
34
0d
03
09
18
0e
11
01
fb
06
02
fd
00
02
09
f3
ff
fd
02
fa
03
0c
0c
01
03
0c
03
04
0d
03
06
0e
1c
f1
e8
0d
fd
f3
f8
00
fb
fc
01
10
1c
05
0b
18
08
15
19
20
19
18
10
f5
04
03
e4
f4
06
0d
03
07
0c
02
0a
14
06
11
ec
07
06
f9
fc
09
fc
14
f5
06
14
02
01
08
ff
e5
15
f6
f4
11
fc
f4
1c
0e
e8
f7
f6
05
f2
05
00
f6
f7
06
0a
07
03
05
ff
07
01
fd
01
fd
ff
fb
f3
07
f8
02
03
03
fc
04
ff
fc
00
00
fd
04
04
0a
07
0a
0d
07
fb
13
0a
f6
00
07
fc
fe
f8
f4
07
04
fd
02
ff
fd
fd
09
f9
09
0d
01
fc
ff
fd
f9
07
f8
f8
00
ff
02
fe
ff
00
ff
07
07
06
02
05
06
fa
0d
0a
04
fe
fb
f3
03
0e
0d
0c
0a
0b
0b
0a
07
00
0a
0b
09
01
06
f9
f9
06
fd
0e
03
07
fc
0a
0a
fd
07
06
00
fa
09
05
06
fe
04
08
f0
01
05
06
fc
f9
f9
00
fb
05
00
f1
0d
0e
07
0e
0d
01
e4
f6
eb
ef
03
f5
ff
f5
f9
f0
ef
fb
f7
f1
f0
f6
f0
fb
00
fe
fd
02
0b
fd
05
05
16
f7
01
07
fb
07
11
04
0c
1e
ee
ff
f2
f6
f7
e7
fe
fd
e7
1a
1d
01
19
0b
0d
04
fb
04
03
08
1b
02
0f
1a
f7
01
0d
ff
00
f2
fc
03
f7
07
0a
04
fc
04
05
05
07
0a
ff
ff
0a
fe
0a
f1
e8
fe
0d
ee
ff
15
f6
0d
09
fb
10
17
04
13
1a
fc
fd
07
fd
fa
ed
0e
ff
ec
f9
09
10
08
0d
0b
0b
0b
11
fd
0b
0f
01
0b
05
f7
04
09
f1
dd
d8
02
f8
e4
ef
f1
e6
17
0e
fc
19
0a
e7
13
10
db
fb
ff
ed
f3
01
09
fd
f4
ef
08
0b
0b
ff
0b
f8
03
0a
f7
00
02
02
0b
fd
01
fd
06
f9
02
fe
fc
09
02
03
09
09
04
01
00
04
ef
ec
ee
fb
00
0a
0d
07
f4
02
f6
e8
03
07
f5
f9
fa
f9
01
f7
f2
05
01
09
fa
f5
f6
f1
f5
f4
ff
f1
f9
03
08
05
05
08
06
03
02
05
f7
f8
fb
e3
f1
07
ef
02
16
0a
fe
fd
13
08
ff
2a
1b
10
01
08
ed
1f
05
f8
1b
04
1b
fc
00
05
1a
0b
01
0c
08
09
f9
fe
fd
0b
fa
f1
04
fc
ee
f3
e2
e1
01
ed
da
e3
f8
e2
fe
f0
de
f2
f3
ec
e4
e0
e8
ec
f2
e3
00
05
01
05
04
f5
0a
ed
fb
0e
e8
e5
00
e6
dc
f8
04
03
f3
f7
0d
f1
fd
13
ff
02
0c
00
08
0a
01
0f
11
e6
e8
f0
ef
f8
f1
04
fd
fb
0d
fe
f5
05
f4
fb
09
04
f7
00
05
06
0f
05
07
05
02
ff
f0
02
ff
f1
02
08
f8
f5
02
fa
fc
fe
fa
fc
04
06
04
0c
fd
ff
07
eb
f9
05
f5
f9
07
f7
fe
05
f3
f9
02
03
fb
15
f6
f7
ee
fd
00
ec
12
fb
f3
f8
fb
09
fb
f4
06
04
fd
16
ee
01
00
e8
0b
00
ed
fa
00
f7
d9
d3
df
dd
ed
d9
f4
f0
12
09
02
fe
02
f5
f8
fd
fb
07
f5
e7
fc
f5
eb
f8
f9
e5
09
01
03
0c
f4
fe
0b
fe
fa
fd
fe
f6
02
fb
fa
f6
02
f3
01
06
ff
06
07
04
01
02
05
01
fc
fe
fe
00
fe
0b
f5
00
15
f8
00
04
f9
f0
0f
fa
ec
03
01
fd
0c
02
00
05
03
04
00
05
01
05
fc
ff
00
f4
ff
00
03
0a
fd
ff
05
07
04
06
fb
f6
f2
f3
f9
ee
05
e6
fb
fd
fe
10
fc
00
11
0c
05
0d
0f
0b
1a
02
0e
18
0b
11
0d
05
05
0b
fc
01
ff
04
fa
05
f9
ff
00
02
fb
02
fa
01
06
f6
f4
fa
06
fd
e8
09
f6
f2
00
03
fd
f8
fb
f4
fc
06
f4
e8
f0
ef
fa
0d
1b
f2
e3
fa
04
06
f9
f7
f5
f4
ef
ec
df
f4
f8
f4
01
0d
fc
05
00
00
f1
f6
fe
f8
00
fc
fb
02
fb
f8
fe
1e
fe
0c
40
14
12
20
f5
07
fa
06
0a
f8
09
f4
27
11
1a
02
1c
1b
ff
0f
08
fb
01
02
fd
f4
f2
f2
f2
ef
fc
f6
fd
00
fa
08
05
ff
08
03
fe
f8
e7
fa
0b
01
34
2c
1d
07
fb
01
00
f3
00
05
fd
fd
3b
27
1e
34
31
1f
1b
25
f7
00
fe
fe
08
08
08
f7
07
07
f8
ff
f8
00
0d
0b
e9
f5
01
03
f4
f6
12
e3
f9
04
f3
1a
13
f3
d1
fc
f7
d0
ed
ed
dd
06
10
18
08
14
11
07
ff
08
0e
f8
fd
03
fb
fb
f4
f9
f1
ff
fc
f7
07
01
f6
08
fc
fd
fc
f9
f6
05
ff
03
05
fd
f6
f8
f3
07
01
07
09
f2
ff
f3
ff
04
fd
e7
ea
f0
fd
09
ed
07
01
0b
fa
02
03
04
09
01
fc
0c
f7
03
0a
f7
f6
fd
f7
03
fe
04
03
fd
fb
01
f9
fc
03
0a
03
f8
ff
02
01
0e
e7
fe
0b
02
05
fd
00
02
ff
15
fd
1a
ff
12
1b
fe
05
fd
f9
02
09
05
00
0a
16
fd
07
11
07
02
0c
f8
01
fe
00
fe
fd
fb
00
fa
f2
12
f2
01
10
f9
fb
fb
07
00
fa
f5
fc
f6
ed
ef
ee
05
fc
fb
f4
11
f7
f1
f5
f6
04
fd
f8
04
ff
f7
f6
ff
01
00
04
fd
f6
fd
06
f5
06
02
02
08
f9
00
00
f6
f5
fa
f7
fe
f3
fb
f2
fe
fa
fc
1b
12
07
ec
ee
ea
f6
f0
ea
f3
fd
f8
06
01
01
0e
ff
04
f9
01
f1
ff
06
04
f0
fb
00
00
01
04
07
04
fe
fe
f7
f2
f4
f9
f6
ed
00
00
fd
10
f4
fc
ff
0a
06
fc
04
fa
f3
e7
11
11
00
0b
11
04
15
0e
f3
fe
00
07
f6
ff
01
e7
fb
fc
fa
fc
f0
f9
fb
f0
f2
f6
f2
00
e6
e6
f6
eb
ef
f6
04
e3
fd
fe
e9
02
09
fa
04
05
01
f7
05
fd
f7
07
02
f4
02
f8
02
09
07
03
07
01
06
00
03
fb
fb
fe
fc
04
00
f9
ff
01
02
fc
01
05
02
00
ff
fb
04
00
f8
ff
fc
fe
fb
04
f9
07
06
f3
f5
ed
ed
eb
f9
f4
fb
ff
fd
05
01
01
02
01
fa
08
fa
06
fa
03
08
01
00
07
fd
07
08
02
fd
03
04
00
ff
00
ff
fc
03
06
fe
ff
f4
f8
fc
04
f8
f8
00
04
fb
02
ff
fb
01
fa
fd
00
01
fb
04
05
05
08
03
01
0e
05
0c
08
fe
07
0a
0a
02
fe
ff
ff
03
fc
00
f2
f4
f9
eb
f8
fe
f3
07
0c
00
03
02
03
0d
13
09
00
03
f8
09
00
12
26
12
2a
26
0e
01
00
07
fe
03
01
f6
fb
ee
f9
fe
ef
f0
f3
fc
ff
fa
f7
f3
f6
fb
f6
f7
01
fd
f7
05
0f
01
08
04
f0
13
0e
fe
17
f4
ff
05
ff
06
00
df
09
f6
ff
f2
f9
f5
00
00
fb
f6
f0
f8
01
f8
ed
0a
09
f8
00
f9
06
fa
f9
f3
fb
f5
f9
fc
fd
f4
08
06
f9
ee
04
ef
0b
f8
e4
04
fa
e2
0b
01
f9
fb
03
08
f2
f8
ff
f0
e9
04
f4
f3
f8
e8
fb
ed
fa
fd
f8
fe
f3
fb
0b
03
f6
ff
02
f7
05
ff
f6
0d
e8
02
15
00
f0
0d
06
ff
0a
ff
ef
fa
fa
e2
fd
ed
fd
f7
05
05
04
07
fa
fa
fe
f9
fd
0c
f7
f3
0c
ee
ef
fe
04
ff
fa
fa
05
f5
04
fc
0a
0a
ff
fb
06
fe
06
fd
f2
f4
04
00
00
f8
03
f1
02
fe
01
0b
0a
00
ec
f0
f2
f6
05
07
f7
fe
f9
00
fc
01
05
f9
04
ff
ff
ff
09
09
07
f1
01
f9
fd
01
fe
04
fb
00
ff
fb
04
0a
14
04
07
14
16
18
1f
22
04
00
fb
07
0c
09
00
00
ec
f5
fa
f9
02
0f
14
ef
f9
f4
06
00
01
f5
03
06
f3
f8
f3
f4
f7
f6
f1
fe
04
f3
f1
02
fb
00
ed
f8
ee
f7
10
ff
04
fd
0a
0a
f8
0b
f9
f9
fd
f3
f9
db
ca
f7
ed
ca
f4
e8
da
f6
fc
0d
f1
00
16
f6
05
0c
eb
e7
f2
eb
e2
ea
e6
ef
ea
ea
e7
e8
e9
f1
e5
f1
f3
eb
05
f4
00
01
f9
04
fb
fb
06
03
ec
eb
0a
f8
f2
ff
0b
f7
fd
f9
fc
04
03
08
01
08
01
e5
ee
f7
eb
ee
04
eb
e8
fb
f4
f0
f5
f0
e9
e2
f2
e8
ed
f8
e3
ed
09
f3
e6
15
05
ea
fa
f7
ee
fa
e8
e0
00
e8
e6
fd
09
f6
fe
fd
dd
ec
e1
d4
ee
e5
e2
e7
d8
d7
e4
cf
cb
0a
01
1d
0c
03
24
12
fe
20
e5
e9
d9
df
fd
e0
e7
f4
eb
fd
fa
26
09
f6
30
f8
f9
2b
f5
06
07
fc
05
0f
ff
08
0a
e6
fe
f3
0c
18
15
ff
02
0a
f6
09
ff
00
f9
ee
f2
ea
de
f9
ee
fa
eb
e4
ec
f5
f4
f3
16
0d
f7
fa
fc
14
ee
f6
0b
f7
0c
e7
03
12
04
f2
de
df
00
f4
e5
00
09
fd
fb
06
03
01
11
01
eb
f4
ea
fd
fc
df
ee
f8
fa
f6
f8
fa
ec
f8
ee
fd
fa
01
0c
f2
f0
fd
0e
fe
fd
04
fc
05
fe
e0
06
f2
e7
0f
06
03
16
11
06
13
fa
ed
04
ef
e3
f2
f0
e4
fa
fb
f1
0c
12
0f
0c
1d
17
f9
fc
00
f9
f3
cf
e0
d4
d8
e5
df
e7
14
10
03
20
13
0f
00
06
f9
03
fd
fa
f3
03
00
00
fe
fa
0f
04
02
07
11
10
08
02
0a
ee
f1
ff
f6
f7
fd
fb
fb
ff
f4
02
06
f6
fd
00
fc
fc
05
fc
fb
f0
06
03
f9
fb
01
05
f9
02
ee
df
ea
f8
f2
00
fe
06
00
f8
00
00
f7
0d
02
00
f5
f4
fe
01
f4
f4
f0
f8
f7
f4
fa
fa
fd
fb
fc
f7
ff
00
f1
e6
f0
01
f4
fb
02
fc
f4
f6
fa
fc
f2
f3
f5
fd
03
05
f6
f9
f6
e3
f9
fc
05
01
ff
eb
fa
03
f5
ee
ea
f6
f4
ec
08
fa
04
05
0a
02
01
ff
00
ec
ed
ec
eb
ec
f2
f8
02
ff
f8
fc
f4
04
fb
fd
f4
f6
ef
e2
fb
fd
ee
fe
fa
ff
02
0c
ff
f2
fd
06
fb
07
06
fe
06
fd
ff
02
fd
01
07
09
09
0d
00
05
07
00
02
0b
0e
08
0a
f8
f3
f0
f7
f1
fc
ff
f1
f8
09
08
02
0b
07
01
12
07
03
fd
02
01
06
09
04
06
06
02
fb
fd
fd
02
fa
01
01
fc
05
04
06
fd
08
05
02
0c
06
05
f4
fa
ec
fa
02
03
f2
fb
04
fb
0e
08
0f
1a
0e
16
11
10
04
06
0b
0a
10
10
0f
ff
fb
fd
0f
0b
07
0c
06
09
00
02
06
fb
04
fc
fe
fc
f7
01
f7
d1
f2
00
e3
fc
06
ee
06
f9
fa
f3
fd
07
fa
f8
03
f8
f1
f5
fb
fb
fa
ed
e9
f7
e6
e8
ef
fa
02
fa
0a
15
06
26
25
ef
f9
fc
ec
ee
e5
d9
ee
e9
f5
e7
fc
eb
e9
f9
db
e7
ee
f0
eb
10
dd
d0
fb
ef
db
f4
04
09
0e
e6
e2
db
e8
fc
f3
ef
f8
ef
f8
02
01
11
19
0f
fd
f5
03
fa
f6
f8
ec
fc
f7
00
03
ff
e7
e9
ec
e5
ec
ea
04
f4
e4
e2
e7
f3
da
f3
d6
f4
db
e4
eb
da
da
f4
d1
d9
06
06
f7
01
02
dc
13
f3
db
f2
de
01
ec
f1
e9
e4
e5
e2
ed
0b
09
ec
fd
02
0f
0f
fc
cc
f4
0c
d7
f6
eb
d2
02
ea
0a
05
0e
1e
1a
18
24
23
15
e8
f4
fd
fe
f6
fe
02
fa
00
02
ff
01
0a
0d
05
ff
00
07
fb
fa
ff
f3
f7
fb
fd
ff
fe
08
01
ff
04
04
00
09
06
06
fa
f7
f8
fb
05
fd
fb
0a
02
15
02
08
fb
f3
eb
0e
f4
f3
fa
fc
fa
06
0f
0f
09
0f
0b
f2
02
08
eb
f9
fb
ea
ff
01
02
fd
fd
02
fa
00
05
fe
04
0e
04
f9
03
00
f5
11
07
fa
0a
09
f3
06
0e
00
08
08
f3
00
0d
fb
16
15
12
1d
0f
fb
03
01
fa
05
fb
ee
1e
ff
f2
07
09
fd
09
16
ff
f9
03
f0
f3
fc
f6
ed
fb
f1
e1
f8
f1
fe
03
fb
07
0a
03
f2
02
01
02
05
0b
0c
06
11
04
03
ff
fe
02
0b
0f
12
04
fb
09
05
04
05
fd
0b
03
08
0b
0a
04
04
06
fe
0c
08
03
0c
00
08
12
03
fc
05
00
fb
03
f4
fa
05
f4
01
fd
00
f7
04
fd
ff
fd
f4
02
ff
f3
ff
fc
f7
fb
fa
05
00
fc
04
ff
05
08
fc
03
04
05
06
00
02
0a
07
07
13
12
0f
f2
ea
e2
09
0c
03
fb
00
fc
08
fe
02
fe
0a
01
0e
08
03
14
18
06
09
0f
08
fe
ff
08
fd
02
04
17
01
01
f7
f3
07
f0
ff
05
00
ff
02
09
fd
fc
06
15
fb
10
00
07
f9
05
f5
fc
0c
f4
03
01
f5
f9
f4
e9
04
fc
f9
10
01
0b
e7
ec
ec
f5
e8
ed
05
e5
ed
f5
05
0f
05
06
05
f5
f5
ff
fe
06
05
fa
02
ff
05
09
04
fe
05
fc
f9
02
01
fe
0b
fe
16
06
0b
f0
f9
f4
04
f4
f8
f1
03
13
06
06
18
0a
07
10
f7
fd
fd
f5
07
02
f8
f8
05
01
03
04
ff
02
ff
05
02
02
fc
fa
f9
0e
fe
05
12
09
0c
02
fa
fe
ff
03
ff
05
ff
f4
20
f9
ff
f6
13
0a
fc
1b
02
fa
f5
04
02
11
0c
fd
05
13
e8
f2
05
fa
f9
02
fe
f4
0d
fb
e4
ee
f6
e4
f5
fb
f0
f9
f8
19
0d
16
1b
0d
0c
18
fc
01
04
01
03
11
09
05
0b
09
11
0c
05
19
0c
00
03
ff
f9
02
00
02
f0
f9
0c
f9
04
0c
04
00
04
fe
fe
02
02
f7
09
05
f4
03
09
f5
09
07
fb
0e
eb
ff
00
ef
f4
f4
ea
f0
fe
f4
f1
f7
00
fa
04
0c
02
00
06
fe
fa
ff
ff
fb
f8
02
05
fc
fb
05
00
fa
09
fc
08
04
ed
f8
07
f8
f5
1c
e7
fe
0f
f4
0b
01
f1
fd
03
e3
f4
fc
f0
02
02
05
f7
02
05
f5
14
e9
06
06
f6
08
04
f2
04
f4
0c
0f
fa
06
0f
00
01
fa
e9
02
f8
fa
01
0f
fe
f6
f8
fe
05
01
02
0d
06
04
ea
e7
ee
04
08
f7
00
fc
fb
ff
03
f5
f0
f9
ed
fb
06
00
0b
0c
04
ea
ee
ef
f7
f0
f5
f7
f8
f7
02
01
fd
f6
fa
f8
e8
f6
fe
00
fb
ef
f5
ed
f4
f4
01
fe
f7
0c
06
fb
f9
f5
0b
0a
fe
f7
fc
f5
f4
f9
eb
01
fe
f3
04
f6
05
ff
f1
fc
03
fa
f4
00
01
02
06
06
00
f7
f4
f9
03
04
0e
fa
eb
fa
0a
06
04
0a
fc
05
fc
f7
f8
f3
f4
f0
04
f2
08
0c
fe
11
f7
f0
fc
08
05
0a
fe
f0
fd
01
ed
f5
e1
ec
e7
e8
f1
ed
f5
fa
f8
0e
0c
fe
ff
0d
ed
e8
00
f5
ed
f1
f3
f7
f0
fc
00
08
fe
eb
ea
00
fb
f6
07
ed
fd
03
f2
fc
fd
e6
f8
05
d9
f3
f5
0d
16
0f
0e
0c
ff
ff
15
10
06
13
11
08
0e
02
17
18
13
0d
fc
03
04
00
f8
06
fe
00
f4
fb
0f
e1
f7
ea
10
08
0d
08
f1
e3
0e
08
ef
fd
f3
e8
fe
16
09
00
06
f9
f4
08
09
0c
06
06
03
fc
f4
0c
10
09
18
00
f4
10
0b
fa
16
1b
07
fd
fe
07
05
07
07
19
0b
0c
21
02
f6
0a
fa
f4
07
05
07
16
21
12
18
1c
13
23
27
25
22
1c
12
0b
0d
08
0d
07
00
f1
fa
eb
fa
06
f1
f7
0c
f5
eb
f1
ed
f2
f0
df
e2
e7
e3
0a
fa
ec
09
fd
f4
fb
fb
f4
ef
e6
f3
ee
f1
f3
f7
fe
fa
f9
ef
ff
05
f1
04
fd
00
08
f8
fd
0a
00
01
0b
00
07
13
f5
02
ec
fc
fc
f0
01
f3
ef
fc
f6
05
07
f2
fe
fe
f8
06
fb
07
08
f7
fb
07
f1
fe
05
fd
f7
f9
01
fb
f7
01
fa
fa
00
00
04
02
fb
0a
f9
fa
07
07
12
04
f1
02
14
fa
f4
05
fb
03
0e
fc
f3
11
05
f8
15
02
ff
f3
09
f6
f5
06
00
f0
fc
05
0c
03
f8
0a
08
fc
09
e6
02
f8
e2
02
f2
eb
08
01
06
e5
e9
f6
ec
ed
fe
01
05
ff
01
e3
07
f2
ec
0c
fe
f0
e2
ed
fd
f9
fa
05
fd
f5
04
fb
09
0b
fa
f0
f0
fd
f2
f3
f5
07
0b
fe
12
0c
f7
03
fd
fb
07
03
fe
0b
ff
08
07
03
0c
0d
fa
07
03
04
05
fb
06
f5
fd
f2
f9
f9
fd
fc
fa
0d
07
06
eb
03
01
0d
f0
f5
fa
fb
0b
12
f8
06
08
f9
03
06
f0
f6
f5
02
02
02
01
02
07
fd
fc
fd
02
07
07
09
17
0f
1d
0f
0b
1e
0c
09
fa
11
20
18
0c
15
00
f6
f1
f3
fe
01
05
0e
fa
03
0f
09
04
10
04
1d
12
0e
f7
f8
0a
f1
f1
04
f4
0e
fc
f7
01
07
ee
06
1a
fc
02
0c
f2
fa
fa
ff
fe
ff
f7
f4
25
f8
ec
0b
f4
f5
0e
e6
03
f8
12
19
24
fd
11
1b
d0
f2
f4
e2
fb
fd
c7
f6
ee
ec
e4
f9
e5
d6
f7
de
dd
fa
f7
fe
22
e0
e7
02
ec
f8
0f
e1
fa
e5
e3
f7
f5
cd
e5
f5
e4
ec
f1
06
04
f5
13
16
13
f8
09
fe
f9
f9
ef
ea
03
f4
f6
fb
ee
db
ef
f5
d6
e5
e0
0d
1c
fd
e1
ec
d7
df
fe
d8
e7
f4
f4
e7
ea
eb
ed
f6
e5
f7
f4
f1
fd
f8
ee
f4
08
cf
dc
e0
f5
db
f1
ea
e6
f3
e3
0c
0e
f0
0f
0e
fb
0e
14
08
d5
fe
0d
e8
e7
12
fc
f7
0b
07
0a
eb
10
1a
f5
0b
14
f7
e7
da
f3
eb
e2
de
f3
e8
e7
ec
dd
fc
01
f0
f5
01
f8
00
fc
16
03
03
11
f8
0c
0e
07
f8
f2
fd
fe
f6
fd
03
f7
06
fb
eb
16
ff
ef
07
08
ec
ff
05
18
0d
f4
0f
0c
db
f6
02
03
0b
1f
08
0f
1d
0d
09
14
f0
0b
e8
f1
0d
f4
f5
10
02
fe
fd
00
fa
fa
fb
f7
f4
fb
ec
29
e2
d9
11
e8
f5
0e
eb
ee
f9
0c
e8
fe
1a
fd
0b
13
fe
03
e7
fc
0e
e2
fe
0b
f4
ea
01
08
e7
09
05
f1
12
12
04
13
18
06
0e
19
0a
00
14
e3
14
f2
ee
ff
e6
e3
00
e9
10
2d
f9
26
2c
f5
1e
2e
f2
00
f6
fe
fd
04
ff
ef
00
f7
fd
08
fc
01
0f
00
01
02
fc
01
06
ff
01
08
fb
f9
0b
f7
fd
06
f9
fb
06
01
04
f7
fd
fd
03
05
fd
fe
08
f4
fa
fe
04
19
0c
f9
06
13
08
0e
0a
03
fb
f8
0a
0c
06
07
09
fe
fe
fc
05
fb
fa
f6
fb
fd
07
03
fe
04
ff
04
03
fe
01
fe
fe
f6
09
15
10
fc
0e
0e
08
ff
0a
02
05
0d
06
07
06
00
00
f1
05
f5
f9
10
ff
fd
04
fb
0f
02
02
09
03
f4
09
03
0e
f8
f6
0f
05
f7
0d
09
f6
03
11
0b
0b
f3
01
f5
f4
f4
ff
fa
ff
08
06
fd
10
f6
02
ff
fa
fa
04
02
09
f4
fa
fd
fa
02
ff
05
0a
01
08
02
0e
02
06
fa
fe
03
01
04
fd
03
ff
fc
04
ff
fe
fb
01
02
00
03
fb
f5
03
03
fe
00
05
fd
06
f8
02
02
fe
fa
f6
fe
06
ff
fd
fb
ff
fc
fb
02
f9
01
fd
06
07
03
0d
ff
fd
09
01
ff
ff
02
02
ff
02
01
00
03
02
ff
05
06
fe
fa
ff
02
05
fc
02
ff
09
02
08
fe
03
03
fa
05
08
fa
0c
0b
fa
f8
f6
01
03
f6
ff
03
07
f8
01
03
f8
f7
fd
02
f8
00
fd
f9
fb
f7
02
f9
fd
03
f7
fb
00
f6
02
fd
ff
05
08
fb
fe
ff
fb
02
ed
e1
11
f8
fd
06
01
e7
de
ee
01
e9
f2
0a
f9
f0
00
05
f8
f2
04
fe
f1
09
fc
ff
0a
f9
f2
04
fc
f8
02
f8
fc
0a
fd
0c
fb
f1
03
f2
f0
ff
10
1c
0c
0f
17
01
03
04
14
fd
0a
fc
f6
17
0e
f2
0e
0d
fb
f9
f6
fa
06
f2
0f
08
fa
02
01
fe
01
fb
f9
fa
f5
f9
0c
03
e0
14
16
03
f1
28
16
15
0e
0c
29
03
05
2a
0f
f7
05
12
07
13
08
ff
21
f7
e0
fd
f4
f6
02
fc
f3
01
f9
f4
f6
08
10
f9
0e
0e
ee
04
0a
08
01
ee
01
f5
e8
fb
f5
e8
06
07
f3
0e
0a
fa
18
0b
f8
ed
e9
fe
03
e2
f8
00
d8
f1
10
fb
f1
07
f4
f0
0a
ff
ee
f8
05
07
03
09
0c
ff
fc
ff
fe
05
02
ff
0c
09
05
09
04
06
fc
fc
f6
f8
e4
05
ee
ec
09
f2
05
01
fe
02
01
fc
f5
04
f6
fd
06
f5
fe
fe
f6
00
ef
f8
ff
ec
fa
01
e9
f9
00
01
02
02
ff
fc
09
ff
01
02
fd
04
04
ed
e7
e6
0f
e6
f1
fd
02
00
fe
f2
f9
08
f9
f9
fd
08
00
07
0d
1b
08
14
13
00
fb
00
03
ef
00
07
01
f6
f8
fc
f2
f7
02
fb
02
0a
fc
fe
f2
dc
f6
f4
e3
f3
eb
d7
f3
02
ea
ff
01
f6
f3
01
f0
fa
fa
f5
01
00
f8
01
f9
fe
03
07
fc
03
06
f8
fe
fe
fd
03
f9
fa
08
fc
04
04
ff
02
05
02
02
fb
fd
fb
fb
fb
04
fe
f8
fe
04
f7
05
01
f6
05
03
06
06
01
07
03
ff
0a
06
fb
ff
ff
03
00
08
0c
00
05
fa
fd
fb
f9
fe
03
fa
04
fe
ff
01
fa
fb
fd
fe
00
ff
fd
f8
08
f9
f6
00
02
fc
fd
fb
00
00
f9
fc
02
03
fc
fa
01
fb
0a
05
03
01
fe
03
06
04
01
05
01
00
03
fb
fd
f4
f9
03
fa
fe
fd
04
0a
08
04
06
fb
f8
f1
f3
01
f0
fb
fd
02
fc
00
fa
00
01
02
0d
03
fa
f2
ed
fb
00
05
ff
fa
fb
01
00
10
1c
0b
12
0c
05
ff
fc
fd
e6
eb
e9
e7
fd
fd
e7
f8
fd
ee
ff
f3
ec
ff
f0
ee
04
04
01
06
fb
1d
09
ec
eb
00
0c
02
ee
ef
e6
dc
0e
f7
f8
02
fa
03
f7
03
0e
fc
02
0c
08
0f
f9
03
02
fd
f1
01
f7
f3
f3
f4
fb
ec
fe
f9
fa
fa
ed
f8
ef
03
11
02
0f
15
0c
fe
f9
f1
15
f3
fa
e9
e0
f3
09
f8
f9
eb
e2
e2
fa
ef
e6
02
fc
f2
e5
d3
ea
ea
e6
f4
05
16
15
02
0d
0a
03
f9
f8
fd
fe
fe
e7
f4
09
f1
13
f2
10
17
fa
07
0c
0a
0a
fe
f0
fb
f9
fd
f4
05
09
ef
ff
fe
fa
04
fb
fb
00
04
f5
04
fa
02
fe
03
fa
0d
06
fe
06
04
05
fc
01
ff
fd
02
02
fc
ff
00
fa
04
f8
fa
03
f3
f3
08
04
04
03
07
fd
03
06
f3
00
11
07
ff
0c
00
02
07
f8
eb
fe
08
05
03
0f
ff
ff
0c
03
05
fd
fa
fc
01
fd
03
ff
02
f9
f1
fa
02
08
11
03
10
03
f2
02
f5
01
05
09
07
10
0c
04
04
f8
09
fb
01
08
f7
00
0f
02
0a
01
06
09
02
0c
08
00
fc
06
03
04
04
fe
fd
fa
f1
fc
f7
e4
fe
f6
ec
f7
04
00
f1
f2
01
f4
f0
f7
f6
e3
ff
f6
08
02
fb
12
eb
05
0b
fd
14
0c
00
13
0e
01
11
08
fe
ef
f7
f8
f3
fd
f0
f7
ff
f7
f5
f4
fc
fb
e8
f4
f7
f0
0a
12
08
ed
f8
ff
e4
00
03
f8
ee
f4
ff
f1
00
f4
f1
07
06
01
fc
00
ff
f8
08
0c
01
ee
f1
03
ed
ea
ff
f0
ec
0b
f7
f6
f5
f9
fa
ec
fb
f9
f7
02
f1
f9
ec
dc
ec
06
ef
06
07
eb
f3
fc
f3
f6
0c
f6
e7
f3
ec
e9
ff
f9
f1
ee
e1
dc
f0
f0
eb
f0
f4
e6
ed
f7
ee
08
f7
f0
0c
06
ff
12
0b
06
10
f1
17
04
eb
1e
dd
df
fd
07
fc
02
0c
02
fe
fd
e5
fe
0f
fc
e3
18
fc
f7
2c
f2
f6
ef
f7
0c
f2
ef
0f
e5
e9
03
f3
04
00
fe
13
fc
fb
0f
f6
02
04
01
00
ff
08
fa
ff
09
f7
f0
0c
fd
fc
17
01
ff
15
fe
02
06
07
10
06
07
09
09
f8
02
f6
01
0f
07
f8
06
10
fb
08
f2
01
09
fe
f9
02
00
04
05
f8
04
04
f7
ff
05
f8
eb
f8
df
ee
06
e6
e6
1d
09
0b
e7
fc
1b
fa
f3
14
02
ff
18
1b
03
1d
30
09
1b
34
e5
fc
01
03
00
10
00
f5
07
ef
f4
f9
0e
ef
f3
0e
d8
f1
0a
f8
16
e5
f0
12
ed
de
0f
f1
f0
11
f4
da
11
fc
c6
08
fc
fe
e7
f5
fe
ec
f7
07
fc
f8
f8
f4
f9
f9
f6
ff
ff
fc
fe
fb
04
06
01
04
ff
05
f8
02
06
04
08
09
05
03
07
01
03
f9
f6
fb
04
fa
04
fe
f8
fd
ff
06
f7
07
03
06
07
ff
fe
f1
00
02
f9
fe
f9
fb
fb
fc
f9
f5
fc
f8
00
fa
fc
ff
fc
02
ff
0a
01
04
03
04
00
08
fa
fd
f6
ff
fc
f8
06
05
08
0a
08
08
fc
03
05
13
0c
12
06
09
0f
0f
0c
09
04
04
08
fe
07
11
0c
00
08
06
0c
10
f6
fa
fb
fd
fe
f4
03
02
04
07
f8
ed
07
03
fe
ff
ff
00
f2
fa
fd
f8
fd
fa
fa
fa
f0
f5
f7
ff
ef
fc
ee
f6
ff
f2
f5
fc
06
f7
03
07
01
02
0e
fa
fc
01
fd
fb
fe
f8
f9
f4
fc
fc
f5
f9
fe
fe
f6
f7
f9
f5
fd
fb
f0
fd
f5
f4
02
f1
19
0a
01
e6
e9
f0
ef
f0
fb
02
fc
fd
fb
f9
fc
02
05
08
00
fe
ff
09
07
05
03
fd
f8
00
01
f9
f9
02
fa
f7
f7
ff
02
fc
03
01
07
fd
17
19
18
fd
f9
fc
fc
ef
f2
f9
f4
ec
03
0c
fb
fb
f8
f4
07
f8
f5
fc
f2
f6
fa
f6
f6
f0
eb
ec
f7
00
01
fb
ff
f6
04
01
fc
fd
fe
02
fb
f6
02
f9
00
f9
fb
fa
f1
09
05
fb
06
0a
f8
02
fe
0a
f8
f6
07
fa
fb
03
f3
01
fe
f9
fc
03
f6
f6
07
fc
04
01
f9
0a
fd
fa
07
fe
02
05
06
fb
03
02
04
09
09
0a
0c
16
ff
07
0a
03
02
0f
03
f9
fc
ff
f5
01
06
09
03
04
07
0e
fe
02
0d
fb
05
10
ff
02
03
fa
fd
04
00
02
fe
01
07
04
fe
fe
05
02
06
fd
0c
02
fb
08
fc
f4
0a
02
fa
03
f0
f5
07
f8
ff
00
fd
ff
07
f8
f5
0f
04
fd
02
fc
f9
f6
0d
0c
ff
0e
04
fe
09
06
fd
04
fd
f8
fc
06
ff
01
01
f3
00
06
ff
0b
0e
00
04
0f
fc
fc
fc
08
f9
fe
fa
f7
03
09
fe
02
ff
fa
fe
07
00
00
ff
03
fc
fe
04
02
f7
fc
f4
ff
03
06
04
00
06
f7
fe
03
03
06
05
08
05
04
03
00
07
ff
f7
fa
00
fb
fb
ff
07
04
08
02
12
09
0d
10
fb
07
0b
01
fe
03
04
00
fc
ff
fd
01
04
00
01
05
04
05
ff
02
01
04
08
04
02
05
00
05
08
06
fe
fe
fa
02
f9
09
f6
02
f9
07
01
0c
fe
06
08
f9
0b
05
fd
07
05
0c
0a
fd
0b
14
05
05
08
00
0d
ff
f9
0f
01
09
f8
f9
03
ff
fd
fd
03
fd
04
00
fc
ed
f1
fd
f0
f6
02
ef
01
fd
09
fe
f9
02
01
06
04
01
fd
fd
f7
02
fc
03
f9
fd
01
fc
04
fe
00
00
f5
f3
03
02
fe
04
ff
02
fe
06
03
fb
00
00
02
06
07
fd
04
ff
03
07
03
ff
ff
fd
05
fe
ff
fc
fc
f8
fe
00
fe
00
07
03
05
04
01
09
07
ff
05
fd
02
06
f9
fe
fb
fa
03
fd
01
fd
02
03
04
ff
02
04
03
07
07
02
f9
f9
06
00
09
fe
02
00
03
08
06
02
06
0b
0b
04
04
0b
fe
ff
00
02
08
09
10
06
0c
fa
07
03
03
02
04
f9
fa
00
00
fa
fc
fc
02
04
04
fd
ff
00
01
02
03
f8
f7
fb
03
fb
00
fc
03
04
f3
fc
04
fe
02
f5
0b
f0
f3
ff
f3
05
fe
11
f9
fe
e9
0f
05
ea
14
06
f3
fa
f3
f6
ff
f5
f6
ff
ef
fa
03
00
f3
00
ff
fb
f9
fc
ff
02
fa
f9
f8
05
01
ff
10
fe
14
1a
f7
fe
02
f4
ed
f8
f4
f3
fe
f9
00
ff
fa
03
fb
f2
fe
f8
05
f3
f4
f9
f8
ee
fc
01
02
03
01
04
03
04
04
02
f1
fc
fa
08
0f
0f
14
ec
ff
0a
11
fa
f4
00
f0
06
06
eb
16
01
01
05
fd
00
fb
04
01
0c
fe
f5
fa
fe
f8
00
08
f6
00
f3
fc
f7
fa
ec
f9
fa
f5
f6
ff
f0
fd
fb
f5
fc
f8
0e
0a
f9
f3
f6
00
f5
03
0b
00
e3
fc
f6
fd
02
f6
0d
02
0f
01
0c
0c
0b
24
1e
06
1a
13
e6
f7
02
e9
ee
eb
df
ef
e7
f6
ef
05
e4
f2
fc
ea
e9
fa
d9
df
00
c9
c0
00
e5
de
08
fb
fb
eb
e3
de
d3
ed
ef
e9
f4
f6
de
fd
0a
fd
16
17
09
f8
fd
07
06
01
ff
ee
f7
fa
fa
f5
fb
ee
ee
f6
ef
ef
f2
fa
e3
ed
e6
d8
ec
ea
ed
ea
e6
e1
e4
ea
e5
dd
f4
e0
e3
ef
ed
e9
00
00
e3
0c
ee
db
ec
db
fe
e5
ef
e7
ed
df
e6
03
14
f8
09
0d
f9
0d
0a
fd
e6
ff
ff
d4
f1
e0
f4
0a
f5
18
15
0f
26
18
16
0f
15
0c
ff
01
06
03
01
fd
fd
06
07
f4
02
ff
f2
f8
06
f6
f6
f3
fa
01
00
01
07
05
fb
02
0a
03
01
06
04
ff
07
fe
f9
00
f4
fb
f7
f3
fe
f9
0a
04
03
10
0e
06
fd
fa
09
f7
00
0f
fc
02
fa
ff
00
03
ff
fe
06
f7
03
ff
fd
07
09
fc
07
f7
04
02
05
07
04
01
03
03
0e
fe
0a
09
01
11
f6
05
1d
f8
00
0a
fa
00
0c
03
09
09
03
f7
fe
06
fe
00
01
02
02
13
02
08
06
fb
f6
07
f5
f3
02
f9
fa
fa
03
fd
fa
f9
00
fd
f9
fe
fe
fd
fa
07
04
0a
12
04
0f
07
09
02
08
f8
0a
02
01
f0
08
06
00
f9
08
fe
f1
fc
f7
fa
06
fa
02
0a
f4
f9
fc
12
fb
fb
00
fa
fa
08
f4
fe
06
fa
04
00
00
ff
03
fb
ff
06
0b
fa
10
0d
00
08
07
0b
08
02
14
0d
fe
f3
fb
fc
fd
fd
03
fa
05
06
fb
08
00
ef
02
05
f1
09
ff
fa
fd
05
03
01
ff
fe
fe
fc
00
fc
01
14
ea
fe
0e
ed
f0
ff
f0
03
eb
04
08
f0
0c
00
fa
fe
ff
02
04
06
08
1a
14
fd
1a
0f
ff
fb
04
fa
04
fc
fe
f7
fc
fd
fc
05
fa
02
01
f4
fb
f9
fb
0a
09
ef
fb
08
fd
fd
f5
03
08
0d
f9
08
fe
f9
06
00
f8
fe
ef
f9
f2
e7
fe
07
fd
f3
f2
f5
00
03
09
fb
06
0b
e6
f0
df
fe
03
fd
fa
fa
fb
f9
06
fa
fc
07
03
fa
ff
01
fe
10
f1
f9
0e
02
00
07
09
eb
f2
f1
02
0c
0c
11
ff
03
f5
fb
ef
09
fe
f9
06
03
04
0f
f2
f9
0d
f6
14
10
f6
05
f8
f5
ef
06
06
04
fe
05
02
26
07
f8
02
f1
e7
0d
17
01
ed
f9
fb
fa
0e
05
19
13
f9
0e
f6
ed
03
f6
ec
11
10
fe
fa
06
03
09
fe
03
0d
fd
ff
f7
02
f2
01
05
01
03
09
03
d6
e8
f8
01
f2
13
ef
f9
0f
00
f9
e2
06
03
08
07
03
fa
07
14
00
0a
0c
04
13
14
ff
18
fe
fd
1e
10
fa
10
fb
fc
e7
08
0a
ee
f9
05
e6
f7
fd
f5
ff
07
fb
05
0d
02
0c
05
fd
f6
04
ff
0e
1c
13
0a
1a
fe
00
03
eb
f6
fe
ea
fd
f7
05
fa
09
08
00
08
05
02
06
f8
eb
fd
f7
ed
f8
ed
ea
fc
f7
fc
04
f8
00
02
fd
03
09
f5
00
0b
f0
15
f9
02
20
f9
e1
e8
1c
dc
f0
12
ea
fe
1c
fc
00
eb
fc
ec
e6
dd
d9
ed
e8
fc
07
e8
f9
07
fa
fe
14
f5
eb
f6
00
f9
f4
01
f3
ea
05
02
02
fa
f1
0b
e0
03
00
f1
e8
ec
ff
fc
f5
03
f4
e4
12
04
05
03
03
04
ff
02
0b
02
01
03
05
01
fe
fa
f7
fe
fb
00
f7
fa
06
fe
01
fa
fb
02
fe
04
04
00
ff
07
03
fa
fa
fd
00
fd
01
07
fc
02
0d
07
00
01
07
fc
06
fd
06
0a
fe
f8
ff
06
ff
ff
0f
0d
07
ff
fd
01
03
11
0c
