f4
f8
0b
f3
0a
0a
e4
0d
00
01
0b
09
fc
05
00
f3
ff
02
e9
f6
fb
f9
f3
0b
00
fb
0a
f5
f8
fb
fd
f9
fe
fa
f9
ff
ec
ec
00
0c
04
ff
fb
ff
f4
fc
07
03
fa
06
01
06
16
16
04
0c
18
ff
fd
f7
fc
fc
f6
04
05
00
09
fe
fe
ee
f8
f3
f6
fd
f4
f6
07
04
f7
ff
f9
ec
d3
cf
fb
fc
04
19
12
fe
0d
08
0f
fb
02
13
fe
ff
0a
06
03
07
02
fc
f8
f8
02
f8
fc
ee
e9
f3
ee
f2
04
f3
ed
f9
f0
00
ff
00
fd
03
07
f9
f6
ef
fa
f1
e7
f4
1b
14
24
ff
fa
fc
07
02
08
16
12
16
11
f6
03
fe
e2
07
14
cb
10
fa
03
ed
0b
16
cf
03
14
e4
e4
ee
01
f0
fa
04
ed
f0
fa
f9
02
02
05
00
01
f9
fa
f7
f8
18
06
02
d7
00
06
e5
1e
fa
fd
06
f5
fd
02
ed
0b
fa
f3
e4
e5
f8
e4
e9
e5
e5
dd
f9
05
05
ff
fa
0b
0f
fe
fe
0f
fb
ff
fa
00
03
f0
00
fc
d3
11
0a
f8
04
08
1b
15
20
03
fd
e7
f5
d4
d3
f1
e9
e1
ff
10
06
fd
ef
06
0a
f0
fe
ec
d5
e8
e5
cf
d7
1b
f1
df
ff
f1
04
eb
00
05
f7
ff
0b
08
fd
0b
fa
f3
0b
0c
fe
05
f8
fa
00
f3
fe
fb
eb
fd
01
fe
fc
fa
02
f7
11
f2
ed
f1
09
fa
01
f8
f9
fc
f8
ef
0f
ff
12
fb
fb
09
f9
fd
fe
01
09
0d
08
0c
09
04
0f
06
f8
05
0b
01
0a
e0
ea
0a
ed
db
05
0b
fc
fe
06
ff
f5
fc
00
17
0a
03
24
06
fc
1e
04
06
f7
04
fc
ee
f3
fa
03
fc
05
03
04
06
fa
05
04
eb
0b
ff
29
17
16
fe
fc
f6
32
0a
01
20
19
1a
21
17
0d
25
20
0e
f8
05
00
fe
00
03
09
0b
03
02
05
14
0a
fd
f3
08
f8
f4
fa
09
0b
01
05
fc
06
09
e9
00
01
f5
06
fd
fa
11
03
fc
01
01
02
fb
fe
04
fe
03
03
ff
f7
e3
00
f8
f7
01
e2
c8
ec
f6
0e
fc
f6
08
f6
f5
03
02
f1
f7
0d
10
01
f8
f5
e5
00
06
02
f9
fd
f9
06
fe
f5
eb
fa
e6
fb
f7
f9
03
f0
fe
fb
f4
dc
03
03
f8
ed
e0
e7
08
04
02
01
ff
fb
f5
f0
f5
eb
f2
f4
f0
f9
f5
fa
f7
f4
f6
f9
02
e6
e1
f6
f3
ef
f6
de
f9
0e
10
0c
0d
00
f9
05
f5
f3
f6
f4
ec
eb
ee
f5
db
0b
04
0e
fd
f4
f5
fe
fb
f5
eb
ec
f5
e1
e5
f0
e8
f2
03
03
11
ec
ed
f4
e0
e7
f5
ef
fa
f7
fa
fa
eb
f7
20
17
25
0a
0d
01
02
03
04
ff
fe
06
fa
1a
1d
fc
fc
0d
0b
f3
0d
e9
06
fe
03
f1
ff
10
fa
02
fd
ec
08
ff
fb
0d
07
fe
f9
fa
f7
f6
fa
f6
f3
f2
fa
f4
0a
fa
ef
08
0f
f0
f3
1c
1a
f5
f6
f4
02
0d
03
06
10
f2
fe
fc
fc
04
f8
01
07
13
0b
0b
06
06
07
fa
fe
07
03
fd
06
02
09
01
0b
08
0a
05
07
0e
0f
02
ef
e6
03
f8
fe
fc
0a
ec
10
08
fc
09
0a
fe
ff
fc
17
13
fe
f1
ff
f3
f4
f8
ef
fe
15
05
fd
f3
04
ff
07
02
09
e9
11
03
06
04
06
18
08
09
07
04
00
06
fd
ff
0e
fe
0c
06
05
ff
fe
09
0c
0f
f8
0b
11
ea
dd
e3
23
c0
c8
06
00
07
06
07
ff
f9
f6
04
02
f7
0f
04
09
07
09
06
09
ff
fd
00
02
03
05
fb
fc
fd
fe
f9
06
fb
f9
04
fa
e6
e2
f0
01
02
22
1c
fc
20
13
11
f9
f3
f2
01
02
fd
0e
07
03
fb
f8
00
f7
06
07
f8
03
fe
00
ff
01
fb
01
fe
02
05
fa
e8
e9
fb
e1
e1
f1
01
f9
fe
0c
07
06
0d
07
0b
16
12
12
fc
fe
01
f9
fe
00
f5
f3
f6
05
fc
f0
09
04
fc
f4
ed
e6
f8
f7
08
02
19
11
04
12
fb
fc
f6
fe
01
0d
10
f7
f8
ec
08
08
00
05
0e
04
c7
c7
c9
01
05
09
fc
02
07
ee
f5
f9
01
08
0f
07
13
0d
00
11
0d
f7
02
0b
09
00
0f
09
0c
02
ed
02
0c
f2
03
fe
ed
02
fa
04
f3
0e
fb
f1
f1
02
2e
21
02
03
f5
00
07
03
1c
10
0b
fd
fb
fe
fe
f8
f8
09
0b
00
09
fd
05
ff
06
ff
f5
07
01
01
02
07
fe
ff
fa
00
00
03
f5
ff
f8
f2
ee
e8
0c
f9
fd
27
05
1a
13
0d
19
0f
03
0e
0d
1b
17
02
f7
f9
fd
f8
f2
0f
09
e6
f5
f7
ee
fc
f6
ed
f0
fb
df
03
fa
f1
fa
fc
07
fd
04
09
f6
fe
fb
05
14
0e
fa
01
fe
fb
00
02
fb
fe
04
07
08
01
e7
08
0f
18
fa
e7
09
f4
04
15
f8
eb
f5
ec
0b
0b
02
06
f8
f6
f8
e7
ca
e6
03
05
ff
07
02
fb
02
fd
f2
0d
fd
fa
fd
e9
03
05
07
0f
00
00
f0
05
02
f9
f7
f1
eb
ec
eb
ea
f3
e9
e3
ea
f2
e9
05
00
f7
e5
cd
f0
eb
dd
e4
f2
07
fd
05
01
01
00
f4
fe
f1
fc
dd
08
03
02
ff
c0
e4
d4
c0
e9
ed
d2
de
e7
e8
ee
01
0d
06
f1
c5
dd
f8
ef
f5
02
16
00
f1
08
fc
f0
03
16
f5
02
03
03
07
0f
05
05
e6
03
fa
00
05
05
02
f6
fd
03
02
00
fd
05
01
02
fc
01
fd
0e
0a
f7
e8
fb
fd
ff
f0
03
fc
00
09
07
03
f2
03
f7
f9
07
0a
06
fe
f1
fd
04
04
08
fe
00
fc
05
06
02
05
05
fe
0c
ff
e3
ec
10
10
fa
0b
03
13
10
08
08
00
00
ff
fd
f9
09
00
fc
fb
e2
f1
f4
f8
f2
fb
04
01
0e
14
03
02
fb
01
f6
00
f8
07
06
06
03
01
03
04
f5
fd
ef
06
f8
06
0b
fa
e1
e2
fb
dc
f3
0e
f1
fc
09
fe
fd
f6
07
0b
0a
08
08
05
ff
00
ff
fb
f7
fc
03
fd
07
00
07
f6
00
fa
f1
f6
fb
f7
f8
f6
fc
f8
f6
f4
00
f8
02
fe
fd
ff
01
fe
01
fe
ff
03
09
14
0a
09
fc
f2
10
fa
e6
0b
12
0d
10
03
09
08
fc
0c
ff
fd
fc
03
f6
02
11
09
03
f9
f7
fb
01
fe
03
09
03
09
fe
f9
fa
f7
0b
ff
03
f2
fc
ed
fe
07
ff
06
07
01
0a
03
ed
ef
f1
f8
fa
f9
01
05
fd
fb
fb
0c
fb
0a
0d
f7
08
00
00
0a
09
fc
06
06
fb
02
06
fb
e4
f1
07
07
04
09
0d
10
f0
00
fb
01
0a
11
03
08
06
05
fb
fd
07
00
07
03
05
0c
fb
03
f3
fd
ff
f9
07
04
00
fa
f6
01
02
fa
00
05
0b
08
f7
e3
f0
07
0d
05
06
0a
01
03
fa
00
01
fb
f9
02
00
01
f1
01
f9
f8
fb
e8
fa
fe
fa
f7
06
fa
f4
13
f2
f8
16
f4
fa
0d
eb
00
0a
ea
fe
00
f2
fa
00
ff
f4
06
08
ea
fa
06
0f
05
ee
00
fa
0a
fb
f7
05
fb
0e
0b
fd
0e
06
f7
14
0f
04
0c
0c
01
11
0b
00
17
13
1e
07
0d
02
00
0c
f8
05
05
07
03
fe
02
05
00
05
f2
fa
0c
04
07
02
e9
fc
20
29
11
0f
14
06
f2
1b
07
17
2e
04
03
03
09
01
fc
05
03
07
06
fc
f8
ed
0e
07
f4
f9
f0
df
03
f5
01
ff
f9
ee
0d
00
d6
f8
07
de
03
16
fa
06
13
fb
00
01
01
06
00
05
f5
f3
f4
e8
00
e8
f0
0d
09
dc
0a
f6
fb
fb
15
fb
f5
f8
02
f5
de
fc
04
f2
f9
0b
fe
07
04
00
f8
fc
06
01
fe
0b
03
02
0f
0f
0c
ff
05
03
ec
f2
f3
09
fd
f2
ea
f8
01
ef
f5
02
ff
ed
eb
f4
eb
f4
e8
f9
fd
fa
0b
09
04
ff
f8
00
00
fc
fa
04
fc
05
01
fb
06
07
00
05
14
04
06
fb
e9
f5
f9
12
e1
f2
f6
e6
02
f6
f2
e7
ec
e0
02
04
02
08
04
fc
05
04
0a
17
14
1c
0c
0c
12
0c
05
09
e0
ed
e3
ed
fc
fc
f1
04
08
f7
02
e0
01
07
f9
02
06
02
fe
05
03
f9
ff
00
03
07
fe
f0
03
fb
fb
fb
fa
04
e6
fc
f6
ef
f6
0d
ef
f5
ff
fb
0b
00
fb
ec
03
fe
ee
03
f9
01
fa
ff
f1
f2
04
fa
f1
fd
f9
f9
fe
f4
e5
e9
f0
f9
f4
02
f4
f2
04
f8
fb
01
f3
f5
f0
fa
ef
fd
df
eb
ed
e8
ee
e7
eb
f6
fa
f1
02
fe
f5
fb
f0
fa
fc
fa
fb
02
05
00
f8
00
ea
ea
f7
fb
f1
ed
00
f4
ec
ec
f5
f9
f7
0e
ff
ee
fd
e9
f2
f4
f2
f7
ff
00
fd
fb
f8
ee
04
00
f6
04
f5
ec
f5
ef
fa
f5
f8
06
0b
fc
01
05
f7
01
fb
f8
0a
0d
00
fb
00
fa
fd
01
fe
03
02
00
04
fe
fd
10
0c
18
08
e1
ed
ed
04
0b
fc
f2
f1
06
ee
14
04
ee
08
fb
f8
01
00
0a
04
03
00
fe
fb
05
fa
0a
09
04
06
03
fe
0a
ff
04
1a
0a
01
0e
f9
fa
fb
f5
f4
14
06
05
06
01
ff
ff
f7
f2
f6
f2
f3
f7
f3
f8
f3
ee
01
05
fd
0b
02
02
fb
ff
f9
00
01
fe
01
14
fd
03
0f
16
13
fe
ff
0c
e6
fa
f4
df
df
e8
e7
e3
ea
f4
e7
e4
06
0a
ff
f8
02
09
fb
01
05
f6
f3
07
fb
04
1e
fe
fe
04
f4
03
f3
f9
04
ec
08
04
15
f0
f1
f0
fc
06
0c
04
0f
03
fe
04
04
0b
0f
05
e6
eb
e9
0c
01
fc
e7
fc
05
00
f8
00
01
fb
05
0d
f6
06
07
ef
15
fb
e7
0b
f5
00
02
03
04
fb
07
07
02
08
06
fd
02
05
fe
19
0f
04
06
fd
0e
fe
f9
01
e8
ef
f3
ec
fc
fb
f8
04
f4
ff
ff
fb
04
03
fd
09
03
f8
0f
02
07
00
f8
02
00
fa
fe
fb
04
05
05
01
00
09
03
00
f3
f9
ed
04
ff
0f
03
fd
f6
1c
0e
16
09
02
0e
05
05
0b
eb
f9
fd
fa
fc
ff
03
02
03
02
05
0b
0b
12
03
04
0d
ff
00
fb
e2
fd
03
00
f9
01
16
fe
fc
0e
03
f8
07
00
f8
07
00
06
00
fb
fe
f8
06
07
10
13
06
f0
e6
07
06
e2
0a
f0
e7
ff
f3
e8
f1
fe
e5
f7
f4
05
fc
e0
09
0d
f7
03
05
fe
e9
02
0d
e7
04
01
ec
02
f9
ee
f6
fa
f2
eb
f8
f0
f2
fb
08
f5
f7
04
f4
e5
07
f4
ed
03
08
1a
f6
0c
10
f8
00
07
14
f5
f1
fc
ff
03
fe
00
01
0c
06
02
12
ff
fd
0d
f5
06
e9
01
12
f7
09
1a
06
04
e9
fc
02
03
f9
05
06
fc
13
14
fb
f3
f8
08
fa
fb
0e
00
fc
07
04
0b
0d
11
1d
fc
00
01
f7
f9
02
fc
07
ea
00
0a
fb
fc
ff
04
ff
ff
dc
f7
01
f7
fe
f4
fa
0a
fd
f9
0d
0d
0d
fd
f9
fd
fd
12
09
da
ff
fa
ff
ea
04
0f
ec
ff
03
ea
07
ef
fa
0c
f5
02
01
fe
02
ff
f7
08
07
f9
05
01
ff
06
01
07
fe
fb
e4
fb
14
0a
fc
09
f2
f2
fe
f0
f5
07
f3
ff
fc
f6
f7
f3
fe
ff
ff
03
ff
ff
08
f7
0c
f5
0c
04
05
0f
fa
fc
0b
07
05
fc
fb
02
f2
f3
d3
f1
f0
0c
f4
07
02
04
0a
13
16
14
0d
0e
0c
12
0d
0b
fd
0e
04
05
02
fe
0f
01
07
0e
05
f8
06
03
f4
fc
08
ff
ee
fd
df
07
06
f5
04
fb
17
fe
02
16
ed
f5
f8
0c
02
10
07
fe
01
f6
00
fb
05
06
05
01
0d
f8
01
13
fd
fd
f5
ff
09
d7
fe
09
cd
03
10
ee
02
fb
04
00
04
00
ff
02
fb
f6
f9
f3
f2
e6
e4
fb
e1
ef
04
10
e5
07
fa
fe
e9
fc
1f
f5
0d
ed
e4
0f
f3
e3
0a
09
f7
f6
e7
02
dd
e2
e7
e3
ed
eb
de
e1
f0
e4
d5
ee
ef
da
ec
fb
02
f6
f1
db
ff
e4
d7
ec
1b
e6
c7
da
28
f1
e2
0b
09
f3
e5
f5
f4
df
f1
f6
e3
e9
0e
17
f7
04
fb
fa
fe
03
fa
fd
f9
0c
ec
ec
04
ed
eb
13
ff
06
13
00
06
f2
02
00
f4
06
0b
fc
07
ff
f6
00
01
fa
00
ff
fa
ff
ff
ef
06
01
f8
10
11
f1
fd
16
04
07
09
f8
f9
fe
10
f3
06
0f
eb
04
13
fc
02
09
f6
ea
ea
07
01
f6
03
f8
f9
11
fb
03
13
03
08
06
e8
09
01
11
fe
ff
08
e7
0d
12
0b
f8
f6
fc
03
17
07
06
09
08
fc
10
10
ff
0c
06
f6
0e
0a
14
0e
05
17
03
ff
fd
04
fe
f2
02
02
e4
ff
fa
30
02
10
f9
14
12
eb
fe
fb
f6
fd
01
f0
e9
ee
f0
ef
06
05
09
02
08
06
10
03
0e
14
f1
f3
fa
06
fd
02
0c
04
00
05
05
07
fc
03
0c
05
0b
0c
07
0c
0b
f1
f4
f4
f4
00
ea
ff
fd
05
f5
f7
f5
16
0e
0a
fa
f7
e9
ed
f9
f2
16
01
e9
f6
0f
06
fa
16
d3
f4
0a
f1
0b
05
f5
01
05
fa
04
13
0a
d8
fd
fc
d1
03
f8
e4
03
fe
fd
1a
f8
01
e5
08
f8
ea
f5
03
03
09
07
04
0d
0b
13
fb
06
0a
13
fc
0a
fe
f9
0c
05
1c
fa
fc
0f
fd
08
07
f4
fd
09
fd
0d
2b
fe
0b
32
f5
09
c4
db
05
ed
00
fd
f5
04
f8
fe
fa
e9
fe
fc
e9
04
0d
02
00
00
fe
04
f7
ef
02
00
fd
f5
fa
17
fa
ef
12
02
fa
15
fd
f5
f9
02
f7
00
08
02
fd
02
fd
ed
f3
f2
ec
fe
07
f2
05
fc
01
04
ff
01
0b
00
00
ea
d7
04
e8
f6
06
02
1b
0e
fc
0a
07
fb
0d
08
06
06
f8
02
05
01
06
0e
08
fe
03
08
fc
01
ff
02
fc
fe
f5
fa
fd
ff
fa
fb
04
c0
e6
f0
ef
03
02
00
fb
ff
02
f3
02
00
00
f5
f3
09
fd
f5
02
04
04
fc
20
15
fe
1f
f4
f7
06
f9
09
f2
f8
02
f8
01
02
07
fc
01
01
1d
05
f8
0b
ff
05
07
03
1d
0e
fb
04
07
18
f7
07
21
f6
0c
04
f8
05
04
09
05
04
01
05
fe
07
0a
f3
fd
00
f1
00
ff
fd
01
01
fa
06
02
fe
01
00
f9
09
09
06
f1
ef
f0
fa
fd
fd
fd
02
00
fe
ff
00
ff
f8
eb
f0
04
fa
f7
10
ef
fc
fe
ff
00
fb
07
02
02
19
04
08
03
f6
f7
0a
f7
07
fa
06
fa
f9
ff
fd
fb
fa
f8
f6
0b
f8
f2
06
0e
f1
04
0c
e3
e8
fd
fc
f5
fe
fc
f5
e4
00
ea
f1
f7
f5
f6
fa
fa
00
02
01
09
0c
0a
0a
05
12
02
07
02
0a
ff
06
0b
fc
07
fc
fe
14
ee
06
e7
df
f2
30
20
02
e2
d9
e8
ea
e8
eb
f6
e3
ed
f3
fd
00
f2
fb
f7
ff
00
f9
ff
03
ec
fc
01
ea
ff
f1
f7
01
fa
fb
06
0b
10
05
14
fc
05
04
17
f2
f4
0e
f8
eb
05
01
ff
01
04
00
06
fa
fe
fa
f9
0f
19
fb
0a
0b
ee
02
f9
f3
04
05
0b
01
06
ff
0a
0f
fe
f0
fa
02
f9
f5
e7
ed
ed
f9
08
f7
f2
ea
e3
04
f9
f0
0e
f9
08
19
02
fa
11
17
1e
fb
eb
ef
f3
e0
fa
ff
f4
02
f6
fa
05
e3
f0
e9
f6
f7
ec
09
00
01
f5
e7
01
fd
fa
0a
ec
ff
fa
f9
cd
f2
ff
e6
f1
13
12
0e
f6
e0
ee
0a
f4
fc
e7
df
d5
df
d1
e9
df
db
ea
fa
06
ff
02
e9
fa
f6
f2
f0
0a
0d
0c
f0
f0
e4
14
0a
13
f3
ee
ea
f2
e8
f0
f2
fc
f3
fd
f3
f8
02
0c
fe
ff
f4
f8
fc
09
ff
f5
f2
f6
f8
fe
01
0c
f7
f7
d8
da
fe
f0
e0
00
13
0b
07
06
09
fe
fb
00
03
07
00
fd
0c
0c
01
fe
ff
f6
fc
ff
00
14
fd
fa
09
fa
fc
fa
09
0d
06
e9
ff
f9
f1
ee
0e
0d
ff
0e
15
f5
01
0e
ec
fc
fa
02
db
ef
f2
eb
f2
fb
0d
ff
f4
0e
f1
f8
01
f0
ff
e8
f1
00
0c
fe
ff
10
0d
fe
22
01
04
fe
03
05
df
ff
08
fe
f1
d4
fc
f0
d3
07
f4
d5
f9
fe
f2
f8
07
fa
00
06
03
fa
ff
06
09
04
09
09
02
08
02
fa
fb
04
0c
01
02
00
ff
05
04
fe
f9
02
fd
03
ff
f3
ff
05
fc
fa
09
fe
f5
02
fb
08
f9
e5
0b
fb
08
0d
08
f7
e5
0f
00
f8
0e
e4
08
14
f0
f9
f5
05
f9
fb
12
01
02
f8
07
f6
f6
18
09
01
12
06
07
05
0a
f9
0b
04
07
f2
0c
0d
fa
03
f8
e7
f6
fd
0b
0c
00
f2
eb
fd
05
ea
01
f7
00
04
ea
09
0a
00
11
03
08
16
0d
fb
ff
00
f2
07
ff
d6
fb
fa
1f
f4
05
ec
e8
eb
0f
f2
06
f4
08
12
ff
f6
0b
fe
f0
0a
04
02
02
fd
05
07
08
01
0a
fe
03
ec
0b
0b
f4
08
09
01
f7
01
fa
fd
f6
20
f5
fa
20
01
f7
04
0d
03
11
ed
c8
e1
ff
04
00
fd
f8
f8
09
0b
0f
e6
06
06
e3
eb
eb
0b
ef
ec
fb
03
0e
01
0d
fa
ef
f9
0f
f5
00
0b
f4
06
05
f3
04
04
f3
01
04
f8
06
02
f0
fb
fa
fa
f8
fd
f4
f7
19
04
f6
00
fe
04
06
03
07
05
02
02
fa
fb
f1
f1
f6
e7
e9
f8
fe
f9
f9
ef
08
f1
f7
0a
f1
fa
09
fa
02
fb
09
0c
09
07
01
0d
f1
fc
f6
fb
06
07
fd
fd
ee
ee
d4
fb
dc
d0
fc
ea
e6
fa
fc
0b
02
02
f7
fc
02
0d
07
f9
f5
00
0f
04
09
08
f3
f4
fd
ff
e8
03
09
f6
05
fe
fd
00
00
09
ff
00
f7
f5
00
fe
00
04
03
08
01
02
f9
fb
06
f7
19
f9
ed
00
0b
f5
07
fc
f7
02
fa
f7
03
e9
08
fc
e9
06
07
02
06
fd
02
07
05
12
00
ff
fd
08
01
fe
02
02
fe
00
08
ed
fd
0d
08
fd
09
04
06
07
07
05
ff
01
06
07
05
ff
fd
09
f6
ed
fe
ee
f2
ff
0e
0e
00
0b
04
fc
fd
f8
f9
f6
ff
fd
06
fa
f9
07
fb
f8
0f
fc
06
f4
f8
fc
0b
f0
ff
f0
f9
02
f7
00
03
fc
fe
08
06
09
09
00
00
05
03
fd
f9
ff
06
0e
02
ff
08
00
fb
03
fa
f7
17
03
f9
11
0d
05
fd
07
ff
fc
0b
05
f8
fa
eb
d5
07
02
06
fb
fa
fa
01
01
fe
f5
f1
07
db
f6
0d
f2
f6
0a
03
f4
ed
10
fa
f0
05
02
e6
ff
fc
f6
02
03
fe
ff
f4
fb
fc
07
01
00
06
02
fb
ff
01
fa
f2
04
fe
dc
f9
fd
f9
06
fc
fa
fb
03
04
07
03
fe
fa
f7
f0
ed
ee
f1
ee
e8
ef
f4
0e
03
04
00
ff
07
fc
fe
fc
05
fe
f7
06
fe
00
0c
fe
fe
f8
fb
fe
f0
f0
f0
f3
fd
ee
e9
db
df
01
f5
ee
02
01
f4
fe
0b
06
fd
06
00
f9
ff
f9
02
07
ff
ff
07
02
fd
05
fa
f3
fc
f6
00
0b
0c
0b
0a
09
02
02
00
03
05
02
0a
07
07
fb
07
04
00
05
00
fb
fe
fa
03
06
ff
fe
f3
ed
17
01
f4
df
f8
fc
ed
ed
0f
05
00
1d
fd
02
07
01
1b
13
f9
00
fc
05
fc
07
0b
04
00
08
fb
fb
f3
fd
02
0d
d9
f3
0f
ed
fc
fb
07
01
f7
10
07
f7
fa
fa
0e
0a
05
fb
f8
f0
01
01
ff
fc
f3
fd
f9
09
fc
06
03
02
09
fe
ff
fb
02
fd
ff
05
03
f1
16
18
1a
18
17
09
04
fd
eb
f3
fc
ec
f9
fd
f9
fb
04
fa
02
09
f7
03
06
f7
fc
fa
02
fa
f5
10
08
07
11
0e
fc
11
ff
e5
ed
ef
f3
f1
fe
09
05
fa
00
05
f3
06
ff
f4
08
f7
fd
07
fd
f3
fa
f7
fb
00
fe
0e
04
fe
0b
ed
03
12
ea
0a
fc
0a
ff
f7
17
f6
fc
1a
f3
05
fb
f5
fc
f4
fb
f6
ea
0c
01
02
1d
03
06
10
ff
01
f6
ec
07
01
14
05
02
fe
f3
f1
01
fb
05
0c
03
fa
01
09
00
00
00
ed
ef
f6
e8
f4
f7
fe
ef
f0
ff
f1
fb
f9
ee
fa
fc
07
04
f9
fc
f3
03
01
fd
16
06
03
f4
08
12
f4
ef
f4
f6
e8
fc
ec
fd
04
f6
01
f3
05
00
ff
00
07
03
02
10
06
fa
fd
e9
02
08
f9
03
0a
ef
0a
ff
ff
fa
05
f5
03
0f
eb
e8
e5
f0
05
f5
04
ec
f9
fc
05
06
07
08
09
0f
e0
e8
e7
fb
01
0c
f2
ff
00
0b
fd
f7
02
f6
f7
04
02
fa
fb
fe
f7
01
fb
02
03
fd
0b
fd
fb
ff
06
03
04
0c
06
03
01
01
fe
16
fc
ff
f9
e9
ff
fe
fe
fe
05
04
07
10
10
05
08
01
fc
27
16
1b
05
fb
fe
f3
f3
ec
20
09
fb
fd
ed
ff
ff
f4
fb
06
f2
fd
fc
ff
ff
04
f9
fe
fd
08
03
18
16
19
ea
e4
e6
0c
f2
07
fd
ee
fb
f4
fb
05
0c
1a
1d
fa
ed
f2
f6
f6
f7
0f
09
11
06
02
0f
03
f1
f2
01
07
0e
f7
fc
13
08
fb
0b
fc
fc
0d
05
ff
ff
08
05
08
01
04
fe
04
03
fc
03
04
06
ed
1f
08
0f
fc
eb
ed
3a
13
01
02
f7
ed
f6
0b
05
fc
04
02
04
14
f9
fc
06
ff
05
18
fc
fe
fe
f6
f8
00
f9
fb
f9
07
19
0b
0e
08
e5
0c
0f
f6
f6
0c
f7
15
16
06
01
04
f9
f8
f3
00
04
08
07
0b
0a
05
24
08
fc
06
0a
03
0b
01
01
0b
07
05
ff
00
01
01
f4
01
30
36
08
03
fe
f9
1a
f8
f6
fe
fa
fc
0c
13
01
fd
fd
f9
0f
10
13
03
05
08
04
03
01
07
01
0b
15
01
fa
fc
f1
ef
fe
0b
02
07
f7
f4
0b
03
01
fe
f2
fd
0e
05
1e
f6
e4
f2
06
08
04
10
0e
04
fb
ed
e5
16
02
15
fc
13
01
d2
05
2d
ec
f8
fe
09
ed
0a
13
ed
f5
ec
e8
ef
f1
fd
f5
02
05
03
f9
fc
f9
f8
ef
ea
00
05
f8
03
08
f2
f8
f9
01
f0
03
19
f5
f9
13
e7
dc
f1
f5
fa
df
04
00
0c
df
e7
06
ec
e8
f3
0b
00
f1
07
fe
f4
07
00
fe
fd
01
fd
ee
cd
da
0f
f5
ec
f4
06
f8
00
04
15
fe
fd
00
ef
e0
d6
e0
d1
fa
ee
f1
e4
04
03
f9
04
06
ff
0a
08
00
ed
eb
01
fc
ff
00
06
0d
02
f2
d7
f0
f7
fe
03
02
0a
0d
04
10
18
fb
f9
fb
0c
11
12
ff
fc
fa
ec
f2
e9
0c
10
07
fa
0d
16
fa
11
0b
0c
07
05
f8
f6
f8
fd
02
ec
fb
f8
f5
0f
02
13
01
04
01
0a
0d
fd
ff
fe
fa
ff
f9
fa
01
fd
f7
03
02
fd
f0
12
10
f5
1c
14
09
06
03
06
02
01
01
0a
fe
ff
ff
0c
00
f4
f8
06
fd
f8
10
0d
0a
0d
04
0c
00
01
fa
03
01
fe
09
05
fe
0d
02
fd
09
04
ed
ed
e5
05
f9
f6
f5
f4
f8
14
fd
04
19
00
09
10
fe
07
06
05
fa
fc
0a
04
fd
00
03
09
01
f9
03
fd
00
0f
05
07
f7
08
00
07
05
02
06
07
02
03
fa
f4
eb
0e
0c
02
02
02
ff
03
00
fe
07
fe
fd
fa
0b
02
f4
00
fb
f2
11
14
f3
dd
03
f5
c0
15
f1
fc
06
01
0b
ce
fd
0e
ee
fe
fe
fc
fe
fe
ff
ff
06
05
fb
ff
00
0c
f9
f1
0b
12
e3
0a
0c
03
f8
fe
07
f5
02
f4
f6
0a
04
fd
04
04
01
fc
06
06
00
03
fe
06
f5
f5
07
01
fb
fa
f5
f3
fd
05
0c
04
02
0e
09
05
08
0b
05
e8
08
ff
f1
f2
02
f8
18
34
fa
15
2c
21
1c
0f
fd
0f
0f
f5
ff
11
00
00
fd
fc
f4
06
f9
03
3a
fe
fc
13
03
f0
d8
06
02
dd
f7
fa
da
01
09
df
01
0b
e2
f5
02
ee
03
00
ff
02
01
fa
02
03
04
f9
09
eb
0e
0a
fe
04
12
fc
f9
07
00
fc
f5
00
f8
06
0f
06
fd
05
00
ff
09
13
07
03
fa
fd
06
fa
fe
05
01
fd
01
00
e8
e4
0b
01
f0
fd
0a
f2
ef
ee
fa
ff
fd
05
f9
e7
f7
1c
1f
1a
09
0b
00
0c
ff
f2
f3
f4
fc
fd
f9
02
0a
00
fc
f6
f8
fc
06
fd
fd
09
ff
f9
f9
de
f5
ff
fe
02
07
0f
f9
14
18
0d
16
1c
0a
08
07
01
ff
13
0f
f9
f5
ee
f2
01
00
0b
09
09
ff
f5
06
0b
ff
f9
f5
f3
f4
fa
f7
04
f9
01
f0
01
fd
0d
fd
f5
fa
f7
fa
f9
fa
fc
01
fb
fc
ff
f2
f5
f9
f2
0e
15
f7
02
08
fd
f9
01
f7
fe
ff
00
01
fd
fd
01
fb
fd
01
0c
00
01
01
03
02
07
dd
f8
fa
c0
e5
f6
e7
ee
fd
05
fc
f5
01
fa
ff
fa
04
f7
fa
11
01
01
08
01
15
0f
fb
dd
ef
00
c0
f1
fc
e4
f4
f5
0a
c2
01
07
d0
f4
f8
e8
dd
e3
ef
f8
e2
c0
f2
ed
c5
f9
ea
14
e9
ec
ff
1e
11
e9
11
e5
db
e1
de
e9
fa
e2
ef
fb
f3
06
07
f9
08
fd
fc
fd
fb
ff
f5
ff
02
04
04
f5
05
f0
03
fc
fa
03
ff
01
fe
0b
0e
fa
fc
f0
09
0b
fe
fd
fb
f9
01
02
fd
06
08
02
01
05
fb
fc
f9
13
f8
04
fd
01
01
ed
f9
f5
00
07
f7
05
0c
fa
00
02
fe
01
03
05
f2
fd
fe
eb
f3
f3
fe
dd
e1
f3
e4
fe
0e
0d
01
f0
e9
f5
03
f8
03
06
fe
05
f4
f9
04
ed
f7
f1
ea
e7
df
f0
d2
e1
ea
df
e7
f0
fb
da
e2
de
c0
f1
ea
e6
f3
ff
06
0a
04
e5
f6
f7
f4
f9
e0
0c
e0
e3
e5
09
eb
03
11
ea
f2
0e
f4
ee
f7
fd
ed
e4
01
0d
0d
05
fd
f0
f3
f6
f3
02
0b
04
fe
f3
e3
e9
f8
07
f8
fc
f9
01
08
f8
f5
ff
f3
06
07
08
fe
fe
ff
04
07
07
ff
01
f6
00
fd
f2
0a
fd
f8
f5
fa
f3
05
03
02
fe
ef
f0
09
fe
fe
06
ed
02
fa
ef
f9
fa
f6
29
f8
ef
13
f6
02
03
08
00
00
07
fe
08
07
ff
05
fc
00
06
fc
0c
fd
fc
f4
e5
06
0c
01
09
03
06
05
f5
00
03
09
0f
0f
04
02
0c
02
02
10
04
ff
00
fd
f7
fa
01
ff
fa
ff
fe
15
01
04
11
08
06
19
09
06
fb
fe
ff
0f
0c
05
0d
17
23
0f
07
0d
13
0d
0e
f6
03
f3
f9
fa
fc
09
03
02
1c
13
0c
13
17
16
0d
01
14
f9
05
fe
ff
0d
12
f7
06
1e
f6
f3
0c
09
02
16
02
03
19
03
04
00
fe
00
01
fb
fc
00
09
07
06
02
ff
ee
15
ec
f3
11
fa
fe
12
fe
fc
eb
f3
0f
08
11
07
fa
02
ff
e5
e8
03
0b
06
ff
0e
fc
fb
fb
fa
ff
fa
f3
04
00
fa
14
f2
0e
06
06
fe
f9
07
04
05
f7
ea
12
e0
df
ee
f9
ea
e8
f9
fe
04
ff
fb
fa
e7
d8
fb
e9
ec
f9
01
ff
fc
0e
0a
fe
00
fd
fd
e8
f1
e8
f7
fb
04
ea
df
ed
ed
0f
15
f9
ee
dd
f8
fa
ff
fc
05
04
fc
c0
d2
f6
f5
f6
fe
01
1c
fa
ff
10
f5
06
0d
0e
08
02
03
0d
f0
03
f3
ff
04
05
f3
01
fb
f0
01
f7
fa
fd
00
02
04
05
04
06
ff
12
ed
02
19
d6
f5
20
ff
de
f4
f4
02
0a
ff
26
ef
f6
07
f7
f7
f9
f6
f2
e6
f5
f7
e2
ef
10
00
f5
0e
f5
f1
02
fb
05
07
04
f7
04
fd
0f
fa
f4
25
15
00
0a
1c
06
0d
02
07
05
db
e2
df
f1
e3
dd
fa
ec
07
0b
ff
f9
05
f2
00
fb
f5
ed
00
ff
f1
0f
f4
f0
0b
ee
ef
dc
db
cb
e2
e8
12
ce
f5
f5
03
03
14
04
01
07
fe
09
06
f1
0a
08
f4
e4
f2
ed
f2
fd
f7
ea
f4
fc
eb
02
eb
f1
f0
00
fc
0f
f7
f5
13
10
f8
00
06
03
00
f5
06
02
f8
01
08
02
0c
08
f8
fa
fe
04
06
02
16
d8
c4
f1
06
05
f0
18
08
f5
fb
f4
02
05
f6
fc
09
02
fc
fb
f0
08
07
ff
08
0d
06
15
f9
fc
1c
02
01
15
03
04
fc
f2
ec
02
f4
fc
ed
11
06
0a
09
03
c0
d1
ec
e6
f1
f4
12
11
14
01
f1
f2
06
fa
ff
ee
f8
f7
ff
00
f6
00
02
fc
fb
fa
01
ff
01
fe
ef
04
f8
eb
fa
f5
0c
ff
04
f5
e4
02
03
03
fd
fb
fd
f7
fd
ff
fd
01
0c
01
04
05
02
0b
08
09
f8
f2
19
eb
f8
2c
00
03
22
ee
f2
e3
f6
fb
04
f7
f7
fb
1b
1d
0b
f8
01
e1
fa
f5
d4
fa
fb
fb
e8
e7
e2
31
40
33
01
06
f7
f8
08
f7
f1
09
08
f4
00
01
fd
fc
09
02
08
1a
f9
f7
ff
00
0b
01
07
ff
f0
fd
fe
07
0e
0b
08
09
ff
fe
03
f7
f4
0c
fd
e6
08
0b
03
f9
f5
f9
f4
f8
ff
02
fc
fa
12
0c
0e
03
f6
f6
11
07
00
0d
fa
fc
0b
fe
fb
07
02
09
ff
00
ff
fb
03
0a
07
fa
ff
fa
0a
11
02
21
1d
01
00
00
18
09
1b
1b
1a
1f
03
f5
ff
fb
0f
0e
f3
fe
fa
f4
04
fe
01
01
ff
fa
fa
02
05
00
f5
f7
00
ec
f1
ff
fa
f9
06
06
f3
f0
fc
05
fa
02
00
0b
06
f8
ff
07
ff
03
04
f6
fe
01
11
f8
f9
e9
f8
06
f5
e7
04
f3
05
0b
05
09
ee
06
14
eb
0e
f6
ff
0f
fe
03
09
00
04
ff
06
fe
06
04
00
fb
03
00
00
0e
06
05
db
05
02
f2
fd
07
01
05
01
01
04
fe
fe
f9
00
00
02
04
00
00
00
ff
00
f9
01
00
07
00
08
01
ff
ff
ee
f4
03
01
fe
0b
06
01
0a
f1
f5
06
e7
ee
f2
e6
f0
f1
12
01
05
07
f9
fc
0b
00
0b
fd
01
f6
03
06
ff
02
fa
fe
fb
09
fc
02
0c
0b
f9
04
04
f8
f1
01
f4
fc
0e
05
fa
05
09
fc
0a
0c
04
0e
05
f0
f2
fb
04
07
f8
ff
fd
fe
03
fe
07
0a
f5
06
0d
0d
fc
fe
fc
fc
01
ff
03
ee
05
03
f3
05
ef
f6
36
ef
f6
34
fd
02
0d
fc
fb
fd
06
01
03
07
06
05
fc
e4
f8
01
fa
fa
fe
f7
f3
01
f4
f6
fa
f0
f7
06
fe
02
fd
f6
fd
0f
fc
01
0a
f8
f5
05
fb
06
fe
03
fe
fb
04
fb
01
f9
f7
11
ff
fd
0e
02
fe
14
ea
01
07
10
11
0a
19
20
0e
0f
18
08
02
19
09
04
15
03
fd
fa
fd
03
08
ff
ff
08
09
f5
d9
11
04
e1
14
03
fe
ff
00
ef
fd
05
18
f7
06
34
f4
ef
2b
04
ef
34
f6
dc
3e
f9
fc
f4
fb
fa
f6
0e
10
0f
ec
ff
0a
f2
04
16
fb
f5
f8
fd
f9
02
ff
01
f5
ea
f5
fa
05
06
f4
09
02
f9
fb
f2
f5
07
0a
00
03
0b
06
f8
00
fd
06
e6
ea
f5
fb
fd
f2
ed
f2
02
0a
fa
09
10
fe
f9
03
0a
ee
f4
e8
08
f6
f2
0b
f7
e8
09
ff
03
f3
f9
07
ef
f8
07
f2
05
00
fd
02
07
ff
02
01
f6
00
06
e7
02
10
06
fa
fa
da
e7
01
fd
f2
ed
0e
fc
c9
01
05
06
fc
fd
01
f0
f1
fc
07
03
fb
09
0b
f9
ee
f3
e9
03
fe
f5
08
10
04
03
ec
e7
fe
f6
f5
fb
f7
e7
06
03
f8
03
02
fd
05
08
03
fa
01
02
03
f5
f6
0e
05
ec
02
fc
03
05
f3
f0
03
e9
18
f6
ec
fe
fd
06
0d
fa
f3
02
fd
f3
eb
fa
01
f8
fa
04
03
03
03
00
ee
e8
08
05
fc
f7
fa
ee
ee
f3
00
05
fa
05
0a
0e
03
07
eb
f4
f1
04
10
00
0d
0b
07
ed
fe
04
f4
fb
06
03
f3
f0
0e
ff
ff
07
00
fb
00
00
00
ed
f4
f8
07
05
fe
0e
23
10
06
0c
05
fa
04
f8
fd
02
00
f8
ee
f6
02
fc
00
f9
fe
01
02
01
df
ff
0d
f4
0e
0c
ff
03
f4
ea
fa
02
f4
00
0b
09
f8
fb
26
02
f8
22
04
fd
1e
fe
00
fc
fb
03
03
f9
fc
f8
f7
09
0f
20
1b
ed
03
20
31
ec
0b
05
ed
ff
05
02
10
01
02
fc
14
ff
f8
fb
fb
f5
0b
0c
05
01
fe
f7
00
fb
02
03
f5
fc
09
f3
17
09
fc
05
09
14
05
fb
17
07
02
f2
ec
f4
07
fe
00
15
0f
1d
14
19
0e
04
03
02
09
fd
05
06
08
ff
04
01
01
f3
02
02
f9
fc
00
33
1b
1a
fc
19
0b
db
0b
0a
17
11
17
17
12
fe
ec
08
f8
06
0a
00
03
f7
fe
01
03
0a
08
0a
fc
fa
04
fa
06
0f
0f
01
06
0b
00
ed
f0
02
ee
fb
00
04
06
04
fb
00
03
03
06
f7
05
0a
ff
06
03
fb
fd
f3
fb
fd
00
02
11
07
ff
ec
e7
05
fb
0c
05
fc
fa
e3
ee
fc
06
0a
0a
f1
eb
f5
d4
dc
e8
03
07
02
06
fe
f5
fd
fe
fa
0e
fd
f8
ec
f7
12
05
f8
f2
fc
ff
f9
05
06
ff
ef
f0
f4
e5
e8
e7
df
e3
e2
fb
f7
fc
f4
fe
09
d8
df
ef
f2
e5
03
fb
00
03
0a
05
01
f9
fc
fd
fa
ec
d8
f9
e4
f1
16
0c
ef
f3
ed
de
ee
e6
ef
f8
fe
07
e9
e3
e4
e6
cd
e0
02
e8
f2
02
07
fe
ec
f0
f5
f0
fb
07
fd
f6
f7
fe
0a
fa
f6
fc
fa
fd
00
fd
fb
ff
08
fa
fc
00
02
00
fb
fe
02
fb
f5
fc
fc
10
01
f9
04
0d
00
14
05
fd
ec
04
0e
fd
fa
05
04
fd
0f
01
f3
29
fe
f2
23
fb
fa
0b
fb
f9
fc
ef
f8
01
f2
fa
f8
0b
04
09
0b
09
ff
0e
fa
e2
ee
fa
f2
fe
02
f6
fc
e9
eb
e8
f2
ec
f9
fc
f6
0d
04
ef
02
02
0f
fe
02
04
09
05
05
04
03
02
ff
02
0b
fb
fb
fc
f6
01
fe
16
f8
00
1d
10
0b
03
f4
fe
08
e9
03
f7
f3
0f
03
13
0b
f1
f8
fd
f8
fa
f7
00
e8
fe
01
f6
fd
f9
f1
f9
01
11
e9
00
f6
10
f3
f4
2a
0a
0c
27
e7
c8
fd
13
03
34
fb
fe
fb
fd
01
f8
0b
05
10
e1
fc
11
fc
fd
05
f3
ef
f1
fc
0e
09
03
fd
0b
04
ed
02
fb
f2
06
f9
02
fb
f9
fc
f9
08
fe
ff
00
f0
f7
02
f8
fd
15
0c
10
fd
0c
0e
fd
f0
05
ec
f5
ec
07
06
05
09
05
fb
04
fe
0c
f5
f8
fe
f7
fc
f6
2d
15
05
06
05
02
03
04
fb
0c
0f
09
09
fc
fd
0f
f1
f5
e7
0b
fe
1d
03
15
08
f7
fe
00
0a
01
0f
04
f0
fe
09
f4
fe
11
17
fd
f9
fc
04
05
03
0a
07
0b
0b
06
0a
fe
05
02
f9
0a
f3
02
01
f8
00
05
0b
fb
f7
f7
f8
f1
f7
02
15
23
04
03
fe
06
0b
08
ef
ed
f3
f5
f0
ef
f4
f6
f8
ed
0a
0a
0d
fa
f6
0c
00
09
03
fc
f2
f8
fb
08
01
00
17
01
fd
0a
f0
ff
08
fc
07
0c
fc
07
07
e5
04
17
11
de
ef
e7
e2
f4
0c
02
03
fd
f4
07
09
00
f2
0a
13
0d
fe
04
ff
fe
ff
00
08
f2
ed
07
f0
ff
f6
f9
fc
fa
ec
ef
08
f5
03
0f
fa
07
f5
02
06
00
10
0f
0c
12
22
ff
07
0a
ee
f9
07
e4
f5
fa
f9
fd
fe
fe
01
0a
fa
ff
02
00
fc
f9
07
08
04
0f
09
fc
fe
06
e2
f3
f8
fb
f7
f5
20
f7
f4
0b
09
ff
fc
f8
ec
08
fb
02
fd
fc
03
f8
02
08
01
13
02
f4
21
e2
c8
ee
ef
ef
0c
0d
06
f6
f5
f6
0e
00
f0
02
00
0b
f5
f5
f8
f8
02
03
06
06
02
f8
fd
f8
02
ff
02
0d
de
e8
13
0e
f8
ec
0a
1e
1b
14
11
ea
d9
05
d6
cf
ea
ff
ff
01
f6
ed
f9
e3
ef
fa
fa
f6
ff
f6
fb
f6
fa
fb
fc
08
04
f7
f5
ea
fc
fc
fd
f4
14
28
27
ec
f7
f9
f6
ee
07
f7
07
f7
05
07
04
e6
ea
f6
08
f8
f3
f8
f8
fc
09
fb
f9
00
04
f9
ec
ff
06
02
03
0f
e9
ea
f6
f0
e2
e8
f3
ff
05
02
00
fb
13
17
1c
e2
e3
e3
03
08
00
fe
f7
fb
e7
e6
e1
04
fb
0f
02
fc
07
02
ef
fd
05
08
fb
00
02
f6
05
fe
fd
ec
c0
fd
f1
dc
02
e7
f3
ff
fd
f7
fa
02
f8
ff
ff
f6
fa
f8
f7
03
0d
f4
fd
01
fa
05
fd
0d
07
fd
13
08
0d
19
06
f3
f9
ee
ec
dd
e2
ec
d9
e2
f7
03
05
fb
01
03
04
f8
fc
09
ff
fc
fe
01
01
fe
04
fe
e9
fb
05
f0
ef
ee
17
fd
e9
e2
e2
e3
ec
cf
d4
e8
e5
e3
fa
0f
0c
f8
fb
06
04
f8
fd
f0
e8
d1
eb
da
cc
06
e8
da
eb
11
00
ea
f7
05
f1
d9
00
04
f4
f5
17
01
ff
03
eb
ef
fa
01
05
fc
03
04
f5
f8
fe
07
04
05
00
f4
ee
fd
08
33
fa
fc
f1
f6
05
0f
ee
0d
03
03
09
f1
fb
02
f2
07
fe
fa
fd
fd
00
04
06
07
05
fe
fd
ee
fb
0b
11
e3
e3
f3
f7
11
ed
ee
fe
f8
fb
01
02
11
0c
0e
09
0f
06
01
05
10
03
09
0e
fd
fd
06
ee
06
ff
f1
fc
13
ff
03
11
07
06
0a
03
ff
e9
10
fa
09
ff
fe
ff
ef
03
16
15
0c
17
17
0b
2d
1d
04
fe
0b
01
ef
f9
fa
f4
fd
ff
ff
f9
e5
05
fc
f5
fe
f6
f0
04
f1
f3
fc
0a
f4
06
1d
ee
f1
ee
ec
10
16
18
f6
ff
f5
02
06
01
04
0f
0c
f6
fa
f7
f7
06
ff
fd
0e
05
12
c9
c3
02
00
09
ef
03
f1
e6
f3
01
f2
04
04
fb
0c
f4
fb
02
e2
0c
06
05
14
04
fa
11
03
ff
0b
0e
fd
ed
02
2f
fd
d0
e7
df
ea
f0
fb
05
00
f2
02
07
0a
ff
01
f7
f6
f3
e9
eb
f2
f7
04
09
f3
f9
05
fc
00
04
04
ff
06
08
fb
fc
0b
fb
f3
ea
f5
fb
1c
18
17
08
04
04
07
07
09
ff
fb
05
f3
01
03
f5
fb
04
f0
ee
f9
fe
02
04
f4
f9
01
fc
ff
0b
0d
0d
1a
01
f8
00
05
06
f3
02
01
f0
01
03
03
f0
f4
ef
08
0e
05
01
fb
fc
fd
01
02
f9
f6
fe
f8
0a
00
06
fe
f9
06
fd
ff
ec
f7
fb
f9
e7
f9
f3
e7
ff
f7
04
03
f7
0a
15
f8
fd
01
fd
02
02
05
04
02
fe
fe
fb
fa
00
00
fe
ed
01
f8
f2
07
04
0b
0a
f8
06
08
f7
fc
0c
00
00
0e
02
f7
f2
f6
f8
e7
00
07
06
ff
03
06
00
00
09
01
01
04
07
03
05
05
0b
0a
f8
fb
08
f9
f9
05
f6
fe
fa
ff
de
f8
f4
da
e2
f4
e4
fd
0a
04
fa
f4
01
01
f8
01
fe
06
f8
db
f5
f5
e3
fb
f3
d3
fc
e8
f3
02
04
06
05
14
f7
f0
fe
2d
fb
05
39
f6
f5
40
fd
04
fb
f9
02
00
00
fc
fd
f7
05
03
ff
10
00
0c
0a
fa
03
f6
0a
02
f5
1a
ef
eb
1d
08
06
fe
00
0c
ec
07
1d
ff
0d
00
04
07
f6
fe
08
04
03
0c
00
0b
fb
1c
03
02
05
e9
f8
fd
fe
fc
06
09
f7
0c
11
13
0c
12
05
05
00
07
05
02
07
f9
04
f1
fc
0c
05
03
fe
03
0d
08
02
fe
00
05
f4
f8
f4
ef
eb
02
10
0b
fc
fb
ec
f5
01
f8
f4
f4
e9
02
13
01
fd
02
04
00
ee
f3
05
08
02
0f
03
fc
fc
fa
04
08
0c
0c
00
14
ed
06
0c
ec
06
01
05
fa
f5
eb
f5
01
f8
fe
0b
fc
fb
fe
04
04
03
05
fa
f1
fa
fe
fc
e8
ed
16
fe
ff
fd
05
f1
06
18
fa
fb
1a
f5
f9
25
fc
03
f6
ff
ff
0a
f5
05
04
ee
f8
f6
f2
02
00
ef
f8
00
14
fd
09
06
1c
03
07
03
d8
f8
fc
00
f1
f7
f9
17
23
08
fa
f6
01
02
fa
02
fd
f4
fa
fb
04
fe
05
07
fa
08
00
02
ff
00
ff
0b
09
04
1c
fb
06
f5
d9
f6
03
31
1d
ea
f5
f1
f0
fb
f1
ed
f4
00
fa
ff
fb
09
0a
fc
fc
0b
02
fa
0c
07
eb
f1
fc
04
01
f1
08
03
f5
00
11
ec
01
0b
ee
02
05
0d
ef
f0
eb
09
fe
03
01
10
0e
fc
fa
fd
fb
f8
f7
0c
0f
0d
fa
ee
00
e2
fb
10
e4
f1
09
0b
e4
fc
18
e5
f1
0f
e7
f1
fe
fb
02
02
05
05
fe
f6
ff
f8
0b
01
fb
08
01
fa
07
01
03
ea
fa
f3
e1
fe
f4
03
06
07
00
fd
01
04
05
0c
05
f9
f7
fc
f7
ff
fd
fc
fd
01
ff
11
ff
08
05
01
ff
fe
05
ff
01
fc
fb
09
00
00
0e
fd
ff
e9
05
03
dd
ec
fd
f5
fb
fe
f5
f6
fe
ff
06
05
07
0a
ff
05
07
ff
0c
08
03
09
04
ff
08
0a
01
02
09
0c
02
05
01
ee
fd
f1
01
04
08
0b
03
17
01
ff
0b
f8
fd
f9
03
ff
07
01
05
ff
02
01
fd
01
05
05
fc
fc
f8
f5
03
0c
e8
fc
01
f6
0b
08
0a
17
04
12
14
00
fd
fb
fb
03
09
07
06
03
fd
fd
03
00
09
06
02
04
07
07
f8
05
e8
04
d4
dc
ff
f6
01
f6
f4
f6
f5
f7
f7
09
0f
f9
0c
05
08
15
0d
0b
0f
07
04
0e
fa
fa
0b
fa
f4
fd
01
f7
fb
fc
06
fd
fc
07
0b
fe
08
09
1b
0d
f7
f1
f5
06
08
11
21
12
0f
11
0e
12
19
11
12
01
09
08
ff
0a
00
05
0a
04
ff
09
0b
02
07
18
01
00
ff
f4
f1
eb
fa
fc
fe
07
0e
09
03
f3
fa
0c
04
08
0c
02
02
fe
02
fd
03
07
ff
05
0b
07
f4
08
0a
fe
14
18
14
fa
01
0e
eb
fe
0a
f9
05
01
fe
01
f4
1c
23
ea
0f
1f
f9
02
12
04
fb
02
fd
01
01
00
f9
ff
ff
ee
f5
fd
e3
eb
fd
02
f4
08
0a
09
02
12
0e
0e
1a
10
16
0e
0f
0a
f9
f4
f7
e6
d3
e6
03
0f
f9
01
05
fc
ff
fe
0d
0a
04
07
08
fc
01
0c
06
0c
04
0e
11
09
0a
00
f4
02
d4
e9
24
f0
ff
1d
f3
f8
04
0a
05
e8
07
00
f4
00
f4
fa
f7
ca
e7
ee
c9
e8
f1
f2
f1
1a
f0
cc
ef
e1
09
f6
e9
ff
f6
f1
29
07
f5
28
0b
03
0d
03
05
05
07
05
04
07
fd
00
fe
03
15
df
fc
05
e0
06
0d
02
00
08
11
08
03
08
ff
11
0f
ff
03
09
05
06
07
05
ff
f7
01
fc
05
02
fc
02
04
fe
15
13
20
15
0b
0b
09
1e
19
f9
f4
f4
ff
f9
f7
15
09
0c
f3
f5
f4
03
ff
f9
ff
03
fe
1a
04
01
02
ff
01
ee
f2
f7
00
f5
f2
fc
fe
f5
0a
04
ff
dc
e2
d7
ed
ee
e3
ed
fa
f0
11
04
19
16
0c
11
05
05
08
06
09
0e
02
f8
f9
f8
fe
fd
fb
04
e9
ea
ff
ff
f1
fc
fc
f6
fc
02
fe
05
0a
07
0f
08
01
f6
ff
f9
f1
f8
19
13
0e
00
02
00
01
06
09
fa
fb
01
16
0b
07
fc
0f
0c
08
ee
e2
fe
ea
fc
f4
d6
f9
f6
dc
0c
0a
02
d8
05
10
d7
f8
f5
d9
03
ff
fc
02
06
02
04
fc
00
00
02
f7
00
03
10
09
fb
06
f0
fe
05
f7
14
03
f9
0d
f1
f6
f9
f7
00
01
05
fb
06
08
ff
03
fb
ff
07
0e
f9
03
0f
03
06
02
fb
02
03
fd
fd
06
04
00
06
ee
f6
e9
f8
fa
f7
14
1e
03
1a
1e
08
0c
14
11
fe
0a
07
01
0c
04
fc
09
02
fc
fa
1a
fc
07
40
fd
fc
26
f5
f7
f6
fd
11
da
05
01
c0
07
02
d7
00
16
c6
00
16
c1
03
01
fc
03
07
fc
02
01
fb
21
14
0f
05
0e
13
0a
0a
08
f9
f3
f7
ec
e9
ef
05
1a
f5
0d
12
0d
05
0c
14
00
fc
13
08
11
15
03
fe
11
02
f7
08
0d
05
07
02
fd
00
0b
ff
01
ec
f8
0a
08
06
ef
fa
08
14
e9
04
17
04
02
0e
0b
06
f7
f2
f9
0c
0e
05
fd
fc
eb
e7
02
0d
10
04
06
05
07
01
fc
03
09
0f
e2
0b
f7
e8
16
f8
01
f5
f3
fd
f2
03
f2
e3
06
11
0f
0b
ec
ef
f0
cb
d4
cf
02
06
01
fe
00
04
ed
fe
f8
fb
fe
0e
08
0c
20
fd
f1
fe
f7
f4
1f
09
02
0f
ea
d5
d4
f5
09
18
09
08
06
08
09
f7
f7
0f
07
db
ef
08
d4
f0
11
02
05
f0
fd
fc
f6
fd
06
eb
04
fe
d7
0d
09
e2
03
02
d3
f6
e7
da
fc
e6
e8
fe
e5
ed
f9
ed
e2
09
ee
f1
07
00
ee
f6
07
f2
f8
0f
03
0c
0c
0c
0c
05
00
dc
ff
09
e0
e9
08
04
f8
fd
f0
f7
0c
fd
fc
f8
e5
fe
04
e5
fc
09
ec
f0
fe
20
ea
fa
ec
0d
0f
28
03
f5
00
12
f5
fc
1e
f8
f8
f8
f8
08
0c
0c
0b
11
16
1b
13
0a
e6
f3
f9
f8
09
03
06
f4
fb
06
0b
06
01
08
01
07
13
01
e7
f0
03
dc
ef
0f
f2
03
24
08
d7
f4
ce
d4
02
c9
cf
f9
f5
0e
02
d9
fd
ef
fd
17
e5
05
fd
0f
01
fb
fb
ff
00
ff
f7
05
f9
ed
01
f2
fa
16
07
15
f7
12
08
fc
18
0a
f9
0b
fe
f3
fe
f7
f7
05
01
01
fe
0a
f1
fa
00
06
01
f4
f7
ee
ff
05
04
ff
0f
0f
fd
f8
03
e7
e6
dc
0a
03
03
0e
e7
f8
0b
1f
27
eb
04
fc
f8
03
06
f1
e2
05
0a
eb
09
ea
13
07
f7
05
0d
f5
1f
10
12
fe
fd
fc
09
fb
01
11
ff
fd
fe
f0
fe
13
fe
f2
0c
f9
02
06
f5
00
fe
ea
0d
0c
fc
0c
06
07
0a
1f
fd
fd
11
f6
0d
07
ea
fc
0a
33
f8
0a
2a
fe
ff
1d
09
f2
f6
01
f2
fb
0f
f5
f3
16
14
fc
ec
ec
ea
ff
08
f5
f6
01
ff
f5
00
f4
ed
09
01
fc
f4
fd
fd
fa
02
fd
f2
f8
e7
e6
ea
e5
f2
e0
fc
fd
ef
e5
e9
fe
f0
ea
04
ec
f7
fb
fe
ff
06
12
ff
0f
d6
fc
0b
f7
04
ff
f7
fc
fb
00
0d
03
fd
0a
05
fa
ea
f8
fb
ee
f7
f9
08
0c
ef
00
e9
08
09
09
08
f2
e5
f9
de
02
04
fa
ee
e7
e5
fc
e7
d8
d0
eb
ed
f8
15
f4
f0
f9
e5
ec
ff
03
fe
fd
ec
ed
ff
06
f9
e2
e3
d5
24
17
e2
ed
fc
de
04
f9
e9
02
f8
ec
03
e1
e6
ff
08
fc
e8
f8
0c
d6
f5
08
e4
f1
12
fd
04
f1
18
05
00
09
f6
0b
f4
04
e9
f2
08
d0
f4
fc
cc
0a
fe
ec
f8
f9
fb
f8
f4
01
f8
fb
03
05
03
0e
03
08
fa
01
f9
fd
01
f9
f2
02
ff
f8
01
04
0b
08
02
fb
fd
f5
ed
f9
f5
dd
02
0a
0b
fa
f9
f7
fa
06
f8
07
09
08
0c
0d
1a
17
ed
04
21
1a
06
fb
01
01
01
0c
08
fd
05
04
f3
df
01
04
05
0e
1f
12
29
0d
0a
04
02
05
fa
12
07
fd
0a
ff
f9
fb
1c
0b
fe
14
05
ee
0c
fb
04
f5
03
f2
e1
06
eb
f0
24
18
0d
ff
f4
f9
01
f8
00
03
00
0a
07
f7
11
0b
f7
01
17
10
00
fd
0d
05
fc
cd
c0
0c
00
00
02
06
05
f8
06
ee
e2
fd
06
05
fc
03
04
03
14
0b
0a
09
ff
09
05
f8
13
09
0b
ed
f5
f0
05
0d
ff
ff
0a
00
08
fe
f1
c7
de
c8
c0
d3
f1
06
06
f8
fc
03
fe
fd
03
06
08
0d
0d
02
0d
08
01
05
00
02
06
0d
e4
e3
f1
04
e7
f8
ec
eb
fe
e6
da
03
00
fc
fd
ed
ef
ee
f7
eb
d8
f1
ef
da
fc
03
03
ff
08
03
f6
05
0c
04
09
0d
f5
f7
02
02
04
0f
04
0a
f1
05
f9
ea
fd
03
05
08
f7
ed
0e
07
f8
09
fe
e1
ff
ff
05
fd
1e
11
f8
17
12
0c
04
f6
09
01
06
fd
05
f9
00
ff
e9
07
12
f8
f9
09
f1
04
00
16
f9
01
19
04
03
16
07
01
f9
09
02
00
10
04
ff
fa
e1
f0
16
01
f6
06
09
27
ee
ea
fd
fe
f5
fa
e1
f6
f8
ff
0f
13
f4
e6
e4
02
05
f2
14
1f
1d
13
05
07
fe
fb
f7
fa
f5
01
27
11
08
fa
fd
0b
ff
0d
fa
06
16
0c
f4
db
10
db
e3
e9
f0
fa
0a
e2
ea
f8
04
14
04
0a
0f
fb
01
08
f4
05
0e
fb
19
10
04
fb
01
fc
0c
06
0e
03
04
01
ff
03
ec
f9
fb
03
ff
fd
04
02
05
fe
10
06
05
fb
1c
19
16
08
f6
fe
f9
f5
fc
ff
f2
ff
02
06
06
12
f4
06
12
fa
05
fa
fc
ef
d3
f8
df
d0
e4
e4
d1
de
ff
e8
f9
03
df
ec
fd
f4
fb
1c
fc
ed
16
10
fb
e3
e1
f1
0b
02
0d
fa
04
02
e7
f9
fb
f3
d7
df
fd
08
05
f7
04
fe
fc
f8
e8
e3
d8
d8
f7
df
ea
eb
06
0a
02
10
00
f0
10
f1
04
01
f6
fe
0d
dc
16
13
0b
07
0e
05
10
0f
08
fc
15
0b
ff
0c
f3
f1
02
ef
ce
e0
e3
0a
0b
fe
08
02
02
0b
08
02
f7
07
22
fd
ff
ed
e7
06
03
0e
08
0e
01
fe
19
e9
e3
e2
02
1b
0b
df
02
10
ed
02
15
f7
f7
f3
ff
07
f5
f8
f8
0e
f6
04
02
04
00
ff
10
09
ff
fd
f7
0f
e8
f0
ff
e8
f4
ff
02
f5
08
00
f8
01
08
f2
ff
09
f3
f3
f1
fa
0d
0b
05
01
03
fe
00
06
ff
03
0c
12
08
e3
e4
de
01
0c
09
f6
02
f8
03
00
0a
01
01
08
ff
f6
fe
fb
fa
0f
03
e5
f0
f2
fe
f7
fb
0c
f4
13
00
08
10
12
00
0b
07
08
f3
fa
04
00
0b
fd
fa
04
07
fe
05
10
f8
00
05
0a
fe
04
fc
fb
03
05
ff
04
00
f0
ef
ec
09
17
fc
f4
ff
13
fd
f7
07
fe
e8
07
06
f3
0d
0e
f6
06
08
e9
ff
e2
f6
f4
00
fb
fc
00
04
f9
f0
03
fd
15
03
02
0e
fc
fc
06
fb
f7
ea
f9
fb
01
04
04
04
fd
11
fc
11
0a
0a
0c
03
00
ff
11
07
fe
05
13
07
00
06
0a
0b
f7
fd
f8
03
03
e6
f1
f2
0a
ef
f0
fb
0a
00
fd
f3
f8
f6
de
ef
06
07
09
fb
05
fe
0a
12
0b
00
f1
f1
16
00
00
07
0a
00
f2
fb
00
fd
00
0a
eb
f3
f5
e4
db
eb
01
02
0a
f8
ff
fd
ec
f6
f9
f7
01
07
10
12
09
11
11
0b
01
06
04
13
ff
f1
0f
fa
05
fd
ee
07
12
03
04
01
f7
fc
ff
fd
f9
f6
1b
01
f8
00
ee
ec
13
02
f3
ed
f2
00
0d
fd
f1
fe
09
f4
13
00
f5
0a
fa
f5
0d
f6
00
f3
fb
0e
ff
07
08
f6
00
10
08
06
11
06
ff
13
09
01
ee
07
fb
03
08
fc
03
02
00
fb
f6
f9
03
f4
ef
06
0d
07
f9
ed
e5
10
f8
0d
10
f9
fe
fe
0f
f7
f2
f5
e2
08
0d
06
f9
01
f8
e5
0e
ef
14
d4
e6
fd
f0
fb
03
f8
ef
fb
f6
fa
00
f7
f6
f8
e7
e8
dd
de
ed
ef
f4
f8
ef
f6
fb
e4
fd
04
10
15
0b
fc
f6
ed
1a
0c
ff
07
fe
f6
f2
14
ef
f7
f4
d4
f4
f3
20
04
0a
32
f8
f6
2d
d2
1e
fa
c5
22
0a
ed
02
e9
06
11
fc
00
1a
f2
ed
02
ef
fc
03
09
01
0a
01
05
0a
ff
e9
ef
f6
f1
ec
d9
eb
f0
d7
09
fe
04
ff
fa
0d
03
fa
fe
f8
e1
e1
f1
f2
f3
f2
f2
f9
05
06
08
04
08
0a
18
04
0c
01
fc
f9
02
fe
fc
fb
fe
01
e5
f6
f0
f6
0e
f7
17
29
17
ff
dd
04
10
04
10
eb
e3
f5
11
0f
04
12
05
ed
fc
1c
16
fd
01
f7
02
13
1b
f9
02
04
03
10
f1
0a
0c
00
fb
f9
06
f6
e7
de
01
06
fb
06
04
f0
13
17
09
11
ff
fa
09
11
ff
f7
fa
08
00
fa
10
13
08
02
d1
f6
f0
e2
02
09
f0
f8
06
f9
01
fb
f9
ee
01
fd
f5
f7
fe
04
e1
03
06
03
fa
ff
f7
df
f8
ee
dc
ea
d7
dc
e6
cc
e0
f7
ee
e6
f6
eb
e7
eb
e3
ee
f8
12
f9
07
f9
ee
03
03
ff
02
05
f6
f4
f7
f2
f2
ec
e4
e8
e3
fd
02
fe
00
fe
00
0f
05
fe
01
f2
fb
f3
ec
ef
01
00
fe
e0
f0
07
ef
ee
f9
04
f3
ed
f6
eb
ee
f4
f3
f0
01
0e
f9
0a
00
fa
fe
fc
f2
04
fc
ff
0e
fb
fe
f7
fb
fc
08
05
04
fd
fc
03
05
03
07
f1
f8
ea
0b
fc
03
f3
f6
ee
fb
01
f8
09
06
ff
fc
fa
f8
ce
f3
05
e4
fd
06
13
e8
ff
01
0a
01
0a
13
11
07
ea
ff
f7
06
f2
f3
0e
f9
f7
0f
00
ec
ec
f0
f2
f5
f6
d8
d6
d4
f3
f0
fc
e9
df
f1
f1
c0
ea
03
08
18
fe
f6
ea
fb
fd
f1
02
fe
f4
ec
0a
02
1d
17
06
08
09
10
04
0d
02
0a
09
0c
06
07
0e
07
05
04
06
0b
02
19
ff
ed
e3
19
08
03
00
0c
f5
04
1d
0a
18
e8
fd
16
1d
06
07
fa
1a
09
0a
fa
fc
02
d1
ef
f9
f7
fe
f6
ed
f4
f9
03
08
f1
ed
fc
ec
06
19
0a
16
01
f6
11
03
24
fd
17
22
05
f6
e8
fb
08
ff
03
07
07
0d
eb
f2
fc
e1
ff
f6
d7
f8
0a
0b
f5
fa
f4
fd
08
04
f0
00
02
e9
ff
03
cf
00
00
e0
09
01
00
08
08
08
0b
09
07
fa
04
08
02
06
10
00
04
08
10
f6
f6
08
04
f8
1c
07
08
f3
02
0c
f6
fc
f8
00
02
fc
09
f5
fb
ff
0c
09
04
03
f5
f5
f8
ff
03
fe
05
03
09
09
03
12
02
02
1b
fb
06
ff
ff
fb
15
f0
fc
05
f6
12
ff
17
0d
01
0c
03
fb
fa
e6
e9
e0
06
ff
07
04
00
03
07
0a
03
f5
08
f6
ef
0c
f4
fa
08
f9
12
10
11
e8
f6
1d
0d
08
07
0c
01
e4
fa
fa
f8
0b
01
ed
05
04
ee
ed
05
f1
dc
05
d9
06
ef
03
f8
f4
ef
f7
fc
fe
f7
08
00
fb
f9
ff
f0
f2
f8
fb
02
fa
f8
fc
08
f6
fe
07
04
fd
02
03
f8
fe
fe
fb
fd
f4
d5
f2
fc
f0
f7
11
0d
f7
04
f0
ea
02
f7
02
07
fa
fa
fa
05
04
ff
05
f5
03
05
05
0a
00
e6
11
ff
f1
00
fb
00
ec
04
f4
fb
f5
f8
1c
ee
01
f4
e7
f6
f7
ee
ef
cc
03
0e
e3
00
0e
ee
fb
ff
ed
ee
e1
16
fc
fd
0c
01
02
13
0c
07
fb
fa
f2
fc
ff
0a
fb
fd
f9
1c
1d
1c
0c
29
fe
22
08
f7
06
f9
00
09
0c
13
0d
0a
0c
f1
fb
f7
ea
06
0b
fc
e9
f2
05
fe
f7
f7
fc
f3
f0
f9
eb
fc
0b
e1
02
12
d2
fb
05
d6
09
fe
09
06
03
0c
10
0d
06
0f
ff
ff
07
0f
0f
05
14
0f
00
07
e8
fe
fd
f7
ff
11
19
f7
ee
ff
07
02
fb
f2
ef
ea
1c
f3
f5
04
11
0e
02
f4
06
16
09
03
fd
00
04
f4
00
f4
fa
07
f9
12
05
02
0c
fe
1f
09
08
f1
03
15
e2
0e
0a
18
fb
0d
11
ed
f3
03
f4
f9
09
08
0c
04
f8
0a
08
04
0f
06
f2
ff
f0
00
1b
05
ed
08
f0
21
21
19
04
0d
ff
08
fe
03
f9
da
01
04
0c
15
01
02
ef
eb
10
08
eb
1d
00
f9
2f
14
06
e2
f4
05
dd
0f
05
eb
06
07
02
ec
0e
23
fe
0d
13
f3
f7
0b
07
e9
03
07
ed
fa
f6
f2
f8
ff
ef
f7
f6
f2
f2
f1
00
f5
ea
08
ea
e1
eb
e0
f8
f3
ef
ea
07
ee
d4
02
f3
f5
e9
fa
e8
01
0b
eb
fb
00
ef
0e
16
03
01
00
eb
fd
f7
e0
fa
ee
07
02
cd
19
f4
fe
0f
08
f2
13
0d
fe
01
e8
e9
fe
07
18
02
13
0c
0c
03
06
0f
f4
01
fc
fb
f8
ee
f6
ed
f6
0c
01
03
0f
f4
0c
1c
fa
06
f3
f0
25
02
f8
23
f0
e9
0c
f7
fa
e2
ff
0f
f5
f4
fd
0f
f2
26
fc
e7
15
07
f6
22
0b
f5
fe
00
ef
ec
03
07
11
ff
fa
19
f7
f6
0a
e8
fc
09
ee
14
fc
14
0c
00
13
08
fb
fc
09
f8
11
04
f2
08
00
f4
fc
12
fe
fe
16
0f
f6
1a
09
0a
f8
ee
ff
07
00
f9
0e
0b
03
f5
dd
f8
0e
02
fc
f1
ee
f0
0c
14
16
f2
f4
fe
02
04
fc
e8
fb
fd
05
dd
08
e9
00
eb
f8
ff
f5
f9
f9
06
0c
fe
0c
03
03
fe
fd
05
09
fd
fa
f2
e8
15
0c
f3
18
10
fe
13
0c
18
04
0a
0b
01
06
2b
1c
17
ff
01
17
f4
0c
21
02
f7
f8
09
07
0e
0e
f2
ff
14
03
f2
03
0a
e1
cb
09
f2
e1
0b
da
f6
0a
f6
ee
03
05
f0
0c
fe
f9
0e
f7
f1
fe
f4
fb
01
f2
ec
f9
0b
ea
ee
09
f4
fe
0e
07
f5
07
ff
ee
01
02
eb
fd
23
0d
ee
f7
fa
04
f3
f6
eb
03
f4
f4
06
02
01
0d
04
01
e6
db
df
f3
01
0d
fa
09
0e
f1
e2
de
0c
08
03
08
06
03
f1
ec
fc
f5
ff
fe
1e
08
0e
f5
fb
fd
fd
02
06
05
08
08
f8
04
00
02
fd
04
e7
ef
01
15
e8
f4
10
f5
00
09
fd
f4
fc
ff
03
02
f7
fb
18
0b
15
ef
ee
0c
ff
f8
fc
17
02
f9
06
00
fa
04
09
ff
05
03
f0
f3
dd
0e
ec
f0
0b
ec
ff
04
03
fe
fd
16
12
fc
05
02
04
09
04
08
03
10
0f
fd
0c
11
0c
0c
0c
00
02
06
f8
04
14
18
0d
05
07
03
f8
fc
fa
f1
cf
ea
0d
13
0b
e7
13
03
f5
f1
02
01
0c
0e
00
18
04
07
e2
fb
05
fb
00
f3
03
fb
fb
13
40
24
f3
08
04
00
00
fc
05
f9
e4
f2
13
00
fc
04
0c
ee
f8
01
12
12
0b
fd
00
fb
0a
10
fd
01
f5
f8
0f
0b
00
1e
08
03
11
0e
00
02
00
07
f4
f6
01
fb
f6
ef
01
fe
fe
f0
f7
eb
08
01
fb
fb
f8
0b
ff
01
ff
09
15
07
07
fd
15
f9
04
ec
da
f7
fe
da
fc
02
07
f5
f8
03
07
11
f1
e9
13
01
fe
02
03
03
03
11
03
00
04
ee
e6
fd
f0
ed
f7
f3
e2
05
01
fa
06
0e
f2
03
0c
f0
0c
06
06
0c
1d
16
04
fa
ff
0d
08
fb
09
0e
04
f9
fb
f9
e8
e9
e3
0b
04
05
04
f2
fd
0b
13
10
fb
03
ff
fa
fc
fe
04
fb
f5
20
c0
f6
0c
e7
f3
05
fe
fe
03
02
25
f7
07
f4
0e
0b
04
1e
21
20
ec
ff
f7
e8
00
05
de
f8
fa
d9
fa
02
0d
f8
f4
02
f2
f0
1a
12
07
10
02
d4
ec
1d
11
01
ed
e9
09
0d
22
07
0b
20
f4
eb
fa
ed
ee
dc
dc
12
f9
14
17
f2
06
f5
fb
02
1c
0e
f5
fc
01
ec
fd
fe
f7
19
03
03
0d
02
0e
f7
ee
eb
ef
fa
e9
e0
dd
f3
e8
f8
02
f7
ff
f5
01
f5
eb
f4
ff
ff
f0
f1
03
f8
11
fd
ee
f1
20
0a
e5
f2
eb
e6
0e
fe
f9
fe
15
11
f5
f6
f9
f6
ff
e9
e7
f2
ee
e6
f8
f7
e6
01
f8
02
15
01
f9
e8
00
fd
0c
12
08
36
02
07
fe
06
05
fc
03
f7
fc
f6
f5
ff
0f
f1
f3
f0
f4
11
f0
f8
0a
e1
fe
02
09
fa
00
f9
eb
fd
f1
17
f1
f6
e6
f1
f7
00
fc
ee
f9
11
00
00
fa
06
f1
e3
fc
0e
00
e2
05
e7
d6
0b
ed
d5
08
06
fb
ff
06
09
07
fe
04
02
f8
02
0a
ff
fd
03
04
03
ed
f4
fd
ea
fb
f6
fb
f8
f9
f1
e8
ff
e8
e7
ff
e8
ec
01
0d
f8
f5
10
08
f8
06
02
fb
01
01
fb
05
08
f8
fb
09
fb
d5
f2
f0
fa
03
0d
12
00
fb
01
08
ee
06
0b
f0
08
05
fd
f0
f1
07
d8
db
0d
12
12
fa
02
05
04
f5
fb
18
12
0e
10
16
09
fc
24
11
01
0b
f4
f2
27
0c
05
2a
10
01
f3
fb
fd
05
f8
f9
fd
eb
f1
f8
f5
04
06
0c
f8
06
00
04
0f
07
10
01
f5
03
0a
06
06
04
fe
00
f9
fd
f4
ed
f6
ee
ec
0c
0e
eb
f8
fd
00
14
f7
ee
f3
03
ef
f0
ef
fb
fe
e2
0a
0d
e7
0a
02
12
02
f6
08
06
fd
0a
02
07
1a
f8
03
0b
f0
fa
f8
fe
01
f3
f8
f2
09
fe
f7
00
f8
fd
08
05
00
f9
f7
e2
e4
f3
f4
e8
fd
13
11
ee
ec
0c
f5
05
f7
f6
10
fc
f6
02
f6
03
0e
f4
1c
00
12
f1
01
fe
0c
0c
02
ef
f1
09
02
ff
f6
07
0a
08
f5
f1
fd
1a
01
0b
d3
04
f5
e5
12
00
f8
12
0a
0d
03
08
13
07
0e
07
19
10
12
11
fe
09
0d
e5
f4
e9
d3
0b
fc
de
fe
f6
db
ff
00
d7
07
0a
03
ea
16
04
f4
f6
f9
0c
13
f1
f5
fb
f8
f6
06
0b
13
15
fb
0b
12
f6
04
12
05
f5
f3
fb
eb
ef
02
eb
f4
06
0f
f2
f2
06
f6
f7
0f
fd
f4
12
0d
0b
fa
fc
07
ec
00
08
01
02
11
fd
fd
10
00
0d
07
e9
d6
d2
e7
10
15
13
06
fd
f3
f6
09
04
07
14
03
fd
11
fb
07
01
f8
fd
ef
11
f9
f7
02
00
fe
04
00
08
10
15
21
fd
1b
13
f5
fc
06
ed
02
06
f2
fd
05
f6
02
12
e7
ff
0b
00
ff
fc
f4
f6
f9
f8
f4
f2
f3
da
f4
e8
fc
0b
fe
fd
05
0f
0a
fa
00
fa
fe
00
f9
ff
e5
0f
06
d5
01
09
d3
10
18
04
05
fb
09
0a
f6
f2
fd
02
fb
fb
f4
ff
f5
f9
07
ff
f8
fa
f6
08
f0
eb
f1
f3
f4
f5
ff
ee
fe
fb
f7
f8
00
fe
f2
08
fc
f4
fa
fc
03
03
01
f7
0d
fc
f9
03
fa
fa
05
f9
fa
d9
e5
df
06
0e
0c
04
ff
00
fe
00
03
fb
fe
fc
fe
f8
f4
0b
f8
00
13
e7
0f
04
0f
10
0b
0a
04
18
06
09
09
11
f1
09
05
00
fe
06
0a
08
07
fd
f7
06
fc
f5
06
02
f4
fe
fe
05
fa
01
03
f9
03
17
08
0e
ef
05
0a
f6
06
11
f6
fe
0a
09
f8
fd
01
fd
00
04
0b
08
d3
e4
f4
c2
fe
02
c2
fa
ff
03
04
e6
09
ff
f8
fc
fd
eb
01
05
d1
02
06
eb
fc
02
e3
f0
eb
f3
e6
e7
f4
f6
eb
e9
f4
e0
ea
f1
e1
ee
f6
ef
f3
05
f7
04
0f
0f
fd
06
08
09
05
06
f9
05
10
fb
00
fa
f8
d2
f7
f4
02
ff
fb
04
fe
f6
08
16
09
fa
01
ff
fa
02
00
e8
f9
f7
01
0b
11
fb
eb
fa
07
14
fc
02
10
f0
f7
ed
f3
02
fd
05
11
08
06
fd
f2
fb
00
05
03
08
09
ff
f6
fd
ff
0d
09
01
09
04
00
0c
0c
0a
dd
f6
10
08
f1
04
02
05
fe
f1
f9
fd
fc
fd
0f
02
fd
01
e1
c4
f3
00
db
00
1e
e9
f6
ec
03
01
f0
16
02
f5
00
ee
f7
ff
00
fa
01
f6
fb
09
0b
f4
00
0e
fa
09
0c
fb
07
18
f4
ff
0b
f5
ff
07
04
f5
0c
09
01
18
0c
fe
e8
f7
fe
0a
df
f1
f9
fb
11
06
ec
01
13
01
06
17
f6
f8
fa
0a
1b
16
ed
fb
f1
fe
07
09
f4
f4
0a
01
fb
d1
d6
26
ea
f8
f8
e9
ee
f3
02
01
05
26
12
05
11
fb
00
fe
0f
0f
21
18
11
13
f4
ff
0a
ff
0e
0e
f1
05
0b
ea
fb
ea
e8
01
e6
ed
00
fa
16
0a
f8
fc
fb
e4
f3
fb
fa
13
15
ea
0c
0b
fc
08
06
f9
01
07
0e
eb
f7
13
ed
00
14
fc
fa
02
08
f2
f0
f5
ff
04
02
0c
ff
0b
fd
fd
09
0e
00
0c
fc
04
0f
f3
ff
15
f7
07
0b
fc
04
06
fa
fa
0a
02
03
12
0b
08
14
03
f8
00
f6
fb
00
f9
04
e2
f8
fc
0e
17
17
0c
ff
10
06
00
ff
fc
00
01
f8
08
0b
f9
ff
01
f3
f1
f0
fc
09
07
ef
03
f2
e4
f8
ff
f7
ef
07
fc
d4
02
15
1d
07
f9
f9
fb
0c
05
0f
f3
f6
ed
f2
fb
09
eb
f9
0a
e3
fa
09
0c
0f
03
f1
f7
e9
0d
12
12
04
0f
14
ea
07
05
ea
05
fb
fd
fd
15
ff
f0
23
ff
eb
1f
eb
f2
08
f2
fe
0c
cd
f7
fe
05
fd
f5
05
02
01
fb
09
fc
05
03
f4
ff
05
fe
f4
fa
ef
d7
c6
cf
fa
e0
e3
08
03
dd
f6
f8
f4
f2
01
ea
f0
06
f2
0a
08
f4
21
0a
f3
f9
fc
0f
fb
04
fd
00
fc
fc
04
09
03
16
e9
e2
f7
0d
00
04
16
0c
dd
e4
ea
e8
cd
da
0c
01
ff
fa
fd
03
d8
f5
02
f9
f2
ec
f7
04
f8
f1
fb
04
eb
f1
f5
fc
06
04
08
01
02
02
0b
fe
09
06
00
04
06
06
fc
fd
02
0b
11
0c
f4
f4
f6
0f
fe
08
04
0f
31
e4
f0
02
12
01
fa
04
01
fc
09
08
f6
f1
ff
fc
e3
06
05
03
0d
eb
fb
1b
e6
0c
0c
04
0e
0b
13
f2
fb
0b
0f
f2
01
f1
f4
11
f6
f5
1d
0d
f8
00
fd
f6
0a
fa
f4
05
07
04
0a
02
03
06
0f
07
0a
09
f2
07
09
fc
f2
08
09
00
19
0b
fe
e8
f3
fc
29
0d
04
fd
f4
ea
08
09
fa
15
f7
00
00
07
07
0c
10
09
fa
08
fc
15
ed
02
2f
eb
09
01
08
14
fe
fe
20
15
36
2a
00
f6
0b
f2
fd
fe
03
f9
05
e8
e5
e4
fc
0b
00
ed
0d
05
07
0c
08
05
ff
01
f0
f9
f0
1c
1c
21
f5
12
f6
0c
08
18
17
12
0c
0c
11
08
1a
14
f5
08
04
04
dd
f8
06
e8
0e
0b
f9
08
06
07
01
fe
fa
f1
02
05
0e
f5
05
fe
07
05
05
eb
0a
02
f4
06
02
01
fa
f6
01
e8
dd
f6
ec
ef
ec
e0
e6
f6
e0
df
f1
e5
ff
1e
09
fa
e4
0d
10
f3
e0
d3
e0
02
fe
ef
16
11
f3
eb
eb
f0
03
12
0b
07
06
0a
fb
00
eb
fa
00
eb
04
07
fb
04
ec
07
09
28
09
e3
0c
1c
fc
fd
f5
17
0b
e4
f1
e8
03
1f
17
17
1a
16
1d
fc
fc
fa
05
f6
04
08
08
fe
08
05
fd
fe
10
1a
fe
10
08
15
1c
11
f2
00
40
f4
0c
15
09
1f
04
dd
e2
0d
f9
f7
f1
04
11
20
eb
f0
f2
dc
00
08
d7
f4
03
0b
02
f8
02
f1
f1
f9
02
14
f4
f9
ef
f6
03
e9
f6
ff
e6
0b
02
04
00
02
07
03
0a
08
09
fc
fc
05
fc
fd
03
00
ff
20
0a
fb
fe
ff
04
11
01
02
00
fe
0b
06
fc
07
29
11
14
f0
e1
ee
fb
03
04
f4
fb
fc
05
09
10
fb
f7
fd
ff
01
00
05
14
0b
1b
fc
01
f2
fb
06
fd
0e
08
0a
0b
02
04
f4
fd
15
0f
12
09
05
12
eb
f3
f4
fd
07
02
04
08
03
00
05
08
0b
11
04
0e
0e
08
15
13
0e
f7
08
16
f5
08
15
08
09
03
0b
06
fa
00
01
fb
04
02
00
f3
12
f6
f6
09
f3
02
0c
00
fc
da
ea
06
e6
f2
02
e3
ee
f5
f1
00
fa
ec
fc
f7
07
08
07
0a
ff
03
fe
fa
06
fa
fb
f2
fc
09
e9
f6
0f
f6
f3
07
fb
d2
fb
e8
e4
d6
ef
fe
f0
01
00
0e
05
0d
12
09
00
09
f7
05
fe
02
0b
e9
08
04
f9
05
2f
14
02
13
06
00
fb
f2
fb
f8
f1
17
0f
0c
ef
fc
05
fc
d3
fe
1b
d5
ff
0a
0f
03
06
05
02
0f
00
07
05
ff
f6
f9
f6
03
03
0a
0b
f9
f8
fb
f8
f9
04
e9
f7
03
f2
06
0c
0e
15
db
ff
19
f2
fc
1a
fb
03
f7
f5
f7
1b
1b
f6
f5
24
e6
07
f8
c0
0a
05
d9
14
fa
fe
01
f4
fe
00
00
e5
ec
fa
fa
08
f0
fc
0c
ea
ff
11
f8
06
21
23
00
11
14
06
09
0d
06
0c
0b
0f
09
03
13
0e
06
15
06
fd
f9
f7
0b
e6
e3
f5
fd
f7
f9
fc
05
05
00
05
0b
fe
e1
e8
13
fc
fd
05
01
07
fb
fa
ef
fd
ff
fa
ff
05
08
0b
04
14
18
f4
04
f8
04
05
f4
0d
00
f9
01
0a
07
0f
09
ee
ed
f8
fc
fd
0e
f7
fd
fd
fc
fd
04
fc
03
0a
f7
00
02
e7
f5
ef
e5
f6
ef
f1
05
03
12
00
04
09
ea
f7
f5
f3
f7
fd
f2
fb
f8
f5
14
13
fb
01
ec
fb
1b
f5
01
1d
fc
0e
27
fb
f1
0b
00
ec
fd
04
ee
f5
f4
fa
fb
fd
fb
f7
f6
f9
fd
07
09
0e
ff
03
03
04
09
02
13
11
05
13
0f
05
15
12
06
e0
08
01
f8
e9
dd
fc
fb
e8
f9
fb
fe
01
07
e8
08
00
00
f4
06
06
05
0e
0e
01
05
0d
11
0f
15
0d
05
05
0e
06
00
ea
fd
ef
f3
1a
e8
ec
f6
f9
0a
05
f6
0c
0b
f5
f1
f1
01
ff
10
0d
fd
04
08
f2
f0
f6
c0
e9
11
df
f2
fc
f7
fb
03
0c
15
ff
02
0e
fe
0b
0e
f3
08
0b
1d
06
07
f2
05
14
f3
00
0a
09
0a
0d
04
04
0b
04
e7
06
0e
da
0c
04
e5
e9
01
0e
02
fc
05
fb
01
fe
03
eb
07
04
eb
0b
0c
f2
fe
fe
e1
fc
f4
f1
ea
f0
e0
e7
ef
cb
f2
00
fc
f4
04
fe
ea
02
fd
02
01
ec
00
e7
e4
ef
c8
ed
f3
f4
e4
0c
02
e2
02
e9
12
fe
f8
f1
07
0f
0a
ed
f8
0c
11
05
fa
01
f9
df
f4
ed
e3
04
0e
e2
12
1a
ec
f7
e8
0c
06
f4
06
0b
fa
05
04
fc
0e
02
04
03
17
07
22
0d
12
21
ed
ff
e0
e4
f2
e5
d7
f0
ff
04
08
01
04
0b
fd
05
18
00
fa
17
19
12
0e
ed
04
0a
f9
ff
f7
d7
fd
00
e2
f0
e9
ea
f2
0b
fb
ef
0c
f9
fd
0f
f2
fb
ff
fe
f5
f7
02
f2
e5
05
f9
08
f1
f0
0b
fb
fe
03
ff
0e
f5
fb
07
ff
f9
06
0a
f6
00
03
04
fe
07
01
06
09
fe
f2
ee
ec
eb
11
11
f8
07
0a
04
03
f7
04
06
02
0c
0b
05
ea
ed
fb
0d
21
0e
f3
f0
fc
fc
ff
fe
fc
ee
f1
0e
07
02
fd
f8
03
0d
f3
09
fb
f5
fe
f3
fc
ea
f3
03
e2
07
07
fe
05
ff
ef
f4
04
fc
e0
f0
ee
fd
f8
f7
fd
fb
f6
fb
09
07
10
09
04
01
fc
04
fd
f7
04
fb
01
f5
0c
0e
1d
18
f6
fd
fc
f4
df
0f
15
f5
09
04
f0
ec
fb
fe
e0
14
0e
ee
04
f3
01
04
ff
06
03
00
19
1d
17
fe
03
0c
08
f9
11
00
fb
09
f0
d9
db
e1
c0
d8
fc
e2
f4
f5
f2
ec
ff
f0
ee
00
f7
f7
07
ff
f6
f1
0e
0d
dd
ef
0b
0b
02
f6
0d
07
f7
ee
ed
0a
fd
ee
f4
08
f8
f3
ef
f9
f3
f5
e0
f0
f8
d9
e7
ec
e8
f2
f2
0a
0b
04
0a
04
f5
16
fd
f8
0b
03
ee
c4
fc
f0
0a
e5
0f
02
08
fb
f5
09
de
f0
e5
f9
04
f8
f3
fa
ee
db
e5
f1
09
05
0c
0f
f9
11
0f
16
29
ee
ff
19
00
f4
e3
02
e8
05
01
08
0d
f5
0b
05
ef
dd
db
1d
f8
0c
10
1f
17
09
1e
1a
12
01
f8
ff
0b
03
0a
16
fc
0f
0f
14
05
07
09
00
f5
04
da
df
dd
f0
e7
dd
00
de
e3
f3
03
fd
fb
12
fb
f5
0c
02
11
05
ea
fc
0c
f2
ee
eb
dd
11
00
e8
fd
00
f5
f4
ed
06
dc
ed
ee
12
0b
f0
16
e2
e0
10
09
09
f5
eb
f5
ff
de
02
d6
10
ed
ee
fe
ff
fa
08
fe
f6
10
f9
22
1d
f2
01
f8
fb
02
fc
f5
fc
fa
f9
d4
ea
e9
fc
0d
fa
02
0b
f1
0a
0e
fb
16
11
09
0b
07
0c
0a
fe
f9
dc
f3
04
e2
da
f0
c3
c7
d9
ed
ef
10
f0
e4
f6
f3
e9
f7
f3
fb
f1
f8
0b
06
f7
12
fa
01
f9
f2
de
e8
fd
0b
0f
f2
03
0d
f5
ff
10
ee
fe
12
ff
f8
fd
00
04
07
02
05
05
00
09
07
05
00
05
08
fb
0a
05
05
17
07
ff
ff
ef
f8
fa
fe
e0
f4
fb
1a
0c
01
03
03
02
fb
f3
fb
11
0c
15
08
09
01
ef
f8
ed
fa
fb
f9
fc
03
fe
f5
fd
fb
fc
f1
06
eb
0f
04
06
17
e3
0c
fe
e8
f7
f5
0b
10
04
10
ff
07
fd
09
02
10
ce
05
fd
e3
10
05
e5
03
00
03
fd
f3
0a
03
03
14
0b
fd
fe
f1
06
00
05
05
02
02
f8
f5
01
ef
f4
06
f3
06
08
f7
f2
f8
09
f0
f4
0f
f6
fa
0e
ff
fd
fb
fd
03
f4
09
0a
ec
02
04
f2
0e
0c
d6
0f
13
e1
08
09
1e
f4
02
1b
f4
ff
11
0c
fd
09
ff
f8
fd
f7
f7
ff
04
f6
0c
25
02
f0
05
fc
03
f3
fc
0d
fe
0e
08
ef
09
05
f0
f4
fa
02
fa
06
0e
18
14
f8
0b
fd
00
0b
08
fd
05
0f
0b
f7
f6
00
f7
f6
eb
f9
ed
fd
00
eb
01
0c
02
03
0c
03
f5
04
06
01
0f
22
f4
f4
fa
02
04
0e
01
03
08
fe
05
01
fb
08
02
f3
0f
f6
f0
0a
f5
09
0e
04
f5
e9
f9
d9
e6
00
03
fc
00
05
00
20
fa
f0
07
fa
f3
f0
fb
fe
f6
0e
06
fd
fe
05
dd
ff
15
ff
fc
03
0a
f9
fd
f8
06
04
00
0f
05
ff
0a
0a
fe
04
04
02
ff
01
00
03
ee
f9
02
fc
ff
06
06
fd
fb
ff
f4
fe
00
fa
ff
07
04
fe
03
f5
05
0d
f9
04
ff
f0
c5
e7
e6
f0
05
09
07
ff
fe
08
06
fd
02
01
f9
0c
14
11
f5
f7
f8
fc
fc
07
12
fb
09
03
09
f0
0c
0e
fb
ff
fa
ff
06
fc
fe
05
04
fd
0b
07
0c
e7
07
f8
03
0f
f5
fd
00
fb
0b
01
01
00
fc
00
07
fa
fc
e5
d3
f8
fb
fa
0c
0c
04
fb
f9
f9
f8
fb
fb
f9
09
ff
fa
fc
1b
fa
f5
0d
f9
ec
0e
f9
f6
fd
f5
f4
f4
e9
fc
f7
f7
fb
fa
e2
01
ff
e3
0d
fc
f9
07
0e
03
f9
06
fc
06
06
fc
fc
08
0a
f0
04
05
ee
fa
02
f5
fe
13
fb
05
f8
07
0b
0f
f5
fc
f3
02
09
fe
fe
f9
f2
0c
09
03
0d
22
15
fb
0a
fe
1d
09
03
01
fc
04
ff
ff
fc
f8
06
05
ef
ff
02
13
ff
0c
03
03
ef
e7
f6
f3
f3
f3
0b
02
0c
12
f1
0c
09
f6
f5
f4
05
f6
04
10
03
08
0e
0e
07
00
f8
fc
04
0c
10
fa
ff
11
00
f2
05
0b
03
32
03
d8
04
0a
f5
d5
13
f2
e7
0b
02
e1
e5
06
07
da
0d
fc
f5
fb
f2
09
ee
ee
fd
f8
ed
f6
f0
fc
f9
fa
04
f7
f8
f9
f4
ed
fe
04
05
df
f8
f7
e9
f5
00
f6
f6
07
f5
f3
fc
f0
fa
f5
e3
fa
f0
fa
06
02
06
ff
1d
17
08
04
fa
f5
10
08
eb
f1
d8
fd
17
0c
f8
14
fd
10
ea
e5
0a
1d
0b
03
0e
01
0e
12
01
ef
f3
ff
ed
ef
fb
ea
eb
f1
01
fa
de
ea
dd
f0
f2
e6
f4
fa
ec
03
fe
eb
fe
0d
03
12
09
06
0b
fe
00
0b
ec
f5
fd
00
f9
05
fb
f1
06
fe
f1
06
f8
f9
eb
e9
f1
e7
fc
fa
e1
0b
04
eb
1a
15
06
fc
fa
f5
f7
0e
ff
f3
0e
f7
00
0b
fd
f3
04
0f
f6
ec
f9
fe
f5
fc
ff
09
08
f7
02
0f
fb
f0
0d
0b
fb
02
14
00
04
16
08
09
09
0f
05
03
06
08
03
03
14
f8
1b
1e
f4
14
0a
04
0d
0e
f5
fa
f0
eb
ff
f4
08
09
06
0c
0c
1a
1e
01
00
07
04
fc
fe
f1
f9
04
01
04
fd
04
f9
e5
03
11
c3
18
0d
ff
0a
04
f7
ef
02
e4
ea
e4
f1
f7
0b
0b
f6
f1
0a
08
07
de
e2
e2
05
f9
07
0a
01
09
08
04
06
f6
f3
f9
08
fb
f9
0a
0f
06
ed
e7
ee
11
0c
11
fe
05
ef
06
09
09
0b
f9
08
02
f8
f4
fc
ef
f5
f7
06
f3
08
0a
03
04
08
f0
f2
f8
0b
fb
10
0d
02
0c
e9
fc
0b
c0
0b
16
e3
15
12
04
18
1f
14
12
13
11
ff
02
03
0e
09
10
18
24
18
11
16
0a
fc
f8
0d
fd
00
0d
0d
10
08
ef
f5
04
2a
22
10
f7
df
df
fc
fe
02
f7
01
04
02
fe
00
fc
f7
f2
03
fe
fc
12
05
02
05
15
00
ec
0f
07
f3
f9
fa
19
1d
e3
0a
fb
1a
06
fb
e9
13
15
09
f0
f4
05
01
01
0b
02
06
11
0d
08
0b
01
07
04
fb
ff
ff
0a
03
16
01
ee
14
ff
da
0b
02
e6
05
00
0d
f6
04
fa
e2
06
f9
e8
ef
0c
13
f8
fc
00
f6
ff
fe
00
06
f8
ea
06
fb
e4
ed
0d
07
06
e7
00
09
e1
0a
f3
02
e2
de
d9
ee
da
d4
dc
e2
ce
0a
f3
fc
00
f5
fc
12
f9
09
fa
f2
f7
c0
f7
13
eb
ef
f5
04
08
04
f5
fb
ef
f6
01
ff
e5
fa
f5
0d
0b
1e
e8
f6
03
fe
de
ee
f9
ec
f4
f9
dc
fb
ff
08
12
01
f6
fc
f4
db
ee
09
03
f8
fa
f5
e7
0c
01
05
19
0b
0c
fc
02
ee
d2
de
cf
01
05
03
fe
01
f4
f9
e7
f4
fa
ee
f9
f4
fe
f5
ed
f2
e8
01
f0
ce
fb
1f
3e
10
ee
e4
0d
08
0e
fc
0a
08
e3
ce
d5
1f
0f
fb
00
08
07
0f
fb
f6
04
07
f7
ea
e9
23
0f
0b
f6
03
03
fc
05
fa
f7
10
f5
08
fa
03
f5
02
0e
02
fe
10
04
ff
10
fc
06
11
fd
09
0e
ff
fa
fd
08
f6
fc
09
fd
fe
07
fb
16
11
05
03
06
f8
07
fc
e4
f3
f0
ea
ff
f9
ef
09
f4
09
07
04
fd
f3
f6
02
fb
01
0f
0b
fa
fd
15
eb
16
00
07
fa
00
ee
10
ef
15
03
15
04
15
07
14
16
fe
0e
f8
fd
04
f1
fa
01
ec
f5
00
ee
fa
04
f7
f8
f9
f4
ff
0d
fa
e6
fd
18
f9
fa
eb
e8
0e
f5
d5
eb
0f
0f
d2
04
07
d0
f5
03
c4
fa
f9
f4
f7
f2
04
02
e4
02
06
ff
00
01
00
0d
f9
07
05
03
09
f5
04
ff
e3
08
08
e6
ff
f0
f3
02
01
00
07
14
04
04
f6
04
04
01
07
08
0e
0e
0d
f9
ee
11
06
fc
ff
01
f7
06
0b
02
f5
f3
f0
f2
00
fd
ff
ea
ed
02
11
f6
ff
06
17
f7
f1
e6
fa
f8
ee
fd
05
f9
16
0d
04
20
33
f5
0b
17
0f
fb
01
fd
04
fb
f8
0b
10
fb
f4
fc
00
f7
f2
02
fe
0a
04
0e
0e
fa
fe
fc
f1
fe
00
04
f5
11
fb
e1
0c
f7
ed
19
03
13
3b
2e
00
eb
f3
ef
01
09
02
f8
07
f3
fb
10
f7
f5
f9
e3
06
ef
fa
fc
04
08
02
f2
03
07
09
fd
f9
f3
03
fc
f6
01
fe
fb
fd
0b
04
01
00
f3
0c
08
0b
06
fd
09
06
08
0d
14
12
08
04
05
00
03
fe
06
f0
01
fd
13
fb
ea
13
0a
09
e7
03
f5
0b
10
05
1b
1c
18
1c
17
25
09
09
f5
09
11
05
00
fd
f1
05
f0
f6
fd
fa
f7
d8
04
ee
ea
11
ff
16
02
01
fc
f7
e5
f7
f7
d6
e1
e0
0f
f3
f9
f7
f6
01
00
f3
f4
e9
fc
f0
fa
0f
08
06
ff
01
06
04
f8
fe
08
02
03
03
03
06
f3
ec
0b
0d
0a
03
12
11
f4
e6
e5
c9
0b
f3
d7
05
06
e6
d3
00
14
e7
03
f1
ee
0d
02
0b
05
11
1d
24
ed
dc
d3
0f
fb
04
0c
ef
0b
ff
fe
0a
f3
02
02
02
03
02
01
f3
f1
fc
ef
e4
ff
f6
fb
fd
e8
ed
fe
fc
fc
19
e3
f8
fa
f8
05
f8
10
01
f2
e5
eb
f5
fd
f8
f6
e1
db
d8
13
1f
0c
05
09
0d
f8
e7
eb
f6
f7
ef
fc
fd
f4
22
f0
f1
0a
0c
08
f1
ff
19
07
01
23
fe
06
df
fb
ea
ed
fe
f6
fd
ff
ef
f6
40
2b
31
f6
eb
fa
f1
f1
f9
05
fe
fc
08
f7
02
fc
e9
ec
e9
f4
f5
1e
15
05
17
0b
13
f4
08
25
0e
05
ff
dc
e6
f6
f0
01
12
07
0a
15
03
0d
16
0f
0e
10
fa
09
fc
fd
05
fa
ee
ef
fc
fb
10
fd
fe
1c
02
06
0e
0c
e6
f1
03
eb
ed
06
f7
f2
06
0b
f5
01
0d
f3
00
1a
00
03
01
f5
f9
f1
fd
02
f3
f8
0b
0b
fa
f8
f8
f8
02
fe
f9
f8
eb
f4
f9
ee
0c
08
f8
0f
06
0a
18
12
f7
05
0b
f8
f9
02
12
03
05
ea
fd
0b
fe
fe
fa
f2
0a
02
fa
05
03
e9
e0
02
1f
00
fe
0d
f8
10
06
ec
fe
f6
06
fa
02
0a
01
0b
ff
fc
03
02
14
fa
fd
13
fc
02
1c
c6
da
dc
c1
ec
f1
e4
dd
e6
0c
f4
c0
f0
d7
c0
eb
d4
d0
da
ea
fd
eb
02
fc
e1
f8
0b
f5
ef
f8
0f
fe
eb
09
0b
f7
f8
04
dc
ff
06
de
f3
f8
e3
02
05
0a
07
f7
fc
0c
f8
fe
04
ff
03
ff
ed
01
f7
e3
f6
01
1a
18
00
fe
e3
f8
07
fc
06
06
ff
f4
06
06
12
fd
f4
00
fb
06
fd
ea
f7
fe
f8
f9
02
1e
03
f6
0d
fa
fc
13
00
fd
ff
05
f1
15
04
05
02
fc
00
08
08
07
31
f9
f9
e7
00
03
10
07
05
08
09
dc
df
ed
f6
f3
ff
04
07
0b
00
ff
02
fe
18
0b
f7
07
f2
28
40
2d
e0
fe
18
09
03
ed
ee
10
0b
fa
05
3f
08
09
32
02
ff
2e
09
0c
fd
e3
f4
fe
0d
05
f5
03
0a
f7
e8
04
ff
ff
05
fb
fc
07
f0
fb
f4
e1
03
11
04
f8
fb
f3
0e
09
f9
20
17
05
f5
ef
f4
ff
03
ff
02
05
04
14
07
fc
fd
03
09
e7
fa
f5
00
07
0d
ed
f9
fa
dd
00
fb
ef
f6
f2
ef
fc
0f
0f
ff
ff
d6
e6
ea
eb
ef
f3
f3
f5
f5
0e
17
11
e9
03
fe
1a
1f
18
04
0d
f0
e6
cc
f2
02
18
01
1a
12
18
0c
0a
ff
05
07
00
05
02
02
fb
04
01
ff
04
02
f2
0b
f9
ee
08
fa
ec
f4
ed
09
05
f3
da
fd
1f
d8
f2
1d
00
fd
0c
e8
fa
14
ef
fd
1a
f5
08
09
f0
fb
00
ee
ff
04
f7
00
e4
05
03
f7
04
f7
ee
f4
e2
fc
03
e9
de
00
e9
ec
fe
fc
ee
f7
fc
eb
fd
02
f1
e6
04
f5
ea
0c
ee
ef
12
ee
03
01
f7
04
01
f4
f6
05
09
fd
04
fe
fc
0f
00
02
09
05
f6
fe
01
0d
0c
06
07
ff
07
ed
ff
03
f2
07
08
ff
0a
07
fc
f5
f9
f6
03
0c
04
f8
00
00
f2
f3
02
01
ec
0e
04
fd
fd
07
fc
0a
12
10
17
1c
07
f7
ff
09
01
0b
09
ff
02
02
ff
08
fe
fe
f7
f5
03
fb
f6
ff
04
08
eb
04
fc
ea
0a
0b
14
02
0c
00
09
30
f7
fd
28
eb
fe
f0
ed
fa
02
05
e9
fa
01
ec
f2
f0
e9
fe
f9
05
03
04
18
f1
f8
0f
e9
02
15
f7
11
ee
05
0b
fe
0d
11
17
10
0c
03
0d
13
0e
0f
17
18
14
0c
fb
ea
ff
07
fb
fb
f5
01
06
f8
fb
02
fe
fd
06
0d
14
ed
c0
e2
fe
0a
fe
f3
fd
0c
ec
dc
f0
f5
ec
03
01
07
03
00
0f
04
1e
f6
f1
01
fb
05
ed
0a
f6
01
16
06
06
07
06
0f
16
13
07
12
19
dc
f0
e4
f0
02
fd
e2
fc
fe
f6
0a
03
13
2c
07
f3
14
f1
06
1a
0f
04
12
02
f8
fa
10
02
0b
01
f6
fb
0e
07
06
0b
00
ff
13
0e
38
01
ea
22
02
fb
21
04
e2
e8
05
f7
f4
08
1e
26
03
f1
0c
06
02
02
0a
0e
15
0d
00
fd
10
e5
ec
f5
e5
f8
ee
0e
07
11
ff
f2
fa
0b
f1
f6
f2
eb
eb
ff
00
02
07
09
04
e9
f2
fd
06
0a
fe
f9
03
f5
e9
e5
ea
fc
03
fd
0f
09
0d
0d
0e
13
0c
10
0a
fc
fe
fa
fd
fc
11
0c
ed
ee
0b
16
01
eb
f3
f6
08
de
24
f7
06
0c
0a
25
0e
00
01
08
f9
e7
e9
f7
f3
fc
02
fb
ff
f7
02
fb
09
f9
05
fc
f7
f4
f1
eb
03
f8
08
fb
05
06
f7
09
f8
fc
01
fd
fa
13
06
f1
02
08
01
e9
e1
ef
d9
f6
03
c7
eb
fd
09
fd
da
00
fa
f1
04
fa
ee
02
fa
df
03
08
d3
fb
03
d5
fb
f8
fa
f7
f9
f3
fc
fa
ed
fd
f5
f6
fa
f1
f7
ff
ef
f1
0d
00
00
0c
07
02
10
0d
04
07
08
f9
11
09
fe
01
04
fd
da
f6
f1
fb
06
fe
01
03
ff
09
0b
f9
02
04
f9
06
0c
02
db
fe
ff
fc
12
09
fb
ed
04
06
0d
ea
06
fe
c0
dd
e6
f2
09
02
04
0a
05
fd
09
07
fd
06
03
ff
0d
06
fe
03
fc
f6
08
06
00
09
07
04
fd
ff
02
e9
e4
01
0d
f3
08
0e
05
03
f4
f1
e2
fe
fd
f9
fe
00
e6
10
04
00
04
05
fb
09
0d
01
fb
fd
03
11
09
03
16
11
0e
fa
fd
03
fe
05
00
fe
08
fd
19
0e
0c
11
03
0b
04
fc
02
15
0c
04
01
fd
fd
fc
f4
fd
f9
fa
fd
13
02
f2
06
01
f2
ff
05
04
10
1b
0e
0d
1d
09
08
03
fe
01
ff
08
0c
00
09
05
0b
fe
04
09
00
05
0d
0a
06
f8
06
fb
14
0c
06
f6
f8
f9
02
f8
07
11
eb
f0
f4
fe
fc
05
07
fd
01
00
00
fd
f9
f8
03
fd
fd
0d
fd
f8
04
fd
04
06
fb
0f
08
04
03
f9
fc
05
f4
f9
08
fd
04
fb
04
04
f5
fb
f3
f8
fd
0b
f2
01
0b
ec
24
13
f0
08
fe
fb
0e
fc
f6
ff
f8
03
14
fe
08
f9
f4
17
d4
f7
19
0c
f0
0b
16
00
fb
08
10
f7
02
19
f7
00
23
f9
f8
06
fc
f6
fe
01
f9
03
f3
f6
14
eb
e8
ed
f6
f5
f3
04
ed
00
f5
00
06
ff
0c
fe
f8
10
01
09
16
fd
01
0e
08
ff
0a
13
07
03
09
f8
fc
0d
04
00
fe
0f
fe
04
07
f6
14
16
ff
05
0d
f9
f8
e7
f4
13
11
1b
03
ff
04
08
fc
ff
03
0d
04
09
ed
f5
05
fa
fc
fb
fb
07
07
fb
0a
fe
fa
f9
06
f3
e7
f8
e7
10
e8
d5
0d
26
08
d1
04
eb
c2
06
db
ea
fa
1a
02
fe
02
07
09
ef
fe
0e
10
05
fd
0b
04
06
07
0f
fa
0a
fd
f6
0a
07
f0
07
f7
ef
07
fd
fc
00
fd
00
0a
07
00
10
0c
fa
0a
03
fa
04
06
ff
0b
f4
f9
11
0f
00
04
00
03
02
00
01
f9
fd
fb
fb
ff
f7
16
11
22
0a
fc
fa
05
f7
fc
fd
0a
0c
fa
07
04
fe
08
02
0c
05
fe
17
12
08
10
00
f4
05
15
09
02
1b
fc
06
da
05
f8
f3
ef
fb
00
fa
e0
e1
d7
ff
fd
f0
fe
fc
ee
eb
f2
e9
15
11
0a
11
10
06
08
13
03
f3
05
24
e7
eb
f7
f5
05
f4
e6
f2
ef
f2
03
07
f2
04
04
0b
10
04
06
ff
04
07
01
fe
01
f1
f9
08
ef
e5
09
e5
f1
f8
09
04
fa
f0
f6
e5
f7
07
08
05
03
09
ff
ff
09
02
08
fb
0a
f7
02
02
f4
ff
ee
f0
00
e6
e2
05
04
08
0a
03
00
fd
fa
04
fb
fc
f1
00
fd
f6
ed
04
f1
04
06
0f
f9
01
0b
f5
08
07
f6
0a
05
fc
01
03
02
03
17
ed
0f
0f
05
f2
f1
02
ed
f4
09
dd
fa
f7
08
06
00
fa
09
1b
fe
fb
15
f1
eb
04
07
03
fe
06
ff
e8
fd
00
ff
04
11
f4
fe
0a
ff
00
f7
ec
f4
f5
13
0a
f8
f7
09
f7
0a
06
24
04
22
3f
08
05
08
09
0f
07
05
0d
05
09
0c
fc
e7
dd
f1
04
0e
fe
f4
fb
38
fe
ed
08
01
08
22
f0
f8
f8
0b
ea
04
0c
e1
f8
14
d9
f1
0b
fc
12
0e
0e
0a
0e
03
0d
f8
fe
e6
ff
e8
10
09
ea
e8
06
0a
0d
14
13
0f
01
01
05
13
f0
eb
ec
17
0c
fe
c6
d2
f4
f3
e8
15
0d
fa
e7
e1
ec
0c
02
0b
01
f2
fd
03
04
07
e9
d7
e5
e3
e3
d3
e4
f1
d3
f1
ff
ff
f7
fe
f9
e0
f9
fa
fe
fc
01
17
09
06
f4
01
ed
06
04
00
01
0c
0f
00
05
06
08
f7
f3
08
07
df
f6
f8
dc
d7
eb
f7
eb
01
f1
fb
fc
e2
ff
fd
f9
f4
08
ff
05
0a
05
f2
d7
f2
e1
df
f4
03
f0
06
fc
f4
fc
e8
03
13
f1
d9
ff
ee
e0
01
ee
0e
12
0e
fd
09
03
f8
fc
f8
10
05
e1
fa
07
ef
ef
04
0d
1a
f4
0b
1b
00
df
00
0a
e7
f6
09
ef
f7
04
e0
ef
04
08
cb
16
0f
fe
02
e9
01
12
ee
18
0b
fa
fe
05
07
fc
06
01
fd
08
ea
f0
f9
d1
13
10
f2
f3
03
10
f6
0f
10
ff
00
00
fe
09
0d
04
ff
eb
f4
ec
f4
e6
08
e4
e4
ff
f7
05
02
f6
00
03
f0
f0
fc
f4
09
02
ee
0c
40
0a
ec
f5
f2
fd
0b
d0
14
10
17
f3
ff
f0
0a
08
ef
fb
03
e0
f8
f3
fb
0e
09
0b
f9
02
0f
ff
0d
05
02
0a
f9
0c
1a
05
ed
02
fa
16
f1
ed
2b
d1
e4
3a
ea
01
19
f9
e9
11
f3
fb
ec
f9
f4
ee
04
f6
0c
f6
f1
04
1c
e4
db
dd
fd
0c
08
ff
fe
0a
01
fb
ed
fe
fc
f8
00
eb
00
0a
f0
12
01
17
05
f8
f2
13
fb
15
f5
e3
07
0d
e5
d9
0a
01
e9
fc
fd
fe
0a
0a
fc
fc
1f
f2
05
26
e6
01
2d
df
ff
f6
f7
01
10
ee
08
17
07
05
ed
f3
fb
f7
f8
fd
02
01
0a
13
01
ef
02
13
01
fe
05
06
f9
05
0f
09
f7
f3
1e
18
05
02
13
0b
07
0a
f8
05
0b
fa
10
f9
ed
04
f6
df
fe
f3
de
fa
d9
da
0c
fd
f5
e1
f8
e9
f4
f6
f8
00
e5
e1
f0
0b
07
12
03
09
ed
f4
ee
fe
00
00
e6
e6
f5
08
ec
f9
08
13
f7
0c
fc
f2
f5
f5
f5
02
07
07
05
03
e6
05
02
fe
eb
f7
02
ec
f4
e6
fe
f3
e8
fa
ff
f5
03
f4
f9
f5
f4
fa
e8
e8
ed
07
12
0c
0a
1b
10
fe
ea
ef
02
f4
09
00
f4
f6
0c
00
ff
f6
ec
06
f3
05
05
02
02
02
f6
f8
fd
f7
ee
fa
eb
ed
f2
05
06
dd
04
0d
e7
01
fb
06
16
27
08
03
f7
ee
e9
ea
f9
fd
0e
01
02
04
0f
f1
eb
dc
04
ff
f8
ff
f2
ec
1f
10
0a
fc
0b
f8
f8
fc
08
03
f9
07
f1
03
ff
e3
2e
12
e7
1c
04
fb
fd
e8
03
15
ed
01
02
f2
f1
04
13
0b
13
01
18
17
f6
09
06
14
00
0c
06
01
09
00
e4
02
fb
f9
fe
02
05
fb
fa
0b
15
15
00
1c
0d
0a
2f
1d
f6
f9
f6
04
02
0d
02
05
01
fc
f8
03
e5
11
f3
f9
1f
1b
0d
fa
fc
11
03
02
09
0d
fd
19
f9
f6
04
e4
ed
08
e6
e4
07
0d
09
01
09
0a
06
11
10
f9
fb
0a
0b
01
13
10
01
fd
05
ff
00
f6
f6
0a
fa
f4
0a
fd
01
fe
fb
09
e8
1f
38
28
f1
15
21
f3
0f
f7
f8
d4
c0
0b
04
06
06
06
02
0e
11
ff
f7
fd
00
eb
f9
0c
da
e9
02
f3
fd
fa
03
05
01
fb
ff
08
02
01
0a
f8
f8
0c
d4
db
fa
02
fc
fb
09
0a
05
09
0e
10
eb
fb
03
05
c0
ca
fe
ea
f1
f1
f4
09
e0
cf
fb
f5
d6
04
08
f0
fe
12
16
10
02
0e
00
ed
e0
df
ed
02
f0
00
1b
db
02
03
04
09
0d
08
f3
f9
f8
00
fb
fb
db
ef
0c
cf
f5
fe
fd
03
01
02
03
03
04
0c
03
0b
0f
0b
e2
e9
05
03
fe
03
f7
f0
dd
d4
c0
ca
0f
05
19
fb
f9
f9
09
0a
0d
f3
f6
fa
03
0b
f8
01
09
00
d3
f3
18
14
f4
00
0c
13
11
23
0f
08
f6
f2
eb
03
26
fe
ef
11
fa
e3
e8
ec
38
38
19
00
00
0b
e5
d5
fd
00
09
f8
0a
0f
09
00
f2
f7
05
13
0e
04
09
10
ff
fe
0c
ff
1e
0e
f8
da
ee
df
e0
f4
01
10
03
e4
ee
fd
ee
f1
01
f5
f0
fa
0d
01
07
eb
ea
e7
f2
f1
ea
fb
04
f1
00
f3
f1
09
fb
03
15
f6
06
eb
ee
e8
0a
08
ef
06
fb
ee
05
13
10
0c
0e
05
f7
fb
f5
ec
f7
04
ff
12
18
f7
e5
e9
f2
ed
ff
f7
ec
ef
ed
f6
05
05
0c
06
fc
fa
09
03
07
fc
ff
01
04
00
ff
08
f7
02
0a
f1
e5
e7
fc
40
2c
ee
e8
ea
fe
07
f8
f1
1a
13
0e
f5
04
f4
fb
e6
0f
1e
fb
f5
d7
ee
fb
ef
fb
0f
19
e4
02
02
f9
14
18
12
f7
f4
fe
02
ff
f0
f6
0d
15
fc
0a
12
1d
f6
04
ec
dc
fa
e6
ef
e0
d5
db
e9
07
fe
03
f8
06
10
d9
e9
f5
06
14
05
04
08
02
0c
fe
f0
09
06
00
07
02
03
fa
f0
ed
02
02
f5
0d
ec
02
0a
e8
fe
fa
ec
f2
ed
e9
f2
fa
ec
ed
0c
01
ee
00
0a
03
ff
e9
07
16
13
08
ee
f0
d0
16
1f
fd
00
f5
01
f9
f7
f9
fc
07
07
f5
ed
f9
09
fe
f0
fa
06
02
22
1c
0d
09
18
17
0a
17
19
01
05
08
03
ff
03
e6
f7
01
36
2f
0b
f9
ec
ed
07
0e
04
ff
fb
03
0b
09
ff
09
fd
03
02
fd
f3
f8
f0
f5
0d
0a
09
e3
11
00
e9
07
0d
f7
07
0e
fc
f3
fe
f5
f8
f6
eb
f0
01
09
fc
fc
08
ff
fa
0b
ff
f7
f0
ed
d9
e8
ee
e4
04
06
fe
08
fc
f5
09
01
f6
07
fa
fd
fd
06
06
0f
16
0b
ff
0a
01
01
03
fb
fb
fa
fa
fb
f8
f9
ff
ff
0a
ff
fd
fc
ff
f1
04
f6
f6
f2
e0
f0
ed
00
06
05
04
f9
f8
0d
05
00
fe
f2
ed
15
09
fd
08
09
03
f6
fe
f3
09
06
0b
08
fe
01
14
0c
17
13
0c
00
18
04
06
1b
fa
fc
11
17
0d
02
04
19
09
11
13
f9
09
03
02
0a
07
f6
00
00
16
0a
0b
08
01
07
0a
0c
0d
00
fd
0a
06
fb
e8
03
06
0c
fb
ff
05
05
11
0f
fb
0b
09
fc
f4
00
ff
00
fe
05
11
fb
0a
ff
01
ff
04
f2
15
1e
f6
f3
0b
04
fc
0b
02
05
0c
0b
06
02
08
23
e5
04
0c
e5
f1
f7
de
f5
fb
fc
f9
fa
02
fd
0e
00
01
f8
04
fe
06
05
fc
f7
f8
06
ef
05
fe
0c
0a
1d
08
f9
fa
0a
06
f8
f6
f3
eb
04
f8
f7
ff
fd
02
08
e9
f4
0b
f7
f8
13
f6
f4
ee
fe
eb
04
f5
04
26
ec
11
24
d3
f3
2b
14
1a
fb
ea
03
ff
08
04
09
12
e9
08
f6
06
fd
f1
00
e6
dc
e2
14
14
12
00
fd
fd
0a
0b
ed
04
02
f3
fb
05
e7
10
15
06
04
00
03
09
f1
02
0d
00
01
1f
fd
f6
03
0d
07
d4
e1
dd
ee
db
fa
ff
fe
1b
ec
00
00
dd
12
03
d4
03
01
18
0f
10
ff
f4
04
ef
fd
ef
dd
c4
c8
fd
02
f8
0c
0d
00
06
0b
08
0c
ea
09
f9
f6
fd
fe
fb
f6
d4
e7
ed
f7
0f
0a
fd
f4
06
02
f8
0f
08
f2
f6
e9
fb
f4
f1
f4
03
fa
09
01
e6
fc
e5
f9
0f
f6
00
eb
f5
16
02
d2
e0
1d
fe
d3
0b
f5
f9
f3
07
f1
01
e2
14
09
0a
01
f6
fd
14
04
ec
02
0d
f1
f1
ee
e2
09
06
08
f0
ec
ec
0a
12
ff
f2
03
0f
fe
ec
04
14
dd
da
0f
0f
f5
10
16
05
e5
f8
e6
f0
fc
f3
11
fb
f7
0d
ff
0c
09
08
f8
f7
0c
03
0c
03
fd
1c
0c
15
18
01
07
f8
fb
15
13
f3
10
1e
03
15
ff
fe
03
04
10
10
ff
00
02
0d
f4
f1
0c
0d
fd
fa
fd
ef
01
08
09
0a
0f
10
dc
de
e2
02
00
01
01
f8
f7
ef
f7
f7
fc
03
01
fe
fe
04
ed
ff
f5
d7
ee
e3
e7
ef
00
d9
ee
f6
d1
f7
e6
f9
08
04
00
f3
fd
ec
ee
f2
f9
fa
fd
fd
09
0b
e5
e6
eb
00
03
ff
f5
04
fb
f6
fb
03
03
09
02
fe
fa
fd
eb
02
01
ed
e6
f6
09
e7
e8
e8
e0
ef
e1
de
e3
da
dc
d7
0f
f9
f5
03
09
fd
f7
fa
f7
d6
e6
e9
f4
ff
06
e4
f1
f9
fd
fd
f4
fe
fe
07
f4
f6
02
f6
f5
e6
e6
f3
ec
f0
ec
ef
fc
f6
f4
01
02
00
f6
f5
f0
fe
fa
ed
fb
ee
ec
ea
04
ee
01
f4
f4
ea
f5
fe
14
07
19
fb
fa
f0
ed
f5
ea
23
39
2a
f7
0f
11
11
03
e6
ea
f4
07
f8
ee
f4
f5
00
ef
f0
f3
f5
fe
fb
fb
02
f9
1f
06
fc
0e
09
fb
fa
fa
fc
07
00
02
07
ea
fb
fb
f5
00
ed
fe
17
ee
03
fd
ff
f0
f9
fb
fb
ff
ff
0f
02
0a
02
16
04
00
02
03
e9
e8
05
0b
20
03
fe
06
10
fd
f8
f7
05
04
01
12
16
06
f7
eb
02
0c
17
0c
e7
0d
05
e2
0b
e5
e2
0a
fe
f5
0a
04
ec
0e
ea
00
0b
04
14
fe
08
f8
fc
fa
03
04
ff
fb
fe
f6
e5
ee
09
0e
11
f1
0b
ff
f9
f8
08
f0
0d
13
0e
fa
01
17
f3
08
fd
f2
00
fb
f2
0b
f8
1f
0b
ff
1a
16
12
f9
15
1a
01
ed
f3
02
17
14
ec
e7
f7
ff
09
0f
e2
0f
02
fa
12
fe
e5
07
fe
00
13
ed
f0
05
f5
07
06
18
09
23
e8
00
0e
e4
06
07
f6
e9
fb
ef
04
06
03
05
0e
0c
08
05
16
20
0e
e9
05
ff
1c
fe
29
0c
0e
fb
13
eb
f7
02
fa
01
07
00
0a
ff
ec
e4
f1
14
1c
1a
00
23
1a
fd
fc
f5
fe
02
fd
02
09
fe
03
1a
f5
15
06
0d
f0
07
09
f8
fc
ff
fc
fd
fc
ff
ff
00
07
05
0e
fa
05
0b
f7
eb
0e
0f
f2
f9
f9
e6
ec
f3
f9
00
10
f8
fc
0d
02
19
00
ee
00
09
04
03
0d
11
ee
03
11
e2
f6
ee
e9
f6
f6
fb
f5
fc
e4
06
fe
0a
e8
fc
08
fc
fd
ed
0b
f4
fb
17
f4
f4
02
fa
f7
04
10
de
f3
e3
f5
ee
e3
f6
08
f8
e7
03
00
f0
02
06
f5
f3
ec
fe
f9
0a
08
01
fb
e9
e2
fb
11
df
ef
eb
df
f6
f1
e8
f7
f0
08
07
0c
0a
fc
0a
fc
f6
19
fa
fb
15
0d
ee
eb
f7
0b
00
f9
0c
01
f5
fd
07
fe
f6
05
ea
eb
ff
fb
f5
ff
ff
f7
f7
fe
f7
f6
f8
f8
f3
f0
ed
fd
04
ee
e3
ea
d6
ec
14
fb
f4
10
0a
0c
e9
f4
07
f7
00
03
f3
fd
0f
f5
01
ff
19
0c
f5
09
fc
ff
eb
07
13
ef
ea
f3
f2
12
16
03
e9
f6
ef
12
0b
cc
28
15
ef
2f
15
f0
07
e4
f6
f3
f4
0b
0b
07
f6
fa
0d
11
16
e0
ff
13
f7
fa
f4
f1
0c
07
f9
09
08
0a
eb
f1
21
f0
0b
25
21
fe
f7
0a
eb
01
14
32
02
f5
ee
00
ee
fe
fc
02
05
05
19
08
fa
18
20
23
f7
fb
00
06
0b
e8
f5
fc
ec
00
ff
fa
0a
02
01
ef
f5
f8
22
d5
07
f6
e3
e8
06
06
01
f5
f3
f8
f9
fa
fd
02
06
ea
00
fa
f7
ff
fe
fe
07
fb
ff
fc
fc
ec
fc
07
04
0b
e8
02
0d
fd
0e
05
f8
10
fb
e4
06
00
e9
ec
f5
ea
fd
f9
fc
e9
fa
23
d9
ff
08
de
f7
ed
01
fb
ed
21
fd
ff
06
03
e9
15
1a
e1
00
09
e8
f8
f9
e5
07
13
ef
03
10
02
07
03
06
f5
0b
00
eb
fe
fc
f7
f9
1d
ef
ee
21
f0
fe
d3
f2
ee
e7
fa
fb
02
e3
e4
f0
f5
09
0b
f2
fd
04
ed
ff
c5
e3
0f
ed
e7
0c
e2
e8
f8
fd
c7
0a
ee
fa
21
cf
f6
20
d8
f0
ee
fc
fc
04
0d
05
0a
0f
02
08
0a
fe
02
02
fd
00
fa
f7
ed
ff
fc
ff
01
d9
01
fb
fb
f4
17
0d
f2
f2
fb
0c
0a
09
f9
ff
f3
fc
f5
f4
0a
17
0c
04
04
08
0d
fc
01
17
16
25
0b
f1
f7
e7
15
f6
f7
ed
f4
07
0a
04
15
05
f7
09
05
e8
2a
27
11
e7
ff
08
0d
0c
07
fa
0a
fc
06
13
f9
ff
fc
04
de
ef
ee
0d
0d
17
f9
f7
01
f8
02
f2
ef
22
f7
0e
01
e5
0e
0d
1c
03
ff
d1
f5
d4
ed
0a
ff
03
09
01
f8
fc
ee
f8
0d
e4
e5
fa
e9
f7
f7
e2
e7
17
f7
ff
2d
f5
06
2a
f1
f6
00
15
ff
0f
14
09
fd
13
ff
eb
d7
e0
f7
f6
fd
00
05
07
f9
f6
f0
08
f5
0a
fe
ee
fd
ef
11
fc
df
fa
07
0d
11
03
03
f0
fa
0e
fc
f9
0f
fe
fd
0a
05
06
0c
0e
fd
00
13
0b
f8
f2
ed
f6
03
1f
fe
07
ea
f9
fb
fa
e3
02
01
03
05
fc
0c
fc
00
20
04
f3
ff
ec
f5
02
ef
09
07
0b
f7
fd
f3
04
2b
27
2e
f0
f1
e6
01
0a
fc
f5
06
fe
f4
f8
05
0f
04
05
04
f3
14
f8
00
13
ff
ff
06
fb
f0
fc
f3
00
04
f2
06
f4
fc
04
08
f9
ef
f5
01
f5
06
f2
f6
04
ff
fd
fb
fb
02
0b
0d
0a
00
0f
f0
fe
fd
fa
fa
06
0a
0d
f8
07
fd
fb
05
00
09
f1
0f
00
f9
2b
01
07
fb
e7
f4
ef
ff
06
e2
f6
e7
06
02
0e
0f
05
06
fa
ff
f8
fc
02
ff
06
f6
fe
04
08
00
01
10
1b
1d
fe
08
05
f4
06
06
fa
e1
02
e1
ff
11
f8
f5
03
f7
17
1e
e6
ff
04
06
09
04
fa
f4
ff
f8
04
1c
04
fc
09
de
e8
f3
06
0d
fd
05
00
01
04
d1
ef
f2
f0
08
fc
0b
0f
e8
c0
f6
df
cf
f5
ef
fc
f2
ea
fc
02
01
05
fc
07
f7
fc
e9
0f
ff
cd
ee
e8
c6
ee
f2
e6
fd
0f
fe
06
00
fe
05
fd
d3
f7
f6
d0
f5
fc
0b
f6
f1
f7
17
ff
ff
0c
02
06
0c
08
f3
f2
f7
16
11
0e
07
09
fc
07
0f
07
0a
0d
0a
ed
07
11
13
f8
0a
f4
e3
f0
25
10
2f
03
f4
ff
07
0a
fc
f1
f6
11
f9
ee
e2
f9
f1
df
ef
f9
e5
06
f3
ee
fa
01
0e
eb
0c
fb
14
08
03
df
f8
fe
04
fe
f7
00
ea
00
06
f7
19
fb
e4
1b
eb
ea
e7
fe
06
fe
02
ef
f0
01
11
f8
f1
16
f7
0d
02
f3
01
04
13
0f
11
0f
ef
ea
11
15
00
00
1f
15
06
18
fd
fa
f1
e1
e3
e1
db
dc
fc
0d
f4
08
f8
02
01
11
02
fa
05
f7
06
08
fa
04
0a
eb
03
06
f7
fd
01
07
fe
f8
00
fd
00
ff
f6
1a
f4
f3
07
df
06
ee
10
12
13
03
d0
dd
e5
0f
10
03
f9
f0
0c
00
d6
14
ff
f4
fe
e6
ee
15
f9
eb
fd
05
0c
00
14
0f
04
ec
17
e8
fe
f3
f6
10
df
f6
e7
31
ff
00
1c
f5
ec
ef
14
e8
02
f6
06
eb
eb
fe
f4
2d
0c
1a
f7
0b
11
14
f6
f0
f6
ff
ff
f2
f8
e7
f2
0e
02
09
f3
21
13
18
fc
18
1d
f4
12
09
3a
13
15
1f
32
03
ef
f7
fd
ed
df
f4
f5
f4
09
13
19
f9
01
f6
fd
00
e3
fa
e2
fe
f6
ef
f2
ff
f6
e6
01
09
09
2c
f8
16
2a
0a
14
fa
04
00
e2
f1
ee
e9
ed
e8
05
fb
f6
fc
0c
eb
f1
e6
f2
0b
0e
0e
0f
0a
0a
f1
e5
ff
f7
0f
fe
f6
0f
f5
fa
18
0b
0b
01
f7
02
fe
ff
e7
fd
05
ec
02
fd
fd
09
ff
ef
fc
fd
0e
e0
de
09
dd
d4
17
ff
e9
fd
09
f7
06
04
ea
fd
fe
ff
05
f6
fd
07
07
05
fd
fa
f4
fc
07
fb
ff
05
fb
fb
01
ff
fb
f2
f4
e7
d0
f6
11
02
ff
fd
04
0d
e7
f0
0a
fc
01
fb
e5
ef
e5
dd
0c
ff
c0
00
05
d6
db
da
e4
0c
07
ff
16
09
35
f7
fc
40
ff
03
39
f9
ff
ff
02
05
f8
fa
09
ff
f8
19
fb
fd
f4
00
01
f6
00
fe
fd
0e
01
07
0f
10
0d
f9
f4
fb
00
06
02
f1
fe
0a
00
ec
09
fa
f6
02
fe
f9
0a
e3
d4
df
fa
fc
f7
f4
f2
05
1e
14
01
0c
0a
f5
19
ee
06
05
12
07
04
fe
fd
0e
14
e5
e3
04
fa
fe
1f
0e
e9
fa
fd
01
15
14
fc
ed
1b
fa
00
09
02
fc
1c
07
00
fd
03
04
fc
f9
01
09
f9
f9
07
fd
ff
fb
f3
fd
0a
02
f9
f8
f6
e0
08
f0
07
0c
fd
0b
f8
07
01
05
06
f9
fa
02
fb
f6
e1
e1
e2
f4
02
ec
ff
09
09
06
05
06
0e
03
04
0e
fc
14
02
ed
fe
18
f8
02
f9
08
fc
fd
03
ff
f6
fb
f9
ee
fc
f4
04
f9
0c
09
e3
15
16
13
09
00
e8
f2
16
1d
06
fc
05
fe
fb
f7
fd
fb
fc
f8
f4
0b
f3
12
05
05
f6
13
1c
03
f2
02
f5
fa
13
fe
f6
ee
f3
0c
03
08
11
f9
16
eb
f1
1d
17
07
0e
04
fc
f8
10
fe
12
fd
f3
0e
15
05
01
f5
fd
1d
0a
14
e5
ea
f0
f5
fe
05
ea
08
0e
f2
f1
0a
29
17
f9
04
00
02
03
0e
0b
f7
fa
f4
07
f4
15
0a
f9
05
04
02
f6
00
12
00
d5
f3
da
05
12
ff
f1
fe
01
f5
0d
03
e3
07
f9
1e
05
0c
16
f7
03
f0
fc
f0
02
04
01
01
06
09
fb
fd
fd
fd
02
0b
04
05
0c
fd
fa
f9
f7
fb
fe
f3
fa
fb
fd
06
10
05
ec
01
0c
f1
fc
08
f2
0a
fa
fb
fc
fd
f6
f4
06
10
00
1d
18
02
0d
12
0c
1f
1a
10
f2
11
02
e5
0b
06
dd
02
18
26
27
0f
e9
f5
f1
0b
01
02
f9
fd
fb
11
ff
00
0e
f8
0b
fc
06
0c
03
f8
03
10
00
fd
ee
09
03
ed
f5
07
f8
f4
11
fe
fb
ed
f4
ff
06
03
11
02
02
f8
fa
f8
ff
fe
01
fc
f8
ee
e3
eb
f8
e8
e5
06
05
05
02
fd
fb
04
fb
f8
05
f6
f7
0b
f6
1d
13
f1
fe
0e
fe
fe
04
07
04
03
02
fd
00
ff
00
03
fd
03
04
09
08
10
14
06
fe
04
fe
02
fd
0b
f4
f9
f2
f8
fe
fa
02
02
01
fe
f8
f9
f5
00
09
f4
00
07
f0
f5
09
fb
04
09
f3
06
fc
f6
04
fe
05
ed
f7
c9
08
10
e1
02
0a
fb
fc
03
0c
0a
f8
06
03
0b
e6
e2
06
0a
0c
ea
01
05
ff
f4
f2
f1
06
0e
06
ff
03
05
f3
04
12
ef
03
07
01
eb
02
e4
f4
f6
ec
0c
ee
e5
eb
fe
f8
03
03
03
11
0b
05
06
0b
eb
df
e5
e3
f9
e6
e8
fb
f9
01
fe
ed
04
03
02
08
fe
05
ea
ef
f0
09
e2
09
0c
01
fd
fc
0a
05
01
04
00
ff
01
fd
ff
00
ed
08
04
fe
f9
e6
f8
0d
18
06
fc
fa
ff
f3
e9
f1
f2
fc
f9
fa
0a
fa
fb
17
16
01
00
07
07
ff
eb
07
1b
f4
ea
e2
ec
f3
f0
ed
f0
fd
ee
f5
ed
ef
10
13
05
3a
f9
04
dd
03
0c
27
22
1b
fb
07
f9
f5
f6
0c
ea
f9
04
f4
fe
0a
18
0c
0b
f5
f8
ed
f6
ff
f6
0f
ed
f3
20
e0
fb
16
25
15
0d
10
17
fd
e1
fb
fa
ff
06
f2
ec
03
fb
fb
f1
f1
0d
f5
f7
ea
13
13
22
33
fd
f2
14
fe
04
0c
01
0a
06
ef
0b
05
0b
19
04
c5
fe
05
01
07
09
f9
02
ff
03
08
10
f7
fe
fe
e0
e7
f3
fb
11
ee
fe
ed
ff
fc
ef
fa
15
11
15
02
ff
1a
f4
fa
fb
07
07
f9
f3
fa
f6
0f
01
05
ef
fc
07
ff
03
03
06
f5
f5
00
0a
00
f1
fa
eb
08
03
fb
0d
ef
0d
0a
e8
0b
0b
0f
16
11
f9
06
07
09
0a
04
fa
f2
0d
ea
02
05
e8
fc
09
fc
fc
01
f2
f8
0e
01
07
03
11
00
f3
fd
f8
01
02
f5
18
19
0b
ff
ef
ed
00
ed
f8
06
e2
01
11
03
01
20
01
05
f6
e8
fa
fd
f8
08
0d
fc
06
01
fb
01
fd
03
00
ea
fe
fb
18
1d
16
e7
0f
02
e4
0c
03
f9
fb
fb
f4
f3
f2
f0
f2
ee
06
05
02
00
f7
e9
fc
e6
ff
03
09
05
03
1d
0f
0a
10
0a
01
00
fd
02
fe
01
09
fd
06
09
fd
02
06
08
08
02
ff
0b
03
05
02
f4
fa
ff
02
06
ff
00
fc
fa
de
f9
02
0e
e5
fe
c0
cb
eb
39
2a
11
fe
03
fb
f5
fd
08
fd
08
03
fd
02
f3
1b
25
22
0f
0f
04
f3
f6
ee
fc
f6
08
f2
03
fe
04
f7
e9
ec
fe
f7
e4
e4
eb
ec
f0
ed
00
fb
fb
01
ff
fe
01
f9
00
f7
f0
f0
f4
ee
ed
d6
e1
df
02
04
f7
fe
07
01
fa
03
f5
f6
f6
fb
fe
02
f7
fd
00
fe
d1
c0
df
ec
e4
f0
00
03
0f
ed
fa
f9
01
01
f6
00
f4
f9
f8
f6
f6
04
03
f6
f5
ee
fa
0a
02
09
0c
e6
ff
0b
09
14
fc
23
17
14
fc
fb
05
01
1a
f6
04
fd
f8
ec
de
06
f4
f0
eb
16
02
cf
2f
08
f5
14
ff
f6
16
fd
f1
05
03
fe
e6
ff
02
01
05
02
06
17
02
04
16
08
07
18
fe
f6
fd
03
02
02
03
0e
fa
0b
20
f6
1f
03
f5
0a
09
17
14
29
19
09
16
06
e6
12
09
f0
08
11
0d
f3
fc
04
f9
12
1f
27
fd
fe
0c
f8
05
0d
05
12
ff
05
15
f7
fd
0a
fe
05
05
0b
03
2f
11
0f
01
ff
0d
01
07
03
00
07
08
f8
fd
14
02
1f
f4
11
27
ee
f5
f3
fc
3d
23
17
f0
06
fc
f9
f1
0a
07
f0
02
0c
14
0c
06
ff
0d
0c
16
00
ec
1c
29
08
11
f9
f6
05
f6
f1
fc
f5
e8
fb
eb
da
24
0e
f2
16
08
07
0f
17
03
06
f3
07
0c
fe
ed
fd
01
0b
f4
ff
0f
0a
ea
f5
e2
f8
05
08
ee
ff
01
f9
ee
05
ff
d3
07
25
0a
e5
ff
f6
f4
f3
f9
09
e5
fa
f7
db
fd
d9
de
f6
e8
ce
0c
07
00
f4
df
dc
e0
f5
f4
e4
ea
d9
ef
e2
ea
ff
fe
e5
01
0c
00
e6
e5
de
02
f5
01
01
fa
e4
f9
01
00
ff
04
07
f8
f8
f8
f9
f4
13
09
11
db
01
fc
f5
0a
f9
fc
23
22
09
e1
fd
06
0a
0b
ff
01
f0
f8
01
04
03
01
00
0a
13
0a
fc
01
19
24
18
05
03
1c
27
39
0b
07
15
f2
fc
0a
ef
0e
03
f1
fb
01
1d
17
03
12
fd
fb
08
00
fb
f9
f7
00
0f
14
f8
04
0e
f7
09
01
fc
fe
ff
fe
0c
01
03
ea
0c
0f
e4
18
13
fb
f3
ea
f6
0c
22
f0
05
f8
ed
d8
eb
06
00
0c
11
06
0b
1f
07
fe
fb
00
ec
e3
fb
dc
f5
1b
f7
fc
fb
f5
09
02
f9
0f
04
f8
fd
fc
fc
0f
f2
f8
e2
f8
f3
ff
00
fa
f9
00
f8
02
0a
09
05
0e
17
04
fa
1b
f7
f4
0d
16
02
fe
f5
fc
09
e6
e3
ef
fc
00
fa
f5
03
03
fd
05
10
04
1b
fe
f0
fa
de
f4
fd
f8
02
09
f3
05
15
f8
f2
0f
0d
0f
0a
ec
fe
0a
06
fe
fc
01
14
f9
0f
06
f2
dd
f7
f3
e3
eb
07
0d
fc
c0
05
00
ee
03
02
f0
d8
f6
04
f5
01
04
09
f6
01
db
f6
09
f6
01
03
fa
01
f6
ff
fb
de
db
00
0c
fb
02
05
f5
f9
02
09
01
0e
0f
ea
f2
f0
dc
e4
dd
f3
c0
c1
06
f9
00
fc
03
fe
f2
fb
08
fe
f2
fb
c9
ee
fe
fa
fc
0a
f4
0a
fe
04
09
fd
09
07
ff
f5
d7
0a
17
f3
d5
17
05
ec
09
14
f8
07
11
f6
eb
ef
ef
fd
04
03
08
0e
13
1d
11
14
02
f4
f2
0d
06
fc
17
07
04
fb
fd
f8
0c
1e
15
1c
1d
11
f8
ed
f4
f5
03
f9
05
fb
03
f0
ee
ee
13
12
06
ff
02
01
f1
01
0f
ee
e6
e3
01
f9
03
34
40
3d
f8
f2
f4
ff
fe
fa
0a
08
fa
f5
0c
f9
f5
f8
f7
06
ed
01
0b
f8
ff
03
10
16
fe
f1
e7
f8
07
fe
f2
f9
f5
01
fd
04
fe
ee
e5
02
ec
fc
06
f7
04
11
fe
04
12
f2
01
fd
06
fb
f7
f4
f1
fe
ec
f7
13
1a
11
15
23
13
fc
0b
06
eb
f9
06
f9
e8
f0
0c
fd
20
e9
0a
f9
e4
f3
f6
f0
dd
ef
ff
16
fa
ff
0f
f3
f5
09
ec
fc
04
f7
f0
08
f6
f4
0e
f7
04
04
0f
03
f6
01
f6
f5
fc
ec
04
01
f3
14
00
18
02
fa
f3
0d
fd
fa
03
f8
f3
ff
f5
02
ff
fb
08
01
01
ff
00
fd
ff
f8
fc
ff
fe
f1
04
00
f7
fc
fc
07
f4
02
02
0e
fb
ee
fe
f2
fe
01
ea
f0
07
e7
fb
f9
04
14
17
f6
ec
1b
f8
d6
0b
1a
07
f9
09
00
f7
0f
f0
de
07
ea
e6
15
e2
e9
17
f9
f9
f2
f0
f9
eb
fb
f8
f2
f7
01
05
02
0a
06
fe
04
07
00
07
00
f3
02
ff
ea
fa
03
f0
f7
ec
fc
05
f7
f7
d1
fd
0e
f5
08
f8
fa
f9
f7
fc
05
ff
02
02
fd
00
f9
e9
f8
f6
d6
fa
f1
f0
fc
01
0e
02
f6
fb
ea
1b
fc
da
40
fe
d2
30
00
e4
ff
ea
01
09
c7
01
ea
f7
04
ed
fd
08
fe
f2
10
0e
0d
ff
fe
ef
0a
02
eb
03
f0
f5
ef
fe
0e
f1
03
16
02
f3
f7
0d
01
f4
f8
12
f9
e7
f9
02
f5
09
06
09
0d
fb
23
11
f3
0b
f0
fc
f6
fc
eb
fc
04
e8
04
fd
f2
0e
02
e5
06
fc
fe
01
f5
e4
fe
f5
fc
f3
f3
f0
02
05
01
fc
fc
f3
f8
f1
f6
fd
ff
ee
0a
10
e7
0a
f6
06
11
00
f5
1b
e7
e8
f4
08
15
0e
fd
fd
fa
f5
01
f3
e6
ed
fa
fd
06
08
05
0c
f8
fe
09
04
01
f4
0b
1d
05
11
05
06
f8
0c
03
03
07
07
f2
0b
f8
1a
02
e4
e4
da
ee
fa
f4
06
fc
06
fd
08
07
e7
ea
06
f6
fd
f7
eb
04
0d
0c
01
f9
f9
f8
0a
03
e7
19
05
fe
e8
e7
f4
e9
07
0c
23
04
f4
f9
fe
07
07
f9
0b
1f
0c
15
fe
01
06
18
08
fa
0c
00
02
27
fa
0e
fa
f2
03
ff
04
09
f5
fe
f9
04
fe
18
10
05
0f
03
01
f6
fa
fa
f4
f7
f6
05
0a
09
02
0f
f9
f5
ff
fc
f4
eb
0a
f8
04
ef
f6
05
fb
0e
ff
05
fc
06
02
fc
00
f8
e9
ec
00
f8
06
06
f3
0c
01
07
fc
ea
f9
f7
eb
f2
0e
0b
f9
fa
f5
f4
03
06
f9
16
ff
f7
e4
e6
03
09
ec
0a
04
f6
e3
f3
e5
08
12
fe
fc
ff
f3
fd
09
fb
0e
11
0e
f8
ec
f4
00
fc
01
f4
02
10
f4
ff
04
f1
02
ff
03
17
03
e6
d8
dc
08
f5
e5
fc
f8
09
04
fd
fc
fa
ea
f5
f6
f3
f6
08
fd
05
19
12
0f
0a
f7
fb
17
04
02
f2
f0
00
0b
fe
f7
ea
04
f5
ed
0a
f9
ec
df
ef
f5
e6
f3
f9
ed
e8
0a
02
f6
f9
e6
e1
fb
05
10
fc
0c
ed
ea
d5
0e
fd
07
11
05
f9
f9
fc
f0
03
0c
11
04
ff
ff
03
e6
f2
f9
1e
ed
08
06
e6
f3
f8
23
23
eb
d8
0f
10
08
03
01
1c
17
f9
df
f9
fc
ff
ed
09
2a
ec
ee
cf
e5
fc
f4
f1
05
26
f7
0b
f9
e1
fc
10
1c
fc
fe
ff
f6
ed
e3
fe
00
04
fc
fe
10
f1
f0
eb
fe
ed
e0
d0
f7
01
ee
fd
eb
15
07
03
00
17
f7
dc
f7
fb
ed
07
f2
ec
03
f6
00
12
14
f8
0e
f9
f5
08
eb
e5
ee
ef
06
03
0c
17
f8
15
09
00
11
fe
f0
f4
e7
f5
06
fa
f2
10
f5
ff
00
01
fb
f3
16
17
f6
fa
19
01
fd
ef
e6
12
ff
16
03
02
fd
fa
03
08
0e
12
0e
13
f7
e6
02
f8
ef
f3
14
04
ee
f6
ec
fa
f6
f8
10
0d
13
0d
e9
01
05
0f
fa
07
03
f8
f3
05
01
06
0e
0c
fc
06
02
fb
01
07
03
0e
f2
fc
0b
f0
07
0e
10
06
01
05
00
ff
fd
ee
fa
04
dc
f7
02
11
07
f5
0c
fe
f7
f2
e9
cd
08
03
ef
02
07
ef
fe
f7
f0
07
f8
f4
16
10
fd
fd
09
05
05
09
06
09
04
00
07
04
fe
0a
04
00
f1
f3
f1
00
ec
f6
01
f1
fe
f5
03
00
fc
ff
fe
f9
fc
fd
0b
f6
f8
12
ff
ef
03
10
08
fc
f1
07
fe
fe
08
03
0b
04
02
03
05
f6
fa
ff
f2
ff
05
0c
00
f9
0a
07
02
f7
0d
1e
fb
fb
03
f4
06
02
ee
fd
fb
12
fa
e4
03
0c
f9
05
1c
0e
f5
ff
0c
12
23
05
fd
0e
f5
ea
e6
10
fd
fd
0a
06
08
f3
06
02
0c
04
02
fb
f3
00
f9
09
f1
f1
07
08
03
18
01
05
0f
09
0a
11
f3
f9
fe
fb
10
ff
f2
fe
fb
f6
fc
00
06
f3
07
f6
06
f0
f4
f6
e2
ec
ea
ff
fe
08
00
0c
04
01
06
00
04
0f
0b
ee
fe
08
fa
f6
03
03
12
0d
0c
19
14
f6
07
09
ee
e7
07
f9
06
ff
f4
ed
f9
fa
06
10
db
f1
f7
ec
f6
07
00
f5
fe
0f
01
04
0b
01
02
ec
f0
01
f0
ee
fe
f5
f1
04
0b
0d
05
f6
02
fd
0f
02
00
2b
ea
04
f8
08
07
f9
f0
00
1b
0d
17
fe
02
fc
ff
07
0a
f8
f9
f1
09
0b
f2
04
fb
07
fc
f2
f3
fc
0d
00
05
02
01
fd
f4
fa
f1
e5
fe
10
01
09
f4
ed
e0
ec
04
f6
02
05
fe
ff
00
f5
f4
02
04
f7
ff
0a
dc
10
ea
c2
ce
ea
fd
f1
e7
fa
07
f3
02
03
01
04
02
03
f9
ed
fa
0c
e2
15
0b
fc
09
03
fe
fb
05
07
05
07
07
0c
00
02
09
01
09
fe
0b
f5
f4
08
13
f8
0d
fc
fe
f6
f6
f0
07
fd
f9
08
08
18
ec
e1
dd
1c
07
04
0c
07
23
01
10
22
fd
0c
fd
03
1b
f8
ee
0d
f7
01
04
01
09
00
10
fd
17
ff
0a
00
f0
f9
f0
05
f9
fd
04
00
f8
02
03
0c
e8
06
05
f6
fb
f6
e1
04
13
00
fd
04
04
f2
f5
03
f2
08
fa
01
e5
f6
f1
f9
03
fc
12
f3
ee
eb
fd
09
f6
f9
13
05
fe
0b
fe
00
06
ef
01
fe
01
04
08
24
fd
09
fb
f9
12
04
03
0e
fd
00
ef
ff
e7
10
06
f4
fb
01
ed
05
04
03
01
04
06
01
0e
09
ec
10
f6
e8
0e
f8
08
d6
0c
f2
fd
00
f9
fb
ea
0b
de
ee
02
00
06
04
08
04
f6
f0
f3
f8
03
fa
fa
0c
f4
f8
f1
d7
0d
14
04
f9
01
ce
ee
ed
ef
f9
ea
07
f8
ee
f8
ff
dd
f3
ea
f9
fa
04
02
fb
f0
ed
fd
eb
ed
f7
ec
f7
f4
d9
dd
eb
fb
03
f0
fa
06
07
01
02
07
fd
fd
0c
10
00
d3
f5
e8
fb
ec
d3
fb
15
fb
ee
05
fa
19
fc
ee
02
01
04
15
e0
f0
fa
da
fc
f0
00
ec
ea
eb
ee
f0
09
06
03
ff
07
0e
f8
f1
fe
1e
07
ff
f2
f3
10
05
0b
08
f8
05
ff
fa
00
fe
08
07
03
02
ff
10
f5
f2
f8
ed
f1
fc
f6
06
ee
e7
e8
e8
18
02
11
fc
0d
fd
02
1b
05
fb
13
08
06
fc
09
f1
f8
18
08
01
0d
e8
fc
f7
f3
01
ec
f0
f6
e8
0d
f3
f9
05
00
0c
1e
03
fd
f1
f0
fb
0f
22
12
03
00
0c
16
1a
f6
f2
00
ec
03
fb
f1
fc
09
fb
01
0e
07
01
05
02
14
ff
07
ef
e5
f8
ec
e1
ea
00
0c
f7
f8
05
f5
f2
df
ef
04
fb
0a
04
f9
fe
f6
f1
ff
0e
e2
01
2d
0d
1e
1c
24
18
12
f7
f9
11
fe
0b
0c
fb
fc
f4
ff
e0
d8
09
de
e7
09
ea
00
f6
07
f4
f4
fe
f8
f8
f9
ff
0e
d7
fc
09
d2
01
f2
00
f2
ff
f5
f8
fc
f5
04
fc
f5
08
0a
fc
00
fb
ef
24
22
1d
f3
ff
0e
24
fb
e6
22
04
2f
08
f7
08
01
13
01
12
04
fc
07
eb
0e
35
d3
08
0c
e1
14
21
0b
08
0a
f9
11
e8
f0
00
f4
01
04
02
f6
eb
02
09
fd
11
0c
06
0b
fe
fe
f3
01
00
02
fc
f1
ea
2c
10
06
ea
02
0e
0b
0f
29
30
05
02
fc
fc
13
0a
06
04
01
fe
f0
f7
00
ee
06
f5
f6
f9
f6
e6
d0
db
04
0a
06
f1
00
02
f6
0c
08
f3
07
fa
12
e9
12
0b
07
10
03
06
f7
ff
0a
01
02
07
06
02
f1
17
06
e2
37
04
00
11
02
fd
fd
1b
3b
2a
24
05
05
05
ff
0e
02
ff
0d
f1
fc
f1
0c
01
f8
f0
09
1a
08
f1
f5
03
02
0b
fd
f9
f3
f7
e3
f3
df
16
11
ff
fe
f5
04
ef
05
23
25
00
cc
d3
e9
17
19
0a
0d
07
f5
05
04
f9
06
fb
09
ed
ec
e6
df
da
e3
04
fa
fc
eb
02
0d
e5
00
11
0b
16
ff
fb
e0
f5
fa
2c
fb
01
f3
20
fe
0b
09
f0
f7
ee
f7
f4
eb
e5
03
e1
f4
f2
ef
17
23
18
0b
01
fb
02
04
fe
06
ee
da
ef
03
f6
09
f0
00
f5
04
ed
f3
ea
f0
fc
ec
f0
f7
e5
ed
0c
08
f7
f8
05
0a
f0
f8
ff
fd
07
fc
c8
d0
de
03
04
f6
0e
19
0b
eb
f7
f6
40
40
3d
f2
00
fb
23
13
00
fd
0d
1b
fd
ed
f5
17
04
01
ff
f9
f2
0b
04
ff
32
ed
fc
1e
01
0d
02
00
11
ff
ed
f9
f4
05
f6
0a
f5
10
fd
07
0b
0c
09
0f
05
ed
f4
f2
fe
f7
f7
06
00
0c
fb
f0
12
1e
14
fa
0f
e7
e8
03
10
0c
fe
09
08
08
16
03
06
10
10
f5
06
ff
f7
ef
eb
f8
e7
fc
14
f5
fc
fd
f0
fe
fd
0c
ef
03
09
ef
06
06
f8
04
ec
f6
32
f9
f8
17
fc
04
0b
08
fd
00
07
fc
01
03
f3
01
04
f4
15
fb
03
fb
21
08
ec
eb
e4
ee
e7
06
10
01
0a
0d
0d
03
f9
07
06
04
00
08
15
10
0a
03
07
0e
14
04
fb
e2
da
f7
0a
07
02
f9
fc
fe
23
02
e3
30
07
f0
1c
18
e5
fe
f5
e8
fe
f3
13
08
00
f3
f6
14
0a
01
fa
0e
15
f2
f0
ff
09
10
01
fe
f9
07
ff
fb
00
0d
01
08
1b
ef
ff
fe
05
f2
12
0a
2c
04
05
14
07
e8
0a
01
f7
00
0d
08
0f
07
f3
10
08
0f
38
1b
1c
23
0c
f3
06
fe
f6
fe
ff
08
0f
f8
14
15
1b
23
03
1b
0a
01
01
fc
f2
f8
00
fa
ff
03
00
04
08
fb
17
fd
03
04
f5
11
ff
0d
f7
fc
15
00
fb
04
2f
10
02
fd
f5
fd
f4
ff
fe
fb
fb
0a
00
06
f4
fa
04
f0
0d
18
f0
fa
f4
ff
0e
0b
f1
f7
f2
f8
f1
fb
f2
fa
0a
f1
ec
10
fb
ff
ff
1a
09
11
04
09
08
fd
0f
02
05
fe
f2
f6
fb
e1
03
fc
03
ff
11
06
00
0b
fe
0b
e6
09
f6
f0
fb
0c
f3
e6
fe
11
07
e7
e5
f7
ef
cc
db
f9
eb
f3
01
01
f4
0e
11
02
1a
05
2a
19
13
25
f4
ef
f3
f6
f8
03
fa
07
0e
fc
05
03
09
01
f4
fc
fc
ee
e8
ff
05
ec
e5
ed
f6
f8
04
f7
03
0b
f9
f4
e9
08
0d
02
fc
fb
02
fa
fd
f0
12
16
12
f3
ed
f6
f9
03
07
fd
f8
00
f6
ec
f5
f2
05
fb
00
ee
e7
0a
f9
e2
eb
0d
05
f3
ce
c6
ff
0a
12
17
0f
01
f8
1b
00
eb
06
01
15
0d
11
f0
04
03
f6
fc
04
00
fc
f0
0a
10
ed
0a
0f
fd
0b
f9
03
f7
f7
f9
f7
06
fa
f2
06
1c
03
fe
f2
e4
ed
23
0c
05
fc
0a
1c
17
f8
00
01
f8
e9
d9
ec
de
e1
ff
f5
fe
0a
15
10
f6
ef
eb
e2
ce
f0
f7
fb
09
08
fa
fb
00
fc
09
f6
f5
09
03
fb
f5
05
ef
f4
fb
f8
f6
f7
f7
e8
f6
f9
f6
f4
e8
08
09
08
09
15
06
f7
1e
0a
18
12
14
06
de
dd
fa
ff
07
09
fa
03
08
f4
04
06
d3
e6
ff
cf
fc
07
f0
fa
ff
f6
f1
0c
e2
f3
09
ff
eb
f5
f3
00
fe
fc
15
0c
f8
06
02
0e
08
f6
f9
09
00
f4
fe
ff
01
eb
02
f8
11
02
f5
01
0c
ff
f7
fa
01
02
04
f2
ff
07
02
f0
07
ec
f8
04
07
e2
f9
ed
e3
f8
e2
e7
f8
d9
dc
12
fa
fe
0e
00
06
09
f4
07
03
d0
f8
f1
d8
fb
f0
f7
07
ef
f8
fd
ff
f6
02
0a
fa
00
02
ef
f3
f1
ee
fa
f5
eb
04
fd
04
0f
0c
00
09
08
ff
04
05
fe
05
ea
ef
02
ed
05
fe
f3
04
f9
fa
eb
00
fc
09
f9
f3
fe
10
04
ec
fc
ed
d5
f0
e4
fe
07
10
f9
f7
f5
f2
eb
fb
e6
fe
00
f8
ff
f6
eb
e3
ef
fb
f6
fa
e0
ff
06
f4
00
fe
fe
03
11
0e
25
0b
e2
ee
f7
ff
03
f7
04
0a
f6
fd
0f
01
0d
04
14
f9
fb
fc
05
03
fe
fa
0a
0d
f7
ee
07
f9
eb
f6
0b
15
04
e2
ef
ec
fb
ec
f1
f9
f4
fe
f2
fc
03
00
03
02
fd
f9
0b
00
e6
f6
f0
da
f8
fe
f4
f6
00
fe
fb
f8
ff
fd
fc
0d
f4
d4
e9
ef
fd
f6
f9
f6
09
fa
02
11
05
fb
02
fa
0c
ff
02
fb
f1
23
00
06
10
fe
06
11
1b
07
0b
0a
fa
0c
fe
09
0b
00
0b
f5
fb
05
f6
05
03
f4
0d
02
03
0d
f4
e7
f8
f5
f3
fc
0b
09
f1
ec
f5
e3
18
1f
06
e1
ee
12
12
0b
00
12
fd
e5
ef
f6
f7
08
f4
08
fd
fe
09
0c
e9
0c
02
e9
03
ff
fe
e4
e8
f1
f8
03
00
f9
f8
fd
0a
d4
0c
e2
0b
0d
08
fa
0f
07
10
11
0f
11
15
f6
fc
fe
eb
fd
fd
d1
f5
f6
d1
e7
e2
fb
ff
04
21
1c
1e
fe
05
07
02
fb
fe
08
fc
f8
09
0d
0d
00
f1
f5
de
f7
f5
ec
f0
f6
f3
ed
f3
fc
f2
f4
16
10
27
05
09
0b
03
ff
ff
0c
11
14
dd
f4
e8
12
17
0e
ff
fe
f6
f8
04
fd
fa
ff
f4
f5
05
03
ee
f4
0a
07
f3
0e
db
fb
eb
f2
0b
f1
e0
09
f3
ed
fe
f1
f0
f7
00
e7
fa
f5
ee
ea
06
f2
03
04
fb
04
02
f9
06
09
0b
f6
fb
04
f3
f4
ff
ff
00
01
05
01
03
fd
03
07
f4
f7
fa
e7
06
ec
e2
f6
07
06
e3
fc
fd
fa
e4
fb
eb
ff
08
01
01
05
10
06
04
07
0c
f8
de
f6
f1
eb
f2
04
01
07
fc
f9
07
03
04
07
05
ff
f5
f5
ee
fb
fd
f9
f6
e6
ef
ec
ee
01
ff
02
0e
04
07
08
f9
fa
ee
01
08
eb
03
fb
0a
ff
0e
0d
f8
09
11
03
f0
fc
09
07
ff
02
f5
00
fe
05
0c
09
04
05
0d
fc
f1
01
04
04
0c
eb
ef
fe
37
1a
03
f1
fc
f8
10
0d
dd
0c
10
df
01
fe
04
f2
f4
ef
d9
f2
01
f8
f9
fd
fd
13
0c
18
ea
00
21
e1
15
12
0d
14
f9
00
03
fa
ff
ec
03
01
fd
2b
ff
07
fe
cc
03
f5
21
13
21
e9
f1
d9
ea
19
04
04
07
0f
02
1b
06
f9
fb
fa
fd
fb
ff
fc
f3
ef
ec
f4
00
f6
f0
00
f8
f8
08
f6
fe
17
fc
40
15
fe
fd
02
ef
f2
ea
f4
fd
f8
f8
06
07
00
0f
05
14
fb
f9
06
f7
00
03
06
fa
f9
f8
11
01
1a
1f
18
01
f1
05
0d
0f
0f
d4
c7
c7
00
ff
fe
e9
0b
10
e4
fa
07
08
07
ff
fa
07
f5
f3
e4
db
12
00
00
ff
ef
09
f4
0b
02
13
f5
12
fa
ec
0a
01
07
fe
fd
ee
fd
0c
ee
0e
02
f4
f1
03
03
00
f9
fb
fe
fe
06
09
fd
01
fc
09
25
e2
28
04
df
ff
03
16
1b
c6
ed
fd
f1
08
08
f3
ff
ff
fe
06
01
00
07
02
e9
f8
f4
e9
04
1b
17
0e
0d
f6
fe
0f
ef
04
16
f2
08
0a
12
0b
eb
28
01
f1
1b
f6
01
02
04
00
04
03
04
02
fd
02
f2
01
fe
0d
e6
f9
fb
f4
d6
f8
ee
ea
10
e4
15
15
18
fd
f6
f2
08
01
04
fe
fa
f8
fb
00
05
ff
01
05
fb
fe
09
09
0f
07
09
18
17
02
06
0d
ff
ee
f6
d0
fe
0d
d9
02
0b
f9
04
fb
0c
02
f2
06
0b
00
ea
f6
0e
09
07
de
08
06
e4
03
02
f9
04
0f
fc
05
09
00
f0
f4
0d
e5
00
0b
f5
ec
f0
c3
cf
e7
dd
03
d3
d3
df
de
f0
fd
06
00
02
0c
07
07
0c
dd
f7
df
cd
0e
ea
ed
f8
e3
f7
fb
ed
fb
04
01
fc
02
07
e8
f5
f0
18
d5
eb
04
e8
e7
f5
02
ff
ff
01
fc
03
03
fc
f6
ff
f7
06
11
00
ef
e3
eb
10
0f
ff
01
f8
f7
dd
f7
f8
ff
f8
fc
0c
01
00
f8
f3
eb
08
07
08
f7
f5
01
fc
f1
13
fa
fa
f6
05
f2
09
0b
0c
11
ff
f3
f3
05
f7
fb
11
01
05
02
0f
0d
0e
11
0c
0a
0c
05
e5
f3
07
f9
f4
0d
08
fa
00
03
01
02
06
15
0e
fa
ff
02
0d
ef
f5
07
f2
fa
13
fa
ec
06
fc
0b
fb
fc
0c
09
fd
0f
fa
f1
f1
fc
fc
ff
fd
12
0b
09
06
17
f3
e7
f8
f2
ed
f5
04
01
00
01
0b
04
fc
0a
08
01
ff
f8
fc
ec
02
04
0c
07
02
06
01
fe
06
06
fa
03
08
00
ed
f7
0e
27
0f
f7
ef
f2
07
13
14
12
11
0c
e8
ee
fd
15
09
08
02
f9
0b
f2
01
0c
f2
f3
ec
e1
fb
f0
f6
f2
f7
05
0e
e5
df
fd
f4
0f
04
0a
f8
03
cc
e7
0c
f5
13
03
02
09
00
ea
05
11
0b
19
08
01
e3
e6
0c
fe
0c
fd
fd
10
09
fc
f1
ff
f2
04
08
06
0a
0a
0f
0e
09
02
e3
ec
16
f6
fd
25
f9
09
f3
d7
f1
04
02
13
05
f4
fc
f6
f0
07
fc
fe
0e
f4
e5
e1
e2
04
fd
ef
0c
ec
fb
ea
f5
0d
06
04
11
01
0a
00
0b
1d
f3
06
11
f6
0f
09
00
05
04
00
01
ff
02
f9
fc
f9
18
04
f0
0d
fd
f0
fb
fb
e7
fb
0d
03
04
ed
fa
f8
ff
09
08
04
fb
fe
09
f7
03
00
06
09
0a
02
0d
12
f9
03
1f
fa
e9
e7
03
19
11
09
09
0c
06
f5
fe
c9
15
14
d9
05
01
f3
09
0a
25
33
1f
f4
f6
fa
ff
0b
1b
11
17
00
0c
0b
fc
0b
06
ff
08
08
01
09
06
05
0f
0c
0d
f9
21
0e
18
e8
e3
f4
0e
17
e9
1f
03
eb
e0
f9
fa
02
fc
06
04
07
09
fe
03
05
03
06
0c
03
05
ee
f9
e8
fe
ff
f4
02
06
06
0a
08
01
11
0b
01
2f
05
16
04
12
1f
fc
08
07
fc
09
01
fc
ff
fc
fd
0c
01
01
0a
17
f6
e5
f0
01
fa
f0
fb
eb
e3
f1
da
e0
fc
00
02
f8
0a
f7
fc
08
f6
04
0d
0a
f4
20
14
ff
11
f0
fd
fb
11
12
17
18
0a
07
f5
f8
fd
04
ef
06
ff
f1
f1
02
00
fe
f2
04
16
f6
03
16
fd
f5
fb
08
fa
de
fb
f0
ea
0a
04
04
fd
fb
05
06
f9
fa
fc
0a
0d
08
fd
00
f7
f2
f8
e8
fe
f5
ec
02
f6
e6
0e
f3
f2
f1
fd
f7
ff
0b
0d
f6
00
f7
0e
ed
f0
fb
0d
05
14
14
08
04
00
02
03
08
09
06
fb
fb
ff
f6
fd
fe
f7
03
f7
fa
fc
f4
ff
fd
ff
02
ff
f8
fa
fa
09
e5
f9
04
d1
de
ec
f5
0d
0c
11
fb
0b
fc
e6
06
f7
07
eb
de
ea
fc
07
1b
ec
0d
19
09
ef
0a
fc
ef
f7
f5
f6
fe
02
07
f7
e9
0b
0f
f7
fa
09
f7
04
fc
fc
f7
f8
06
f5
ff
0b
17
12
05
16
ff
13
23
02
0d
09
0f
0f
15
13
d9
d8
f1
fb
f2
f7
f0
f2
01
fc
f7
f2
f9
f6
03
f9
f9
05
f7
fe
06
06
0e
fe
12
10
0b
0e
03
f7
10
0c
f0
03
f2
eb
02
fa
e6
ee
e4
0d
10
09
05
02
00
0e
1a
0a
0c
1f
22
16
f5
03
f5
e3
f5
05
f7
f6
04
ff
f5
07
10
1d
18
11
0a
07
06
02
0f
16
2b
30
00
27
1c
04
00
fd
03
02
fa
fa
fa
07
ff
fb
04
0b
01
fc
d8
f2
05
f3
fd
fb
0f
03
01
ef
0b
03
f8
09
00
f1
df
f8
d3
f1
11
05
e5
08
ed
01
fb
01
01
f7
f7
00
ff
e1
02
e8
e6
13
ec
e5
f9
db
ef
f9
02
ea
fa
08
ef
fd
09
ec
01
07
e5
05
11
ec
03
13
ff
03
f1
f9
df
e9
0f
ff
e4
f0
f7
d7
07
01
f4
f6
f0
ef
09
f7
ec
f9
06
14
07
f0
06
fa
16
fe
e5
03
f8
e5
ed
f6
e7
fc
f1
f4
0e
df
d7
e8
f8
e9
f3
fc
f3
f4
fe
05
f7
f9
e8
e4
01
f2
f2
04
f9
f7
08
fc
d9
ea
d7
e3
ef
ca
e9
e6
f6
f7
f4
ee
e8
da
ee
f1
ed
1b
0e
18
14
df
e4
0f
e3
05
f9
02
fe
fc
f4
fe
08
fe
fc
02
f3
0f
06
01
ee
00
01
0c
00
06
07
f3
fc
f4
f3
06
fb
10
15
15
03
13
0f
0c
06
12
01
f8
fd
fb
ef
02
0d
01
03
05
f7
00
08
f4
fa
09
f1
fd
08
0a
07
fd
fd
ff
fe
04
fd
0e
0b
06
0b
13
04
e8
eb
ed
e6
d6
e9
03
05
0e
dd
e9
e7
36
37
22
ef
f0
f5
0d
f8
fa
05
f0
fa
f4
09
fb
0a
03
0c
1d
e0
ff
03
fe
fb
fb
16
03
13
0d
00
02
fd
0b
05
04
fb
f7
fd
f6
01
21
17
fe
0f
22
0e
0e
0c
15
0e
13
1c
0f
0e
f2
f3
17
ff
0b
1b
e9
e9
ec
00
fe
fe
fb
00
f9
05
08
fb
15
0a
f8
ee
e3
e4
00
10
0e
fa
11
f7
e0
ef
e2
d1
e2
ec
06
02
ec
08
f9
f6
f4
fe
ee
13
09
f2
04
0d
f9
ed
ea
f0
fc
e5
06
00
f6
f6
08
0a
19
0e
fa
fe
fb
f4
f5
fe
ff
02
eb
eb
f7
eb
e4
f0
04
fa
f8
f0
e8
ed
0a
03
03
00
07
04
03
01
19
ff
f7
e7
0c
05
ff
f4
00
fa
fd
f2
19
00
10
e8
f6
0d
fa
f3
fd
f1
fe
ff
0c
f2
fc
0b
eb
f0
fa
e8
f6
fc
e9
20
0f
e9
e2
01
fb
fc
e6
f7
f5
fd
03
fd
fe
f9
f1
f8
e9
e5
da
13
04
07
1f
09
1e
f0
00
13
f8
02
12
04
fe
0b
09
e4
ef
06
0e
22
01
0c
fc
f4
fe
fd
0a
02
fd
00
19
10
f4
00
fd
f6
f2
01
fe
04
f6
f5
f7
f2
f6
02
eb
f6
0e
f4
00
06
05
0a
09
07
fb
05
f5
00
0a
f9
05
01
fb
03
fc
fa
e9
e2
ec
e9
e7
e5
f0
ff
fe
fa
f7
e1
16
01
0c
1c
02
0c
00
0c
f2
08
fa
f3
12
07
fc
e6
e8
f8
f6
fe
ec
e2
d7
f3
30
12
f3
f8
01
0a
f4
f9
fd
10
0a
1a
f9
10
0f
f1
0f
0b
fb
f6
16
fa
04
ef
f5
fe
dc
f6
fd
fa
00
ff
fd
0f
09
02
04
f9
03
ef
f8
f7
05
00
fe
0a
fd
07
0c
00
09
00
fb
08
03
01
f9
0c
0b
fc
fb
00
03
ff
ee
fd
0a
12
12
fc
fb
ef
f5
ed
fb
13
fc
ff
22
0f
04
f8
ef
ff
ff
f1
05
f6
ef
f2
04
0e
ff
09
17
ff
ff
0d
fa
f7
fb
02
f8
fd
05
06
04
06
05
0e
fc
0a
1a
f9
1d
37
fd
fc
fd
08
fb
fe
04
f5
f2
f6
06
ff
01
fc
fe
fd
09
0c
08
f9
fe
0d
ef
df
06
ed
d5
ff
f1
ff
04
ff
0d
04
f7
04
00
f7
ff
09
01
06
01
00
06
00
13
12
18
0a
0b
0a
fa
e3
f5
f3
f1
ee
f9
f8
f4
f5
f7
f5
c7
e0
c9
e4
ed
fc
1e
1c
33
fb
fb
00
fd
fc
fe
02
fe
00
f6
ea
d3
0a
17
1c
08
05
0e
03
04
0a
fe
eb
fe
ff
0e
ff
0b
20
fa
01
08
f6
0c
04
ef
f9
10
02
06
0a
15
f2
f5
f5
fe
f1
0c
0e
ff
0d
0c
f9
0e
fb
01
08
f7
f9
fd
02
fe
06
04
16
15
03
0f
06
13
08
18
f0
ce
e8
f9
ed
ed
1a
09
0e
e9
fe
ef
13
0a
f6
10
08
1a
f6
f9
f1
15
27
04
f6
f8
0f
1d
0e
f5
07
f9
fa
f0
f5
05
1a
13
0f
0d
1e
1c
14
0f
0d
e2
f3
ec
d3
17
02
ff
0d
ea
f9
fb
fc
f6
f7
00
f8
fc
ff
e8
01
06
f0
ed
e8
fe
f1
03
06
fb
ff
05
ff
f5
09
fe
f5
05
14
1b
f9
11
14
f9
03
06
f6
e8
fe
f9
f7
f3
06
0b
f0
f1
fe
de
d8
f1
e3
ec
ed
de
12
16
1e
e5
eb
df
08
04
07
fc
0d
08
01
0e
fb
ea
ee
ed
f2
ff
ff
f2
ef
ff
01
fd
fc
03
f9
ec
08
f8
00
05
f0
f2
e6
e5
de
09
1c
06
fc
08
f5
27
1b
f2
e2
f4
fa
e1
d0
e7
04
f1
02
07
0b
fb
fa
fe
ff
09
fa
fb
f8
ea
f1
ef
e2
dd
fd
f0
f1
e4
d8
ea
d6
ca
dd
e5
fc
f5
fe
0c
f9
01
f8
02
f1
f5
f2
f7
f1
f7
f3
fb
fb
01
02
18
ff
fa
04
d2
db
e4
03
f8
ff
ff
f8
fa
01
fa
fa
16
1a
26
0b
ef
e5
ff
04
12
fc
f9
ff
08
02
ff
fe
fa
fd
fc
f7
f6
fd
f1
f0
eb
e8
ef
fe
eb
f3
05
14
18
0e
09
0c
fe
f7
10
eb
f9
0a
f3
fd
01
05
03
fd
01
02
04
fa
fe
03
08
03
f9
16
0a
0d
f8
f4
f9
ee
e6
ea
fa
f7
f7
e9
f6
ee
17
04
fd
f8
f4
f9
03
01
fb
0d
fd
09
04
01
f2
10
05
df
ef
fb
ff
f9
07
f6
0e
02
fc
fc
fe
f0
f6
fd
fb
f4
f4
01
f3
0a
e9
1f
f0
f9
13
f4
f7
01
fa
02
fe
ff
06
00
ff
06
f8
ff
04
fb
06
0a
f7
fb
01
07
fb
0e
05
08
09
0b
03
08
f6
04
04
0c
fe
fa
09
f6
fd
08
0e
05
0d
16
0e
08
14
0b
0a
f6
10
14
fa
0e
14
00
0e
f9
f9
fb
00
ff
01
04
0e
0a
f3
03
0c
fc
08
0e
08
07
00
01
01
02
01
fd
f8
04
05
fe
08
fb
f6
ff
f9
f4
f2
f5
ea
10
0d
01
fe
f4
01
fc
f7
06
05
f8
fe
0a
10
1f
fa
f3
08
01
06
fd
0a
06
f3
fd
f4
fd
02
ed
fd
fe
00
01
f9
fd
00
f8
e5
fe
0a
06
0d
0f
20
14
04
20
19
fc
10
12
fb
04
f9
ed
f1
f4
f2
f4
f7
f2
f7
f8
f9
11
05
e8
1d
ff
d8
0a
e2
14
f5
09
07
fa
fc
02
fb
02
06
f3
fc
ff
14
14
ea
f7
fb
02
11
fd
01
06
00
14
fd
0a
0c
17
fc
f8
ea
f6
f3
0b
03
07
ee
2c
09
f7
40
06
de
33
08
ed
02
0a
f1
0e
11
e6
15
ff
00
05
06
03
08
08
fe
03
fd
fe
00
02
fd
04
f6
f0
eb
fd
07
06
0c
fd
f3
f6
ec
f7
e3
c6
fd
09
0a
02
03
00
f3
02
21
1a
e9
1d
f7
f6
f6
f3
f2
06
02
f4
f5
fc
01
f5
03
25
3a
35
02
01
08
07
06
18
02
f3
1c
f1
fc
fc
e9
f2
df
fe
01
00
03
04
09
0c
04
06
08
10
2b
eb
f3
fd
1f
1e
19
f9
fe
fb
02
ff
fa
fe
fc
f0
fb
eb
ef
f9
07
05
0f
04
f3
06
fa
f4
fa
fe
fe
f3
11
fe
e6
f9
e9
ee
fa
f2
fb
05
04
2d
13
fd
f7
ef
ec
fd
0d
f3
f0
dd
fb
ef
f8
11
f5
10
08
0a
08
0b
01
fa
03
00
fa
fa
0f
14
03
f5
f9
fa
13
04
f0
0d
fb
11
0a
12
11
ff
04
10
14
1b
13
f1
02
11
03
f5
f5
0f
ef
17
0e
12
05
1e
19
0b
0d
ee
04
f6
f9
f5
01
fe
f2
f6
e1
eb
f2
f3
eb
fb
fb
f6
1b
e2
f9
0c
f1
ea
27
e2
e8
02
06
10
fa
03
06
03
ff
02
fe
fb
04
fc
f0
fc
1a
02
f5
00
02
fd
f4
03
08
ec
07
05
e9
ec
e8
02
05
f9
0d
07
07
f2
06
fc
f4
fc
09
fd
f9
f7
e3
de
f0
ec
de
ec
d0
e1
ee
0f
08
04
fd
f1
f7
f8
e5
fb
fc
f4
0d
07
ff
fb
07
fc
f3
01
fb
f8
f5
fc
fc
fb
f9
f8
f4
ec
ed
01
f3
f6
e5
e7
f6
ea
f1
eb
fa
fb
f5
fd
03
f8
fc
f6
f9
ef
f1
f7
f3
01
f6
fc
e8
eb
fd
f4
e9
f3
df
f6
f0
f4
00
ef
00
fa
05
01
f4
f8
f5
fb
00
0d
0e
f8
0a
02
e2
ff
f6
19
18
05
06
05
f9
f0
db
ee
f6
f5
e6
f1
ee
eb
20
09
ed
e4
02
f0
f6
f2
f6
11
f6
f9
ff
f9
f9
07
ff
02
15
f6
e6
fd
04
f3
f9
ff
03
05
ff
01
fc
04
0c
f0
0d
f8
01
0a
04
fa
fc
f8
db
f1
ef
f0
03
f0
0b
15
ed
f5
0a
e6
e8
fe
0d
00
02
0f
14
0a
0d
02
00
00
03
ff
04
06
ff
fc
e6
e9
e1
f5
e9
ea
d4
da
d3
06
f6
03
fd
f6
01
01
03
0e
08
03
06
01
10
f7
fe
02
0c
fd
f2
0b
06
e5
20
08
ff
05
fe
f1
f6
02
f3
05
f5
ff
06
ec
e9
f4
f7
ec
e9
f8
f8
f6
f3
07
10
fc
f9
17
df
dc
05
f7
f4
fb
fa
fb
00
fd
01
04
15
01
04
17
f6
fd
06
db
f5
ff
05
03
09
03
ff
0e
04
06
01
f9
f9
fa
01
09
fe
f9
fe
0f
02
0a
fe
01
fd
f2
1c
fd
dd
eb
f2
ee
f4
05
ff
f2
08
04
0f
f0
ea
1b
e5
f9
09
de
fe
0a
0b
fd
07
04
06
0d
07
05
05
f9
04
fe
00
04
fe
fb
02
f9
fb
0c
0d
0c
e4
ec
fa
0c
ff
09
13
12
16
fb
09
00
03
0d
e7
f7
fb
e6
05
ff
ff
fc
fb
0a
02
dc
1e
fd
f6
02
05
11
f0
f2
fe
fd
fc
f7
04
f2
f8
fe
f2
0a
05
07
09
00
10
ea
f2
e3
c3
cc
e5
c8
c6
03
01
02
0f
09
0a
16
0d
05
fa
26
07
f3
0c
fd
f1
05
02
00
fb
fd
05
00
01
fe
fc
08
04
fb
e5
0c
f7
e8
08
fd
e0
06
fa
f7
04
fd
fa
fd
f9
02
ff
f3
18
fb
ee
0e
f3
f2
0c
fe
02
f4
02
02
03
14
05
f8
f6
f9
d4
fe
f6
e9
03
f3
ea
02
00
f6
03
00
08
00
ff
01
0f
0c
0f
f9
04
13
e9
d8
e0
e9
0c
1e
06
0a
f5
06
fa
f6
0c
f4
f0
fe
fa
ff
f3
ea
f7
e8
fd
0a
e5
e6
06
db
01
04
f3
ff
e4
fe
ec
ed
fe
f2
fd
ec
f7
ee
f0
09
f7
09
06
f5
fe
15
15
02
ea
10
0a
ea
fa
f6
03
0b
fb
07
17
f9
fb
07
29
14
15
20
f0
e3
10
df
ea
fa
f9
fb
0f
02
f2
16
0a
f0
e1
f9
f8
ff
fa
ed
06
02
0a
0c
05
11
01
06
f6
fa
1b
f9
0c
f7
0b
f2
fd
04
09
f5
03
0b
12
fd
fe
15
d7
fc
12
e0
04
05
fb
f7
07
02
f1
f8
04
09
fb
00
01
fe
00
fe
02
f9
05
ff
fa
04
01
09
f0
fe
0b
07
f0
00
0f
06
15
fb
fd
0d
0b
08
ef
f0
07
03
f5
e5
fd
05
da
0b
fe
f1
12
e8
e0
fe
09
fd
fc
f1
12
fa
e1
03
ff
0f
0c
10
14
19
18
10
0b
15
f0
f0
fa
00
f6
f8
06
f2
eb
f8
f6
f5
fc
fd
fb
03
00
01
e1
e9
ec
de
fe
08
e2
22
18
fe
e5
03
fa
c0
fc
f8
f0
fc
f4
f6
ea
04
04
ed
02
fb
00
f5
fa
f3
00
00
ef
0c
fb
ef
f7
d4
07
04
c0
f0
ea
d6
e5
08
12
08
02
ff
07
fe
07
00
04
09
24
04
09
01
04
f8
f4
00
fe
f8
04
fd
04
06
02
ff
f4
e9
de
f1
ea
f4
02
f4
f1
e1
e5
f0
09
f3
fa
00
f6
0a
0d
d1
f8
02
e6
f4
fa
e6
00
04
de
f2
1a
f7
fb
02
ee
fe
f7
cd
13
02
f6
04
06
06
ff
08
08
f9
02
fc
eb
fd
ff
eb
0e
f6
f1
0c
23
fb
00
0a
de
ec
ef
01
ea
eb
fc
e8
ec
fe
fe
e9
f2
e9
f1
fd
ee
03
04
01
fd
03
f4
f0
03
f2
fd
01
13
1e
1b
06
17
29
00
ff
17
ef
f6
f9
ea
f2
f5
0a
05
fb
fe
f9
fb
02
0e
0a
f8
03
01
0b
fa
0e
15
fb
10
fa
da
08
f5
f7
1a
f7
ea
11
fc
de
0a
06
06
04
05
fb
0d
fc
fe
03
04
fe
fd
01
f3
fa
f1
e9
f3
f1
ee
e7
ef
f9
05
df
ee
f7
19
f0
e5
ff
fa
f5
0c
01
fd
fb
03
1d
fa
f3
0e
fd
f2
00
16
fa
17
fd
08
fb
0c
0f
ff
05
1b
1d
ee
ed
f5
f1
f6
ff
0b
ff
02
1e
19
23
ef
e5
07
03
03
ff
08
04
02
09
03
03
fa
2a
12
fa
0f
ed
eb
14
f1
e5
07
01
e7
09
00
e9
0f
02
f9
18
3a
02
fb
ee
0b
ff
f5
03
fa
f8
03
fb
ec
fd
f5
fc
f8
03
10
06
fa
0d
fd
0f
01
02
08
0f
ef
00
0e
0c
09
19
0e
f9
18
01
f3
1b
fd
f4
0d
fe
03
fb
03
02
01
06
01
01
0a
0b
03
0d
02
fa
f7
ed
ea
dd
ee
ed
23
15
2a
01
f2
f4
1b
27
14
e2
f0
f9
00
fa
f8
fc
11
f2
f6
2e
dd
02
12
f8
06
13
ff
06
04
ff
16
03
03
ea
dc
e1
07
07
04
0e
0c
fa
14
f6
f4
17
0e
07
0f
0f
08
f7
fc
fa
fe
fe
fa
f8
f7
f9
fa
fc
f9
d1
ea
fa
06
07
0f
fd
09
ff
13
06
f7
0e
fd
fd
e2
d1
e2
d7
04
f6
ed
03
0b
00
03
fd
fe
04
07
fa
f7
0a
f0
04
f0
f9
f9
01
ec
f9
0a
cf
e2
e2
08
0d
04
06
17
1e
04
0d
0f
12
0c
0c
11
01
0c
02
00
01
04
06
07
01
fe
05
0b
19
fe
05
0d
f9
07
0c
f2
f1
de
e9
c4
f0
e8
fa
ff
f9
f9
15
0a
f8
03
03
fb
08
0a
e0
e5
fa
fe
fc
f6
fd
f6
f3
ff
24
00
07
08
fc
06
f9
03
f2
0b
f8
03
02
fc
fa
f1
fb
f7
da
f2
dd
e2
01
eb
fc
f1
09
02
fe
09
fe
fe
02
fc
03
f4
fe
fc
eb
0d
00
e5
01
f6
08
f8
04
1f
0a
fc
0f
f8
05
ff
fc
0a
f5
0f
05
f4
01
ff
e8
dc
ec
f2
ee
f8
f9
e4
fe
fb
03
06
fe
ec
fe
f6
e1
fd
fe
fa
17
fb
0f
1d
f9
01
13
08
01
f2
fd
09
f5
07
0c
fa
ff
ff
01
ff
f6
0d
02
00
05
0d
07
01
01
01
f7
db
d4
e1
fe
fe
f8
12
10
06
f6
f6
00
21
fb
09
f4
03
f6
fc
07
f6
08
fc
03
01
09
06
fe
f3
f2
f5
00
01
ec
04
ed
03
ff
ff
f7
03
03
f2
fc
fc
fd
04
fa
e8
f2
f2
e9
12
f0
e5
0c
fa
f7
f9
fb
fd
fa
f7
f5
f1
f4
e4
21
f5
f2
e3
e8
06
fa
0f
f2
f7
0f
fc
dc
fe
02
f1
f8
f5
e2
d8
f7
09
e6
ed
f1
eb
fd
db
08
f8
de
f4
fe
09
f1
f6
e7
e1
e7
f1
e1
eb
f8
f6
f5
f8
fa
fb
fb
f5
03
0f
0b
fc
e7
f0
db
f2
f2
e4
fa
dc
00
00
04
f9
eb
fc
05
f6
fa
0d
e0
f0
f6
e3
e6
02
ec
f9
0e
f8
17
13
10
05
f6
fc
f2
f9
e7
e4
f2
f4
e8
e2
e0
eb
fa
e1
04
0e
21
16
01
0b
19
f8
0f
fb
fe
fc
ee
f8
fa
ea
fd
f0
01
f5
02
01
ef
da
f6
ee
08
e5
f3
0b
f7
04
02
06
fc
f4
09
ef
eb
f9
fe
f8
ff
06
df
09
12
00
15
1b
fe
19
d8
fa
f8
c5
0b
04
c1
01
03
f8
f6
07
ff
05
f2
02
10
fb
fc
04
04
fc
05
ff
f4
fe
03
ec
02
fc
e0
e6
ef
e7
e8
ef
00
f9
f4
01
ff
f8
fc
fe
00
03
fe
08
0d
08
fe
09
ff
fa
ff
ff
fc
02
00
f1
fe
fe
fa
0f
06
fd
14
0a
fe
fc
07
f0
e1
f0
f3
0a
17
0b
09
07
ff
06
fb
fa
0c
ff
f2
ff
04
fe
14
0d
0e
04
02
11
fd
f4
08
d6
fe
07
ea
fd
09
fc
f0
fd
f1
f9
fb
fa
05
ff
f8
ff
ff
18
ed
02
f9
eb
ff
fa
fc
17
04
fe
fc
02
fd
fd
fd
00
fe
1c
12
0d
12
fa
0d
17
f2
15
0c
fe
fa
16
01
0b
11
f3
0a
02
0f
0e
08
f7
f0
fe
fa
06
08
03
0c
fd
06
fe
fc
10
07
16
ed
19
08
ef
13
0d
08
18
02
06
1d
00
fb
11
f2
0a
25
ff
ee
fe
01
07
06
f8
07
03
04
01
01
07
09
fd
03
fa
fa
05
04
01
ef
f8
f3
e7
eb
f1
09
07
f2
fa
13
18
ff
00
05
08
04
f7
13
ff
1a
0f
f7
07
f5
15
f3
f2
40
cb
01
10
f7
0b
f3
0b
f7
03
03
05
0d
03
fe
fc
fd
ee
f7
01
f9
09
08
e5
d2
ef
0e
06
e6
01
22
ea
ff
00
fd
07
0e
0b
ff
fd
f4
e4
fa
f5
16
07
05
eb
e4
f8
04
fc
ff
08
07
fa
06
fa
f7
10
1f
2c
03
e8
00
de
ed
06
f7
f3
f7
06
00
f5
01
0e
07
fd
fa
fa
fb
f5
fc
fc
f9
f2
07
e9
f8
fb
07
02
18
11
18
0c
07
0a
04
0b
0d
f2
f1
e4
fd
04
03
fa
f9
fe
fb
fc
f9
06
02
ff
18
05
06
0b
fc
ea
f0
f2
e2
1a
1a
17
06
fd
f3
02
04
0a
f3
02
f7
f3
f1
f4
04
08
ff
0b
19
f4
02
00
fa
13
09
ed
f3
0b
f7
f2
f0
0c
09
08
05
08
0f
fe
ff
0a
07
18
21
0f
ed
e8
fe
05
eb
2b
f0
f1
ed
ff
f4
ee
fc
ee
ee
ed
fe
ff
02
fa
fa
ff
0f
f6
f8
f4
ff
02
ed
fb
01
fc
fa
06
18
2e
f0
f8
fd
04
fc
ff
fe
f9
eb
08
04
04
0d
0a
0d
fb
ea
f2
f9
f2
fe
ff
f6
f5
f1
e9
fd
fd
f6
22
03
ef
2a
fd
f7
f4
ff
fa
f6
f9
fb
fa
fe
07
06
fe
02
06
00
03
0c
fe
fb
f7
04
00
f9
07
02
f4
eb
f3
f0
04
07
0d
02
03
0d
11
0e
03
fa
fc
08
fa
f7
f0
ee
04
fe
f7
1b
df
0d
14
01
0e
02
07
fa
08
00
06
09
f8
f6
fe
ff
fd
f7
fd
01
fa
ef
f5
09
fe
12
06
0d
0c
0a
04
05
06
06
05
05
0a
06
03
0c
f9
03
fd
e9
ff
f2
f8
02
02
fc
fd
f9
fd
00
02
f9
02
04
03
f7
f8
fb
11
0f
0d
0f
0d
fb
fb
02
fd
f9
02
00
0e
07
e9
ee
fa
e2
ea
e9
da
e5
df
ee
f9
05
00
fe
07
fc
f3
09
00
fe
08
08
05
02
10
08
0c
00
02
fe
f8
fa
fd
f9
fe
fc
f2
f3
e8
f5
f2
e8
e4
f5
f7
e1
ce
c7
02
09
08
00
fe
00
05
0c
06
ec
f3
ef
f3
f8
02
f8
ef
f4
f9
00
f6
f5
f7
fb
f7
ff
fe
e6
fa
06
e4
fe
fd
f8
fa
fc
03
06
0a
fe
fd
fe
dc
d5
e2
e8
0f
ec
fd
0c
f0
f9
fc
f7
f3
f2
f7
f0
f1
f4
f9
e4
e0
1d
03
02
1b
0a
14
fd
03
fd
f6
0b
f4
01
06
00
17
08
e0
12
23
03
e8
ef
f4
08
00
0a
f3
fe
fe
f1
06
f6
06
04
1e
04
0e
0f
fc
ff
11
14
0d
f7
ec
0a
e0
0d
33
02
fb
fa
0d
02
01
0a
fd
0a
0e
01
02
00
fd
00
01
f5
f8
fe
f0
01
08
f0
fd
07
f0
fe
02
fe
ee
ff
f1
03
ef
00
fd
02
f0
f7
df
00
09
03
12
0f
0a
ed
10
24
01
d8
28
f8
0f
07
0d
18
fa
ff
f9
03
03
03
0b
ff
f5
01
fc
fa
e8
fa
fa
fc
df
d8
0b
ef
e0
f1
ff
e1
30
09
fc
fd
08
03
05
00
f5
ff
04
f4
03
f8
16
08
e2
17
ff
0a
fb
08
06
ff
ff
01
f5
ff
11
0a
fd
fe
0e
0a
f4
fb
0f
07
00
fa
05
ff
fe
04
06
07
06
01
03
ff
f9
07
01
fc
01
14
fe
1c
10
ff
1c
0e
f7
19
01
fc
06
f5
fe
06
fb
02
1b
ff
f4
03
ff
f6
04
fd
ff
0f
f5
0d
0e
05
0b
10
f4
f7
f6
00
ff
ef
fe
05
01
f7
11
13
09
f5
f3
05
fd
fc
0e
05
07
0d
10
1d
f6
da
26
20
1e
0a
f9
17
ff
f3
04
00
00
f5
02
07
0a
17
01
fd
03
f6
e7
f9
06
36
23
fb
05
1a
04
f5
18
f9
f8
fa
fe
00
04
fd
fc
0c
d9
e8
e7
08
08
12
05
09
fb
0c
04
f4
fd
05
f9
f9
01
00
ce
ed
fa
f0
2a
3d
02
f2
f2
06
00
04
01
fc
01
f8
f6
f7
ff
11
f4
fe
f4
fc
de
ed
08
1d
22
19
f5
09
04
f7
0c
08
ee
0c
f8
f7
0f
01
05
05
fa
f9
fd
fd
08
06
0c
03
fd
06
01
ff
f0
05
03
ef
05
f9
ec
fb
f7
ef
e6
09
f6
1a
12
0b
c0
d3
dd
38
2d
0c
fd
f8
03
f6
f5
fa
07
13
02
f9
ee
fe
10
12
fc
f2
fa
05
fa
f4
f4
02
1a
1e
ec
d8
e2
f7
e4
e9
e5
cd
f4
f7
d2
fa
f1
d9
f7
11
0c
0a
0c
03
01
08
00
fd
10
15
fb
04
ff
e6
2a
1d
f7
f9
09
08
f7
f8
03
01
06
fe
11
06
1a
e7
f8
fc
13
01
f1
22
11
0c
09
ff
0d
f6
fe
fd
12
0a
fb
08
05
02
0e
fb
06
0b
ff
f9
fa
02
02
f8
f0
ec
00
0f
fb
fc
fa
f6
01
0b
f2
ff
06
0f
00
fb
0c
00
ff
08
07
09
fa
fe
14
fd
00
09
fb
fd
fa
0d
01
10
0f
00
fc
f0
24
12
1e
04
06
05
f1
fb
f8
fa
f2
f6
02
f9
0c
06
11
26
40
f9
ff
0a
09
fe
f2
13
05
f9
f6
08
04
01
f6
fe
06
fa
fe
e7
08
fc
f5
10
09
fd
15
01
01
fa
f6
fa
fc
0e
ff
fd
18
ec
f4
1f
0a
01
0f
07
fd
f1
ef
f5
0e
f5
e3
07
0f
fd
19
fc
03
08
0a
f0
06
10
05
ef
e3
f0
e4
e0
cb
02
15
0a
df
e5
f8
05
f9
eb
f3
f0
da
e4
e9
e8
01
0e
12
fb
fb
eb
f7
03
10
f6
00
ea
0e
17
ee
02
fa
f7
02
fa
0b
00
ff
05
e4
cf
dd
ea
c0
df
ee
c8
f8
f3
f4
14
04
07
ef
0c
15
01
fd
e5
f0
fa
f0
eb
00
05
00
f4
f9
e0
04
ee
eb
f5
00
fc
04
02
fc
03
08
fc
fe
09
09
ec
e5
f7
f1
03
f6
ee
fb
f7
05
0d
2c
f2
09
d9
fe
07
f8
fb
ff
f9
fa
00
01
f5
f4
f4
e3
f6
f8
ff
00
fe
f9
04
04
0b
04
08
0d
fc
ff
00
f7
fe
14
11
1e
01
01
16
0b
08
12
f7
f3
fe
f8
f4
fb
00
10
03
f1
03
e8
f4
f3
f0
01
01
de
05
0b
06
f4
fc
0b
e6
ec
ef
fd
01
03
f9
fd
0a
fc
f9
0d
01
0b
07
01
02
08
01
00
02
00
04
f9
07
07
01
00
01
f9
df
ea
dc
10
01
0b
01
04
01
1f
0c
f1
f7
f9
f5
05
fa
f8
ed
f6
08
fc
04
f1
f3
da
ef
1b
0e
07
ec
03
00
03
f6
06
fb
07
03
fb
07
02
fb
f5
f3
ea
fb
ed
02
0c
07
dd
e7
f2
03
0b
01
00
04
02
08
04
08
00
f9
f9
0b
f5
cd
0d
0b
01
00
06
06
f6
0d
0c
fd
09
0a
19
f3
c6
fd
1a
eb
f1
19
1a
ff
09
0a
f8
ff
f5
fd
fa
f5
06
d7
23
0e
e5
ea
fa
ec
f9
f0
e7
cb
09
0b
0f
0c
fb
02
fb
df
ef
03
f8
d2
05
f3
e5
07
06
00
06
02
13
03
f4
03
fc
ff
0b
ea
ef
ff
e6
e3
fa
ea
d8
00
11
02
c0
05
07
fc
0a
0a
0e
04
04
f3
03
fd
f4
f3
f5
00
e2
df
0a
04
12
06
fb
05
fc
ff
ff
00
00
fa
f8
07
09
eb
fe
0e
06
03
f8
fa
e8
de
f7
ee
e2
02
02
e6
f6
f5
f9
ff
f9
05
13
fa
01
0b
f9
ff
f8
fd
00
09
f1
04
08
f3
02
fd
00
06
05
fa
fb
02
f8
04
f5
15
0e
12
0b
ec
e5
fb
05
fe
09
ff
fd
f9
f0
f6
fe
11
12
f9
04
0a
04
0f
00
0c
00
1f
06
fd
04
08
0a
10
fd
0c
12
f2
fb
02
f5
f3
0b
01
f6
f8
0a
02
09
04
02
fe
0b
0b
06
13
0c
fe
06
fb
f8
f2
ed
f3
00
f4
ff
01
ed
0a
e5
cd
da
f5
03
0a
0e
12
0d
fd
ed
f8
02
fe
f8
e6
fb
f1
13
17
0a
0f
0f
05
0e
02
00
01
fe
fb
04
ff
f7
f9
05
02
04
01
04
1c
27
0d
1e
27
1d
00
02
05
04
06
0d
06
fb
03
15
e1
f4
23
f1
02
02
ec
11
35
ee
fc
39
ec
e8
33
f4
e6
05
0b
0d
0a
fe
f8
02
f2
fd
fb
fb
f9
00
15
fc
fe
10
03
f9
05
06
f9
fd
05
e8
02
01
f1
f5
f9
05
03
fd
05
05
f8
fe
f9
fd
0c
06
f7
03
fe
f0
ff
fd
03
01
02
02
02
03
04
09
0b
fc
0e
0a
fd
08
1a
fe
01
02
03
11
05
ed
01
03
fc
14
f5
ec
fd
f5
f3
06
f8
f2
ff
fc
f9
fb
f5
00
f3
fb
07
35
09
db
00
07
03
fb
ff
04
f6
09
0a
fa
02
ff
fc
07
fe
ea
ff
02
f9
ec
ed
0c
e9
f0
f6
ef
f7
ec
f1
f0
f5
f9
f9
0c
fd
02
29
f4
ef
40
db
00
09
fd
04
20
e6
f6
1e
f0
fd
fc
f3
e3
0e
0c
e8
10
05
1e
f3
f7
fe
ef
00
f2
eb
0c
ea
ee
eb
f8
ef
de
f6
e2
d9
ef
08
04
13
0d
00
04
fe
fe
10
0b
0c
f4
0b
08
f7
0b
07
ef
07
02
ff
03
07
08
fe
02
03
f9
ee
dd
ed
f8
f5
f3
02
f1
f8
f3
f6
02
0c
ef
fc
fd
12
0d
0c
df
03
e0
d4
ff
dc
f8
07
04
e6
fc
f2
f8
e2
e7
fb
18
f7
ef
ed
f3
ee
d7
f2
e5
0b
04
f0
0b
0b
f5
f8
f8
fc
fe
e7
09
f3
ef
f0
e6
e3
cd
eb
ed
f1
f5
ef
f4
eb
ef
f8
1b
1a
23
f1
f5
f8
e5
e6
f9
0b
ff
fe
02
01
fb
02
01
fc
0b
03
0f
00
13
fa
0d
0c
05
05
fa
08
f8
fa
f4
06
0c
01
0d
fb
fe
19
1e
01
0c
08
f8
f7
08
f2
e4
0e
e8
ee
0a
e9
f8
09
00
f5
16
01
fa
0f
fb
05
ff
03
00
fc
10
02
01
08
08
05
f8
08
06
02
ee
ea
ef
ea
e7
f9
18
15
12
f0
02
06
2a
0f
12
f4
02
fa
f3
eb
f8
0c
ee
ff
0e
ee
01
fd
f5
fc
00
01
0c
f3
fc
fd
f5
f9
03
02
20
12
f4
04
fd
05
02
fe
0f
0c
07
26
0c
11
f5
ea
f6
08
0a
0f
fe
01
07
ff
08
0b
00
fd
f4
fe
e6
fe
f8
06
29
fd
05
01
08
0c
01
fb
eb
fa
00
18
0c
0c
0d
0b
00
e5
0b
f3
fb
fa
02
01
f9
01
ff
ff
f3
eb
ea
d0
d6
fa
dd
f8
f8
f0
0e
00
f3
ef
e0
fd
1c
08
12
0a
fa
0d
fa
f7
fe
f2
16
00
fd
ff
f8
02
05
