f9
f8
f9
f8
f7
f7
fe
fd
fd
ff
fe
fa
02
00
fd
05
05
00
39
33
23
3a
2d
2a
13
07
01
19
1e
20
1b
1e
19
31
3b
29
02
01
00
04
01
03
f7
f1
fb
16
13
09
17
18
14
13
16
14
f5
f2
f2
f6
f3
f1
fb
f7
f3
fe
fe
00
ff
fc
fa
03
04
f7
18
20
1d
1d
1f
15
f3
ea
fe
f7
f5
f5
00
fc
f8
02
00
fb
0d
0b
0c
05
07
06
07
08
06
e2
e4
df
ec
ee
e4
fd
f4
e4
10
16
13
0e
06
0d
fe
f4
fd
f3
f1
f4
fb
f9
fc
fc
f7
fa
06
06
07
14
0e
0d
10
11
0e
f7
f7
fa
fb
fb
fe
04
06
0a
0a
02
de
06
fe
de
07
fb
e5
fc
e9
da
fc
ee
dc
ef
e4
d8
f0
df
e5
e5
e0
d9
de
f5
f9
00
e3
0c
ed
e3
02
ec
de
fd
fb
eb
f3
fa
e9
f5
f7
ea
f9
eb
e8
ff
e5
ee
02
ef
f6
02
fd
fe
00
fe
01
00
ff
00
ff
ff
fb
fa
05
01
fc
07
05
04
da
da
e6
d9
d7
e0
d3
e7
e9
fe
fd
04
fd
fe
04
fb
fd
02
fa
f5
fe
06
02
04
06
ff
01
ea
f4
cb
e7
02
c0
f1
08
c0
02
03
fc
06
09
03
0d
0d
06
f8
fb
fe
f7
00
fe
02
0a
0d
01
01
fa
fd
fe
fd
fd
fe
ff
07
0a
07
02
03
01
02
02
fe
fa
fc
03
05
03
02
07
f7
00
03
ff
ff
ff
fb
f9
fe
05
fe
0a
0f
0e
fd
fd
0e
01
fb
0a
fc
13
14
e6
08
14
f9
06
0d
06
05
02
01
fd
fb
07
fe
ff
ff
05
0d
f1
fe
03
ff
0a
0a
03
02
ff
00
01
fe
04
08
02
03
f9
ff
fb
fb
fa
ff
f9
fc
14
0a
07
06
07
0c
05
04
05
01
fe
00
03
02
01
01
ff
fd
ec
f1
f7
ee
fc
f7
ee
ff
f1
ef
ff
08
d4
f0
00
ed
0d
06
fa
f9
fc
05
ff
03
f3
fa
fd
fa
fa
00
04
fe
01
fa
f4
f9
f7
f0
fc
00
00
0c
f8
fc
04
fd
05
00
05
e1
fe
f7
fa
f9
05
f4
ef
0b
f8
f0
0b
f3
f5
00
04
e6
f8
01
df
ee
02
d3
fb
e7
f2
f5
e4
e8
0b
f8
f9
f7
f2
08
ef
f3
0a
eb
ec
00
ff
ef
0b
fc
e4
0a
f5
da
0d
fe
fa
f1
ec
f9
ef
f1
07
f5
02
03
00
fd
01
ff
fd
01
fd
05
fe
ff
05
ff
fd
02
04
03
e4
ed
fd
e2
eb
f4
f6
eb
f5
06
fb
07
00
fe
06
00
fd
05
f7
01
fc
fc
04
08
fe
02
04
fa
0c
f0
f6
06
e7
fe
0f
ec
ff
ff
fc
fa
ff
ff
fc
08
04
00
00
ff
ff
fe
01
02
02
08
00
06
09
f2
ff
fd
ea
04
f8
04
04
06
04
06
05
04
01
02
fb
f1
f2
f7
f3
ec
f1
ee
f3
f4
f4
3c
f7
ec
40
fc
f4
3c
f3
fa
f8
01
0b
07
10
15
19
f2
f9
f8
f0
fa
f7
ff
04
ff
fc
14
21
f9
0c
22
f2
0d
29
fe
fd
08
fe
f9
08
01
04
11
04
06
03
fc
07
00
fb
09
ff
f9
fb
fd
fe
fe
fd
01
ff
01
f8
f9
04
fe
ff
0f
02
02
0e
0a
06
00
09
06
ff
08
03
00
01
f6
fc
00
05
01
fb
06
ff
f0
f9
02
f4
ea
11
ee
ee
20
05
00
f4
02
f9
f5
01
02
02
fc
fa
fc
fa
fb
f7
08
0d
0f
f7
fe
fa
07
fb
f2
fb
f1
e7
06
05
0a
fc
ff
08
f8
fa
09
00
00
fb
02
ff
f9
05
03
f8
01
06
07
fd
00
06
0c
04
0b
08
f4
f4
ee
f3
06
15
12
16
f6
fb
00
f1
f2
f1
05
09
11
01
02
05
fe
01
03
07
05
04
fc
fe
00
f2
f7
ff
0e
1d
21
fc
01
fe
fe
04
01
f6
f8
fd
00
ff
fd
02
fd
fd
01
00
01
fc
f9
f8
02
05
fa
14
0f
07
f6
fc
fd
fb
00
fe
02
02
02
18
18
18
1a
1d
1d
07
f3
f9
04
04
05
f0
f3
f6
f8
09
13
00
02
02
02
05
03
12
13
0c
06
02
03
f8
f7
f9
25
1b
0f
c9
ce
c0
f1
ea
f0
06
0a
07
e1
dd
db
f4
ee
f3
0d
09
09
fd
ff
fb
fe
09
fc
fc
fb
fc
03
01
ff
05
01
fc
08
00
fb
28
25
1f
2c
29
23
26
21
20
1c
1a
13
1e
21
12
1b
1d
09
00
fa
f9
fe
ef
f4
01
fb
fa
1a
17
17
0b
0f
fb
1b
16
11
00
fe
fc
fa
fc
fb
fa
f8
fb
fc
fc
f7
fc
fe
f9
fb
fd
fa
05
0a
03
0d
0f
06
0e
13
0b
fe
fc
fa
fd
fc
fb
02
00
fd
02
ff
03
08
07
06
0b
07
07
f3
ee
e6
e9
d3
eb
fc
f1
13
0a
06
10
0c
0c
11
0e
02
09
f7
f5
f5
f4
f8
f9
fa
f9
fb
0c
08
10
05
01
02
0d
08
06
ff
ff
00
fc
fd
ff
01
ff
fd
f6
f9
f6
07
08
fb
ff
06
fe
09
02
07
03
fa
00
03
fd
ff
07
0d
16
f0
ea
ef
06
ff
fd
0f
0a
18
02
f9
ff
06
12
01
0b
03
0f
fa
f6
0b
ff
fa
09
04
00
05
eb
f8
01
f5
f7
00
06
03
fc
0a
0a
fa
02
09
fb
05
06
04
f8
f8
f0
e9
cb
d9
11
16
16
f3
f2
f7
06
0a
fd
0c
ff
01
03
fd
fe
09
01
fd
e3
e0
eb
f4
fe
fc
07
07
09
1b
11
19
f5
f9
0c
11
0b
08
eb
ef
f1
f2
de
e0
fe
01
0b
0e
0f
05
ec
eb
e7
e9
e3
d9
09
09
05
03
fd
03
07
0b
00
fe
00
fd
f8
f7
fd
f9
fb
ff
fc
f8
10
f8
f3
17
f5
fe
17
fd
f7
19
f7
f6
15
f8
f6
0c
17
0a
08
06
01
09
07
fd
fe
00
05
01
00
fd
07
0f
0c
1b
f3
0a
09
f3
07
01
f5
05
f9
01
e5
f4
00
ea
f2
fd
e9
fb
02
00
ff
ff
00
fe
02
ff
00
ff
01
ff
fd
01
03
01
02
05
f9
04
fe
ff
02
0a
03
02
09
f8
fe
02
f6
00
00
f8
ff
02
fd
04
fc
0d
08
02
09
01
01
16
f9
ee
10
eb
ec
08
e9
e4
fe
0a
04
09
0a
ff
06
06
06
07
02
ff
fd
fc
fc
07
04
08
e2
f3
f9
ff
02
0a
04
fe
04
fd
fc
fe
f6
fb
fe
00
03
01
03
00
fa
ff
03
fc
07
07
04
fd
ff
09
03
02
09
02
fc
00
02
f6
ef
f1
f2
09
0b
01
fb
ff
ff
07
f0
e8
e1
fb
f7
f5
01
04
0b
01
00
07
05
03
07
f4
f1
f1
f8
fc
fd
fc
09
10
04
08
03
fd
03
ff
fd
fd
ff
01
fe
fe
04
fe
fe
f9
f7
00
f5
ee
f4
fa
f9
f5
11
02
04
f8
ff
00
ff
04
02
fe
fc
ff
f7
fd
06
1b
40
21
09
03
0a
09
04
0c
f3
f4
00
00
f4
00
ff
02
04
fd
ff
fb
01
ff
fa
00
fd
00
fa
f7
f7
1d
16
11
f4
f3
e7
ec
e6
e9
05
04
fc
de
d3
d5
f1
e7
ee
07
04
02
fc
00
00
00
ff
fa
fd
fe
fa
05
fb
fd
02
f7
fb
fe
f8
fd
0a
16
16
0f
0e
17
19
1b
12
16
20
21
1b
29
1b
17
25
1e
05
ff
f8
01
01
fb
00
fe
fd
13
0f
16
09
05
0b
0e
0c
13
fd
03
fb
f6
fc
f6
fc
02
fb
ff
06
00
fd
ff
f9
01
02
fe
08
10
14
11
1a
0f
16
1c
0c
04
fb
fc
06
00
01
09
00
01
f2
f8
fe
09
0b
09
06
03
06
13
01
01
00
e7
f9
03
f2
fd
08
ff
04
05
08
09
06
0a
02
fd
ff
fe
fa
fe
fa
f6
01
f7
18
33
20
f4
ed
fd
08
16
0b
fb
07
fc
00
fe
fe
f8
fe
f8
fc
f8
fd
00
fa
f7
ff
fe
fb
09
fa
f1
06
f8
f2
03
fa
ea
23
22
36
18
0a
1d
18
04
12
1d
1e
1f
06
18
1d
fa
03
10
06
fd
01
03
fb
07
01
f5
02
22
08
18
08
00
19
13
0d
1e
f8
fa
f9
f9
fa
f7
fe
ff
fb
00
01
02
fb
fa
fb
f6
f5
f9
07
0d
15
06
0b
11
01
08
08
ff
f9
fd
00
00
fc
04
03
01
00
00
03
05
04
03
09
05
05
0d
fd
ef
fd
f0
f1
00
f6
fe
03
01
07
04
03
0b
07
0d
0f
fa
f8
f9
f2
f5
f3
f7
f2
f1
0e
0d
10
0c
07
0a
0f
10
0d
f5
fe
f3
f5
f8
f3
03
07
04
fb
07
ff
f9
0c
02
00
0b
0c
00
e9
06
00
e4
07
fe
e5
f6
24
00
0a
20
fb
07
14
fb
0c
10
f5
02
21
fc
05
23
01
0a
06
f9
f8
01
f6
f7
ff
fc
e8
2b
fb
fa
12
fb
f6
18
f3
f9
fe
07
fe
fd
0a
fe
fb
08
01
08
fe
fc
02
00
fe
03
08
08
1a
f8
10
03
fc
07
03
07
05
ff
02
fe
01
05
00
02
04
02
fc
ef
01
f2
fa
05
fa
02
ff
17
e1
ed
21
d9
e7
1f
df
e8
f2
ff
03
eb
04
03
fb
04
fd
fd
f8
04
02
fb
03
02
00
05
fc
f9
f1
18
05
fc
15
07
fd
05
00
05
f7
fc
fe
01
f9
fb
00
0a
04
05
05
00
05
01
fb
03
f1
01
04
ee
03
06
ec
02
00
0d
29
00
0f
26
09
17
2d
01
27
f9
07
24
f4
04
25
eb
fe
fb
fa
fe
fd
fb
ff
ff
0d
f9
fe
1e
f9
05
f9
fd
06
0c
06
08
fa
09
06
01
03
00
fa
f9
fd
fc
fd
01
02
03
06
0d
1a
0a
0e
1a
0a
fc
23
0f
fe
09
e8
01
0e
eb
07
0a
eb
05
fb
fb
ed
ff
03
fe
ff
05
fe
e1
ee
fe
e8
f1
03
ec
ec
00
f4
f9
ef
f6
f7
fb
fb
ff
06
fa
fc
08
f5
fd
03
fc
08
1c
f3
fc
0a
fa
02
0c
f8
01
0c
fd
f9
f5
fb
f8
f5
fd
ff
fc
fe
00
04
fc
fe
fe
fb
fa
00
03
00
03
ff
fd
fe
02
01
fd
1c
1c
10
10
1d
1f
2f
40
33
1d
29
28
1b
27
1a
16
1a
08
05
04
03
02
02
fe
03
03
fd
0e
0f
05
06
0b
07
12
14
15
01
fc
f7
fd
f9
f8
fd
fb
fc
03
02
03
fa
fc
f8
f5
f5
f8
12
18
05
17
1c
0a
0d
10
0c
fe
fc
fa
01
ff
00
06
ff
01
04
07
09
10
0b
15
02
02
00
0a
fb
07
f6
ea
f5
09
09
13
fe
00
03
fd
06
fa
07
0d
13
07
01
02
f9
01
f3
f8
f9
f9
02
ff
f6
fb
f9
f3
0b
0a
0f
f4
f5
f1
f9
fa
f9
04
08
05
08
08
06
01
ff
01
00
01
04
01
f8
ec
02
f9
f0
06
f9
f7
fc
f5
fa
00
0c
10
14
1c
25
f8
13
f2
12
16
13
19
1a
1f
01
f6
ef
05
ff
f9
07
04
00
ff
ff
fe
06
03
0d
05
00
0c
01
04
ff
fe
04
01
01
04
fd
fe
00
ff
f3
f3
fd
11
0c
10
09
ff
08
06
05
11
16
1c
1c
0b
09
05
04
06
07
03
01
ff
f2
f3
f5
fb
f9
fa
fb
f5
fa
f5
f0
f3
08
fa
fd
0a
fa
fd
f7
f8
f6
07
04
00
f3
f9
f5
05
08
02
11
0e
0e
2b
25
25
08
03
06
00
00
03
fc
01
05
00
02
01
00
fc
f6
03
01
fd
02
ff
f9
06
04
f6
07
02
f1
fa
fe
01
fa
fb
04
f8
fa
fd
fd
03
01
fe
0a
04
f9
0f
ff
e6
23
30
ef
18
40
f8
16
33
fc
fa
00
fc
fb
fd
fe
fe
fb
f5
02
0e
f1
00
08
fd
fb
11
19
07
fe
14
05
f7
17
02
f7
03
04
fc
03
07
fd
05
07
fe
01
00
05
00
00
0a
08
0f
08
0b
fb
f8
0b
f5
f6
15
f7
fd
fb
f6
f9
fd
fb
f4
04
fa
00
fb
fd
fd
fa
f9
f7
f6
f6
f4
f8
04
f0
fd
05
fd
01
07
ff
08
07
fb
05
06
01
0a
04
04
f0
04
11
fc
0c
0e
f8
10
0a
01
0a
05
fd
02
0b
ff
fe
07
fa
f8
fb
f6
f7
fa
f8
f7
fb
fc
fc
fe
fd
fb
fa
03
00
fd
3c
30
30
34
2e
32
2d
29
31
23
26
22
25
29
2a
2c
25
28
fd
fd
fe
ff
fc
fc
00
fe
fe
28
23
1c
1b
1c
10
1d
20
18
f4
f5
f1
f4
f6
f4
fa
f9
f6
fc
fc
fa
fd
fe
fd
fa
fd
fc
12
14
0d
14
15
14
23
1d
1f
f7
f7
f6
fc
f8
f8
03
fe
fe
0a
0d
11
0c
0e
0a
0e
0e
0b
db
e1
dc
d6
d4
d8
e2
e2
e2
14
15
13
15
14
11
12
12
12
f5
f3
f3
ef
f2
f3
f6
fa
fa
11
0b
06
09
07
01
13
11
0c
f6
f4
f7
f9
f7
f9
f9
f8
f9
ff
01
fe
01
01
fd
fe
00
f7
05
fd
08
09
ff
07
0d
01
0a
07
12
07
01
03
04
ef
fb
f7
14
10
06
fd
ff
fb
fc
0e
02
00
fa
0a
fb
fa
04
fe
f9
04
13
14
18
12
0e
15
01
05
04
fe
fd
fa
f9
f8
f9
f8
02
fc
f7
f9
fb
01
fe
fe
26
26
29
04
fc
03
fb
fe
00
03
0b
0a
fb
f8
fc
f9
f8
fe
00
fe
fd
f9
f7
02
07
06
06
01
03
04
0e
fb
f4
07
ee
eb
fc
e7
ef
02
01
06
1b
1e
21
0e
10
0c
f7
ee
f5
fb
f8
fd
11
12
17
13
0f
0b
06
05
ff
08
02
fe
f4
f2
fa
fc
01
fd
02
fe
00
fe
fe
fd
ff
fe
03
07
fd
05
01
ff
f2
00
ff
f2
10
12
0c
15
22
20
ff
24
07
f9
fc
25
f6
0b
09
0b
1d
1e
17
23
1b
ff
f5
f5
08
02
09
0a
0a
05
04
02
0b
12
11
23
09
0e
19
fe
fe
fe
f7
f9
fd
fd
f9
fb
09
09
08
ff
f9
f9
fe
ff
f2
0b
06
f9
0f
02
04
13
0a
11
fc
00
02
fe
fe
01
01
ff
03
fb
fd
fe
fd
fd
f5
fd
fe
07
04
fa
04
10
f4
3a
0e
fb
07
0e
06
fc
f6
f9
f6
03
f7
02
06
02
f5
00
f6
f7
f4
fa
f9
03
02
07
11
10
04
03
03
fd
f8
f9
fb
03
0b
09
f5
00
fe
f9
f8
fb
f7
f8
f8
00
01
02
fe
fd
fb
05
01
fe
0c
09
03
35
36
35
2c
29
26
23
1f
20
30
30
31
2e
32
32
07
ff
06
03
ff
fc
04
fe
ff
f8
f1
f4
14
0f
02
12
12
12
11
15
19
f6
f7
f9
f8
f8
f6
03
ff
01
00
00
00
fe
ff
fc
f3
ef
ee
15
19
18
1c
1d
1f
01
01
03
f9
f8
fa
00
ff
fd
07
04
03
0b
0b
0a
0b
06
06
0f
0c
0d
e9
e1
e6
e7
e9
eb
f4
f5
f2
0c
11
0f
10
09
0b
ff
02
f9
ee
f0
ef
fa
f8
f9
00
01
fd
0a
0b
0a
0d
0b
0c
16
0f
17
f9
f6
f6
fd
fc
fb
0c
0d
0d
04
fc
fa
06
fd
fd
02
01
00
02
06
01
02
00
fd
07
fd
fe
fe
0f
10
01
1b
16
14
1f
14
ed
06
0b
1a
30
23
22
d5
26
01
03
06
ff
05
06
01
02
ff
01
01
fc
02
05
03
03
0a
04
ff
03
00
fc
fc
f9
00
01
fe
05
fc
fd
01
fb
fe
fd
fb
01
09
0a
12
17
11
0b
1f
e3
08
05
fd
fd
08
fc
fe
07
01
01
01
fd
fd
fb
fd
00
ff
fd
fe
05
05
03
00
f1
fb
09
f4
fe
ff
02
fb
fa
ff
f8
ff
03
f6
03
ff
04
fc
f6
fd
00
03
ff
f2
fb
00
01
03
fe
fb
0b
04
fc
fc
02
fc
00
07
04
03
06
fa
fb
fd
fd
fa
fc
03
fa
fe
00
00
1b
02
05
16
fd
fb
24
00
fe
03
fa
f2
02
01
f5
19
02
11
f9
f9
0b
0c
0c
16
04
0e
09
17
00
04
16
fd
0c
1a
09
11
0e
04
11
01
ff
10
05
fa
01
f6
ff
05
fe
fe
00
fe
fd
00
fe
fc
fd
fd
03
00
fb
0a
08
0b
fa
fe
02
10
10
0a
09
00
fb
0a
fe
fd
05
fa
fd
fa
f6
f2
02
fe
fa
fa
05
ff
09
0b
02
0e
0e
02
00
f0
f4
01
fc
e9
08
00
f5
f0
f4
f0
06
06
04
07
0f
0b
ef
ff
f8
03
03
0e
f4
02
04
03
01
02
03
06
08
fd
fe
00
fa
fc
03
f6
f5
f8
f6
f1
fa
f6
f4
fb
05
01
fe
07
02
fd
0e
0a
08
33
2c
32
34
2d
2f
2a
1e
27
1c
24
20
1d
25
1d
20
2f
1c
04
fc
01
05
fe
ff
01
fc
fc
21
1d
1a
19
13
0d
0d
0e
0e
f5
f8
f5
f9
f6
f7
fd
f6
f6
fa
02
fc
fb
03
fe
f7
00
f9
0a
15
05
16
1c
0f
1b
24
0d
fb
f8
f5
fe
fa
fb
07
00
00
06
05
06
06
05
07
03
03
06
f6
ee
f0
e8
e4
e4
ee
e5
e7
0a
0b
13
0c
07
12
0d
06
09
f1
f0
ee
ee
f2
ef
f6
fa
f6
0d
0b
01
0c
0c
04
07
0b
03
f9
fb
00
fb
fd
00
f7
fd
fa
fa
fa
fa
f8
f9
fa
00
01
ff
fd
fc
fc
02
fe
ff
04
00
03
17
1e
36
1d
1c
25
0d
0e
1b
1f
29
26
1a
1c
1b
17
1b
20
01
03
02
04
03
05
f9
f9
fb
09
12
0a
04
12
13
07
18
20
fb
f4
f7
fc
f6
f6
06
fc
f8
fc
fd
fb
fc
fc
fb
ff
f9
f9
10
08
13
13
0a
0e
21
15
27
f7
f8
fc
00
00
01
01
01
00
0d
15
0f
10
01
09
0b
0d
0e
da
e8
e0
e7
ed
eb
f0
f4
fb
0f
0d
0d
13
10
0e
05
03
01
f0
ee
ee
f7
f7
f6
ff
ff
ff
0b
f4
fe
0f
16
0a
10
21
18
f4
fe
f9
01
f7
f5
0a
0a
03
04
ed
df
02
f3
c0
fe
f1
eb
f2
04
14
f3
ff
13
f8
01
11
fe
f2
ef
f7
e5
f3
fa
f8
08
f4
ff
fe
e8
f2
f1
f3
fd
fe
f8
00
37
f3
f7
40
f9
fe
36
fc
00
fa
f8
fc
f5
f6
f8
f5
f9
02
ff
f8
02
fc
f9
02
fb
05
fe
ff
07
00
04
09
04
06
fe
fa
fc
ee
f2
01
e7
f2
04
04
04
01
04
04
fd
00
00
f9
fb
fd
f6
03
08
02
fe
03
05
f9
03
09
f3
f8
04
e8
ee
f8
fb
fd
ff
f9
fa
fb
fc
ff
00
ff
fe
02
fe
fd
07
04
01
0c
ff
f7
eb
fe
fa
e8
fd
01
ec
02
04
05
01
01
03
fe
ff
02
02
fd
f9
fb
f7
f2
fd
fa
f7
04
04
fe
09
03
ff
0c
03
ff
1e
26
21
1c
2d
25
20
29
21
18
1c
29
14
1e
21
15
2f
19
ff
02
04
08
03
07
05
fc
02
16
10
14
11
17
18
0e
14
17
f9
f7
f3
fd
f9
f8
fd
f9
f6
fc
f9
00
ff
fc
f7
09
02
02
01
02
0d
02
1b
11
1b
24
1e
fd
f9
fa
ff
fb
fa
04
fe
fe
0c
0b
0b
0d
0c
0b
08
04
06
f4
f3
ee
ec
f2
ed
f2
f6
ef
09
08
14
12
19
10
01
01
04
f0
ef
fa
f6
fa
f7
fd
fa
01
00
03
fc
fe
01
04
04
05
0a
fe
fa
f9
ff
00
fc
00
01
fd
fa
fb
fc
fa
f7
fb
fb
f7
fa
00
02
fe
01
00
fc
07
00
fe
19
33
28
10
39
2f
08
33
25
23
1b
1c
0e
18
0e
23
16
1e
fc
fd
fe
fb
ff
01
00
00
01
11
24
19
05
1c
0d
01
14
1a
f9
f7
f7
ff
de
fa
fe
f7
f5
fe
ff
fb
01
01
fc
01
fe
fa
f2
0a
0a
0b
1b
16
14
1d
19
f7
f8
fa
fb
f9
fe
ff
ff
01
05
06
09
0d
0b
0e
0b
0a
07
e3
e0
e4
e0
dd
e0
eb
ea
ef
12
0d
0e
12
13
10
09
0b
07
f2
ee
ec
f6
f8
f3
fc
fb
fb
0e
04
fe
09
0a
04
0a
0c
0c
f9
f6
f4
f8
f7
f7
fc
fa
fd
01
06
ed
fe
06
e5
00
09
de
0d
fa
dd
0e
f6
dc
01
ee
e0
02
05
ef
fa
f8
ee
03
10
15
07
fb
12
04
f5
03
fb
ea
fe
0a
fb
db
05
f5
d7
fe
f7
d7
fe
f9
01
f3
ff
fd
fb
0a
00
ff
ff
01
fe
02
02
ff
02
fd
07
04
fb
fe
ff
fc
ff
ff
ff
06
f8
fa
fe
fa
f5
ff
00
ff
05
ff
fc
05
ff
fe
08
fe
fb
f6
f3
fd
fe
fe
09
fe
ff
04
11
06
07
08
00
f4
0d
07
05
fe
ff
fb
07
02
fc
0e
09
0c
0a
07
ff
f9
04
fb
fd
05
01
04
00
08
08
fa
ff
00
02
0b
02
02
07
fc
02
05
00
02
02
fb
01
fe
04
ff
ff
02
03
02
02
fb
fe
fb
02
05
fe
01
01
0c
0c
0e
f8
fc
f9
14
0f
13
04
08
19
00
1c
21
06
23
20
06
02
fa
fe
05
fe
ff
fe
f8
f7
07
12
04
02
05
03
05
08
08
05
ff
05
00
ff
01
01
02
fd
fb
ff
fc
ff
fe
fc
fc
fe
05
09
0d
0c
0b
04
03
03
08
06
02
fd
08
02
01
00
ff
fd
00
fa
f8
0e
0a
0c
fc
ff
fa
0e
10
13
03
0a
04
f4
01
0d
f9
ff
f9
f0
f5
f7
fd
fe
f8
f9
fd
fd
f3
fa
fe
fa
00
fc
06
03
0e
ec
ef
f0
0b
0c
0d
01
fa
fd
f6
fa
00
f9
01
02
00
ff
fe
01
fd
00
06
fe
00
fd
02
0a
fe
04
0c
f8
00
0c
14
0c
fe
00
fa
fa
0b
18
18
0b
05
f8
1c
1b
16
1d
21
29
f5
fe
04
fa
04
07
fb
07
08
fe
05
04
00
04
fb
00
00
fc
fd
fc
ff
fd
05
03
ff
fd
fb
fc
ff
05
fc
fd
fb
f9
fe
02
09
15
07
0d
08
ff
19
17
1b
00
fd
01
fe
02
01
04
ff
f9
ff
f6
f8
f7
f6
ee
fc
f8
eb
f6
01
0c
00
ff
07
fa
06
10
f6
f6
f5
fa
fc
fa
f4
ef
ef
03
05
04
05
07
ff
f6
ff
ff
09
02
06
ff
fc
fc
07
02
00
02
01
02
01
01
09
fd
ff
fc
01
ff
ff
01
01
04
02
02
06
f9
f8
00
ff
f9
fe
02
00
00
00
0c
17
ff
ff
01
fd
fd
fe
f9
f5
0a
12
0d
0d
09
09
01
04
05
04
0a
06
05
fe
fb
fe
0b
05
ff
0a
06
fb
03
fa
05
fb
03
01
04
06
01
ff
04
ff
01
ff
00
02
fe
f8
02
01
fc
04
08
11
01
07
01
f3
f5
f0
01
fd
04
fe
fb
fe
ff
fc
fe
f0
f9
fb
ef
f0
ef
ea
f0
f3
10
02
0f
f6
ed
04
fa
e7
f8
fc
f9
f7
f4
fa
fd
0a
0c
0c
00
f6
f8
08
01
04
04
03
fd
29
29
25
ef
e0
e2
02
03
03
18
11
0e
09
05
08
fb
fa
fd
05
f2
09
08
f3
05
02
ed
09
01
08
f2
fa
0b
f0
f3
0b
f9
01
f8
ff
fe
f7
02
14
f3
07
ec
f5
08
f0
ec
02
e1
e2
f5
08
f1
21
fc
f0
25
fc
f2
1a
f0
08
03
e7
f9
f9
f9
01
04
fb
fb
03
f8
f7
fd
fb
fc
01
01
00
00
02
03
01
fb
fe
fc
eb
f3
f6
e3
f4
f6
ec
ea
f1
03
ff
06
ff
fd
02
ff
fe
03
f2
f2
e8
07
05
00
03
f8
00
09
07
e2
eb
f6
d8
04
10
f1
ff
01
ff
f8
05
00
0d
18
17
01
00
fb
f4
f6
f3
03
f8
fb
fc
04
01
ff
06
05
02
09
fe
02
0f
07
02
06
02
fe
03
fe
01
02
fd
01
00
00
fc
fa
00
ec
06
0c
eb
01
09
f2
fc
08
08
f0
f1
09
f5
0b
fb
0c
17
07
0e
02
0a
01
00
f9
01
ff
fe
09
08
f8
02
04
fa
01
06
00
0d
f6
f9
05
f0
fe
04
fb
04
e8
f3
06
f8
f2
00
fe
f2
02
00
00
06
07
07
08
07
01
0e
00
fc
09
09
06
00
09
07
00
f0
f9
04
f4
fc
fa
f5
f9
05
05
f6
02
08
fc
00
0c
02
e7
d9
10
cd
e8
fd
d2
f3
02
ed
fe
ff
fe
06
f9
00
02
fc
09
f6
01
0a
fe
06
04
fa
04
f1
e7
ee
02
01
f9
fb
f5
f3
fa
ff
fe
fe
ff
fd
fe
03
07
02
00
fd
00
01
ff
03
01
fc
fb
00
06
04
04
04
fd
fe
ff
f1
e8
ec
f7
e9
e2
eb
e4
f2
02
05
f6
e9
e9
ed
fc
00
06
f6
ff
05
fc
fe
02
fb
00
06
02
f9
fc
e8
e8
ee
fc
fc
f4
fd
ff
fd
fd
01
00
03
08
ff
ff
00
ff
fe
00
00
06
07
08
ec
e4
e0
f3
eb
da
ee
f4
f3
ff
01
ff
fd
ff
fd
03
08
05
de
db
df
d2
d7
d9
09
0c
0f
da
ed
f6
fe
f1
eb
f6
f0
eb
fc
01
03
04
06
04
ff
fe
02
fd
ff
fe
00
00
fe
07
06
0a
ee
e6
f1
1f
16
23
ee
ec
e6
e5
e5
e3
ef
eb
ea
e9
ee
e9
ff
01
02
00
05
05
02
04
01
fd
fd
fc
fd
fd
f5
fb
fd
f4
f9
f6
10
f4
f1
0c
f5
f4
16
f3
f8
14
f4
f6
15
ee
f8
12
fe
ff
ff
fd
ff
fd
fc
fb
fd
f7
f1
f8
f4
ec
fc
05
ef
ff
12
0c
06
12
0e
00
15
15
fe
07
00
fe
05
03
ff
08
08
09
f2
06
00
e5
fd
f9
e2
02
0c
14
10
f2
17
0d
f0
1a
18
ee
f8
f1
fe
fd
fb
07
00
03
04
03
de
02
fa
e3
f5
ee
e7
ec
00
fb
07
06
02
08
07
0b
0b
01
00
fe
fc
02
ff
01
0b
0a
01
f6
01
03
fa
ff
04
f7
06
0a
0e
0c
03
04
0c
03
00
0d
01
00
00
01
fd
f7
05
00
f8
00
00
fe
04
06
03
02
01
02
01
f6
06
ef
ed
02
05
12
17
fa
04
0b
fc
f3
f6
fd
f2
05
00
fc
fd
00
fd
01
00
ff
04
fd
fc
fe
fe
fe
02
f9
f5
ff
02
01
fe
01
01
03
05
01
fe
fc
fa
fa
fd
f9
fa
27
2c
29
fa
eb
f8
ea
df
f4
08
fd
01
08
02
ff
04
04
fe
06
03
fa
f7
fe
ff
06
07
fe
ff
f6
ef
f0
f5
ff
fb
f4
f6
f4
ed
f7
05
01
fd
29
20
28
ea
e1
d8
f9
ef
ed
0b
04
0a
fc
01
02
03
09
08
f7
f6
f9
f8
fd
05
03
01
00
05
03
fe
02
02
02
01
02
fd
03
01
ff
ff
fd
fc
00
fe
06
02
ff
09
03
00
06
fb
f7
ee
df
de
e1
f2
dc
e3
f9
e4
f2
00
0c
0c
df
d6
d7
fe
01
07
f5
ff
07
f6
00
07
f3
f6
fd
f3
f6
f3
00
fa
fb
fd
00
04
00
01
ff
fd
fd
fb
fc
fd
fe
ee
ea
eb
d8
d9
d4
f6
ec
e6
00
f4
ef
e3
d2
df
ff
00
04
fa
ff
01
fa
fd
fb
f9
f9
fb
fe
05
06
05
03
03
ef
f3
fd
e7
ef
fa
01
05
08
f8
fb
f7
e4
e1
e4
33
34
40
f3
f0
f5
d0
cd
cf
fd
fb
fe
f4
f7
f6
fb
fc
ff
03
01
f7
07
04
03
ff
00
03
01
ff
fa
00
ff
03
00
02
06
03
05
03
fe
fe
0a
ff
03
09
fe
00
08
fb
ef
05
00
e7
f5
17
ec
f7
ef
e9
01
f2
e8
09
ee
eb
04
fd
03
02
00
02
02
ff
05
04
eb
f2
f6
e3
ec
f5
fd
f6
f8
df
0b
07
dc
09
05
dc
15
08
fe
03
f9
ff
07
fe
09
0b
08
f0
eb
0e
e5
db
03
ed
eb
04
f4
13
0d
f4
14
0c
f6
17
0e
ea
f6
f8
fd
03
08
08
09
0a
0a
03
ee
0b
fc
f7
10
f7
f7
ff
fe
02
01
fe
07
08
fc
0b
f9
02
00
ff
01
03
06
06
09
0b
03
fd
02
fd
fd
01
f9
fd
03
08
12
ff
fe
0b
fe
fd
ff
ff
08
ff
01
06
ff
02
03
fa
03
f0
04
04
ef
03
04
eb
fd
fd
16
2a
ff
17
1b
04
18
0e
00
19
07
ff
1f
1e
04
1f
21
fb
f9
ff
fb
fb
fc
fd
fd
fc
fb
01
18
f6
06
0c
fa
09
1b
07
01
fb
07
03
fd
03
01
fe
fd
fd
01
fe
fa
fe
01
01
01
10
fe
12
15
04
14
1c
05
13
09
e9
fe
0d
df
01
0d
e8
01
fe
fb
04
04
02
06
06
fe
f9
e7
f3
fd
e7
ef
01
eb
e6
ff
fc
ff
fb
fc
01
f7
fc
02
f1
01
fc
04
00
ff
04
00
06
06
f5
ff
0f
f5
02
0e
f6
07
0e
03
03
fd
fc
01
01
fa
04
02
fc
fe
fc
0a
ff
01
0d
01
fe
08
fb
fb
01
ff
00
02
f9
00
0c
17
13
08
1a
13
10
22
0c
32
28
1d
2c
2c
1d
29
26
1d
04
02
01
fc
fe
09
f8
fc
07
0b
f9
14
08
fd
17
05
f9
02
07
04
03
00
05
03
f5
01
04
f9
04
00
fe
07
01
08
09
00
fb
14
0c
04
1b
10
fe
1e
19
09
08
07
01
0e
03
fb
05
05
ed
f8
f7
f6
fd
f3
f7
f5
ea
01
0b
09
f7
01
fb
ee
f6
08
00
f8
fb
f7
f5
fa
f3
f8
08
fe
ff
00
02
01
00
06
0b
06
f6
fd
00
09
03
06
01
ff
0f
fd
ff
07
03
ff
07
01
fd
0a
00
01
fc
06
05
fd
fc
fe
fe
03
02
02
fc
fc
fe
fb
fd
fe
ff
f2
e5
02
f5
f8
00
ff
0c
f4
ea
f0
fe
ff
04
f2
f0
ef
fd
fe
03
fb
fb
03
fd
fd
fd
f4
fa
ff
ff
fa
fd
f7
f9
fc
fc
ff
04
01
05
ff
fc
00
ff
03
06
04
02
02
00
08
05
07
f2
e6
e5
ef
ef
f7
ef
f2
f1
f6
fc
00
fb
04
04
f9
ff
00
e2
e9
e3
07
08
0d
1a
0c
0d
f7
f2
ef
03
00
f6
f5
ee
f2
ff
05
03
03
03
02
07
05
03
04
00
fc
04
02
04
00
fd
02
25
2c
2f
ee
ea
e3
ee
ea
ec
cd
c2
d4
e5
de
e6
ed
e9
e8
f9
f5
f2
04
05
ff
01
00
ff
ff
fa
01
ff
fb
00
04
02
01
03
04
12
04
f3
ef
e7
e8
e5
1e
18
0a
00
e9
e7
fa
f2
06
04
0b
12
00
fc
03
fa
fe
00
07
04
09
f1
f2
fa
ee
f0
f2
f3
f6
00
fc
02
05
fe
01
ff
fc
f9
fb
e0
d8
da
d9
cd
da
0a
17
16
f2
e8
ea
01
eb
ef
f6
fc
06
f9
01
05
fb
01
01
df
e3
dd
fc
02
01
05
0a
08
15
1f
19
e8
e8
fb
ed
f6
ff
f6
fb
f9
e4
cc
dc
fa
f7
fa
00
fc
ff
da
ce
d4
cd
c0
c4
08
07
02
f7
f7
f5
f9
00
02
f9
fc
0a
ff
01
04
fe
00
04
ff
fc
fb
fc
f9
f9
04
04
ff
09
00
fd
0d
fe
00
ff
f5
f7
0c
02
12
0c
04
0a
03
11
0d
0a
07
0e
15
0c
08
ef
f1
fd
fc
fd
fb
ff
fc
f6
ef
f0
f5
10
12
1b
0a
04
0c
03
fd
ff
ff
01
fe
fd
fd
fd
fa
fa
f5
f6
fe
02
f4
f4
fb
06
0c
12
0a
fe
07
f3
ee
e8
26
30
26
fb
fc
03
f8
fc
fd
ff
02
02
f8
fe
00
04
01
fb
f3
f7
f3
ee
db
f3
f5
dd
ef
ff
de
e7
0b
0c
13
0f
18
0f
dc
cf
cb
f3
f0
fb
f7
f5
f6
e8
ef
f0
f8
fd
02
04
ff
fe
0d
03
fc
fd
f9
fa
fb
fd
ff
0c
05
0b
00
fe
fb
01
01
fe
03
03
01
01
02
05
fe
fe
05
02
03
08
f9
02
09
e0
ef
f7
ea
ef
f6
ea
de
e6
f5
ef
ee
e8
d3
e7
04
02
05
fe
fe
05
ff
fd
03
fa
eb
eb
f4
e6
f1
e5
e8
ff
fb
01
03
00
05
05
02
05
07
01
05
0b
03
00
00
03
02
05
fb
06
29
fd
05
16
ee
e5
f0
00
02
ff
ff
01
01
ff
00
ff
e0
dd
e6
f1
e4
ea
e7
ef
ee
02
08
04
df
e9
f8
da
e0
e7
00
fc
fc
fc
00
03
06
06
06
03
00
08
06
08
0b
03
02
00
0b
0b
11
d2
d5
d0
1a
1b
2a
40
38
36
0b
0f
0b
f9
f8
fc
02
04
fc
00
00
f8
ff
01
fc
06
fd
01
07
f9
ff
04
f5
fc
f8
f8
f8
eb
f7
fc
03
12
16
03
f8
ff
f8
01
fa
00
fe
fd
01
f8
f7
fe
fa
f6
02
fa
f5
fc
fe
05
fa
fe
fe
00
01
06
00
00
01
fe
fb
fc
05
01
fd
08
05
02
03
fa
fd
1b
14
10
0e
f8
fc
f5
e9
ec
07
ff
0a
09
fa
00
0d
f6
00
0b
fc
01
ec
ed
f5
03
03
01
00
01
fe
07
02
14
fd
0f
0c
ff
08
0d
f5
f6
fa
09
07
08
f4
fa
f2
06
fc
01
0a
00
04
08
08
05
ff
fa
03
f6
f3
f4
04
fc
ff
fb
f4
f7
fc
fa
fc
08
05
04
07
ff
fd
02
fd
00
fe
ff
01
06
fe
03
06
00
05
09
00
06
0a
05
e5
f9
02
eb
09
0a
fa
00
ef
dd
f4
fa
ee
f6
fc
ed
08
fc
02
06
00
03
09
00
02
0c
fa
00
04
ed
fb
05
fb
04
f0
f8
08
f3
f5
0a
f7
f1
07
06
04
04
fe
ff
02
04
01
05
07
00
fe
f8
ed
f6
f3
eb
f7
ed
f8
08
ec
f8
0a
ed
f6
05
fc
f6
f5
02
01
02
03
00
06
e4
0a
06
f5
0b
08
03
0b
0a
00
fc
fd
05
fd
00
07
03
04
02
05
02
03
04
ff
03
07
06
ff
05
fc
f5
f7
f4
fb
fd
f8
fe
f5
00
00
fa
ff
07
06
ff
ff
02
08
fd
03
0e
fc
03
13
03
ea
f5
fd
e9
f3
05
f5
f0
17
08
0a
03
03
11
1f
02
17
0d
f5
fb
23
0b
01
0c
24
0f
05
01
f7
02
fa
f2
08
02
f3
16
fd
f0
10
fe
e3
0c
05
f4
fe
01
08
f5
03
04
f9
03
ff
f9
03
fd
fd
0a
02
fc
09
ff
17
0f
0d
0b
12
fe
09
15
13
f9
03
09
f4
05
07
f2
08
06
f2
ea
01
fa
f6
02
fc
fd
fa
0b
e6
de
03
f4
e0
22
03
f0
f7
04
07
fb
fd
f7
05
06
0a
fb
01
08
fe
06
fa
0a
0b
00
ed
f0
e7
10
14
00
09
06
f5
fa
00
fd
f6
02
f9
f9
03
05
04
07
19
fe
05
1f
00
0d
23
fb
06
de
fd
07
d9
ff
fb
d3
0f
07
ff
01
01
f8
fc
06
fe
fc
f6
ff
ff
ff
04
01
04
03
f9
f8
d0
ff
fc
cc
04
f5
cc
f8
f0
df
f4
ea
db
f3
ef
f2
03
02
01
03
02
fe
ff
02
fd
02
ff
fe
fe
03
fd
05
0c
06
0c
14
f1
08
04
ea
01
09
fa
00
00
05
02
02
02
00
01
02
f5
f2
f0
ff
f8
fc
0b
fe
08
ee
d7
f6
fb
c2
f8
fb
ca
f5
f5
0a
fe
fd
09
05
09
09
06
06
06
00
04
03
01
09
09
0c
f0
f8
fb
06
06
03
08
f9
f9
fe
05
02
fb
01
01
02
03
02
fc
01
06
fb
fa
ff
00
fc
fe
07
02
05
05
fc
02
06
01
05
14
1b
16
02
21
23
07
19
20
0c
30
26
06
15
10
03
0c
07
03
04
00
00
02
fd
04
06
03
0d
0e
11
02
0e
0d
0e
14
15
0c
01
f6
00
fa
f2
08
fe
f7
01
03
02
ff
fc
00
01
00
0a
05
0c
09
0d
18
19
06
0d
15
0c
fb
fc
0e
00
00
11
00
00
fe
05
09
0e
11
0c
fc
fd
fd
09
03
16
fc
f1
09
01
02
13
03
00
ff
0b
08
03
03
07
07
04
02
fc
fb
f7
f7
0a
0a
11
ec
f2
fa
09
15
0d
ff
03
08
fc
f9
f3
fd
f8
f8
fe
03
05
00
01
03
03
00
fe
07
03
00
08
00
fa
04
04
01
00
00
02
e7
ed
f2
d1
e0
ec
fd
09
0e
f3
f3
0b
d2
d9
dd
d9
e8
e7
00
fb
f7
02
00
fc
05
07
03
fd
f3
e8
f3
f1
f7
ed
e7
e4
fd
03
03
fa
02
04
ff
08
02
f9
fb
f3
fe
fa
fb
40
2d
35
ea
db
e3
c0
d8
cf
15
02
f5
00
05
01
fd
03
01
fb
03
fa
fb
fc
05
06
04
07
ff
f7
f8
f8
f6
f6
fe
f5
f4
e2
e1
e9
02
ff
ff
32
1c
23
e5
e6
dc
fa
fb
f7
12
0d
11
0c
09
11
fc
fb
f9
f7
f1
f6
00
fc
fe
05
07
09
05
03
01
03
03
02
03
fc
01
ff
f9
ff
05
fb
01
05
02
14
07
03
12
0b
04
14
06
fe
f3
ff
f6
f7
09
0d
13
f5
f3
06
f9
02
f4
04
03
01
01
06
10
00
03
0d
fd
05
0c
02
fd
02
fb
f5
fb
fc
00
04
e0
02
05
d8
01
04
e1
fd
04
fd
02
01
ff
02
03
09
08
07
fc
f8
05
f8
ef
12
fc
fb
17
de
03
0d
df
04
09
e3
01
09
fb
f5
fc
02
ff
06
06
06
0d
18
09
05
22
03
fe
24
06
02
01
05
02
0b
0b
03
06
09
fc
ff
fe
fb
01
01
00
05
07
0c
03
06
f9
f7
00
f0
03
02
00
f8
fd
04
fa
ff
03
06
01
02
03
fc
ff
01
fd
fa
02
fb
f9
03
fe
fa
01
ff
fd
02
04
02
1d
16
2c
10
17
28
00
0c
06
0b
19
26
fc
0b
21
08
0f
16
fe
02
fd
fe
03
fd
f8
ff
f9
21
21
1d
15
1f
0f
14
23
18
01
ff
f4
01
00
f6
06
04
fa
00
01
fe
fe
02
fb
f7
f9
f4
ff
12
0a
06
16
13
05
0b
03
02
fc
f8
01
fe
fb
04
01
ff
ff
08
04
06
f8
02
01
07
01
f3
ea
ed
eb
e4
e8
f3
f8
ea
0e
0a
0b
0f
0a
0a
12
0f
18
f3
f0
f7
f4
f1
f7
00
fb
06
0e
04
10
01
f0
09
08
0b
0b
05
09
fc
ff
fb
f6
04
02
fb
fa
fa
fa
f7
f7
f7
f8
f8
f8
fe
fe
fd
00
fe
fa
06
01
fd
36
3a
34
37
2a
38
22
1e
24
16
16
12
13
11
12
23
1a
29
05
02
03
05
02
02
03
01
01
1f
1a
17
16
12
0f
18
17
15
f7
f3
f3
f5
f1
f3
f6
f2
f4
fd
fc
fe
03
fc
ff
f7
f9
f4
08
0b
08
11
0d
1c
12
11
19
f8
f6
f6
f8
f6
f8
00
fc
fd
03
04
04
09
09
08
06
07
07
e1
e3
dd
da
da
db
e6
e5
e5
0f
13
16
0c
11
0d
14
10
18
ed
ed
f4
ee
e6
ed
ee
eb
f3
0c
08
04
09
06
04
08
07
04
f7
f4
f7
f9
f7
fa
fe
ff
00
ff
05
02
02
01
00
02
fd
fc
0a
05
09
08
05
05
08
04
09
ff
04
fe
f6
f3
fe
fb
fe
02
f9
05
02
ec
e8
f5
03
e4
06
07
ff
06
00
fd
05
ff
03
0a
09
fe
0d
02
fd
07
f6
f2
fb
fc
05
f9
ff
05
00
03
02
00
02
f9
fa
07
fa
00
22
2a
23
16
02
05
e6
d1
f6
ee
d6
fa
0b
fe
fe
0a
01
00
08
fc
ff
f8
fb
fd
07
04
03
fd
f8
f2
00
0e
0d
09
0b
fd
0c
03
02
02
fa
fc
19
21
1a
04
07
0b
ff
ee
f7
0a
08
06
0f
16
16
09
08
fd
f4
f7
ed
fa
ff
04
03
00
04
00
ff
fa
01
ff
02
f8
f5
f9
f4
f4
f7
f7
f5
f6
00
01
fe
00
fe
fb
07
02
fe
35
30
2b
2f
31
33
27
2a
2a
28
29
27
24
28
2a
2c
27
27
00
02
01
03
00
fd
05
03
01
28
27
20
1a
17
0d
1a
1a
0f
f6
f9
f9
f7
fa
f9
fb
fb
fd
fc
fc
fa
fc
fd
fe
f8
fb
fb
0e
0c
0a
16
1b
1d
1d
1c
19
f9
f8
fb
fb
f9
fa
01
ff
00
05
05
08
0b
09
0b
0b
08
07
e5
e7
e2
db
df
de
e5
e7
ed
0f
10
14
0f
10
12
14
11
12
f4
f1
f2
ef
ef
ee
f6
f5
f6
17
0f
0c
08
04
04
12
11
11
03
0c
06
f9
f8
fc
fd
fd
fd
04
06
00
fd
03
00
fc
07
03
03
fd
06
01
fb
08
04
00
08
fb
f9
f1
ee
f6
f3
fe
07
08
0a
fe
f4
f9
f1
ef
00
01
fc
03
00
05
00
ff
02
04
fe
fe
06
01
f8
03
00
f4
03
02
fa
df
dd
06
c0
e8
04
df
e0
01
ff
fd
02
ff
02
02
08
09
06
05
fd
fd
08
fb
01
fe
fb
fe
e3
eb
03
c0
ec
02
dc
e3
fd
fd
f8
f9
fa
00
02
fb
01
fe
ec
f6
fa
e8
f9
f8
e7
0e
06
fa
01
ff
02
00
fe
0a
0b
05
05
fb
00
03
fd
fd
12
0e
0a
fb
fb
fd
fe
f7
f9
08
fa
f4
02
ff
03
ff
ff
03
07
05
06
02
ff
f5
03
08
fc
ff
06
fc
fa
f9
06
02
fe
08
fe
fc
ff
ff
0a
12
05
f7
f8
01
f3
fb
24
14
14
11
0b
0f
07
06
19
01
07
06
05
05
0a
02
04
00
07
04
09
f5
f9
07
fe
fe
02
f5
fd
fb
fa
06
01
f4
06
fb
fb
00
01
f9
fb
ef
e5
dd
cf
14
1b
1b
ff
f9
fd
fd
ed
fc
0b
07
05
02
07
02
03
05
ff
ec
e6
ec
ec
f7
fb
07
09
0c
11
12
1d
f7
fe
0b
ff
06
11
ee
e9
ee
e7
e2
e7
04
01
07
07
08
04
f2
f4
ed
f4
ea
dc
0c
04
07
ff
fc
fc
ff
04
01
03
0a
11
f9
fb
01
fb
f8
fe
01
fd
f4
02
00
e6
02
ff
ee
05
fe
f4
02
01
f3
04
ff
f8
0b
fe
00
ff
fa
f7
02
0f
09
23
19
2a
16
06
26
fe
f1
06
01
fd
ed
01
fc
f3
fb
f6
f5
19
1c
14
01
06
fd
fd
fa
fd
04
f4
f6
04
fa
f3
0d
01
fa
05
00
fb
00
fd
f4
fd
04
fc
fb
f7
fc
f6
00
f9
fb
15
0b
02
f2
fa
07
f9
fa
07
f8
fe
fa
fe
02
0d
06
0b
02
02
02
f8
fc
ee
e5
f9
ea
ea
f7
e1
02
09
fa
06
0e
ff
fd
01
fb
fb
fb
f6
ef
f4
f2
ee
fb
f8
17
14
04
f3
f7
f1
11
0d
09
01
01
fd
fe
fe
ff
08
01
05
fa
f8
f9
f7
f5
f8
f8
f7
f9
ff
fc
fa
01
ff
fb
07
03
ff
37
35
34
2a
30
34
27
2d
30
22
2b
25
22
23
23
20
27
22
ff
fe
fd
00
00
ff
fb
f9
fc
1c
18
10
1b
18
0c
19
18
13
f5
f2
f4
f8
f5
f4
fe
fe
fa
fa
f9
f9
fd
f9
fb
fb
f8
f5
12
14
13
1c
1c
1b
21
1d
19
f5
f6
f7
fa
f8
f7
03
00
01
0a
0a
0a
0c
0e
0a
0a
09
06
d6
df
e2
db
df
df
e6
ee
ee
10
0f
10
13
12
12
0d
0c
12
f3
f0
f1
f2
f2
f2
f5
f6
f7
11
07
0b
19
16
0d
17
0f
11
f4
f6
f8
fb
f7
f6
fd
fc
fd
fd
fe
fc
fc
fd
fd
00
01
ff
ff
ff
fc
00
fe
fd
03
00
fe
1f
1e
0f
07
04
fe
1e
1e
1e
14
23
24
18
19
13
0f
0b
03
fc
ff
fa
ff
01
fa
fb
fd
fb
12
1b
10
0c
0b
06
01
01
01
00
01
ff
fb
fe
fd
fe
fc
fc
01
01
fe
fb
00
fd
fc
fd
f9
12
14
06
03
03
fc
16
12
14
02
fe
fc
fd
fe
fa
01
fd
fd
05
07
08
04
00
fd
03
fd
03
fd
fe
03
01
fb
fc
08
08
10
0a
09
0d
07
07
0c
f9
f8
fe
08
05
fb
f8
fa
f4
ff
02
fc
0d
0e
0b
07
fd
05
02
09
09
f8
f5
f5
03
ff
00
07
02
04
00
05
ff
fd
e7
00
fe
fc
fc
fb
fd
ff
fd
06
03
07
05
04
1c
21
28
05
03
1a
23
1c
20
1a
21
1a
19
1e
19
19
12
04
01
fd
06
00
02
09
00
fa
ff
0b
18
0d
0b
40
1d
01
1a
1b
f7
f7
f8
ff
f7
f9
fd
fb
fa
03
06
02
fd
fd
fe
ff
fe
fc
04
0c
13
23
1c
1a
22
15
12
fd
fb
ff
05
ff
02
03
fe
fe
06
07
09
0a
09
0c
fd
ff
00
f0
f4
f6
fa
fd
fb
08
0b
10
07
04
03
08
07
07
fa
fe
fd
f5
f5
f8
fd
fc
fc
fd
fe
fd
00
08
10
06
0d
0c
03
08
07
f5
f6
f6
fc
fa
f9
0a
0b
09
fe
00
02
00
09
ff
07
03
fc
fb
fa
00
fc
f8
ff
f5
fc
fe
00
f8
fe
08
03
0b
0b
07
29
fb
1a
25
15
17
1b
1d
2c
26
00
01
fb
03
fa
fe
03
05
01
01
01
0e
fa
fd
04
0a
02
09
01
06
ff
01
09
00
07
08
fd
00
fc
01
fe
04
02
02
01
02
06
fb
08
03
f7
09
fc
07
13
06
04
01
08
08
ff
0b
09
fc
fc
f4
f9
05
f8
f4
02
ff
f8
f3
fd
07
f2
f2
0c
f9
06
0c
fc
f1
fe
fb
f2
fb
f3
ea
f3
03
00
00
02
07
03
01
08
04
fd
f8
04
0b
0b
0a
03
ff
02
fa
02
03
f3
f4
fe
f4
fb
fd
04
00
fe
06
02
fb
05
f9
fd
fa
00
01
f0
07
06
ee
07
04
1e
ec
01
18
f5
0e
1e
02
1b
fd
04
0f
f9
f2
00
13
fb
0b
f6
03
fa
f6
fc
fd
fe
04
fe
fc
07
ff
02
fa
fa
08
fd
00
02
f9
fb
07
06
ff
17
0e
fe
05
fa
f3
01
00
f7
0a
0a
04
f6
f2
f7
02
fc
fd
00
00
00
06
fe
f7
0e
0b
fc
13
06
f0
06
04
04
07
0b
06
fc
06
fa
fe
e9
03
d2
ea
f5
de
fc
f4
f2
fb
fc
0b
06
00
0a
03
0a
ff
ff
fe
03
fe
00
0e
04
0a
0a
02
01
0b
f8
f9
06
ec
01
ff
fb
01
fe
fe
05
fe
07
07
32
2c
2e
23
1e
1f
1a
0d
17
ff
ff
01
fa
fa
fc
02
fd
01
fc
f6
fb
f5
f6
f9
f6
f8
f7
f6
f7
f6
f2
f4
f7
ff
00
06
f8
f5
f4
fa
f9
fb
f3
f3
f9
f5
f5
01
fe
01
0d
05
0a
10
f0
f2
f2
f4
f5
f8
f6
f5
fd
ef
f4
f4
f3
fa
f8
fa
01
02
19
18
17
20
1f
1f
0f
0e
10
06
08
0b
ff
01
07
f5
f4
fe
f3
f1
f6
ec
eb
f0
f9
fa
f6
10
0d
0c
ff
fa
f5
01
ff
fa
ed
ed
ea
eb
e5
ea
f8
ee
ed
01
08
05
07
0f
14
07
0b
19
1b
1e
18
1b
1e
1a
17
1e
15
f8
f4
f6
f8
f1
f4
f7
f3
f4
f2
f0
ed
e4
d5
d9
d7
cd
ea
07
03
03
fd
fb
f9
04
fb
fe
e9
fc
f0
ea
00
f2
e9
00
f3
06
01
02
04
ff
04
01
fb
fd
04
01
00
04
00
01
ff
fd
00
04
fc
06
ff
fe
04
f4
fa
fe
03
04
06
03
00
07
fe
fd
04
0d
ec
1d
0f
e6
1b
12
e5
1d
00
fb
ed
06
0a
e5
0a
09
db
fc
c0
09
f0
ca
f2
ec
e9
e6
0d
0c
08
06
06
06
03
00
07
fe
03
e9
fc
03
eb
ff
08
f2
13
0c
f7
0f
f8
eb
16
fb
f3
f7
ef
fa
02
f1
ed
12
f6
ef
f8
fc
fe
f3
f7
02
f0
f3
0f
cd
e3
fe
d8
e5
fa
e7
ef
f4
fe
1b
1e
f2
07
06
f7
04
1c
01
ff
06
fe
02
ff
fc
00
0b
fa
0b
0f
f7
06
06
f7
f3
00
03
03
01
ff
01
fd
02
0c
06
04
fe
05
fc
03
0b
06
f9
01
02
02
fa
f3
ff
fb
0d
0c
0f
0c
0b
07
04
08
10
17
05
fc
fe
01
fd
fa
fe
f5
fa
fb
00
01
f7
fe
11
c0
08
f0
f6
fe
f8
0c
0a
f6
05
0e
f7
0b
01
fe
ff
00
0e
06
02
04
0a
14
fb
fa
0a
02
f5
03
08
0a
0c
fb
f2
fc
04
fc
f9
fc
01
f8
05
ff
04
00
f5
04
fa
f9
04
09
05
06
04
c0
f4
21
00
05
10
f8
fe
16
f0
f8
fb
e4
ef
f6
ed
18
ea
ea
04
e7
f5
1d
fe
ff
05
ff
fb
08
fa
f6
05
ed
05
f5
f3
ff
f8
f7
03
f7
01
ff
01
fe
fd
01
fe
fe
02
01
05
06
fa
01
fe
fb
03
03
01
02
02
ff
01
00
07
06
04
fe
fd
fa
fa
fd
fd
ff
01
0a
fd
f8
28
fc
f8
2d
fe
f7
33
04
f9
f2
00
05
ef
ef
ed
d7
f5
f3
ef
f6
d3
ed
fe
d1
f3
04
0a
06
05
0d
01
fd
0d
fb
f6
fe
dd
f4
07
eb
f5
04
eb
09
0a
12
f5
ed
03
fa
f0
08
f0
fa
e1
03
f5
dd
1c
fe
dd
0f
01
06
f7
fd
f6
ed
07
07
e1
ef
ec
d6
e2
ea
ca
f4
e0
f3
12
fe
f4
0b
04
03
12
15
f8
f9
fb
03
fe
f2
10
0c
06
fb
04
fd
f4
00
f9
f3
ff
fd
01
01
fd
03
04
03
ff
03
04
ff
04
09
01
01
01
fc
04
fb
fe
f9
fa
05
08
07
fc
fb
fb
0b
07
00
fb
f9
fb
fd
f9
f8
02
15
ca
02
1b
c0
03
18
c7
f5
ee
e6
f6
e9
e6
ef
ec
f3
01
06
ee
f0
ff
f0
01
ee
ea
ff
00
00
02
00
ff
ff
fb
05
12
fb
1c
12
fc
20
13
fb
1b
0a
07
11
0b
03
0b
fc
0f
12
09
f4
e4
f4
e9
fc
f1
e8
04
07
09
00
04
06
0b
00
0a
08
06
fa
e1
fb
f1
de
fd
f2
d4
e7
e5
e9
ed
ef
f3
2e
14
1e
22
28
31
eb
e6
ea
0d
04
03
f3
fc
f4
f2
01
01
fd
fb
f5
fe
fd
fa
00
02
01
fd
fb
fd
d9
e2
e6
d9
da
e5
ee
fc
fe
05
03
01
05
02
fe
f8
f9
f5
e6
eb
f2
eb
e2
ee
ef
00
fd
fb
f9
f9
f9
fc
02
02
04
10
ef
dd
e7
f8
fc
f7
ed
ea
ed
f9
ec
f3
02
03
fc
1d
04
16
03
02
02
df
dc
db
0e
01
f7
f9
fa
01
fa
fc
03
02
01
07
fb
f4
f5
f9
f6
f5
35
1d
07
0e
0a
02
11
fd
e8
0a
08
f7
e4
da
df
ea
ed
f0
0e
fb
ff
04
05
fb
f8
fa
e9
ff
01
eb
27
24
25
13
1b
20
23
20
1c
06
06
05
fc
00
13
f9
f2
f6
fe
fe
07
fa
fd
fd
fa
fe
fe
ff
f8
fa
fc
fb
f5
fc
fb
fb
fc
fb
ff
fd
fa
fd
fb
fb
fe
fb
f9
fa
f9
fa
fb
fa
01
03
fd
01
fe
fb
fd
fc
fe
00
fe
ff
00
02
fc
fe
f8
fa
00
f5
06
0c
fe
19
09
0c
19
17
0e
0e
06
06
03
04
fd
fb
05
f6
fd
ff
05
f8
fe
01
f4
f7
fa
0d
07
0d
09
03
06
fc
f7
09
0b
09
05
fe
fd
fa
ff
f6
f3
04
04
14
08
06
07
0e
17
0f
12
10
12
0e
10
0f
11
16
13
f9
eb
f8
f5
ec
fc
f2
ea
f6
12
05
15
06
f9
00
f3
f0
fd
04
0c
0c
07
08
ff
06
04
02
ec
ff
fa
ed
01
fe
f5
05
f5
f8
fa
f9
ee
ee
ec
24
31
31
09
0a
0c
fe
02
01
00
02
06
f3
f3
f8
0c
14
0f
11
16
18
04
0d
09
04
05
fe
03
04
0d
05
ff
0d
fd
01
14
01
f6
04
12
0c
0a
f9
fd
f3
fe
00
e1
0f
06
0d
f9
e4
ec
fb
f7
fc
ff
fe
ff
ff
fb
fa
02
02
06
04
04
08
00
ff
fd
f8
03
01
1e
16
0a
12
16
0b
e0
cd
d8
0c
0b
08
e9
dd
dd
f7
f0
ff
17
28
19
0d
19
f8
f1
e6
dd
00
09
fc
f4
02
ee
fa
06
ee
06
25
33
08
1b
28
08
04
12
02
fc
03
f9
fa
fc
ff
04
04
f4
fd
02
fe
f9
06
fe
00
08
f3
00
05
ff
02
01
01
01
03
fa
02
00
fd
01
02
fb
fe
00
fd
00
01
fc
ff
ff
f9
fd
fa
08
03
03
fb
fc
fe
fb
fe
04
ea
0d
e2
ec
0b
e9
e7
0a
e9
fc
fd
14
03
fc
18
f9
02
1e
f4
1f
de
f7
14
e2
01
15
ec
10
03
06
03
fe
01
fb
03
fd
04
fe
02
04
f8
00
fd
ed
00
fa
f7
fb
f5
f5
ee
fd
07
fc
0a
f1
fa
07
f9
01
06
f9
06
fb
02
06
f2
ff
f8
f4
0d
ed
24
f8
d9
22
ff
e2
32
06
de
f9
fc
fe
ed
e9
ea
10
08
09
28
2b
35
f8
f0
f5
0a
08
01
f4
ff
f8
ea
fb
fc
fd
00
fd
06
06
00
00
04
ff
01
03
0a
fa
fe
f9
e6
c0
ed
f1
f9
fd
04
02
00
00
02
ff
04
03
08
df
d7
dd
ec
d4
eb
f5
fd
f8
00
00
f5
fd
02
01
0a
0a
08
e8
d5
ca
01
f7
f1
fb
f1
eb
fb
eb
e6
fd
f7
f4
23
05
07
12
16
15
f4
d8
e2
02
fe
f9
f6
fc
03
f8
fa
fc
fe
05
05
f9
f4
f8
ef
f9
f8
21
19
15
04
fa
fc
0d
fd
f9
0f
04
fd
e7
df
e6
d9
c7
ce
0d
fc
fb
02
00
ee
fc
fe
f1
01
fe
fa
18
10
1a
0b
0e
11
05
0d
0d
02
06
0b
0a
1e
10
ea
f1
f7
ef
09
fa
ec
05
f3
f7
09
f8
fe
fe
fa
fb
fe
f9
fb
fe
fc
01
f7
00
f8
fb
fa
fa
f4
f9
f6
f9
fd
04
01
fc
0c
0e
0f
f5
ff
fa
02
0c
0c
ff
05
ff
ff
fa
0c
f9
f8
09
f8
f3
0b
0a
03
09
2c
27
24
00
09
ff
10
fc
0c
1d
0d
0f
25
1a
1e
10
16
0e
fa
fe
f4
e9
f1
f6
13
0c
10
06
04
08
fe
fb
ff
15
0d
fe
f2
f8
e3
fd
0f
fe
01
00
0f
13
15
19
10
11
12
08
f7
03
11
16
07
19
21
11
00
1d
de
f9
13
d4
f8
15
d7
3a
29
23
1c
17
15
0f
0a
0e
05
04
09
fc
fe
fc
03
01
00
f4
01
f7
eb
fa
f3
fd
04
f1
f8
f6
f7
f8
f5
f5
03
05
01
fc
f4
f7
ff
f8
f9
03
fc
01
f9
fe
02
fd
01
00
0d
0f
16
fc
fa
f7
fc
fd
fa
fa
fb
00
f4
f5
06
f8
f3
0b
00
f0
0f
13
0a
0e
30
28
1e
0b
0a
fe
0c
1d
37
01
03
15
11
1c
27
01
07
fa
f5
f5
ed
fc
fb
fc
16
0f
0d
0f
09
08
07
01
00
15
10
05
f5
f8
ee
0b
13
04
00
12
19
fb
0f
0e
08
14
13
1c
20
1d
0e
15
14
0d
11
11
f4
0c
de
f1
10
de
f9
20
dd
22
f3
12
17
00
0b
13
f8
09
f8
00
fc
f8
01
06
00
03
07
09
f9
fe
13
fc
fd
0e
fa
fe
f8
04
03
01
07
03
05
02
fd
f0
04
02
fb
07
03
01
03
03
01
ff
0a
05
04
05
16
04
00
f5
05
03
f9
05
fe
08
01
fd
10
ee
13
0d
d3
14
04
d5
11
fd
f9
00
10
f7
01
0d
f7
f1
1c
e5
ff
fa
e5
03
ff
ee
05
ff
0c
01
02
06
00
02
fb
01
ff
f5
fc
fa
f6
fa
02
f9
f7
17
f4
e4
fc
fc
e2
f9
00
ec
0a
fe
f2
ff
07
f2
06
08
f8
f7
01
ff
fe
f6
f1
f4
fa
fe
f1
19
e7
e9
40
ea
ff
2b
e9
06
f9
2a
fb
fe
19
fa
02
1d
00
0c
12
00
07
09
fd
fd
0a
e2
2a
f3
e5
2b
ed
f3
1d
f2
07
06
fe
07
04
fe
02
fc
f4
08
09
0a
00
05
ff
01
00
04
00
04
fc
00
02
fd
06
04
02
ff
07
01
f6
fc
fa
fc
02
06
04
05
03
01
06
07
fb
08
00
e9
f1
fe
eb
f3
01
f1
ec
0c
07
ef
22
09
ea
10
08
f1
16
02
03
fa
00
fd
fe
02
fd
02
c8
e3
06
c0
ed
17
c5
ef
16
01
03
f8
04
07
03
f8
05
12
ef
f3
f5
06
03
12
12
f7
f2
0e
14
fd
11
08
fc
12
0b
1f
f3
fe
f8
f2
00
f8
fb
03
16
2d
24
16
1b
11
07
28
1c
11
19
18
1c
03
02
fd
04
05
f9
e6
fc
f2
ec
fc
f4
00
09
fa
fb
fd
ff
f8
f5
f8
03
06
05
fb
f5
fa
f1
eb
f0
ff
f9
07
f9
fc
fb
05
05
0e
00
04
00
f1
f3
f1
fd
01
04
01
00
04
01
04
07
fb
fc
06
fb
00
0d
08
ff
07
15
09
16
10
11
0f
1d
12
08
27
12
08
36
28
0e
08
0b
05
f1
f1
ec
fa
fd
fc
14
06
0b
0d
05
0a
08
f8
07
05
fe
f8
12
0c
fa
23
10
07
15
13
1b
29
1f
1a
14
0e
09
0b
0c
0a
0a
0a
02
19
1f
17
f9
07
dd
05
10
dd
08
10
ca
0e
01
00
08
fd
00
18
09
10
0e
0e
0e
08
10
09
00
05
07
f9
04
fc
fa
0a
06
f9
06
06
01
ff
03
04
04
05
e4
ec
ef
03
ff
05
fd
00
08
fa
ff
02
02
fc
02
04
03
fe
13
0b
10
08
05
04
fd
ff
08
fe
ff
fc
f9
fa
0c
f3
fc
12
ee
fe
0b
fb
f7
ed
05
07
ff
f5
f2
fd
fa
e6
e9
11
06
10
17
0f
17
01
fc
03
02
00
fe
00
ff
fe
07
08
f9
04
09
f7
05
03
f8
19
23
10
ff
f7
ea
f0
f8
00
f8
fa
0a
f2
e9
02
06
fb
07
05
05
ff
0d
09
02
1b
16
11
07
06
f9
0a
13
f7
04
13
02
f9
ff
10
e5
ee
10
e4
f0
11
ff
08
0e
00
01
0d
00
f7
0d
f5
0d
08
f3
0c
f9
f4
12
f4
02
01
05
00
fe
05
ff
ff
04
08
03
fd
06
08
f7
06
10
fa
fd
f5
ff
07
fe
04
04
fb
07
01
03
fb
01
04
fd
07
06
03
04
fb
08
02
02
0d
fd
fd
08
06
d9
06
06
e0
05
ec
e4
03
f0
01
15
ec
04
0e
e4
05
13
02
05
0a
f5
fa
09
fb
ff
08
1a
ec
05
1b
eb
0b
1c
e8
00
fe
04
12
f1
f5
19
ed
f0
1a
f1
00
ff
fd
fe
04
ef
11
12
0d
f0
1d
02
fc
0d
f9
07
01
f9
0a
ed
f9
02
f0
ff
0a
ec
3a
23
1e
2d
1c
24
2f
21
27
04
05
04
fb
fd
fe
fc
fe
00
fb
fd
f9
fb
fd
f7
fc
03
f8
f2
f5
f7
f2
f3
f5
f3
f3
f6
f6
f1
f1
fb
f8
fa
fc
fa
fb
fa
fa
ff
fa
fb
03
fe
02
09
f1
f2
f4
f0
f2
f6
fa
fa
fb
f2
f3
f4
ed
f2
f3
f7
f7
f9
16
16
18
22
21
21
15
1a
14
0a
fd
fd
08
fa
fc
0c
f9
ff
f6
f6
f8
f1
ee
f0
eb
ed
f0
10
15
11
02
08
05
f6
fb
f7
04
fb
f9
ee
ec
eb
ef
ef
ee
fd
0e
0d
e0
0a
11
f0
20
19
1a
0f
1d
16
0d
1d
14
02
13
f2
f6
fa
ee
f4
f7
ed
f1
f6
28
14
18
f8
fc
0b
19
08
10
f9
fa
f4
04
03
09
fe
fd
fa
fc
08
f9
f9
ff
fc
fb
ff
fe
fd
00
00
03
06
05
de
e5
e9
11
06
07
fd
fa
fb
f9
fe
ff
07
0c
0c
fd
fe
fd
e9
f0
ed
04
03
04
f0
fa
fc
f9
fe
fd
fc
fc
fe
f6
f5
fe
f8
f6
01
f8
08
f7
12
19
08
0a
05
08
05
f6
0c
03
fd
ff
f8
fd
f7
fb
fd
f5
f9
fe
ff
fc
f8
fa
04
f9
03
02
fe
fe
f6
f8
fd
10
fc
02
f7
f3
e3
1e
18
19
fa
fd
fd
fb
02
09
0a
07
07
ff
ff
fe
ff
08
0a
11
0b
09
f4
09
f0
ea
fd
de
ec
fb
ed
0b
07
11
08
f1
15
f7
f9
09
04
fc
f7
0d
05
fc
fe
00
08
f9
f8
fd
07
0b
07
fc
06
04
fe
fe
ff
07
0b
07
05
01
fe
0f
ef
f0
ff
fa
00
07
02
f8
fe
09
16
f4
07
0d
f5
f6
03
0a
fc
02
fe
fe
01
01
ff
fa
01
fb
07
02
0d
e9
f9
fb
ff
fa
0c
0a
fa
fb
00
f7
fd
00
02
f3
fa
06
07
10
27
09
fe
06
07
06
02
f6
fe
f8
f7
fb
0b
02
05
fc
fc
0b
00
02
0a
06
10
07
f0
0d
14
f4
00
12
28
40
30
32
28
26
f9
f5
0a
08
0d
f5
0d
1a
0e
1c
17
0e
f7
05
04
05
06
f8
0d
f6
ff
30
2d
2f
24
28
29
2a
2b
34
04
04
04
f6
f9
f9
fa
fd
fb
fa
f8
fb
f7
f6
f7
02
fe
fe
f8
f9
f9
f4
f3
f6
fd
fb
ff
fc
f8
fa
fa
f8
fb
f6
f7
fc
f9
fb
ff
f9
f2
02
00
03
09
f3
f5
f7
f8
fa
fe
fb
fd
01
ed
f1
f3
f8
f9
f6
fc
ff
02
1a
15
16
1c
22
20
0f
0f
0c
00
ff
ff
f9
f9
fa
0d
09
0c
f9
f6
f8
ee
f0
ee
f2
f3
f4
0a
08
0b
f3
f8
fb
01
04
0d
f3
ee
f0
f1
e3
eb
0a
0a
0b
06
0a
0a
15
11
14
1b
1a
1c
1f
1d
16
16
1c
19
07
07
03
f4
f8
f9
f0
f3
f8
ec
f8
fc
ef
f0
ff
03
ff
04
09
11
17
05
04
ff
0c
11
0c
09
03
01
ff
01
fc
0c
0b
03
08
02
fe
04
05
00
05
04
00
01
09
00
04
05
06
06
01
ff
fc
fb
fd
ff
fe
ff
0d
0b
07
01
08
06
08
0a
05
07
ff
02
04
fe
05
02
00
ff
fb
05
02
f6
08
05
eb
f9
ef
02
f3
f4
fa
f7
06
ff
02
09
05
08
0f
01
14
10
02
fa
fd
00
f7
00
06
01
02
0a
07
02
08
04
08
04
09
0c
02
fa
fe
fe
03
06
f7
18
fe
f4
f2
fd
01
04
08
04
02
0b
00
00
0b
12
02
0b
15
0a
0b
0c
09
02
04
04
03
04
06
fb
fa
f6
f0
08
0e
09
f3
03
04
02
0b
ff
06
08
06
fe
03
fe
f4
04
05
e5
02
f8
f6
07
fc
0a
07
07
07
07
08
00
ff
04
06
ff
09
fb
fe
02
04
01
ff
09
07
04
f6
f3
ed
14
13
10
04
08
00
05
04
03
04
04
01
03
0b
ec
00
03
ed
01
07
e6
f7
eb
f9
07
02
01
e1
f4
fc
0b
07
3a
fb
fc
16
f8
02
30
09
0d
08
02
03
06
fd
f8
fd
02
00
01
08
0a
0e
06
05
0b
0b
07
16
ec
fa
0c
ef
fd
03
07
f5
06
03
f6
f2
03
ea
f9
0b
0f
05
01
12
0e
04
13
00
03
fc
fe
fe
f0
f5
f4
fa
ea
2a
28
18
23
23
1d
25
1b
0e
09
04
07
04
fc
01
08
00
fe
fc
06
fc
fb
ff
f9
f7
fc
fb
fe
f5
fb
fc
f1
f9
ff
f4
fb
f9
f2
f0
f8
f6
f7
f0
f5
f8
f8
fc
ff
fc
ff
02
fc
02
01
fd
fc
f9
fc
ff
fe
fb
02
04
f9
ff
fd
f6
fe
ee
f6
fc
f8
08
0f
12
13
19
14
14
1d
1b
ea
f7
03
ea
f1
02
f7
ef
00
fb
fa
fc
f1
f0
f7
f3
f2
f5
13
0e
0c
0f
09
07
07
03
03
09
f9
fe
ff
ee
f3
02
ef
f7
19
1f
22
1f
1f
1c
1a
22
1c
1c
28
20
1d
2c
1d
1b
30
20
f5
f8
04
f5
f6
20
f2
f2
06
20
22
2f
21
23
22
29
30
34
ff
08
02
fb
eb
f5
fc
06
03
f9
fd
f9
f7
fd
fd
03
06
09
f6
f4
f8
f2
f3
f6
f9
fc
00
fd
f3
f4
ef
02
fb
fe
fc
04
fc
fd
02
fc
ff
02
04
07
0c
e7
fd
fb
f5
f4
f8
01
f6
04
f6
f7
f4
f7
fa
f9
fd
01
00
30
02
11
20
26
22
f9
0a
06
ff
ff
08
f7
fc
fd
0b
01
11
f7
fe
f9
fd
e9
f0
f7
fc
f8
04
08
0d
f2
fb
f8
fa
11
06
00
f9
f6
f4
f3
f5
03
0a
06
fc
09
05
05
06
0a
04
10
1e
10
27
27
13
1e
19
0b
0e
11
00
ff
f7
fb
fc
f9
02
02
02
fd
fe
0b
f7
f8
0f
f4
04
0b
fc
ff
03
fe
fb
fc
02
03
08
ec
fb
01
ea
f6
f9
eb
f8
fb
02
03
04
fe
00
fd
fb
ff
fb
09
0b
11
00
01
03
03
03
fa
ff
02
05
fd
01
06
ff
fe
fc
00
05
04
fd
ff
ff
00
03
fb
04
02
00
02
00
f8
00
ff
04
ff
f6
ed
00
f5
ec
ef
e6
ed
ed
f7
11
ee
f2
08
fe
f4
fc
03
06
04
fe
00
ff
f8
01
fd
fa
02
f5
fc
04
fd
01
0b
00
00
f9
05
f9
f8
0e
08
09
18
01
f6
da
fc
ee
de
f5
e0
dd
f6
fc
f6
f1
fa
f9
eb
fe
fb
f4
03
ea
e2
f7
e5
d5
ea
e0
35
31
24
2b
28
1c
30
24
1b
14
15
0e
fa
fd
fe
fd
f8
f8
fd
07
fd
fb
09
01
f9
06
00
fe
ff
f7
fe
ee
fd
f0
f7
f6
f3
ec
e9
fa
ef
f4
f9
f6
f9
02
01
fe
02
fc
04
0b
0b
0b
f7
f9
f9
03
02
01
fa
00
00
fe
f7
00
01
f7
fe
ff
f6
00
0a
09
0e
1b
18
1c
14
18
15
fe
fc
f9
fe
f7
f8
02
04
03
07
04
fd
f3
f3
ef
f6
f4
f2
15
08
0d
0d
0a
07
fe
fa
f8
10
13
0f
04
e6
fc
e4
e3
f3
05
02
0a
09
0b
0e
05
0b
10
04
05
09
0f
12
17
13
19
1e
f1
ef
f2
fe
f4
f3
fc
f2
fa
23
25
19
1f
2e
23
07
20
16
08
07
04
fb
ff
ff
05
01
fd
08
f7
fc
06
ea
f4
13
f9
f6
f4
f7
fb
f1
f2
f9
f1
f4
f9
f9
f5
f5
fd
f8
f5
fd
f9
fa
fa
00
02
f8
fe
00
fd
01
05
f4
f6
fa
f5
f6
f8
fc
fa
fe
f7
fa
f9
f5
f1
f5
f5
f7
f6
0b
11
14
1d
19
1e
1b
1b
1d
08
09
08
0b
0a
07
fb
01
02
fe
fb
fe
f1
f0
ee
f0
ee
f5
12
13
16
0e
0e
0e
fb
fe
fc
01
fc
fe
ec
ef
f3
ec
f1
f4
08
11
08
1b
20
16
19
1d
10
11
1b
19
11
17
13
18
16
19
00
ff
fc
ff
02
fd
f9
fd
ff
09
fb
f3
fd
e8
eb
f9
e9
f7
0a
11
08
f5
01
fa
09
00
01
ed
f6
f4
e7
05
f4
e8
09
f7
fa
fe
fe
fe
ff
fa
0c
06
00
05
06
0a
fe
fe
fd
ff
04
ff
f6
fb
ff
fd
fc
fe
04
06
03
01
03
0c
04
ff
04
09
01
04
01
f1
08
03
f3
05
0e
f3
07
f5
04
f5
f1
07
ff
f7
ff
ec
ff
e3
d4
fe
e1
d1
0e
ef
e2
05
0e
09
fe
01
ff
04
fc
07
fd
0a
f9
fb
0c
fb
fb
0d
fb
15
18
00
08
07
ec
1d
0c
ef
f8
ff
16
f3
f9
02
d9
f6
04
1a
0a
09
0d
02
0e
0f
f7
13
ee
e9
fe
f5
f2
ff
f5
ec
ee
17
06
17
05
ff
01
f5
09
1b
0f
1e
17
f7
fc
00
f8
00
fb
ff
07
07
f3
f9
fc
fc
ff
fd
08
10
03
00
02
fd
00
01
fd
fb
fb
ff
01
03
f2
0d
02
ff
00
00
ff
fe
f9
f7
06
07
05
02
fc
f6
fc
ff
fe
0e
04
06
00
07
06
01
02
00
fb
01
fa
f8
00
13
fa
f9
18
f3
f8
f7
11
00
0b
01
fd
05
ff
fe
01
0b
0a
00
f8
f8
02
fa
fc
02
fc
05
04
07
0b
0b
fa
06
09
fe
02
02
f9
fd
f9
f3
09
00
f9
f9
f9
f6
f8
f2
fc
ff
f9
0c
ff
14
05
01
05
0c
0c
0b
f5
f1
f3
12
01
09
04
00
f7
12
0c
fe
09
01
fb
f9
f1
ee
0f
12
15
05
07
09
02
fc
03
fe
07
0b
01
01
fe
ff
02
07
04
05
04
08
0a
08
fe
ff
ff
fb
f8
f7
fd
fc
fc
fe
fc
fd
fd
02
06
00
03
03
05
07
06
03
01
00
07
07
07
02
01
02
06
05
03
06
05
f9
ff
ff
f1
06
f9
ef
0a
01
f8
12
06
f6
0f
0c
08
0c
0f
03
fb
02
0a
fe
fc
01
fe
01
07
fe
fe
00
03
07
07
03
06
0d
0f
0a
0b
08
fc
f5
0b
0c
01
03
01
fb
2d
fb
ff
32
fc
f1
18
f5
ee
1b
18
16
10
13
1f
12
11
12
f5
fa
f2
f2
f5
f0
f8
ee
f1
08
0b
2c
1a
04
10
13
01
02
01
06
fd
00
01
02
f9
f7
f5
f9
03
fc
fb
fe
f4
ff
00
fb
05
02
00
00
00
03
00
ff
01
e6
e5
ea
ff
02
04
0b
0c
11
ff
05
07
01
07
08
06
06
09
c0
c7
ce
14
19
13
fd
fe
ff
fe
fa
07
fe
f5
07
0a
01
0b
01
f5
12
d2
ed
f1
f5
f4
f5
03
fe
10
03
f5
0a
fd
fb
0a
1a
11
0f
0c
01
0c
f9
fa
fa
0a
01
08
03
f8
00
06
02
02
2a
22
22
0c
09
03
02
04
03
10
fa
fb
10
ff
fb
1b
fe
07
27
13
0e
03
fe
01
02
05
fd
15
1e
f8
15
1e
f7
0e
1c
fc
0d
08
0b
ee
e9
f8
f4
05
f3
14
01
09
03
fb
f7
01
04
00
e2
ef
00
ef
f3
01
f6
f7
00
01
03
03
f6
fa
fc
01
09
0b
fd
00
fc
fc
01
fc
04
07
07
fb
fc
01
09
04
0b
06
fe
04
fc
fc
f4
01
01
fb
01
04
f8
f4
fc
2d
f9
f7
2e
00
f5
31
08
f8
ef
fd
f4
ec
fb
e6
e3
f2
e8
1f
f4
ce
0c
0f
ed
02
0b
0c
13
01
01
fd
fd
0a
fd
02
01
ed
fe
03
ea
01
05
f3
17
15
18
ec
e1
f0
fa
f7
02
f4
0c
ed
01
02
ec
08
02
f3
fd
1d
0f
eb
04
fe
ea
0f
00
eb
04
e9
ed
19
d6
f6
1c
c6
eb
dd
0c
ec
e1
f8
f0
ff
03
fd
fc
f7
fe
f2
f2
10
ff
f9
ea
f4
11
e1
f2
04
dd
f5
fd
fc
04
02
ff
ff
fc
01
fc
fe
01
fe
fa
07
00
00
02
fe
ff
09
07
fd
0b
09
06
05
03
04
ff
02
ff
fa
f2
f5
fc
f9
f9
0d
fe
f0
05
01
f4
08
03
f3
0a
e9
f0
fa
e7
ee
06
f4
ec
f1
f2
ec
ea
ea
dc
f7
ee
ea
fd
00
f8
f4
ff
f6
06
09
fe
cd
1c
f5
d6
10
f2
e3
16
fc
fb
fa
ed
fe
fc
df
ed
ed
d1
01
ec
ef
06
ef
ea
f7
e4
e3
f3
02
02
f7
04
05
fb
00
fe
02
f5
00
f5
f5
fd
e9
f1
ff
de
e1
f2
ee
f7
00
e7
e3
f1
cc
cd
ca
f8
fc
fa
1d
17
20
fa
05
0a
ef
fd
ff
fc
00
00
fd
ff
02
07
07
06
00
fd
f9
3b
37
40
19
11
1d
fd
fd
f9
06
06
01
fd
00
ff
04
06
06
36
32
39
f2
f0
f4
fe
00
f7
fc
f9
01
01
00
07
04
02
03
f0
dd
df
01
f5
e2
fe
f7
ef
f7
fc
ff
e9
e3
e1
fb
f3
e6
d9
df
e0
fc
ff
02
03
00
05
fd
06
02
04
01
f8
00
01
fd
d1
d3
de
f0
ec
e2
02
f8
f4
f7
ec
ec
ed
e5
e7
f1
f2
f5
e5
dd
d4
fa
eb
e8
e6
d8
d6
0a
ff
f6
1b
0f
f2
f6
e7
e1
ff
fc
03
fe
ed
e9
f7
eb
e8
f7
fd
01
f9
00
08
f8
00
03
e6
ee
15
e3
f1
18
db
f1
1a
02
04
fd
01
01
fe
01
ff
f9
fc
01
02
fe
08
05
00
06
07
00
fc
fd
05
00
ff
02
fe
05
fa
02
fe
01
05
02
02
01
00
fb
ff
fd
fe
fe
ff
ff
fd
03
0d
e8
f2
19
f7
f9
08
d2
e9
e4
02
e8
e8
00
ea
ef
f8
f8
09
0a
0a
0a
06
0b
09
ff
02
06
03
ef
05
01
f7
08
02
ed
fb
01
01
f5
fb
01
00
f9
04
ea
e9
e6
d2
ee
f2
d1
f7
09
f5
0f
0d
de
09
00
e2
02
fa
fe
04
f3
05
fc
ea
12
ff
e1
00
fa
0b
f0
e5
f6
04
00
01
fb
fe
03
04
03
0a
ff
03
03
f0
03
fa
ed
03
03
f1
09
05
03
05
04
06
03
04
d4
c0
c8
01
ff
03
00
00
00
ff
ff
03
0a
08
10
e8
e4
e0
06
05
0f
fd
f9
fe
f4
f9
fc
03
01
fe
05
fa
04
fa
f8
05
ff
fc
06
01
ef
ef
0b
fc
f8
e1
e3
fb
ee
e5
e2
f9
06
07
fe
02
ff
04
04
04
fa
fc
fb
fc
00
fc
06
f6
fe
01
f6
f6
04
f5
00
07
fb
f4
0b
01
02
e5
e5
f3
f0
fd
f6
fb
fd
fd
ff
f7
02
fb
f2
fb
fa
f1
fb
04
fb
ff
00
f9
f0
0c
01
e0
fc
ed
da
fd
02
04
ee
f2
ed
e6
e4
e3
fe
03
03
05
03
00
05
05
09
dc
f5
fa
f1
01
02
f5
f9
f3
00
fc
f7
01
02
01
25
1f
23
03
06
02
03
02
01
01
02
03
ea
e3
e3
25
26
37
eb
e7
e3
03
04
fe
02
fe
fd
f7
fd
04
ff
04
02
fe
03
ff
01
03
fd
fa
f8
ff
dc
de
e2
1d
15
05
f8
f3
e7
eb
e7
e1
f4
f5
f0
03
05
00
ff
ff
01
fa
fc
fc
ff
00
05
00
fd
00
02
f8
fb
f1
f6
06
15
0d
0a
fd
f9
f5
fd
ee
e7
f7
e7
e7
e8
df
e0
e9
e1
d6
ef
e7
f2
f2
f2
fe
f6
f1
dd
14
ff
f0
0b
f8
e4
00
f8
fa
f8
f3
f0
de
eb
ea
05
fe
02
05
02
fd
ff
01
01
02
ea
f1
01
ea
f7
03
e3
00
03
02
06
04
03
02
fd
00
00
05
01
00
02
00
01
fe
fe
03
02
ff
00
06
07
05
03
02
fe
03
fb
02
03
ff
fc
fd
01
fa
fa
ff
01
f9
00
ff
fd
01
f7
f8
16
f2
fd
15
ea
e9
02
e8
fe
e4
12
fd
ee
12
04
f0
14
0b
07
11
07
06
08
fd
00
05
e3
24
f7
d1
26
fa
d6
36
f4
f8
fc
01
f0
f6
f7
eb
fc
f8
cd
e7
f6
c0
d3
f4
d0
d2
f3
f8
f1
0e
f0
e4
19
ee
da
1a
01
f7
fa
04
04
fa
0c
0b
f1
09
01
2e
fd
fb
1c
f9
fd
23
02
09
0c
02
06
01
03
03
06
ec
31
01
ef
40
fd
f2
27
fc
03
03
f9
02
03
fa
01
01
fb
01
01
f9
00
01
f2
fe
fc
fc
fb
ff
03
fa
00
ff
05
08
03
fa
09
fd
f9
03
f4
fb
00
fd
ff
09
00
00
0e
08
fb
0f
03
e1
f1
12
e5
f8
14
ed
f0
08
0f
f2
1f
0a
f4
1e
0e
fc
2c
01
04
f8
00
03
fa
02
01
06
da
f6
1e
d6
fd
1a
d6
fc
13
0a
07
0b
06
0e
03
00
0f
0b
0b
f6
16
10
ee
24
20
fa
26
02
0d
19
08
07
16
08
08
16
fc
04
fb
fa
02
ed
f8
ef
f0
0a
12
15
10
0a
1e
0a
0f
14
09
06
0a
09
fb
f2
0f
02
fc
07
06
06
ff
eb
08
03
04
01
07
07
01
02
01
05
00
fd
00
0c
fe
fd
13
01
fb
13
07
04
05
03
04
02
03
0d
07
04
fe
07
04
00
04
08
00
14
11
05
06
05
02
03
01
08
ff
06
00
ee
0e
0b
fc
08
05
fb
01
fc
0d
03
05
ff
0c
0d
fc
09
0f
06
03
09
07
fd
04
05
06
0f
f9
13
13
fe
15
0d
fc
08
09
13
fc
00
05
fa
04
05
05
18
0e
03
00
05
0b
00
fb
09
0e
ff
fc
03
0f
f6
06
07
fa
01
08
fd
f9
06
14
0a
fe
0b
f5
f4
f6
fd
e3
dd
e0
ee
f0
f4
ea
eb
e8
26
40
2e
f7
f3
f3
ee
fb
ff
f7
f9
ff
f1
01
07
01
00
00
03
04
00
02
04
02
26
25
26
f6
e8
f1
f4
f9
f9
04
05
04
00
01
02
05
07
ff
f6
f2
f7
e5
d0
e1
ee
ee
ef
ff
fe
03
ff
04
06
0a
09
0b
f2
d5
d6
ea
f1
ec
e4
ee
f4
f9
f2
e0
f8
f7
eb
0e
0a
f9
e8
ea
ee
fc
01
04
ec
f0
e7
f4
ec
ee
fb
f8
fa
04
07
05
ee
e4
dd
fd
f3
f2
00
01
04
00
f8
f2
fe
f4
f8
0f
04
f3
e8
c9
dd
db
dc
da
f0
eb
ef
07
f9
e9
02
f3
ed
e6
e6
de
00
00
06
01
01
03
ea
e9
ed
fb
fc
f8
fd
fe
fc
01
fe
fa
f4
fb
f9
ed
fe
fc
f4
fb
fb
09
0b
0b
ff
fd
f8
10
13
11
0b
0f
0f
01
04
01
06
05
03
fc
fb
f5
fc
f4
f7
1e
29
2f
f6
f5
fc
03
03
01
03
01
01
fb
fa
fc
fd
01
05
fd
fe
fc
0d
03
06
07
07
07
e8
e5
e3
20
0b
03
fa
ec
de
fa
ef
ea
fe
fb
01
ff
ff
fd
01
ff
ff
09
02
f4
fb
fd
00
fc
ff
01
13
ff
0a
d9
d9
e2
04
fa
ed
17
15
03
06
f3
ee
00
f9
fb
1f
03
fb
e6
e3
e2
e7
ea
e9
04
fb
ed
f1
e9
d9
09
fe
f1
2a
1a
27
15
0d
0c
2a
0b
11
fa
fe
fe
f9
02
01
ff
04
08
f5
01
fe
ea
f8
01
ff
03
f2
fe
00
fc
fb
00
fd
ec
e2
e9
ff
ff
02
f9
fb
fd
fb
f5
f7
03
00
ff
e4
e0
d8
33
3e
40
0b
0a
0b
ee
f6
fa
07
ff
fe
fb
f8
09
f9
f9
0e
f6
f8
10
07
fa
f4
10
09
19
fa
f0
f7
07
02
f4
06
ee
f5
0d
f0
f2
00
fc
fc
f8
fb
f8
fb
00
ff
03
fc
02
04
f9
fc
f2
e8
f4
f4
eb
ec
f7
fc
fe
de
c0
d3
fd
03
03
06
06
09
23
21
0c
20
00
fe
1e
0a
fd
1a
1a
fa
f3
07
eb
03
02
ea
f4
fb
ef
05
fb
14
f4
dc
ea
dd
d3
db
d7
d4
e0
d1
db
e3
f0
f5
e4
eb
fe
fa
ef
00
06
f4
00
03
01
fd
fa
fd
ff
01
fd
fe
fe
d2
d6
ce
03
06
07
0d
0f
16
01
02
08
ff
fe
02
05
07
0b
ed
ee
ef
18
17
1d
03
ff
ff
02
02
00
fb
fd
00
04
02
03
fa
f6
00
0c
03
0c
fc
fa
04
e5
dc
d5
f0
ee
ef
f0
f3
03
40
35
30
08
08
06
f8
f5
f5
02
03
04
f7
fc
f6
07
08
fb
22
14
0e
ea
ee
f8
f0
f5
03
ea
dc
e8
ea
de
df
e5
d8
de
06
0f
17
ec
ea
ea
f3
e8
f3
07
f5
f1
09
fc
f3
0f
06
fb
02
f5
14
e7
e9
06
06
fb
04
00
07
ff
fa
fd
01
fe
fe
fd
e1
09
f8
db
0a
fc
eb
0c
fe
ff
00
01
06
0c
06
f9
00
fb
13
11
10
f8
f9
f9
00
fc
01
05
01
ff
f1
f5
f2
08
09
0c
03
01
fe
f6
f6
f8
00
f9
fc
ff
f9
07
f9
f7
09
fa
fd
08
04
f3
eb
0f
fb
08
f0
f0
f4
ff
eb
eb
0b
fc
ef
14
0a
04
05
04
fb
fd
fc
fa
ff
ff
fc
14
04
ff
1a
01
fe
17
f9
05
03
f8
f2
09
08
f7
18
1e
09
d1
fe
ed
ce
f9
ed
d4
f7
f2
f6
f1
f6
e9
ed
f3
17
15
0f
00
0f
e8
04
03
ec
f1
fe
f1
06
08
05
02
07
02
09
0a
06
fa
fd
fd
ff
00
03
00
f9
fe
ef
08
f1
ef
0f
f3
f3
0b
fb
02
ff
01
03
03
03
01
00
01
0f
0b
09
00
fc
fa
ff
fd
fd
06
fe
03
01
01
03
01
00
f9
04
0a
06
f9
00
00
f5
fb
01
f8
fb
ff
fa
ff
01
f8
00
ff
d7
ee
01
e2
f7
0e
ee
fb
00
fc
f5
ef
f9
f6
ed
f7
fb
f2
fd
fb
fa
09
01
03
05
fb
f9
2c
dd
17
38
d9
19
33
d5
18
f6
e3
f7
10
eb
f7
1b
f3
06
15
f9
f6
10
ed
f4
09
f6
f9
f8
e8
f6
f4
e4
f3
04
f3
fd
ff
fd
e7
fe
f7
e7
f7
f4
e3
2a
fc
f2
07
03
e9
24
09
f6
11
0b
12
f7
f7
fa
0d
0a
08
f9
f8
f7
f9
fd
f2
f8
f7
f0
04
06
06
02
fd
09
02
fe
08
05
0e
0a
04
06
06
fd
fd
02
fd
f5
fe
01
02
ff
04
00
f6
0a
10
07
ff
fb
fa
00
02
f8
02
01
15
fe
fc
1c
fe
f0
13
02
f5
fb
16
04
00
03
f5
f2
19
fa
0c
1e
0a
0d
18
fe
ff
0b
04
07
fa
f8
fd
04
01
08
14
ff
fc
0e
0a
f9
0d
02
ff
0f
f9
e7
0b
f9
ea
28
09
fa
09
03
06
23
0e
0c
06
06
eb
02
03
09
f3
f1
fa
fb
f4
02
ff
13
eb
09
1b
ec
fd
1c
ce
10
f9
f4
13
ee
e6
17
ec
d7
07
fb
04
fd
06
07
01
0a
0a
f8
f2
02
fa
f8
08
fa
fc
0a
ff
08
08
03
06
03
03
ff
fd
01
0a
07
ff
07
03
f8
00
01
fc
05
04
03
03
ff
05
fe
fb
08
09
09
fe
fe
fe
00
fe
00
f7
0c
fe
f1
0e
01
e7
13
01
ef
f8
06
ff
f4
08
f8
e3
03
f4
03
d9
04
00
d1
0a
f7
e6
0a
02
0b
06
09
08
02
0b
fd
fc
fc
ff
fb
f9
00
f8
f7
03
f7
ee
ef
fe
f3
ec
06
f5
f6
0a
ea
fa
0b
eb
fa
12
ee
fe
f9
02
fc
ed
f8
e8
f0
0b
dd
1f
f7
d6
2d
f7
ca
34
02
c7
2a
36
27
1c
22
1c
0f
17
1f
18
17
1f
fb
00
01
06
03
03
dd
0a
fe
dd
11
05
e6
11
03
fe
fc
fe
fe
fd
fe
00
fd
fc
fe
fe
03
f9
f9
fa
fd
fb
fe
ff
00
01
ff
01
04
fc
00
01
0c
0b
04
f9
f6
f7
03
02
05
fa
05
ff
f3
ff
ff
f2
01
ff
15
0e
12
13
06
1f
09
00
07
06
09
f6
0f
14
07
1d
22
18
10
09
02
f6
f8
f2
fb
fd
fe
0d
18
0b
07
19
0c
03
0a
07
0c
09
0a
03
fe
fb
2b
1b
1d
13
1b
1f
1a
1d
22
22
1d
15
0d
06
00
0b
0c
07
1a
21
19
03
f4
f5
00
f0
ee
03
e3
e4
fd
e1
d1
e4
cf
d3
fb
e8
e4
07
06
0b
fa
fc
fa
02
0b
09
fc
fe
04
ed
fb
07
f0
f6
0a
0a
07
0a
05
02
06
cc
e1
db
01
00
fe
03
06
05
06
08
08
0a
04
0b
e1
ec
e6
07
0a
10
09
07
07
fa
fe
03
04
00
fd
01
01
fe
fc
fe
00
f5
01
08
f0
f3
ef
05
f7
f5
c7
e0
f2
e5
dc
d3
e6
dc
ec
e1
d1
eb
11
10
15
fd
fd
ff
00
03
07
f4
fb
f0
f9
fe
f3
fa
03
ff
0c
0d
03
11
06
11
cd
d5
ee
e0
e8
ec
fa
eb
e7
f4
e7
e1
ea
ef
f5
ef
e5
f1
f3
ec
f5
01
f9
e4
0d
08
e5
08
03
eb
fe
03
f4
01
04
f1
08
03
05
04
fd
fe
fc
f8
01
ff
fb
0a
fe
f0
e4
f4
ec
ea
fc
ef
eb
05
00
03
fd
fd
fb
f9
f7
fb
05
03
04
fd
fc
f9
fc
ff
01
ff
fd
02
fa
fc
fd
03
04
0d
01
00
fd
fb
ff
fb
f4
00
f8
fb
fc
f8
f7
ff
fb
fb
02
fc
f9
13
00
08
25
1a
ed
03
f1
08
f4
08
01
fc
0c
08
07
0b
03
02
01
fa
fd
fd
04
02
03
f8
f5
fe
f2
eb
ff
e9
f9
03
05
ef
f5
ef
dc
ef
fa
fc
06
0b
f8
07
fb
fd
0a
07
ee
0a
08
ff
0d
00
fc
07
04
fd
0d
f3
fe
f2
f2
ff
ef
ef
01
f0
21
26
22
19
11
24
15
1c
1f
04
07
0b
ff
f5
05
fb
f5
fe
fd
05
fa
fc
02
f2
fc
08
f1
ff
fb
f9
fd
f9
f8
04
00
fd
fd
f2
f6
05
f3
ff
ff
f9
02
fd
fa
fc
05
02
03
03
00
fc
00
f8
fc
03
03
07
fe
00
0b
f9
f2
02
fb
f1
ff
02
f2
02
04
20
0f
08
13
13
13
1a
14
fa
00
12
e7
fd
f0
ec
ff
fc
06
06
03
f8
fc
07
fd
fb
fe
20
1a
18
1f
16
12
15
08
0d
0e
0f
01
f2
fb
00
ef
01
02
04
06
1f
08
0f
11
09
1a
16
00
0a
12
ec
04
0d
fb
07
09
02
04
eb
05
02
fc
05
00
05
37
2d
1b
2f
29
26
25
21
1d
ff
03
05
fe
ff
00
f8
f7
f9
fd
fa
f9
fc
f7
f7
fd
fb
f7
f8
fa
f4
ea
f3
ea
f7
ee
f4
f3
f1
f3
f6
f6
f6
f4
f4
f5
f6
fa
fd
ff
ff
09
fb
02
0b
f3
f4
f6
f3
f4
f6
fb
fa
fb
f6
f6
f8
f3
f2
f2
f8
f8
f6
14
10
0f
22
1e
1d
22
20
1f
03
fc
f8
f6
fc
f8
f5
fc
f1
ff
fa
fd
f3
f1
f3
f2
f2
f3
11
17
19
09
10
0f
f6
fa
fe
01
fc
fb
dd
e7
d8
d8
cc
d4
13
16
11
13
16
16
18
1a
19
20
1c
18
23
22
20
20
22
20
f7
fe
ff
f8
fd
ff
f4
fb
fe
03
f7
01
f2
ec
f8
fc
f5
00
00
02
05
02
06
0e
ff
ff
fd
f7
0e
f4
f3
09
fc
f3
04
fc
02
04
01
07
14
0f
ee
ee
f2
02
04
01
fe
ff
fb
01
07
06
0d
19
14
ed
ed
f0
f8
f4
ee
f7
f6
f8
f6
fc
00
fe
00
fe
06
01
08
fc
f9
07
f3
f1
01
fb
fe
f2
fd
f6
ef
e2
f0
0b
05
e8
f9
0c
fd
04
f4
f5
00
01
03
ff
fe
01
fd
fd
fd
fd
0a
f9
01
06
fc
02
04
fb
04
16
17
12
1e
1f
18
1b
3f
2a
fa
fb
f4
ef
e9
f1
00
f6
ee
0b
03
06
fb
fc
02
07
05
05
fc
08
f0
fb
06
e9
ef
fd
ea
40
37
28
32
33
33
34
38
31
06
ff
03
03
07
08
f9
fc
f9
00
fc
fd
fc
f7
fa
fa
fc
f2
f2
f3
f9
f4
f4
f7
f4
f5
f8
f6
e6
f6
fd
f4
f8
fa
f8
fb
f8
fa
ff
fa
fc
02
fb
fe
03
ef
e6
f7
f1
ec
f4
f9
f8
fd
f3
f5
f3
f0
f0
f2
f5
f7
f6
fe
fd
03
21
20
24
2a
2c
2c
00
01
07
05
02
03
fd
fc
fc
f6
e9
f5
eb
ea
ec
ef
f0
f3
0e
11
11
08
0a
08
f4
f7
f9
0c
05
09
f9
f5
f3
f2
ef
ee
06
0d
0e
0b
10
0c
18
16
13
25
36
1f
15
13
15
05
15
13
f4
f5
fe
f8
f6
fb
f7
f3
f9
ea
f0
f9
f3
e6
f3
f8
e5
f1
00
00
03
fd
fa
fa
06
01
fb
ea
09
fe
e5
09
f9
ef
ff
f7
02
06
01
01
03
04
fc
fa
fe
03
03
ff
07
01
ff
02
fd
fe
0c
0a
ff
05
05
04
f5
fa
fa
0b
0c
04
00
02
04
f6
f8
02
ff
07
fe
fe
05
ff
03
02
03
f4
f1
f5
ef
df
f7
f4
ee
08
f6
f6
fa
e8
f0
ea
e8
ef
eb
07
00
04
04
fd
02
12
02
03
09
fc
02
09
f6
fd
0b
f9
fc
0d
03
f3
09
f8
ed
16
07
fc
f4
ef
f2
f5
eb
eb
ec
dc
da
02
02
f8
ff
fb
fa
05
f8
f5
fb
fa
ed
f5
f8
f2
f0
fa
f7
1b
13
1a
1b
09
0c
f7
e9
f9
01
03
03
08
02
fe
10
0a
05
e9
f7
02
e8
fe
f8
f4
06
fb
04
01
00
f0
f8
f9
1b
22
1e
02
08
05
07
08
06
fc
03
06
fc
f5
f5
0a
06
04
16
1b
18
0c
03
07
0b
03
01
01
02
02
01
0c
0a
00
09
06
08
02
f8
0e
0e
0a
02
04
02
08
f4
e2
13
01
10
0a
f5
ea
09
0b
fd
07
06
06
05
fd
f9
08
fa
fb
26
2e
03
17
21
04
14
1d
00
11
15
1d
f0
f9
04
05
03
fc
11
17
12
e2
e0
f8
e3
f2
04
08
0f
05
f4
08
06
f5
f4
0b
fc
ee
ea
03
ea
e8
03
fb
f2
0e
19
03
00
fb
f7
06
fa
f7
09
08
0c
f7
f9
fc
f8
f4
f6
f2
03
ef
e7
03
ee
ed
0b
f0
fa
02
fe
fa
fd
fa
fc
f9
f8
fc
ff
fc
f3
fb
f6
03
ff
fc
fb
00
04
fb
ff
04
0e
0e
11
eb
f2
fa
fd
05
04
00
fc
02
f9
f8
09
f9
ec
0b
03
f6
08
11
04
01
24
17
17
01
ff
f3
0f
09
ff
09
00
c4
fd
f9
e5
0a
10
0a
f6
f5
f3
f6
f4
f8
16
08
03
0d
04
f9
04
fd
f8
1d
13
f4
07
fe
e4
05
fb
e9
fe
00
11
0e
0c
08
15
07
f8
13
28
1d
09
28
12
0a
20
1a
f0
f4
fa
e5
f0
dd
ea
e6
ea
35
32
28
34
33
31
33
37
2d
06
05
04
f6
ff
01
f9
ff
ff
fc
01
f9
f7
fb
f8
f9
ff
fe
f3
f4
f5
f4
f3
f4
f9
f7
f9
f1
e3
f4
f1
f3
fc
fb
fa
fe
f7
f9
fd
fc
fe
01
06
0c
0b
e2
de
f8
ef
f3
fb
f7
fa
00
f0
f2
f3
f0
f2
f4
f7
f9
f7
35
38
1a
21
18
15
10
12
01
ff
0b
0b
fa
0a
0d
f1
05
0a
e2
e1
f3
f1
f1
f1
ee
f0
f1
10
0d
0f
02
04
02
fc
fa
f7
fa
f8
f9
ec
ec
ed
e0
df
e8
0c
04
0a
10
0e
13
0c
0a
0c
23
20
11
1d
1a
11
13
1c
19
f5
f9
fb
f2
f2
f9
e5
e8
f7
1f
0c
13
0a
0b
05
1d
12
0e
11
11
19
e9
eb
e7
10
0e
0e
01
fe
f9
03
02
f9
fe
fe
f9
fb
00
ff
fe
ff
02
00
ff
03
fa
f8
fa
f8
f7
fd
fa
fb
f8
fa
fd
01
fe
fd
fd
01
01
06
03
08
07
fb
f9
f9
ff
05
01
00
fc
01
f5
f4
fe
ff
fd
fc
0a
0c
fa
19
10
13
07
03
07
13
17
11
1f
1e
17
09
03
06
0d
09
10
f2
f4
ec
00
01
01
18
0f
0e
0d
06
0b
08
05
09
14
0e
0a
f9
02
fc
06
03
03
0e
05
fb
17
26
2b
2f
34
24
33
34
3a
0e
0a
0f
0a
04
01
ed
f1
ea
f8
ff
f7
fa
f7
f3
1f
26
14
1d
2d
03
28
28
13
08
04
02
fb
00
fb
00
00
fa
fa
05
00
f8
f8
f9
00
03
06
ff
fc
ff
fa
fa
fb
ff
fe
ff
fe
f7
fa
fe
f7
f8
00
fc
01
01
05
04
ff
02
03
ff
01
01
fe
fe
fc
05
03
00
02
05
06
00
fd
04
03
ff
07
07
04
06
0e
0c
08
0e
0b
12
04
fb
fe
ff
04
16
10
0d
1b
0b
05
03
04
fc
f0
f5
f4
f0
05
07
04
0a
0c
0d
05
07
0c
05
0c
0f
f6
f7
00
fa
fe
fe
0d
16
15
0d
0d
0c
1e
17
11
09
03
09
0d
10
08
0e
10
09
11
12
0e
fc
fe
04
01
0c
fe
fd
fc
f4
10
04
1a
0f
01
16
03
15
1e
05
ff
06
05
0a
0b
fa
0d
0a
ec
08
0b
ec
05
14
e7
ff
0b
01
03
04
02
08
02
00
fa
fc
04
08
09
fe
06
06
02
01
01
03
03
fd
02
01
fd
07
07
04
07
07
04
03
fe
00
0a
fb
fc
fc
05
01
fe
05
05
fe
04
06
0b
00
ff
04
ec
ff
f7
de
ff
fe
f8
14
fd
ef
13
02
fa
0b
03
03
05
07
02
05
02
fa
05
ee
0a
fe
ee
0f
08
f4
13
07
f1
02
0c
f6
0e
0b
f1
f9
0c
ff
fe
05
f8
ff
0c
06
08
0a
08
04
08
fc
e8
03
0b
0a
0d
09
f3
f9
08
f0
f9
fe
e8
fb
16
f5
0f
05
f6
f5
15
fe
04
0c
0c
08
0d
09
02
01
ff
f3
ea
ee
00
ee
f4
01
f9
e2
0c
fc
03
ff
04
02
04
fe
01
fe
00
fe
fd
06
01
00
08
f9
00
06
ff
01
04
fc
00
f1
f6
fc
f4
f3
f7
04
fb
00
01
f8
01
08
fe
fe
08
fc
03
01
fb
01
15
f9
01
0d
e4
d9
1a
d9
e6
f8
07
e3
15
fb
f6
1c
0c
06
fe
00
05
ff
04
00
f3
fe
f5
d8
03
f1
d9
07
e9
e0
05
e0
03
25
0a
ff
0e
f7
13
23
08
0f
02
f1
13
04
fc
22
0f
fe
fb
05
f9
f9
fe
fc
f6
02
0d
02
01
ea
09
fc
d6
01
f8
e8
14
0b
0b
13
12
0e
07
04
fa
2a
2e
2f
c0
c8
db
dc
ea
df
02
ff
ff
fb
fa
fa
fd
ff
fe
fe
ff
fd
fb
f7
fb
f2
f3
f8
f0
ec
f0
e8
e6
e9
ed
f0
f4
fb
f8
f7
f1
f1
f5
ee
ef
f3
f9
fa
fa
fc
fb
00
02
02
02
f4
f6
f7
f4
f6
f5
fa
fb
f5
07
05
04
f5
fa
f8
02
fe
fd
0e
0d
0a
0c
0d
0a
0a
0a
ff
14
13
15
0b
0c
0f
ff
fe
0e
14
1c
18
16
1a
1b
1b
20
1d
e6
eb
fb
eb
ef
ff
eb
ee
01
2c
2d
2b
2b
27
20
02
f7
fc
21
16
12
22
19
19
0d
1e
15
f9
fa
fd
f6
f7
f9
f7
fa
f7
e2
10
f1
e9
10
e3
f1
0b
e2
fd
03
0b
fc
ff
09
fa
0a
0f
fe
00
00
fe
00
02
ff
ff
01
03
00
08
02
ff
02
02
ff
fe
07
fa
f4
05
fe
f9
fe
fc
f8
f3
fc
ec
f0
f7
ea
eb
f8
ea
f5
fe
fd
f7
ff
00
f7
fd
fb
0a
d6
ef
07
d8
e2
06
d4
e2
fc
fc
fa
fa
fb
00
0a
09
0d
04
04
01
00
03
01
00
01
fc
f7
f4
00
f8
f2
f9
fd
f2
ea
02
01
f4
e6
ef
ef
ee
fc
f7
02
3f
db
05
3a
d7
0a
3b
dd
0f
fc
f1
fc
f3
ec
f0
de
f3
f5
fd
01
ef
f4
02
ed
ec
02
fa
1a
fe
f6
18
fa
f5
1b
fa
f7
e9
16
ff
f0
18
ff
fc
14
f0
f4
0b
fa
ff
06
ea
03
1e
00
fa
ff
03
fc
01
fa
fe
fe
fd
06
fe
0b
05
04
fe
f8
f7
0b
0c
08
f3
11
0e
1a
1e
12
07
06
0d
f6
11
11
07
18
09
06
02
fd
03
01
02
05
fe
00
ff
01
f9
06
07
fe
02
ff
fc
fd
00
ff
f9
fc
03
fa
04
fe
03
02
06
09
09
07
fe
00
06
06
fd
f6
0c
02
10
09
fb
fa
ff
03
09
04
06
06
05
04
0c
f9
f9
1a
fc
fb
19
0f
05
15
f7
f9
13
0e
ef
14
08
15
10
ff
fd
fd
10
e5
0a
03
09
07
ff
fe
02
0a
06
0d
01
03
ff
fb
00
e0
f9
f5
ef
08
f3
e8
ec
fd
f7
f0
fc
fc
e9
f7
f8
00
04
02
ff
08
01
fe
02
01
fc
f8
02
04
04
0a
eb
ed
e8
03
07
fd
f1
f6
f1
06
09
ff
ff
fd
f8
e9
e8
ec
f5
ef
fa
07
07
f5
03
05
f9
05
02
fc
fd
fb
fc
01
f3
fc
f5
ec
f3
01
01
03
f3
f8
f6
f7
f7
fd
04
fc
f9
04
fb
f9
01
fa
f7
fb
0e
e4
f5
08
e6
f7
09
e7
f2
fa
fb
e8
eb
e3
f2
00
ee
0d
fe
ea
08
04
e9
10
00
ee
fe
ef
04
0c
fb
ff
f8
f1
02
fb
f7
ff
f3
fc
fc
f7
f6
fa
f9
0b
ec
f9
0e
e7
fe
19
e0
05
f3
06
fc
f9
01
f4
e8
f7
e9
ea
f2
ed
f2
fb
08
fb
eb
00
02
03
02
03
00
02
fe
fe
04
0e
00
00
fd
f4
07
04
ee
f5
fd
09
01
09
16
f3
f7
0d
0d
11
fb
e4
ee
f3
00
19
02
fa
02
fe
f3
07
fc
f8
0c
fd
f7
ec
f5
f7
ed
f9
f0
e9
f4
02
02
0a
fa
f7
ff
07
06
0a
02
03
05
05
03
00
04
00
ff
16
ff
fb
0c
fe
09
05
fd
08
ff
07
06
fd
fe
0e
ed
01
0e
05
ff
00
ff
02
ee
f7
04
f8
f7
10
07
f4
0d
0c
06
11
0f
06
f4
f4
0d
fd
fc
10
00
05
05
ed
e0
07
fd
d5
0a
f4
d7
ef
fb
fa
ee
f3
f6
f8
f6
fa
13
01
04
f4
f3
f2
06
fe
09
f9
fd
fe
04
03
02
fe
fe
fb
01
07
0a
07
07
06
e9
f1
f6
02
fb
f9
f3
f2
f2
10
05
02
fa
fc
ed
ec
f3
fb
06
08
02
04
0b
fe
f8
03
03
fb
f8
fb
fd
fb
f8
00
ff
f6
06
02
00
ff
fe
fd
f1
f3
f2
12
0d
09
fb
fb
fa
fe
00
01
fa
f6
f1
07
09
00
04
06
02
fe
f9
ee
f0
f1
f4
08
02
fa
0a
0b
08
00
00
fd
f5
f9
ff
ed
07
02
14
22
09
f4
f5
f5
16
11
19
fa
fb
05
0a
08
07
03
04
04
fe
fe
fc
00
00
fb
01
ff
fb
09
fe
02
14
10
06
22
1a
13
1f
18
1b
fb
fa
ff
d1
d6
df
02
fe
03
fe
ff
03
fd
fb
fd
00
02
fd
fe
03
02
f5
f9
f4
fa
fc
ff
f8
f7
fa
fc
f9
07
00
09
07
fb
fe
fa
fa
02
0a
00
00
fc
00
02
ff
ff
01
05
f9
fd
f9
fe
02
00
fa
fa
f7
03
03
0c
ff
fe
07
fe
f8
06
04
05
00
04
07
ff
02
04
03
08
09
f9
0b
0b
04
0b
09
08
15
11
13
17
0e
0f
17
14
0f
f0
fa
03
f3
f6
01
fb
f7
0c
29
19
13
1d
19
1e
1b
1b
1b
26
10
0f
17
0e
0e
10
0e
0c
ff
fd
10
fe
fe
0a
fe
00
05
0b
19
0e
e1
f2
ed
0b
04
02
f8
01
04
d0
d5
e3
f5
f7
f8
04
f7
f5
03
fd
ff
06
fe
01
05
07
10
13
11
14
f2
e7
e2
0b
0d
05
e0
dd
d9
18
21
25
2d
23
2c
f4
f4
e9
f8
f3
fb
f6
05
fc
00
07
f5
fe
0d
03
f2
f4
f6
09
03
fb
05
fd
fa
11
18
0d
ee
e1
ec
04
ff
08
03
03
04
02
01
03
fb
01
04
08
00
fd
00
fb
03
fe
06
04
02
0f
0b
f7
ff
fa
03
03
07
05
07
fa
02
09
f5
ff
03
ee
06
13
18
07
17
11
02
01
01
11
0c
12
fd
09
0e
f6
ec
ef
f6
ff
f4
05
0c
ff
02
08
fd
17
d5
01
15
db
11
0a
d6
14
08
0a
01
f1
e6
dd
ec
cf
c5
04
05
02
ff
04
00
ff
00
fe
01
01
00
f9
f6
f5
e5
ee
f3
04
04
03
09
04
03
11
08
08
fa
f8
f4
f5
fe
f8
f3
06
04
01
fc
fd
fd
f9
00
fd
fb
03
03
15
f8
fd
16
f8
06
22
f9
02
04
ff
fe
02
fb
02
02
03
07
08
03
09
07
04
05
05
01
09
f9
06
07
01
10
05
01
12
05
f4
04
0c
fd
06
16
04
05
f1
d3
1b
f1
d4
1a
ea
ca
14
05
ff
04
0a
0f
02
03
08
03
05
03
08
06
08
04
01
fe
fd
03
f1
ff
01
ee
00
fb
e7
fd
f1
f0
ef
fa
f6
ff
f1
ee
f4
0a
fb
02
ed
e9
eb
0e
01
0a
fc
ff
01
04
06
04
04
01
00
02
07
0a
09
0a
09
d9
df
e2
00
fc
f9
f5
f6
f5
12
0b
0c
f1
ee
e4
f7
10
04
10
12
19
08
02
fb
f7
ff
05
01
fb
fe
03
fc
f4
01
01
f9
03
01
00
fb
fe
00
f8
f7
f6
04
05
02
fd
00
00
02
06
04
fa
fa
fb
02
f8
fc
f9
f7
f1
f9
f4
fb
ef
e6
e3
0c
fe
fa
12
0b
05
fa
01
00
fd
ff
07
f9
06
0d
f2
e0
eb
f4
ec
f1
00
fe
04
eb
e2
eb
00
eb
fa
0e
ff
0b
02
01
fc
fe
02
fe
05
04
04
0c
0c
ff
11
0e
06
17
11
0a
14
19
16
ef
fd
ff
ed
ec
e6
07
02
ff
06
fd
ff
09
fe
fe
fb
00
fc
03
04
07
fb
e9
ec
09
09
00
f0
f7
eb
fc
0d
01
18
19
14
02
09
1b
19
12
14
f7
05
f8
ff
0b
f9
fe
0c
fd
00
08
0d
03
07
05
00
fe
0b
05
03
04
04
06
07
f4
00
fb
08
04
02
0b
08
07
06
04
06
0b
ff
05
11
03
0b
0e
09
0d
13
0e
0d
14
16
0d
11
15
0f
fb
10
e5
f1
05
e7
f8
06
e2
1a
17
1f
04
12
19
fd
08
0c
14
19
0d
0a
0d
0b
0f
12
0f
05
01
0d
00
fc
04
04
fd
01
13
24
d5
12
27
e3
18
29
e2
21
20
21
fa
f9
fe
e7
f3
f7
07
fb
fc
05
fc
fb
02
fb
ff
02
01
02
0c
09
09
f5
ea
e6
04
ff
fb
e4
e4
df
01
08
03
11
09
11
f4
f5
00
07
f7
08
f6
ff
fa
f1
00
f8
f9
03
fa
ef
fd
07
fc
fb
09
01
fc
0c
04
04
fe
fb
f9
fa
fc
04
00
06
05
03
07
06
04
00
05
02
0c
0b
13
0a
10
0d
07
13
0b
09
18
0a
0b
17
04
0c
1b
0b
07
fa
f0
fc
fb
ea
03
fb
e7
2c
1c
22
21
1a
1c
0d
f4
0b
21
11
11
11
12
0e
10
f9
04
ff
fa
fd
00
fa
fc
00
fe
fe
0a
f1
d8
0c
d2
e5
0b
e4
e6
18
fc
f5
00
f7
f4
f9
f3
ec
02
03
01
05
08
01
ff
06
00
fd
fc
07
f5
f3
00
e9
e4
f2
fc
ff
fc
ef
0b
f8
03
13
ff
1e
00
fa
1f
00
03
27
fc
ff
03
ff
fb
01
00
fb
fc
fd
fe
fc
10
15
fa
1b
1d
f9
0b
26
f0
00
f9
f8
04
ff
f8
04
00
fa
02
01
fb
02
00
f6
ff
fe
13
0a
fc
02
0a
ff
f8
06
01
16
03
fd
14
09
fc
26
14
f9
08
00
ca
07
e5
c3
0b
ee
c5
16
f8
00
28
f4
fe
26
f1
f9
f3
00
04
0f
ff
05
fa
fb
03
06
e7
05
0d
e0
07
12
e8
09
f2
ff
0f
f2
fb
ff
f4
f9
f2
f5
fa
31
f6
fa
23
f1
f2
1b
e7
e8
fb
e3
e9
02
e5
e8
fe
05
00
f5
08
fd
08
01
f2
e8
ff
03
05
f3
07
07
f9
12
1f
fe
01
1b
fe
05
32
0a
fe
13
1c
26
ee
1f
1d
fe
17
14
f4
01
06
fc
02
05
f8
00
05
00
fc
fc
ff
fc
fa
01
fd
fd
08
f7
fc
03
f4
fb
fe
f9
01
0d
0b
d6
04
10
cc
0f
14
d2
00
06
00
20
0b
04
05
f4
02
07
fe
0a
07
fe
05
ff
fe
01
fd
0a
0a
08
06
04
12
15
03
18
fc
0c
05
fd
09
06
f7
06
ff
08
04
0a
07
05
09
05
02
fd
01
fc
05
0e
03
0b
0f
10
10
20
1b
16
06
02
fa
13
08
0c
ff
fc
00
fe
fa
04
f9
f7
03
00
fb
03
0d
0a
0a
f3
eb
e8
04
08
04
f1
f1
ee
13
14
13
18
18
13
11
13
16
1f
15
1d
ff
05
f7
fb
05
fc
fe
05
f9
fe
04
06
fa
00
01
fa
fe
ff
06
09
02
f7
f1
ec
05
0d
fd
fe
04
00
fd
05
02
fe
04
01
1a
0f
ff
16
09
04
11
0d
0a
11
0b
08
19
0e
04
1e
17
0e
00
f9
f6
f7
f5
fb
ff
fc
ff
19
03
02
12
04
0e
0f
0c
15
0d
07
06
0a
05
06
09
03
0d
ff
ff
06
f8
f7
03
fc
f9
04
f2
f6
0d
f7
f8
0d
f5
f1
fa
03
11
0d
15
16
15
14
08
06
09
06
fe
07
06
01
04
01
fd
f6
f8
f4
f1
e7
e6
f4
f8
fc
0c
0c
0b
19
1b
1b
0f
10
03
0d
03
03
08
03
0b
15
08
0a
ff
fa
01
04
fd
04
07
02
08
0f
07
01
03
06
02
ff
06
05
f8
f9
fb
08
09
0b
07
03
02
fd
fc
fa
00
04
fd
fd
fe
fa
1b
06
fb
0f
04
00
18
01
f9
fa
f9
0b
08
01
07
16
13
16
f8
09
08
00
00
06
f5
ef
f6
f3
f1
fa
0b
f7
fd
14
05
ff
e8
f7
f6
f6
02
f0
10
09
f1
03
06
13
ff
02
0c
fa
fd
05
08
08
0c
02
10
07
fc
06
0e
f8
f2
14
f8
fa
07
ef
ff
f8
01
f1
fe
fc
dc
03
fb
e7
00
05
fb
06
04
f9
f8
fe
f0
f2
06
09
05
fd
07
10
05
07
16
f0
02
0c
ed
f3
fe
f7
f6
08
fd
13
07
f9
25
f5
fa
18
f8
fd
03
f1
00
08
f2
03
06
ec
01
09
ff
f5
02
02
f8
fe
ff
f0
05
fd
f5
09
fe
ed
0c
fe
1e
f7
f8
22
f9
ef
24
fa
ff
ee
f6
0b
fd
f4
01
07
ff
09
06
11
0e
05
11
09
01
0f
0c
f3
01
1b
ee
0c
29
f4
0e
0e
07
05
02
09
00
06
01
f6
fe
03
05
ff
03
03
fc
00
fb
03
0b
00
09
19
13
17
29
1b
16
26
1f
1e
f6
f4
f5
cd
d3
ce
05
02
03
fc
fb
fb
fc
fa
f9
02
03
07
f9
f7
f9
f6
f6
fa
f5
f3
f4
ea
e9
ec
e9
e9
ed
fe
fd
fb
f3
f7
03
e9
ed
f0
f9
00
fe
fd
01
01
fd
02
00
f4
f4
f5
f7
f6
f4
fb
f9
f8
02
06
09
f8
f8
00
f5
f8
fa
0b
0c
07
06
0c
08
06
0b
04
0b
11
0c
05
0f
0d
09
0b
0e
26
16
1a
40
14
1e
38
1b
24
e7
ee
f3
e8
ee
f4
ee
f4
f5
27
1a
2c
24
25
2c
12
12
1e
2c
1c
1e
1d
14
17
1c
0f
16
00
ff
00
f8
f9
f9
f7
f7
f8
f6
f7
e8
04
03
f6
fb
fb
ed
f8
03
fe
01
fc
f5
e7
db
dd
fc
01
02
f9
ff
fd
f5
fc
f9
fd
fe
fc
e0
e9
e2
f4
ee
f6
fe
fb
fe
fb
ef
fe
ec
f6
ea
0d
00
01
07
f8
02
00
f8
fe
fa
fa
f7
03
f7
fb
02
01
01
fc
00
07
00
00
0c
fb
ff
08
f7
fa
fc
18
0d
1c
17
1b
15
06
02
03
07
02
03
07
fe
00
06
ea
05
f9
f0
06
0b
00
0c
0a
10
13
10
12
0d
01
0c
06
fb
f8
e6
fa
f2
e1
fc
00
f4
09
0e
16
1c
13
22
1c
0b
18
07
0d
16
0e
04
02
0f
0d
01
03
fe
f9
fe
fb
fb
f7
fd
fc
fb
fb
f8
0d
09
ee
f3
fa
fc
e8
f9
f5
07
14
10
f8
0d
03
fd
ff
00
00
02
fb
ff
01
f9
fc
03
05
04
09
fd
02
00
02
03
fe
f8
0c
04
fd
14
0a
07
1c
1c
0b
1b
11
0f
2f
1c
03
fb
fe
02
f8
01
04
f5
f9
00
fe
fc
05
01
f7
03
f9
f1
f9
0e
03
f0
09
01
08
0e
07
03
ff
04
02
fe
02
0b
fa
fb
04
02
f3
07
02
fc
05
07
f7
09
02
0c
0d
18
18
23
08
f3
1c
0c
11
07
03
0f
de
12
0d
07
11
10
0f
f6
f7
fd
0d
0d
0d
fb
00
f6
f1
0c
0a
f3
01
f8
00
04
04
fb
fd
f7
f3
f2
f7
14
0b
06
1c
1b
18
f6
fa
f5
22
1f
1d
d0
da
d6
08
20
0e
02
00
00
fa
f9
f9
01
fe
fe
f6
f6
fa
f8
06
fc
f2
f1
f4
f0
f0
f0
ee
e7
f0
f8
fb
fb
fd
fa
f8
f9
fc
f9
f0
f5
f6
fc
ff
ff
03
03
02
06
06
07
f4
f7
fa
f6
f6
f5
fa
f9
f8
00
03
04
03
05
05
04
fd
fe
0c
0c
08
06
07
05
01
05
03
0e
12
0f
0f
10
0c
0c
07
07
16
18
15
15
18
18
15
19
20
e9
e6
ee
ef
f4
f5
f5
f7
fa
2c
29
2c
22
27
29
16
17
16
1b
19
15
12
19
1a
15
15
15
fa
f9
fb
f7
f9
fa
f9
f9
fd
f8
01
01
03
fe
09
02
06
0a
f0
02
11
fb
02
0f
f6
d5
07
05
06
05
04
00
06
ff
00
05
01
00
fe
04
03
fd
05
04
00
01
05
02
0d
10
09
04
19
00
ff
04
fe
02
0c
06
03
06
00
fd
ff
00
fd
01
00
ff
03
01
01
02
04
02
02
0a
01
03
04
01
06
04
04
06
02
01
04
fc
0c
02
fe
08
00
fc
02
ff
fb
0e
01
01
17
0c
fc
0a
09
02
f7
fe
08
fb
fc
ff
03
04
05
01
05
08
01
08
0a
04
09
0b
10
17
11
19
12
11
0e
16
0f
fa
06
07
f3
0f
09
fc
16
09
02
03
01
01
00
00
fe
fd
01
02
0e
16
0f
0d
0c
02
14
09
fe
fa
0b
f9
f2
fe
e8
00
06
03
f9
fe
05
f4
00
ff
f9
07
f4
f2
f3
0b
02
0d
03
f6
f4
0f
13
0c
e8
02
f5
f6
0d
09
1c
01
0e
fd
fd
0d
fc
04
06
fc
02
05
02
09
03
03
09
f8
01
fd
04
fc
fe
03
f9
fb
ff
fe
00
05
09
0c
0b
f5
f7
f5
02
03
01
01
04
03
00
04
05
ff
02
fb
0d
fe
02
0c
f9
00
10
07
06
02
09
04
07
08
0c
fe
07
f8
0c
0c
02
03
08
03
fa
f3
10
fc
ff
13
fa
0b
0d
04
06
07
0e
15
0b
ff
0c
02
07
fd
ee
06
ff
f0
08
fb
ee
25
16
1d
2a
27
2e
20
1a
1a
2a
04
0f
10
f1
f5
f7
dc
d7
02
fb
fe
fc
f9
fc
fd
f8
fc
07
03
01
fb
f9
f6
05
fa
fe
f4
fa
fa
ef
f0
f3
f3
f8
f8
0b
07
0a
08
01
00
0d
05
07
fd
07
fd
ff
05
ff
07
05
ff
f4
f8
fd
f3
f5
00
f2
f6
fd
02
02
06
fc
fb
01
03
fd
02
02
02
ff
01
03
01
02
06
04
14
0c
0e
14
0f
0e
13
12
0d
18
17
1b
14
13
18
10
16
19
f9
f6
f2
f4
f5
f2
f5
ff
f6
28
31
30
24
36
2f
26
36
2a
18
15
19
10
14
10
12
17
19
01
06
01
fd
02
f2
fb
ff
fa
0a
11
0f
1b
1c
1c
0b
09
04
23
22
20
d2
d3
ce
e2
e4
ef
fb
01
00
f6
fb
fc
fb
ff
fe
fc
fd
fd
f5
f9
fb
fe
fb
fc
f6
f0
f1
f2
ef
ef
fb
fb
fd
0b
06
02
f4
04
03
f4
e9
ee
09
f5
fb
0f
fe
02
09
02
03
fb
fa
fe
f6
fa
fc
fc
fb
fc
02
03
03
f9
fb
fb
fc
00
fb
09
09
07
06
0a
07
02
08
06
19
14
14
12
0d
0c
07
fc
fd
16
1c
1b
1f
15
19
13
13
1b
eb
eb
f0
f5
f3
f6
f5
fa
fe
28
24
28
2e
2c
23
14
22
20
19
1a
10
14
27
10
25
1c
18
fd
fa
fa
f8
fa
fa
fe
fb
fd
00
09
e2
02
03
e7
f9
fa
e5
e5
f3
e5
e6
ee
df
f7
f5
e8
04
00
02
05
fe
fe
03
fe
fe
01
ff
fd
04
ff
f8
fe
fc
fa
fb
ff
04
fa
ff
09
00
06
05
fb
f9
fa
ea
e7
f0
ed
f8
00
f7
fc
fd
f7
00
fc
f5
01
fd
fa
e1
f0
fc
e9
e5
f0
e4
eb
06
03
08
00
fe
06
08
02
0a
f9
01
fb
fa
02
f8
fb
03
fe
05
14
f2
01
0e
ef
02
04
f1
01
fb
f3
f9
f7
f2
f5
fd
f7
16
f9
05
10
f2
ff
0f
fb
0c
f4
fa
fe
f0
f4
ff
ec
f3
ff
f9
07
02
fb
0c
07
fb
0e
0b
06
00
d4
06
07
c0
03
05
d6
0f
14
06
1b
18
11
15
1a
17
21
19
1b
16
1e
0f
f3
f4
db
00
00
fe
fa
f9
fa
fb
f7
f7
f1
fd
f8
f4
d9
f8
f3
ef
f4
03
fc
00
fa
f4
fa
fc
f6
f9
02
06
07
06
04
01
fe
02
00
fe
02
f9
05
02
fc
04
04
ff
fb
fc
fb
f3
f6
f2
f9
fc
f7
fc
ff
06
06
08
07
f8
f9
00
07
03
01
0b
06
06
07
03
05
0c
0c
03
10
0e
0c
0e
0d
0c
0e
0f
14
0f
1c
18
15
16
19
f4
f5
fb
f8
f6
fe
f5
f4
fe
22
1d
21
24
25
28
21
22
26
14
10
12
22
12
0d
21
19
13
ff
00
fe
fc
00
fe
ff
ff
fd
12
0a
08
23
13
12
22
1a
1e
28
27
21
f3
0a
0b
cb
d3
d3
ff
01
02
f8
04
fe
f9
fa
fd
04
03
05
f8
f7
fc
f2
f1
fb
f9
f9
f9
f0
ee
f0
f4
f3
f4
06
06
05
f8
fd
fd
f2
fc
f9
02
01
02
0d
d6
05
0b
06
01
f9
f9
f9
fb
f6
fc
fc
f6
f9
07
02
06
02
fd
ff
fc
fd
fe
0d
08
02
0d
08
07
03
05
06
10
13
0d
0d
1a
14
0d
14
10
1a
18
13
19
21
13
18
1a
16
f1
f0
f2
ed
ec
f3
f6
f5
f5
18
1e
22
19
15
13
fe
09
10
0f
1a
1a
15
16
14
1a
1a
17
ff
00
04
f8
f6
fc
f5
f4
f8
e7
06
2d
dd
0a
1b
e3
04
19
fc
ed
0a
05
f1
0e
12
f9
14
08
ff
ff
0a
fe
00
0b
fa
fd
01
fd
02
0f
07
09
f7
f8
fc
08
0a
fd
f5
f8
f1
15
14
06
13
08
07
fe
f8
fb
0f
fb
fe
eb
fa
fd
e4
01
05
e7
01
00
03
ef
f4
08
e8
f0
13
e2
f0
05
03
04
fe
f9
fb
09
fe
05
fa
00
ff
ff
04
00
fc
02
fe
01
f0
ff
fe
f3
fe
00
00
f5
05
03
fd
f9
eb
f6
f5
01
03
f5
2d
f3
f3
35
f0
f2
37
eb
0f
fd
0f
16
01
0f
0a
ea
0d
f2
fa
00
f5
fe
01
f3
f4
fd
fd
03
23
fb
00
21
03
01
28
00
04
10
06
0c
09
07
05
13
ff
f8
07
ec
fd
01
fd
03
04
05
fd
fb
02
fb
fd
fe
f8
ff
fc
fb
fd
0a
0a
09
03
01
01
0a
10
0d
ec
f7
f9
02
04
01
f9
0c
04
0a
18
22
06
07
03
fa
03
04
05
05
04
fe
07
01
ff
01
01
05
00
02
01
01
02
fe
05
05
f9
fe
ff
fc
fd
fa
ff
01
01
00
03
05
fd
ff
03
fe
01
fa
0b
04
04
ef
00
fc
01
00
00
f9
fc
03
fe
04
03
04
06
07
f8
09
07
fd
09
07
0b
ff
1f
01
00
04
07
1a
1b
fd
06
19
08
07
05
03
03
ff
fe
01
09
fc
fb
ff
02
ff
03
11
07
0d
16
11
07
0d
0c
02
25
0c
09
0a
05
fa
17
11
0a
02
ff
00
f4
fa
fe
02
fb
01
ff
f8
fa
05
ff
02
11
0c
03
05
0d
0f
00
03
04
f0
f7
fd
02
03
06
18
16
19
f9
fb
04
fc
02
01
ff
08
03
fe
02
05
01
01
ff
fe
01
02
03
fc
01
fb
ff
f9
ff
02
fd
06
07
01
fe
06
06
de
03
05
fd
fb
09
f8
fb
01
f8
f8
fd
04
fe
fc
03
0a
08
0b
03
02
0d
0e
0a
0f
0c
0c
06
0a
07
03
0f
07
0e
00
08
12
05
05
0e
05
08
ff
fb
fc
02
ff
ff
02
02
05
08
03
00
02
fa
f4
06
fb
f4
04
e7
e4
05
dc
df
08
e7
e3
03
fa
05
02
f9
ff
f5
eb
f8
fd
fa
06
ff
fc
04
ff
01
fe
fd
fd
f3
fd
fd
fd
f3
f0
f4
0c
0b
0a
fe
02
f7
0b
0e
01
29
28
23
f3
f6
05
0a
f8
0b
fc
05
f9
ff
06
f8
fb
ff
fd
fe
04
01
04
09
09
03
06
0a
08
03
fc
f8
f9
fe
02
01
02
03
00
00
00
fd
02
04
02
03
04
0c
ff
04
01
fb
05
05
00
00
f8
00
fc
fa
f2
01
f6
f3
04
ff
f0
0a
00
f6
03
00
f3
1a
0d
0d
1f
ea
fd
2b
f2
f8
ee
e4
ee
f7
f7
f5
12
06
0d
03
f9
05
ff
f8
06
06
fc
06
f5
f8
d9
f9
ed
e2
06
ef
e7
07
14
f8
f5
11
06
03
16
09
0c
00
fb
04
02
fe
04
ff
ff
0a
04
0a
0b
09
07
eb
ef
ec
fd
fd
f8
ef
ec
f4
0e
0d
12
f8
f5
fa
e2
e0
e3
f1
ec
fd
f1
04
06
f3
04
03
f6
fa
08
f8
05
00
fd
04
01
f7
01
ff
07
0a
03
f1
f8
f5
03
06
0a
00
fb
fc
02
00
ff
fd
fe
fd
f2
01
f0
ee
08
e8
f7
07
e8
f6
04
f7
eb
fc
e7
fd
0f
f8
16
e8
fe
15
e5
06
14
e3
0a
03
fd
05
f6
f5
00
ec
f2
05
f6
02
fa
f4
0a
f9
f7
0b
fe
fd
15
cd
01
14
d1
03
15
d4
ed
08
0b
e9
fa
fd
e4
f1
ef
08
ee
ef
0e
e4
ea
10
ed
ed
e8
f2
09
ec
ff
08
f4
f9
07
f3
08
07
f9
03
fb
f1
f0
f4
01
f5
f3
0a
f9
f7
14
11
12
f9
0a
f5
ea
f4
f3
ea
fa
00
fa
01
fd
fa
0f
fa
fa
02
f9
00
fb
01
fe
01
00
fa
fb
f8
05
06
01
04
02
ff
0b
05
fe
c6
22
03
d1
21
03
dd
1a
01
e7
eb
f4
ee
ef
f2
ef
f2
f0
21
ef
04
0e
f2
03
07
ee
00
fc
08
fe
fd
02
fd
fd
03
f9
0a
06
02
09
fe
01
0d
fb
fa
f7
ef
fd
ff
ef
fd
04
fa
0c
04
f7
fc
07
fc
00
02
f6
fc
00
fd
02
00
00
ff
f9
f8
fa
e2
e8
04
f9
eb
f2
fb
f1
f8
ff
ff
01
05
02
ff
05
02
01
01
fb
f8
01
ff
fc
ec
f2
f2
f9
fe
ff
02
01
01
03
05
05
ff
fd
fb
e7
e8
e7
f2
f5
f0
fc
01
02
f1
fb
00
06
06
ff
01
fb
f4
00
fe
fc
09
01
fb
f7
fd
04
03
05
08
ff
fb
01
ff
03
02
05
05
01
04
06
02
fc
fd
02
f3
f5
fd
f9
ff
fd
03
02
09
f2
eb
f4
1d
0f
f9
03
05
01
02
04
f8
0d
10
06
fa
e9
f8
f1
00
fe
f2
f3
f2
f5
f5
f1
f2
fa
02
ec
f4
f6
01
fe
fd
00
01
02
03
02
fe
0d
fc
f4
06
fb
f4
02
f6
f4
f1
e8
03
ec
dc
f8
eb
db
f5
10
f2
03
13
ee
ff
11
f0
fa
00
ff
fc
fb
fa
f8
f4
ed
ea
01
05
05
ff
fd
07
04
01
12
f2
f8
02
eb
f0
ff
f4
fb
f4
e9
15
02
e2
13
fe
e7
17
05
00
01
04
03
01
05
05
00
07
09
00
00
02
00
ff
06
04
07
e4
fa
ff
df
ff
02
e3
f9
0b
e2
16
ea
e8
17
e3
e6
1e
e2
f5
ec
00
ec
ee
fd
f5
f8
ff
04
f9
06
02
fe
06
03
00
07
fa
fd
0c
f8
f9
08
f9
fe
02
fa
09
0a
ff
03
fa
ff
00
f4
03
01
05
03
00
05
04
ff
03
f8
f6
03
f3
f7
f8
f7
f9
f0
00
05
0c
fe
01
03
ee
f5
ed
03
fe
00
04
fd
fd
04
fd
fe
f9
f5
ec
e1
e1
e9
f2
ef
ec
07
00
08
f1
f1
f8
09
02
10
04
fd
f7
e4
e7
f1
ff
f9
01
fa
ff
ff
00
02
04
05
0a
05
01
05
01
01
02
fd
fc
f7
f6
f8
f3
f2
14
12
19
07
04
03
00
01
00
03
01
00
02
ff
01
04
07
06
04
fd
fb
0e
fc
f9
fd
04
09
00
03
00
fd
fd
f6
00
fe
fa
00
ff
04
f6
ff
02
f4
fd
07
08
f8
0b
0a
f6
0a
ed
f3
f8
ff
f6
f9
03
06
ff
fd
fe
04
fa
fb
04
00
02
06
fc
f5
fb
ef
ef
f7
fd
f9
fc
dc
d4
e0
f1
ec
e1
fa
f8
ee
fe
01
07
fc
00
03
fe
fd
00
12
20
27
f9
f7
f2
e7
e9
e6
f2
e4
e0
04
fe
06
1b
1e
1f
fc
fe
f8
f8
f2
eb
f7
fb
00
f5
fd
ff
f5
fb
00
f2
f9
fd
03
04
f5
03
00
f7
01
03
fa
01
00
fc
e0
e1
e2
30
28
35
00
05
04
03
04
ff
02
00
fe
f9
f1
f3
f0
f4
fc
ec
f0
f4
01
f9
fb
fb
f0
f7
fe
f3
f3
f8
f5
08
03
06
0a
00
fe
05
04
fa
f7
f3
f1
fb
fb
ed
f6
fd
fc
0d
f1
f0
03
fc
f4
fb
01
01
fe
ff
fe
fe
01
fd
ff
0e
0a
0c
0b
ff
0f
0f
fa
0b
f0
ed
f8
e8
f0
f3
f1
f3
ef
2f
09
f8
30
06
f4
32
0c
f5
00
ff
fc
fb
fe
04
f1
f7
f5
f7
02
04
fc
03
fa
03
06
05
fe
f3
ff
ef
eb
fd
f0
f6
0a
d2
e4
17
d1
ed
17
e4
f0
1b
00
fc
00
00
01
fc
04
04
f6
fb
04
fc
ff
02
fc
0c
07
0b
0e
f4
00
0e
f1
05
0e
ee
08
ea
fb
1b
e9
fa
1e
f1
04
20
fd
f4
fd
ee
eb
00
f6
e9
ff
fd
00
fa
fc
fd
ff
f9
ff
07
ef
fb
09
fc
f9
0a
fb
f4
0e
f6
01
f7
f4
00
f4
f7
fd
f1
00
fd
fe
fe
fb
ff
fd
fe
ff
f8
02
14
fb
06
25
f7
01
18
fa
0d
40
f6
02
25
ee
fb
19
df
f2
08
df
ed
08
de
ee
02
fe
ff
f6
01
fa
fc
fc
ef
ed
06
03
fb
f4
05
ef
f9
11
05
06
06
15
00
ff
1b
07
f9
18
35
1a
f7
40
1c
fc
37
11
01
01
08
04
00
09
f7
00
07
f3
04
02
07
00
ff
03
ff
02
07
f8
fe
03
fa
fd
05
f7
01
00
0e
dd
0b
0f
d6
16
15
db
0f
ff
fb
1c
0c
fb
08
0f
fd
0b
00
06
ff
03
07
09
01
04
03
00
09
02
01
09
ff
12
ff
0f
03
09
19
07
fd
18
05
f7
16
05
01
07
03
02
02
00
fe
00
fb
02
01
03
0e
f7
00
0d
fc
ea
07
0b
f7
02
09
f4
fc
07
fb
00
fd
f9
05
fd
fd
00
fb
09
06
fd
0c
07
01
02
fd
f1
ff
0b
0f
00
08
11
16
11
18
fe
0a
0e
0c
00
09
0f
fc
0b
08
ff
04
12
fb
08
10
03
05
05
02
fb
08
03
00
0b
05
03
04
00
06
07
03
fe
00
04
09
06
06
06
08
00
03
06
01
fa
fe
fb
f0
f9
11
05
f4
02
0b
13
0c
0f
1c
10
0d
09
06
07
00
09
0a
02
0a
0a
05
0c
09
fe
1a
18
08
15
15
03
17
15
e8
17
18
f2
12
10
f2
10
13
05
06
06
08
03
06
0a
04
07
fc
fa
f7
fb
02
01
f0
ef
fa
fc
ee
ed
05
f9
fe
fb
f8
f0
fb
ff
02
fb
02
ff
ff
03
04
fe
fd
fc
fa
03
05
04
00
fc
09
03
01
00
00
fc
04
04
02
e4
dc
e3
f9
ee
ea
f3
f2
f4
f8
ff
05
10
0a
03
ed
f4
00
fe
00
f8
06
08
fa
f7
f7
ef
01
01
02
01
ff
fe
01
fc
fc
fe
00
fd
01
05
fb
03
08
08
e9
ef
fc
f8
fc
f9
fb
f6
f5
fe
f8
fd
07
f7
fb
1b
02
f8
03
04
05
ff
03
09
ff
04
13
ff
f4
fa
fd
e7
de
f2
f3
ed
f4
02
00
eb
de
e6
01
ff
f5
fe
ff
00
fe
00
fc
02
04
03
04
05
00
ec
ef
f2
fa
f8
fb
26
05
fe
01
f9
ff
f8
ed
eb
f8
fb
fc
fc
01
03
ff
02
02
ff
fa
fb
1f
40
33
eb
eb
ef
fe
04
05
e1
c0
cd
0c
09
07
32
20
1d
ec
f0
ed
ff
f2
f2
f5
f5
fd
f8
ff
fa
f4
f7
fd
f7
f6
eb
04
04
f9
03
01
f9
05
09
0f
ef
ee
f2
e2
e4
e1
fc
fb
01
ff
02
01
02
00
fc
ee
f3
f2
f8
fb
fa
f2
fa
04
09
07
03
02
fb
fe
00
ff
01
fe
fa
05
f8
f8
03
02
03
06
18
04
18
ff
ff
fb
f4
f4
f4
10
10
0e
f5
00
02
f5
f7
f5
ff
fd
f2
00
06
02
ff
ff
00
12
0c
0a
11
13
0b
1b
19
08
2d
1c
1c
fd
f4
fa
fe
eb
f1
00
02
02
00
01
fe
fd
fa
fd
e4
ee
e9
08
0b
13
f6
eb
ef
03
fc
03
e8
ef
ec
00
00
f8
00
00
03
d9
d6
e5
0d
05
13
f6
01
fe
f6
0a
04
f5
08
fd
f6
fa
fc
fc
f9
00
f8
f9
04
f4
00
02
01
05
0c
cc
c4
c1
02
06
fd
03
08
03
ff
05
03
01
0a
0c
14
10
09
00
ff
00
10
0b
0e
1b
08
07
1c
22
17
f7
fc
ed
ec
f8
e6
e4
f9
df
11
ff
0d
0f
f8
06
03
02
ff
1e
16
04
12
10
02
0d
24
08
02
01
06
f9
01
09
fd
02
03
ff
f8
fb
f5
ea
f5
fd
f0
fb
11
02
1c
ed
f5
02
c6
d7
e8
05
fe
fa
03
fe
fd
04
01
fd
f7
f8
f6
f7
fb
fa
fd
fe
fb
0b
0e
0f
fb
fd
fb
ff
00
ff
e9
e7
eb
cd
db
da
ed
f1
f2
f4
fe
04
fd
07
0a
fa
05
08
00
fe
f3
04
04
f4
06
06
fa
05
fd
fa
ff
00
ff
01
fe
fc
fd
fc
f5
ff
02
03
01
03
01
fe
ff
f7
ff
fa
f6
fd
ff
fc
ef
f1
fa
f5
f1
02
f4
ef
fb
f8
f5
08
fc
fb
0e
ff
00
08
d8
d1
e8
ea
e4
f2
f8
e1
03
f3
ec
f5
f4
f9
ef
01
ff
fa
fd
02
05
fb
03
05
ff
02
05
f5
06
07
f3
05
03
f4
00
ff
fd
00
f9
fc
f4
f3
0e
fe
fe
fc
05
01
fb
fe
03
fc
00
02
f9
ff
fa
fc
05
0b
e8
e5
e9
08
00
02
fa
fb
f3
18
23
0f
0c
11
15
02
f9
0c
15
09
1a
f0
03
f4
f3
0a
f2
00
08
f5
ff
04
06
fb
01
07
f9
01
0a
02
01
01
0e
0a
04
07
05
fe
fb
07
f7
fb
13
fc
00
13
fc
07
03
f7
0a
fc
f7
0c
0a
f6
eb
ea
f7
f8
ee
ed
05
07
03
01
09
f8
fd
fd
eb
fe
fa
ea
ea
eb
03
fc
f0
05
f8
f0
05
ee
f8
ff
fc
f2
fe
f7
f4
00
fc
fb
09
fe
fc
0d
fd
fd
0a
f6
0f
0d
f6
0e
09
ed
11
07
fd
f5
f6
fe
f8
fa
fb
f3
fa
eb
12
07
ee
16
04
ed
12
ff
fe
fe
fd
01
03
01
ef
f3
f1
00
f9
ff
01
fc
01
12
07
0a
03
fe
fc
fd
f8
f3
04
00
ff
f2
e3
f4
f8
de
f6
f2
e5
f9
02
fd
ff
00
f9
00
fe
f5
fe
04
02
06
02
fd
fe
08
06
0e
38
ff
fd
3f
ff
fc
40
fa
f6
f0
ec
fd
f8
ee
01
fd
ef
ff
eb
02
fb
ee
fc
f3
fa
11
fe
fe
02
fc
00
fe
f9
fe
fb
00
05
e3
09
09
e1
10
0e
e7
16
01
f8
f6
f9
fd
fa
fc
00
ff
fd
fd
03
fe
fd
05
ff
ff
06
12
ee
e3
02
f8
df
12
00
ed
25
11
e1
1e
08
01
12
03
f7
02
0a
05
f9
04
02
f8
fe
04
fa
01
fe
02
fc
00
e7
e7
f7
12
10
04
0f
16
fb
0c
14
0b
23
17
09
1d
f5
09
09
f7
16
fa
04
fe
fd
fd
fe
00
fe
fb
f7
09
12
fb
06
16
fc
0e
12
05
0f
04
02
09
fa
fe
06
ff
02
03
00
00
02
fd
01
09
06
05
fa
fc
f5
ff
04
fb
fb
05
19
fe
00
20
08
00
16
1a
05
0b
ff
f3
07
f9
e9
0e
ec
e1
20
01
fd
19
07
fd
1c
07
03
f9
f6
ff
05
f4
00
02
f0
fd
00
fc
ff
04
f9
ff
ff
f5
fc
fe
c3
09
fc
c0
14
f7
c2
17
0b
04
e5
10
02
e4
fb
f4
de
07
02
fe
0a
04
00
07
02
02
fe
01
fe
fa
f8
fb
e8
ec
f2
09
06
01
16
01
fc
25
02
05
03
f6
f5
01
f5
ee
f2
fa
f1
fd
ff
02
fa
fe
02
f7
ff
04
10
1d
f7
07
2a
f4
0c
37
f9
fd
03
ff
00
05
00
07
0a
07
04
02
fd
01
04
fd
ff
02
fc
05
fb
ff
02
02
fc
fc
ff
00
06
f2
05
14
f5
ff
25
fb
04
fe
d8
1e
fa
c0
1b
e9
cd
1c
02
f4
f5
02
eb
f1
07
f3
f0
fd
06
fd
f7
ff
f6
fd
ff
f2
f7
00
0d
ef
fd
0a
f2
00
0b
fb
fa
20
07
01
2a
08
09
24
18
23
22
04
0e
17
f7
fc
06
03
00
01
01
01
03
fc
f3
ff
ff
ff
fb
02
ff
fd
f0
ea
e6
00
fe
01
f1
f0
f3
08
0e
0f
19
2c
1a
ec
f4
0f
15
1a
14
05
07
fc
ff
07
02
03
08
00
04
09
fc
fc
01
ef
ff
01
ef
00
00
00
fe
00
ff
07
09
0d
02
02
fc
06
07
02
fe
01
fe
2c
0b
09
2b
06
0e
2c
09
0c
f4
0f
0f
fa
19
1c
0a
1b
22
f6
f3
13
f7
f4
0c
f8
f9
17
ff
06
06
06
22
18
ff
13
14
10
12
0c
1f
09
04
12
0a
05
fb
00
0a
fc
fe
08
f9
fb
06
ef
ea
f9
e6
e7
f4
db
d0
e3
f6
f1
ee
f1
00
f6
f4
fb
f5
07
00
f9
05
02
ff
08
01
fb
ef
f4
f0
d8
c5
cd
fc
fd
05
10
0f
08
f2
f1
f7
09
01
04
f9
e6
e5
e8
da
e5
e4
d9
e2
f8
ff
0d
fb
00
0c
f7
02
0c
02
03
f9
00
02
f8
04
ff
f2
f0
f3
eb
40
2a
35
f6
ee
ee
fd
fb
fb
02
ff
fe
05
f9
fb
f0
fc
01
ec
f3
f7
fe
fa
f2
ec
eb
f9
fc
f0
ea
ee
f4
e9
00
02
0a
04
04
11
fa
04
13
e3
d4
f4
ea
d8
f7
f9
ea
fe
e9
ed
ee
f0
f3
ee
0c
00
ea
fc
ff
03
f9
fe
02
fd
02
fe
0e
0c
fd
10
12
04
09
0e
fe
1e
01
07
fa
f2
02
fe
10
1f
01
0f
f7
ff
06
f7
03
0c
f7
03
fd
f8
03
01
04
02
fe
f7
fc
06
02
f4
ff
f5
f5
fe
fd
00
f2
f3
f3
f0
f2
fb
fd
08
f4
dd
0a
ec
ec
02
f1
db
01
00
ff
02
fd
fe
fe
02
fc
fc
fb
02
04
fd
00
fd
fa
fe
01
17
ef
f6
12
ee
f5
17
ec
fa
0a
d9
18
09
e0
14
15
ed
12
fd
03
fd
fa
f7
fb
f6
06
11
fa
fb
f1
fe
f9
ee
f8
01
f7
0f
fa
15
1d
07
15
04
fb
0f
02
fa
f0
fc
ff
f0
fb
f5
f9
02
fd
fe
01
fd
01
00
fe
03
0a
01
04
1a
0c
0d
18
02
ff
2a
22
27
03
ef
08
d7
d7
d3
06
04
05
fc
fd
01
fd
f8
fd
03
05
05
ef
ef
f4
eb
f2
ef
07
fe
00
09
02
ff
06
fe
01
fd
06
01
f2
ff
fa
f6
08
07
fa
04
00
f8
ff
f3
fa
04
f3
fd
fd
f9
fe
00
fb
ff
04
06
0d
08
05
fe
fd
fa
ff
ff
05
0a
0a
0d
0c
0a
08
0e
05
07
08
12
17
01
12
08
01
16
ff
11
09
11
16
11
0e
18
17
10
f7
fd
fc
f0
fc
fc
f3
fd
f8
12
32
17
1b
3a
25
13
2c
22
15
29
15
19
16
0d
0f
16
0e
02
01
09
fd
ff
02
ff
00
01
16
10
0e
23
1e
1b
27
22
1c
26
24
1b
04
0a
10
d5
e6
e6
fd
fe
03
f9
f9
fc
f8
f9
fa
ff
00
02
f6
f8
f7
f6
f9
f7
f5
f6
f7
ec
eb
ec
e1
d9
e2
fd
fd
fb
f8
f9
f7
f4
f5
f5
fa
fa
fb
fc
fb
fc
02
ff
fc
f9
f8
f7
f8
f6
f6
f9
f5
f5
08
0a
0d
fa
02
fd
f0
f0
f0
07
07
08
09
08
07
02
07
06
0d
0a
09
0d
09
0c
0e
0c
0b
15
18
16
1a
1a
17
1c
1b
19
f2
f2
fc
ee
f0
f9
f3
f7
fc
30
21
26
2e
2c
2d
28
2c
2b
2b
1b
16
20
1d
1a
1b
1b
1c
fa
f9
fa
f5
f5
f7
f4
f6
f7
ef
fb
07
fb
fd
fa
f2
f3
f2
f2
fb
fb
f7
fe
fa
04
05
f8
04
00
fe
02
ff
fd
00
01
fe
fb
fa
f8
f6
f7
ef
08
fb
fb
09
0c
0f
fd
fd
05
fb
14
04
09
01
01
08
fe
0c
0e
f8
08
fa
03
fd
00
05
fe
09
06
01
02
07
03
05
09
0c
f5
f3
05
03
fc
01
1a
1a
21
20
31
28
07
fd
fa
09
00
01
0d
02
07
07
fb
fb
0c
fd
f6
10
f5
f8
fd
04
0d
00
0b
09
f7
00
fa
05
07
fd
08
08
f9
0c
0c
01
fe
ff
0f
08
0a
10
0e
02
10
fc
f3
fa
01
f5
f6
01
00
01
fe
03
fc
ff
05
ff
00
02
fb
10
05
fe
1f
1a
11
27
25
1b
28
23
1d
fe
fe
fb
d5
d3
d9
03
03
03
fb
fb
fb
f9
fa
fa
05
07
08
f5
f4
f4
f1
f1
f3
ef
ef
f4
eb
ea
ee
e9
e9
ec
f6
ee
fa
f0
ee
f3
f2
f2
f2
ff
03
01
fd
04
00
00
04
00
f4
f2
f7
f6
f6
f7
f6
f2
f5
05
07
0a
fe
fe
01
fc
fa
fd
06
07
06
09
09
08
03
05
07
09
0d
08
0d
13
11
0e
0f
11
10
16
1a
12
15
16
15
19
1a
f0
f1
f5
e6
ea
ef
ef
f7
f7
34
40
2c
26
22
24
15
27
20
35
3b
22
1f
1a
16
10
16
14
fe
f9
fa
f7
f6
f7
f5
f4
f5
f7
08
fe
f8
05
ff
f3
04
fe
11
fe
e2
0a
eb
df
0e
f0
ed
d9
04
05
c0
06
08
d9
02
09
05
07
06
fd
fe
fd
ee
f6
fc
09
f9
fb
08
01
fe
0a
0a
ff
00
fe
f1
f6
e8
e9
f2
fa
07
f4
f2
fa
e9
f2
01
ef
f2
ff
02
02
02
01
00
03
02
02
ff
02
f8
fe
05
fb
fd
15
0c
09
fd
0f
fc
f4
0f
fb
fc
0f
f9
d5
f1
e0
c0
f0
e6
c1
ee
ea
02
ef
08
18
f3
eb
0c
f4
f1
f7
00
0a
f6
fc
fe
f9
f7
02
07
03
fb
0c
fd
f7
0a
fb
fb
fa
f1
f1
f8
fe
f5
fb
fd
f6
fe
00
02
fd
ff
01
fd
00
02
0b
14
1b
ed
f3
fa
07
fe
0c
0a
06
fe
03
fd
f7
02
f6
ef
13
ff
f8
19
03
01
13
01
fe
08
07
00
11
14
15
fb
ff
02
01
0c
0a
e5
ea
e7
0e
0d
0d
2d
22
28
f3
f2
f9
f1
f2
f9
df
f3
05
e3
fa
f7
e6
01
fe
f3
f7
f0
04
06
f7
08
0d
f2
0a
04
09
f1
eb
f0
01
fd
fe
01
03
05
06
02
08
fe
ff
03
e2
28
f8
e1
20
f1
dd
2d
f1
12
03
14
00
f5
05
fb
ff
0e
fd
fa
0c
f0
fd
07
ed
f8
09
08
0d
1f
0d
02
16
13
f6
15
06
05
0c
f5
09
05
f4
fa
ec
02
ff
03
01
00
05
01
fd
06
00
11
0e
0b
17
14
11
0d
fe
20
26
2f
fe
05
10
0b
fd
09
00
fb
fe
02
fa
fc
fd
f7
00
f5
f8
ff
0a
04
0c
fe
f8
f6
0c
0a
02
ef
ee
e7
00
01
01
03
09
06
ef
f7
f8
01
fe
0b
f3
07
02
f4
06
03
00
13
02
f6
ee
f1
fc
f1
c0
fa
e4
e9
00
07
05
fc
00
f7
f3
f5
f5
fd
0b
05
fd
08
01
f8
08
01
06
f9
f6
12
ff
fc
0f
fc
f5
0d
0c
13
0b
09
07
08
13
08
fa
05
ed
ed
ff
06
f1
0c
f1
1c
05
17
14
0e
15
00
02
10
11
ff
0c
fe
fa
08
fa
f7
08
fb
0b
ff
f9
05
fb
fe
09
f8
13
0c
0b
22
1a
13
26
23
19
27
20
1e
e2
df
e6
ce
ce
da
02
02
03
f9
fa
fc
fb
fc
fd
04
04
05
f7
f8
f6
f5
f5
f5
eb
ea
ec
e8
e6
e7
f2
ee
f3
ef
ea
f8
fb
f9
f8
ee
ef
f5
fd
fb
fc
04
fe
00
06
09
0c
fa
f8
f8
fb
f8
f8
f6
f2
f6
03
03
07
f9
f9
fb
f9
f9
ff
0c
0b
08
0a
09
07
06
05
03
10
0e
0e
0c
0d
0c
05
0c
08
19
16
13
18
18
18
1b
1b
1c
e7
ea
f3
e5
e9
f1
ea
f2
f4
33
31
20
23
1c
1a
24
27
24
40
2f
1b
25
0f
0e
1b
19
1f
fc
fd
fd
f7
f7
f8
f7
f6
f9
f6
f7
f9
05
00
06
10
10
14
37
30
3c
fc
ff
fd
f6
f4
ee
04
04
03
fe
fc
fe
f9
f8
fe
f6
f4
f7
04
01
05
f9
f6
f2
07
0e
04
f3
f8
f4
0b
0d
0b
08
ff
08
37
33
40
0b
0a
05
06
ff
fc
03
06
06
04
04
04
f7
f9
f9
f8
fc
fc
fc
f8
f7
0b
06
ff
fb
fc
ff
07
09
07
02
02
05
01
fe
05
fc
fb
fc
10
08
00
01
04
fc
06
04
04
0e
10
0c
0d
0d
06
11
12
0e
f5
fd
f7
f3
f8
fa
03
09
0b
12
15
0b
09
07
01
fe
07
01
02
ff
03
17
10
1a
06
02
04
f8
fd
07
fa
f8
01
ff
fe
05
1b
20
08
24
32
15
0a
20
07
11
07
06
de
d7
d0
07
fb
0a
02
fe
fe
fe
fb
fe
fa
fa
fe
00
fd
ff
fd
fd
fc
fd
f6
fa
ff
ff
fa
fa
fd
ff
0a
11
0b
0c
0c
07
0e
09
0b
0d
13
0d
fe
06
06
00
fc
ff
02
01
fd
f7
fc
fc
f7
f2
fb
f5
fb
f5
02
ff
f8
fb
fe
fb
04
06
03
00
03
00
05
04
06
00
03
05
08
14
12
04
02
07
06
00
ff
0e
14
17
08
18
13
08
08
12
f9
fc
fe
02
18
02
07
12
0a
0a
19
1c
0b
14
11
15
1a
1a
0f
0c
0b
0b
0c
0a
05
05
04
02
05
02
fe
ff
fc
f6
01
fa
06
0a
1c
01
0a
11
01
08
04
e4
fc
07
f3
ed
10
fa
0b
10
10
00
fe
16
00
fa
14
00
f5
04
fe
fa
06
fb
fc
fc
e9
fd
ff
09
12
ff
18
17
03
0d
07
02
fc
10
fe
f0
0f
17
06
12
fb
01
00
f3
fe
04
f2
ff
08
05
ff
fd
02
00
fd
00
f8
fd
00
fa
04
00
02
08
04
ff
02
fc
01
03
f8
fe
fd
f9
f7
00
fc
0a
f8
f6
05
fd
08
03
fe
ff
02
06
00
f1
01
08
06
0b
fa
07
0d
fb
05
0f
f9
04
0c
f6
f7
1a
f9
e9
0b
03
f8
11
eb
09
fd
eb
f3
fe
eb
f8
fa
03
01
05
02
07
03
06
03
00
03
02
00
f6
06
fe
ea
fe
fd
2a
1a
08
16
ff
f3
15
00
f0
07
f4
01
12
f9
fa
15
ea
f9
f9
08
05
ee
f3
e9
fe
ee
f5
05
01
01
00
01
0b
f5
07
05
f0
f6
f1
f2
05
fc
02
0d
0b
ec
13
09
f3
16
07
f4
16
10
02
fe
f9
0e
fb
ff
ff
f7
05
f7
f6
fe
f8
fb
fe
1f
1f
1e
db
08
02
d2
02
fd
cc
fb
fb
d7
12
f8
e1
1b
f5
f1
05
e6
f0
fd
fd
0a
fe
03
17
fe
f7
fb
06
04
f1
07
0a
00
08
0b
00
ed
0e
0c
ec
06
07
06
12
ef
f0
f7
d6
e2
fc
d5
dd
f6
05
fd
02
07
01
03
06
fc
00
ef
eb
ed
06
03
00
08
09
08
22
25
20
1c
1c
17
0f
f9
02
f6
fa
f7
f1
f7
f7
fe
fd
00
fb
ff
fd
00
00
01
ff
02
06
28
26
24
25
24
27
23
14
28
f0
ff
01
e9
f1
f6
fb
06
08
de
de
e5
e9
eb
f0
fd
f1
f1
fc
fb
f9
fa
f8
f5
fb
f5
f3
ff
fc
f8
06
03
fd
08
00
fe
f1
f4
f3
f2
f3
f9
f3
f8
fd
ef
eb
ed
f1
f0
ed
01
f8
f4
02
07
0d
00
02
0b
fc
fe
06
ee
f1
ef
f1
f3
f5
f9
f5
f4
11
0e
12
1b
1a
1d
18
36
1a
0f
0f
0f
11
13
14
07
04
0b
f3
f5
f5
f4
ed
eb
f1
f8
e8
01
ef
f0
0c
05
01
0b
02
00
f7
00
ee
e9
f3
f1
e8
fa
02
11
05
07
09
fe
01
08
fc
01
06
04
03
04
04
01
03
04
01
fb
e5
10
f2
e0
02
f7
e4
06
0c
f6
cc
09
f2
c9
0a
f0
ca
ef
c2
f5
e6
ca
e6
e1
d4
e4
05
04
fb
02
03
fe
05
02
fd
ee
fc
3c
f7
fb
40
f6
03
3d
08
0a
04
ff
01
fa
03
04
06
01
fc
fe
02
01
01
01
fb
fc
f4
f9
04
e8
f7
04
ea
f4
00
08
01
03
03
fa
f9
fc
f3
f2
02
f9
fa
ff
f8
fa
fd
f7
fa
04
06
00
06
01
fa
08
ff
f9
fb
f5
ff
f7
ef
fa
fb
ef
f3
fd
fc
f9
03
f6
fc
02
f8
f6
eb
f3
03
f2
e8
f9
04
11
0d
fa
01
fe
f6
fe
f7
ef
fd
00
f6
f8
05
f0
f5
01
fa
01
03
fd
fd
0c
f1
f8
04
fa
08
0e
f1
fd
03
02
02
08
f4
f7
03
f6
01
03
ec
16
1e
08
0a
0b
03
03
03
04
05
ff
06
0d
0c
04
01
f8
f8
fc
f3
fd
07
fe
0e
13
09
fe
ea
02
08
ff
ff
f1
ed
f7
fc
06
f9
f4
0d
07
fa
07
08
fe
04
00
fe
02
05
fc
01
02
ff
06
01
ff
01
fd
09
0a
0a
04
06
05
01
07
07
fe
03
05
f3
03
fb
f6
0b
04
f9
08
0e
f5
f9
fd
f6
fb
0d
fe
f7
ec
0c
0b
06
09
14
11
f0
08
f6
ec
00
f8
f9
09
02
00
06
08
0c
fe
04
0c
fc
f9
f9
f8
05
f8
fb
05
f9
fe
04
ee
e7
16
e8
e4
10
fb
e4
0c
07
f8
e5
08
fd
da
09
01
de
f0
e1
db
eb
c8
e6
e9
da
ea
ff
f7
01
00
f9
03
03
f8
fe
f2
07
1c
f1
0b
19
f4
13
18
00
00
00
fe
ff
fd
fd
01
04
fe
00
09
02
03
0a
fd
f5
fa
f8
01
0a
f7
fb
fb
f5
fe
f8
01
00
fe
06
07
02
01
fc
f4
fb
f8
ff
fd
f4
fd
fc
f5
fd
f3
0b
f4
01
05
fa
03
fd
f2
f6
fc
f7
f6
f8
ff
f4
f5
fa
0d
f6
ff
07
00
0d
07
02
04
02
ff
13
f5
f8
14
05
f6
17
04
fe
f6
00
f9
fa
01
fe
ff
02
03
ed
01
03
f5
03
05
fa
0b
15
e3
f5
05
ed
f8
03
e4
f4
f8
11
f5
f5
18
f3
ef
15
f5
f7
f3
f1
06
fc
d9
08
f9
01
fc
fa
03
03
00
01
04
00
07
09
0f
08
fb
09
08
00
08
05
12
0b
f4
01
0b
fd
fe
0f
fc
fd
fb
06
04
fc
08
0f
fe
02
0b
00
04
08
08
0b
06
15
0c
09
05
fe
04
05
f6
f7
f7
ee
00
fb
f4
02
ff
eb
fc
ff
04
ef
f4
09
f7
f7
0d
fc
fa
17
03
fb
10
fa
f2
f5
f6
f6
fc
f5
ed
3f
40
3e
fb
f9
f1
f7
02
05
07
01
07
09
14
0f
09
01
02
11
f9
f3
0f
0b
02
fa
f9
fa
fc
fb
fc
01
04
05
04
02
06
f8
f3
f0
0f
1b
1f
ff
ff
f8
fe
fb
fa
0d
0d
02
0b
07
f1
ff
fa
f1
17
fb
f5
03
fb
00
05
fe
00
06
f6
fb
fc
fc
03
fd
ff
0a
f7
ff
0d
d3
ce
d3
e8
e2
de
00
08
06
05
0c
12
fd
00
02
ff
03
05
06
00
00
05
fe
ff
06
03
09
fe
03
02
08
07
ff
f1
f5
f5
fb
fc
fa
f5
f7
f9
19
1c
1f
00
fa
f5
04
fc
fb
05
05
07
02
01
02
f9
fa
f5
05
fe
ff
f9
f8
f6
00
03
f6
07
05
00
2e
24
15
2b
1b
23
2b
2a
21
fb
fe
fe
f8
f6
ef
f5
f3
ee
fe
fc
00
fe
fe
fe
ff
fb
fc
1c
15
09
1e
11
fd
20
1b
16
04
0a
04
f9
ff
06
f8
fb
03
e8
e5
f1
e5
eb
f5
f5
fe
ec
03
fe
f4
fb
fb
f4
fc
fb
fa
05
00
fe
03
e0
fa
02
02
f5
f5
f8
fc
f8
fa
fc
02
03
00
fc
f4
fc
fa
f5
fc
f8
f3
f9
09
07
03
02
0b
03
07
02
fb
fd
fe
f9
f8
f6
f7
f6
f9
f2
14
08
08
18
0d
09
0f
0e
07
08
09
09
0e
0a
09
12
10
0e
f7
fc
fd
f4
f4
f4
ed
ef
ea
e1
e3
e5
04
07
08
05
08
0a
1d
25
2c
03
ee
f4
f5
f9
f7
ff
fd
04
fb
f8
0f
fa
f8
0a
fd
00
fd
fc
01
fe
ff
01
fa
1c
05
11
ee
eb
0f
eb
d7
e3
03
fd
00
00
fe
f4
03
fd
f5
ea
f5
f4
f5
ea
0e
02
f9
0c
ff
fe
01
fc
05
07
ee
00
00
10
04
0c
fd
fb
09
ff
ff
10
08
0a
07
06
07
ff
f8
f6
f3
f9
f6
f3
06
11
10
07
00
fa
0a
0a
09
f7
f0
ec
fd
02
0d
fd
00
01
0f
26
1d
fb
f7
f3
06
0d
10
f5
f9
fa
f8
f9
10
fc
fe
02
ed
f3
fd
f6
fc
fc
f8
f4
f7
f4
e9
fa
f7
e2
e9
f5
f8
03
ff
f7
05
fb
f9
ff
fe
e5
f8
fa
f5
f5
07
fd
fc
04
0b
03
04
0a
01
05
08
00
fc
fa
fe
fb
fe
fd
fd
fc
fc
fa
0a
06
fc
fe
01
fc
f8
ff
eb
fb
39
e1
f7
32
cc
fb
30
de
eb
e1
f4
01
e5
05
fd
ec
ff
03
04
01
fd
00
03
fc
fe
07
04
d9
09
ff
cd
0d
f1
ca
0b
0a
04
fc
ff
00
03
07
05
f3
fd
f6
fe
03
fd
f9
00
fa
01
f8
fc
05
fd
fd
05
00
fc
00
fc
03
00
fd
fd
f5
f8
f6
03
00
0f
04
03
12
ff
ff
0e
f9
f7
fa
04
00
00
08
03
02
07
0f
07
fe
0e
04
f6
02
f8
e8
df
e4
20
33
29
00
08
10
e9
f1
fe
fd
f9
f7
13
18
14
08
fa
fe
13
fd
f8
14
10
01
01
ff
ff
ff
02
00
04
01
fd
f0
f1
f8
fa
f9
f7
09
07
00
f5
f7
f8
00
01
01
0a
12
07
e2
e3
e5
ff
05
01
0d
00
00
fa
fb
03
01
00
05
f5
fa
fa
fe
ff
06
03
03
0b
fe
00
06
dc
c0
d8
ec
cd
d9
02
01
01
2a
37
38
00
0f
02
03
03
04
fc
f7
f8
03
fc
fb
18
1f
11
fc
ff
ff
06
0b
04
fd
03
01
fa
f8
f2
ec
ee
ed
02
00
03
fd
f8
f8
0b
02
01
09
09
07
fa
fa
fc
01
ff
00
07
01
fc
de
d1
dd
01
03
fc
0a
03
02
16
0c
12
15
1a
14
1f
1a
12
04
f8
01
02
f4
ff
f8
f1
fa
f2
fa
ff
f8
fc
01
fa
fa
01
1a
0c
15
20
12
0e
17
10
fd
05
00
13
fd
ed
04
03
f4
0e
f0
f1
fc
0c
04
20
13
06
1a
f9
fe
09
f9
fc
03
f0
fc
01
05
fe
fa
00
ff
fd
02
01
fc
f3
f3
f8
fa
07
00
00
fd
00
05
0b
10
f2
f1
fa
f4
f7
fc
0f
06
06
10
0a
0c
1d
11
0e
f7
fc
ff
01
04
f7
04
04
ff
08
10
0c
0a
1a
0e
03
16
0d
f4
fe
05
05
07
0b
f8
04
05
f9
02
06
fa
fc
f7
ef
f4
f1
ea
e9
eb
05
fc
fb
0d
05
fe
1c
19
19
1a
14
12
18
1c
1a
03
f8
f8
fd
f1
f8
00
f6
fd
ff
ff
fd
fd
ff
ff
fe
00
fe
23
19
1a
17
1c
2a
10
18
0c
09
ee
13
fe
ed
05
fc
e5
08
ed
f4
01
f9
f6
0c
fd
0a
0a
fa
fa
01
f7
fa
fa
ec
fa
f8
01
07
fd
fb
fe
02
02
01
03
f4
f8
f6
f6
fa
fe
01
00
05
f3
f4
f8
f8
f4
f8
ff
f5
fa
1c
1c
0f
09
14
0b
09
1e
13
fe
fa
fe
fe
fe
f7
03
05
f6
04
05
05
03
09
08
00
06
07
02
06
08
05
09
10
02
0c
0d
f4
f7
f9
f0
f6
f4
e7
ed
f2
ff
f6
f5
f8
fd
f9
f2
00
fb
30
f4
fb
23
ef
f0
25
f5
eb
fe
fd
04
ff
01
03
fd
05
00
f4
fd
fc
fa
fc
ff
07
fc
00
1e
db
05
12
e6
f5
15
ed
f1
05
dc
0d
0c
c0
0e
16
de
13
04
f5
f6
07
01
f7
05
00
f3
f6
09
04
f4
08
03
fd
07
03
0c
ee
e9
0e
ea
d8
06
e9
cd
0b
0b
0e
00
01
01
06
f8
04
01
fa
f9
06
08
07
05
07
06
17
f8
fc
07
f9
fb
0a
fa
f9
03
06
fb
fd
05
fa
fb
fe
f4
13
07
04
13
08
05
14
08
02
fe
00
fc
fb
fd
fb
f5
fe
02
0a
f8
0a
07
fa
03
02
f5
01
07
f2
ed
08
f8
00
05
f9
f9
08
f2
0f
18
f8
fb
fb
f3
1f
d5
dd
01
c8
e2
f8
e8
ea
12
eb
ec
11
e3
ea
09
ee
ed
fa
f8
ee
30
fa
f0
1d
04
f9
3e
fb
0e
fc
01
0a
0c
03
06
fb
fa
f7
0a
04
fa
0d
0c
f3
fa
06
de
f1
01
dd
fb
09
f1
07
04
f9
05
ff
fc
f9
fd
ff
01
06
02
fa
03
f7
f5
03
00
09
01
04
08
07
09
17
01
fa
04
e7
e9
19
ec
e9
02
f3
eb
14
04
01
fa
06
03
fa
01
f9
ed
0b
09
0c
0b
09
0e
0d
0b
17
ed
f5
fe
f6
f8
f4
f1
f5
fd
fc
03
02
f9
02
01
f3
f7
01
f3
e8
ed
19
0e
15
02
06
03
17
0e
17
21
1f
1a
23
23
19
fc
f4
03
fd
f8
fd
fb
fe
00
03
fa
05
08
fe
02
09
ff
03
15
0b
11
1d
0e
0c
23
15
07
02
00
17
fb
f7
13
fc
fb
13
02
04
fb
10
0c
ff
22
0c
f7
fd
fc
f9
00
fd
f5
f7
f9
f0
fe
fa
f6
fd
fd
f9
03
00
fa
e0
dd
db
ef
f3
f1
06
05
07
0a
07
0e
ff
f8
f8
f9
f3
f0
1e
0f
06
1e
16
0d
1d
11
05
fb
fc
fe
07
fe
05
01
fe
fa
fb
05
08
10
19
11
f6
e5
01
0c
01
05
17
0b
07
0d
03
01
07
06
06
07
02
fc
0d
0d
fd
ea
f1
ec
fa
f3
f8
fd
f2
f4
03
00
02
09
05
0c
17
19
13
02
f8
02
06
ff
02
08
01
07
fb
ff
08
fa
fe
05
f9
00
05
10
12
18
1b
18
18
18
19
17
03
fd
05
fe
fb
0b
fd
fb
05
f0
f2
ec
10
12
0d
08
fd
f6
09
fd
fc
0b
fe
fc
09
01
00
fb
fa
fa
ff
fd
fb
02
ff
ff
09
07
04
05
09
0a
02
08
08
04
07
07
fe
02
01
fe
00
02
07
00
01
0f
05
06
11
09
05
04
fc
fe
f0
e9
e8
f3
f2
fa
09
08
fd
04
1b
04
e6
e2
dc
fb
fe
07
fc
fb
05
02
05
07
fa
01
00
ff
03
01
f2
ef
f1
0e
ef
e7
10
f8
ed
08
ff
f3
f1
19
05
e4
08
fb
fb
11
ff
d6
e6
f1
c0
dd
0d
d1
e4
07
03
ef
f7
06
ef
00
05
f4
01
f5
f4
04
ef
f0
0e
00
f9
0d
03
f9
fb
03
fe
f6
01
01
f5
dd
ef
0b
fc
f9
01
03
f6
0f
fe
f8
01
04
f8
fa
0a
fa
f8
01
01
0c
02
06
0d
fd
08
0f
09
0a
02
03
0d
06
ff
05
03
ff
fa
ff
06
04
f9
02
04
fd
f3
17
0b
f4
20
ff
f2
1a
0e
ff
fa
08
03
01
01
fb
f9
fa
0c
fc
0b
09
00
08
06
04
0f
dc
f8
06
dd
f5
0e
e0
f8
03
fb
08
11
f5
01
08
f6
fa
0e
ef
eb
ee
f5
f0
ef
0c
07
05
31
20
1a
3c
23
24
2d
35
28
f9
f7
f7
da
ed
ee
e4
ef
f3
01
ff
fe
f8
fa
fc
f7
fd
00
28
29
21
2b
29
26
36
31
2d
fa
00
12
eb
f1
fa
e8
ee
f9
d4
e1
ea
d0
e0
e5
e3
f5
f2
09
ff
00
f0
f4
f8
f8
f3
f9
00
fb
f9
01
fc
f8
02
01
ff
ea
eb
ef
f7
f6
f7
02
00
03
f5
f4
f2
ed
f0
ed
f0
f6
f2
10
10
10
06
0d
09
03
0d
07
fb
fc
02
e9
eb
f1
ef
f2
f2
0b
0e
1c
1e
1a
1f
19
16
17
14
0e
0c
1c
10
10
1c
17
14
f6
f8
f8
f2
f5
f6
f3
ed
ed
fa
ed
f0
04
fc
f9
ff
00
fe
05
fd
03
fa
f3
04
1d
16
12
fd
ff
ff
ff
04
fb
0b
fb
fe
f7
fc
00
fd
01
03
01
01
05
02
fe
fb
07
0a
f7
fd
02
fb
f5
f4
04
fd
f9
07
f5
f3
00
e4
da
e2
f3
f2
02
ea
e9
ff
02
f9
f4
00
f9
f9
00
f6
fe
06
ff
03
fd
fb
06
08
fc
07
fa
f7
fa
f9
fd
05
fd
fc
06
09
06
04
ff
f6
f6
fc
fe
00
0e
fe
0c
02
fd
ff
09
03
07
01
07
00
e1
f3
e6
f3
ee
f3
0a
0c
09
05
f8
ff
13
17
17
01
03
08
0b
08
03
12
0d
06
01
03
04
00
fd
fd
fb
06
fc
01
09
07
f6
fc
fa
e8
e9
ff
fe
f2
fd
03
f5
0d
f8
f7
02
0f
04
fb
0e
0c
04
03
03
03
00
05
09
fe
01
03
fe
fd
00
10
0a
06
1d
1e
08
01
10
09
05
ff
01
f8
f3
f5
f6
f6
01
05
07
0f
0a
f9
14
ff
ee
02
03
fc
fa
f9
fc
03
f7
fe
0a
fd
05
01
0a
10
f4
03
08
03
06
f7
08
02
08
07
0a
06
0d
05
0b
fc
fe
02
f8
00
02
05
f9
f2
fe
11
09
06
0a
fd
01
05
11
0e
03
08
11
03
fe
0d
04
ff
10
05
06
0c
06
07
08
04
01
03
0f
0b
04
f8
f5
f9
f0
ff
03
f6
01
ff
f7
f6
00
ef
e9
e8
0c
03
02
0e
0d
0e
35
38
27
22
20
1b
31
35
37
f1
f1
ec
ef
ed
ef
f9
fc
f9
fd
fb
fc
fd
fc
fd
02
03
04
25
2b
20
24
2a
28
1f
2b
29
f5
f8
05
f2
f3
f7
03
0c
0e
e7
e6
ee
de
ef
f7
f5
ff
08
f9
f8
f7
f6
f7
f7
f3
f7
f7
ff
fb
f7
04
ff
fe
03
03
02
f7
f3
f4
fc
ff
fe
f9
fb
fb
f0
ed
f1
ef
ed
ec
fb
f9
fb
0a
0a
0c
0c
09
09
05
09
0f
eb
ea
f0
ec
f0
f2
f6
f8
00
1a
11
1c
15
13
19
15
20
19
0e
0d
0c
13
11
11
0d
0e
0e
f5
f3
f9
f2
ef
ed
f7
f8
f3
0a
fc
00
0a
00
03
ff
fd
02
f6
06
09
07
0e
08
0e
01
0b
f9
0f
09
03
13
0e
01
08
05
fc
02
03
00
ff
05
00
ff
04
0d
0e
09
fb
02
0d
fa
14
17
fe
00
f9
03
04
03
08
04
06
f9
fd
02
01
f9
09
f8
08
12
05
fa
03
03
fb
00
04
01
fd
03
04
04
fd
05
03
02
01
02
00
f4
f6
fe
fa
01
fe
03
00
ff
08
01
07
08
ff
02
03
fc
12
00
05
0f
0b
0e
12
0a
0c
fb
fd
00
f9
fb
02
fa
fc
04
f9
fa
ff
ff
06
04
f9
c0
07
fe
fb
03
fc
f8
fd
00
fc
00
03
05
fd
f6
05
fe
f6
c0
f8
ff
ee
f0
02
f1
fa
04
02
ff
08
0a
1c
00
03
16
0c
04
0f
01
fc
04
fc
fa
05
f7
01
00
ff
f9
f6
fc
fa
f7
fd
f5
f7
0d
07
00
08
0f
02
ff
07
f3
fa
f9
0d
04
fa
0c
08
f1
16
ef
fd
f8
ee
ff
07
f4
0c
16
fd
01
fc
03
09
00
02
00
ef
0a
05
0c
01
08
0e
fd
07
0d
0b
04
01
ff
fc
f6
fa
00
04
04
0a
00
06
0b
00
03
04
02
08
0a
10
00
fa
0a
14
09
17
fb
fc
ff
00
fa
fc
0d
04
02
09
07
0d
fc
07
0f
04
0b
13
00
fc
fe
fb
01
fc
fe
04
f7
09
01
fb
08
07
ff
f4
03
ff
f0
ee
ec
f4
ec
ea
03
f7
fb
2e
25
29
2e
25
24
27
1e
24
f3
ec
f6
ea
ec
f0
e2
e7
ed
02
00
00
01
fe
00
fe
fb
ff
28
23
24
26
29
21
22
30
29
01
09
05
f6
f9
ea
f6
f6
f4
ee
e8
ed
eb
e4
eb
f0
e9
eb
00
fc
ff
f7
f3
f5
f7
f4
f5
06
fa
fa
07
fc
f8
03
fa
f6
ee
f3
f2
f4
f7
f8
ff
04
06
f2
f0
ef
f1
eb
ef
f8
ef
f2
0d
14
0e
05
0c
08
07
0f
07
00
fb
fd
f6
ef
f1
f8
f2
f6
10
16
0f
15
15
0c
16
18
0c
09
0a
10
0e
10
0f
0b
0e
10
fa
f7
fe
f7
f0
f2
f5
ed
ef
f0
ee
e9
01
1c
0c
0e
ef
f8
35
1f
1b
23
23
22
19
20
3d
ea
f1
f2
e8
f2
f1
fa
09
07
f9
fc
fd
fd
fd
00
01
03
04
20
25
1f
20
2b
25
13
2d
28
f2
f6
03
eb
ee
f8
fa
fd
fd
d7
ed
f2
e9
eb
ee
f1
fa
fa
03
f6
ff
fc
f6
f8
f8
fa
fd
01
fa
f9
06
fe
ff
02
00
01
f1
f7
f8
ff
fe
fd
07
f8
fe
f5
eb
ea
f2
ea
f0
f6
ff
f8
06
06
05
01
06
06
01
08
0f
f7
f4
f7
ec
f0
f4
f5
f7
f6
06
14
19
11
18
1c
0e
14
12
0b
0a
0a
15
13
14
0b
0f
10
f0
f8
f9
f1
ef
ef
f3
f3
f1
f7
ef
ea
04
08
00
05
0c
0c
ff
f2
f3
f2
eb
f2
fb
fb
f2
0c
05
02
0e
01
05
0d
fd
05
08
02
01
04
01
04
03
01
00
fb
fa
fd
ef
f6
ff
e5
ec
f8
fe
e9
f0
06
f1
ed
fc
ec
ee
e8
f1
f1
cf
ef
fe
d1
fa
07
fb
f9
fe
fe
02
01
00
00
ff
f8
17
1f
f6
0a
27
01
13
14
05
07
0c
fe
fb
ff
05
08
04
03
01
fe
02
03
03
fa
fc
09
fa
fc
f8
fc
01
fc
03
0b
0f
01
02
00
03
01
f9
fc
fc
f2
f7
fb
04
f6
f7
05
f2
f9
00
04
fd
f3
06
01
fa
0a
03
fc
0c
01
f9
03
06
fb
ed
fe
f5
f3
e3
e1
fa
f7
f2
02
ff
f9
03
18
10
0c
2e
21
09
1c
22
00
fe
fa
f4
ee
ef
f1
ec
f6
fc
01
ff
fa
02
01
fb
fe
fe
19
17
1c
1f
1c
27
20
20
29
08
0a
07
f7
f7
f3
f4
f6
f8
eb
f4
fd
ef
fc
02
df
f0
f2
0a
06
07
04
fe
fc
fd
f9
f9
fb
fe
01
03
03
07
01
04
04
f0
ef
f1
f6
f6
fa
fd
07
08
fb
f6
f9
f3
eb
ed
fb
ef
f1
0e
13
0d
04
1d
17
02
10
0e
05
08
fb
ef
c0
f0
f0
f1
f0
10
17
16
11
16
12
0f
12
10
01
03
08
0b
0e
0d
0a
0d
0d
f3
f4
f4
e9
ee
f1
ec
f5
e9
ec
e5
e7
f3
ed
f0
02
01
fa
33
27
23
20
40
1e
26
2b
26
f6
f5
f6
ea
0a
ea
e6
ee
ee
fa
03
04
fc
01
ff
fd
ff
ff
16
25
1c
25
3f
2f
0d
19
27
01
04
12
f5
f2
fd
ef
f3
f8
db
e8
f1
e3
f7
fd
e9
f5
f9
02
fd
fd
fd
f6
f8
f5
f6
f9
05
ff
fa
01
fe
fa
00
02
ff
f4
ef
f0
fa
f5
f4
fd
ff
02
f3
f0
f5
ee
ec
f1
f2
ee
f1
11
0e
12
0e
0f
0b
0a
0f
0f
03
01
ff
f5
ea
f6
f5
ed
fb
04
00
10
10
0c
0f
11
0a
0e
08
09
0c
10
16
11
0e
10
12
f5
f1
f6
f5
ee
f2
ef
ea
ea
f3
ec
f0
0f
05
0d
00
01
08
05
02
03
fa
ee
ff
fe
fa
0a
0c
03
fe
11
00
fa
09
fa
fe
06
05
01
09
02
02
0a
04
04
0b
ed
f4
03
eb
f3
11
03
f4
12
08
de
0d
02
de
0f
ff
dd
ff
f1
e5
07
f2
dd
ff
eb
e8
fb
01
fb
ff
02
fd
fe
03
fc
f5
f0
1e
f4
f5
25
f5
f6
2a
fe
03
03
f8
ff
f7
01
ff
fb
03
07
09
04
0a
0a
02
02
fe
07
fa
02
06
f7
fe
06
fa
ff
fb
fa
05
08
01
09
fb
f7
00
09
03
f9
04
0a
f7
09
0c
f8
ff
fe
05
05
fc
00
00
fe
fd
0b
fc
01
05
fa
fe
07
fc
f7
11
ed
e4
0e
fa
ee
02
07
01
fa
10
16
f4
05
09
01
12
15
ed
f9
06
eb
fa
fe
01
01
02
f8
f7
fc
ff
ff
01
04
00
fd
0a
08
0f
08
08
0d
10
11
0f
fc
0a
09
fe
02
02
f2
fe
04
01
0c
0c
14
11
12
fe
f7
09
fd
00
fe
ff
01
fb
04
03
fc
01
06
ff
fc
02
01
ff
fe
fc
05
f5
fa
ff
f7
fb
0d
07
0a
07
11
0d
ff
01
02
f7
fc
fc
07
01
07
07
00
ff
0b
01
07
fb
ff
fc
0a
06
03
01
04
01
10
05
02
ff
fd
fd
fd
00
00
ff
fe
01
fb
02
03
fd
fd
00
fe
00
09
09
0d
11
fc
fc
0c
fe
fb
f2
f8
fe
f4
00
fe
fe
11
14
16
1b
03
13
11
12
08
04
05
03
04
01
ff
02
06
07
0a
02
ff
07
02
00
03
05
f7
19
07
fb
05
06
fc
fe
07
06
08
0c
0d
04
05
0a
07
0e
08
f2
fa
f5
f7
ed
e9
f8
02
05
ef
01
00
e4
ff
ff
e7
fe
fb
ff
00
00
03
08
04
f8
fd
ff
00
02
01
03
02
06
fb
fe
0a
05
03
05
01
00
f9
0b
0b
02
10
0e
09
03
08
03
0a
0b
0e
0b
00
fb
07
06
04
09
0d
07
0a
00
07
07
02
05
09
07
07
15
0f
0a
0c
fd
04
fd
f7
fe
15
05
01
08
fe
fb
fb
f7
fa
e5
e8
f5
f7
fb
fd
f9
fc
02
18
07
ff
14
14
02
f4
f4
eb
0f
fd
07
07
ff
0e
0c
04
0b
05
fe
fd
04
01
ff
02
fd
01
17
05
27
10
00
13
10
f9
07
fc
f3
05
f5
e9
03
01
f7
07
ec
0c
fb
f1
ff
09
fc
eb
05
03
03
00
08
05
ff
05
04
02
fb
ff
f8
ff
fe
f6
01
00
f4
10
06
04
16
11
16
01
f5
ff
ef
fc
f9
ea
e6
ef
fa
04
02
0a
05
fb
00
fb
05
fb
f2
04
02
04
fe
06
06
ff
fb
fb
fc
0e
0e
0c
0c
0c
07
06
04
02
fa
f7
f3
f4
fd
f8
fe
ff
02
06
07
09
ff
fe
02
04
f9
06
ef
ef
ea
12
0c
07
07
08
08
02
0e
f6
f9
05
f4
fa
0e
fd
0a
ff
01
07
ff
fd
02
fa
f4
03
03
01
02
00
00
04
03
fd
f5
0d
0d
eb
f9
0d
fa
05
0f
0c
f3
05
08
f8
01
fe
f5
02
f4
e6
f0
ef
e0
03
e3
d5
05
fd
f5
f9
05
01
fb
f9
fb
fb
f2
11
fe
f1
0d
04
fd
11
03
02
fc
03
04
fc
02
06
06
fb
00
fa
fd
fe
01
03
fc
f8
05
fa
01
f9
f5
02
01
fb
10
09
ff
fb
fa
0a
fe
fb
f1
f2
ec
ff
01
05
fd
03
09
fd
03
03
fa
0d
f9
02
0a
05
05
09
fd
f3
f7
f3
ec
f4
f0
f3
f4
f5
f9
f4
fd
02
05
f9
f6
03
ee
f7
f6
03
07
fe
f4
19
00
f4
13
11
0f
17
08
0b
13
ff
11
40
f5
f8
31
ef
f5
25
f4
fb
2a
ff
06
11
ea
fc
16
ef
01
ef
ff
08
f8
03
0b
fe
05
07
0c
f3
f7
eb
e5
07
da
da
e0
10
20
f7
11
11
fd
12
0e
fe
fe
06
0d
00
02
07
01
03
04
0a
13
10
01
02
06
00
07
02
ff
f6
ed
05
03
fa
02
fa
fa
0b
eb
f7
07
f6
fc
00
f4
f9
f5
fa
00
f8
ff
fa
f3
ed
e8
04
02
f0
01
f6
fb
fe
f3
f4
28
00
f0
26
fd
ee
24
02
f1
14
0b
ff
0c
fe
f9
fb
f5
f9
11
12
14
c6
d3
ca
fd
01
f6
e6
ee
ee
e8
e2
e5
e8
e6
e8
0a
fd
f6
05
fa
fa
ff
f3
fe
06
fd
00
01
fc
fe
02
ff
00
fb
e9
e7
ea
e0
e5
ee
e8
f2
fa
f9
f7
f6
f4
f8
00
fb
fb
eb
d4
de
cd
c1
c9
10
0c
f0
0c
07
f6
05
04
01
01
fe
03
01
03
07
04
04
07
fb
ff
04
19
1d
26
ed
eb
e7
e5
f1
f6
e8
e1
db
1a
1a
29
09
02
0d
ee
e9
fb
f1
eb
e5
01
fb
f7
06
fe
fd
ff
fc
fb
fa
fb
f4
fe
01
ff
f7
f2
ee
fb
fd
fb
0a
00
fe
00
fc
ff
06
fb
f7
fb
fa
f7
f1
f5
f9
ed
eb
f3
f6
03
ec
02
03
f6
05
09
06
fb
f8
ed
f3
f4
e3
f4
f8
ea
d6
da
f2
c9
db
04
d2
cd
03
06
f5
f1
09
f5
ff
07
ee
03
f5
d6
0a
ee
c0
06
f9
c6
ff
02
f9
02
00
fd
ff
fd
fd
fd
df
ec
f6
fa
e0
fc
f9
e2
f8
dc
0c
e7
d6
14
ee
dc
17
f7
fc
05
02
fd
04
02
fb
02
06
0c
12
0c
08
08
07
09
00
0b
f8
f5
f5
fd
fe
fc
ff
02
f8
fd
e9
f7
fc
ea
fd
07
ed
06
ff
00
08
fd
fc
02
f9
f3
f5
fd
00
fa
f8
fd
fd
f1
fc
fd
e8
e9
fe
cd
ea
07
d3
e5
04
f9
f7
f8
f4
ec
ee
f1
e4
ec
f7
ef
e5
04
00
fb
f9
f4
f6
f2
e6
eb
fa
f8
f9
0a
06
08
f4
fa
02
ff
fd
02
f8
fa
08
fc
ff
05
fd
fe
07
01
00
08
f3
e9
00
f8
ed
fc
09
fd
10
f8
f8
fe
f7
f9
fb
00
04
03
d4
eb
f9
ee
03
09
fb
f0
ea
06
04
ff
06
03
04
02
fe
04
fd
fe
03
fb
ff
07
fc
01
07
06
01
01
00
01
08
fa
03
0b
fc
fb
fd
fe
fc
fb
fc
ff
f7
01
ff
0c
00
fc
06
02
04
0a
fd
03
03
da
d5
d5
ed
df
f0
05
01
05
f0
f2
f4
ec
f8
f5
fa
02
0a
fc
01
06
fe
02
07
f4
f2
00
f3
f4
f7
f9
fd
fb
fe
f9
f7
09
0a
04
f9
fd
ff
fc
f1
ea
ef
e8
ee
e7
e8
e9
08
03
ff
06
04
fc
06
fe
fb
04
fa
fb
02
fc
01
06
fe
00
09
02
ff
ef
ec
ec
09
f9
f7
00
03
04
f5
fb
03
f1
f9
03
f4
e9
f5
f0
f0
f5
e4
ee
fe
07
ff
f5
0a
02
ff
06
fe
fa
03
00
08
01
05
07
f9
ff
05
08
05
fe
04
fe
fb
09
05
ff
06
09
0c
02
03
ff
03
fd
fc
f7
ef
ed
ff
f6
f4
ed
e9
e9
07
0d
0c
12
12
15
d9
d6
d3
f5
ed
f4
00
f9
fe
fb
f6
fc
09
fd
fa
04
fa
fc
04
fa
fb
05
fd
fa
f0
f2
f2
ea
e8
ec
f2
f0
fa
ff
05
0d
0b
0a
10
f0
04
05
e7
f8
05
f4
f2
04
28
d2
e9
27
d0
ea
2e
c7
e1
ea
0c
fa
e9
0e
f8
e9
0f
ef
02
ed
ef
f0
ea
f0
fd
ec
eb
00
03
01
00
02
07
02
02
08
de
d4
e2
e8
f5
ec
e7
01
f6
dc
f3
07
dc
f7
0d
dd
fd
09
00
00
05
fe
fe
02
fd
fb
02
0c
07
13
04
fd
0c
01
fd
00
fa
00
f5
02
07
ff
05
05
04
fa
ef
05
f6
e8
10
f4
eb
16
04
f9
03
00
fc
04
f5
f6
f2
f5
fe
ff
f1
fd
05
ec
fc
06
de
ef
f6
c0
e2
f8
ca
db
e9
e4
f3
f8
eb
ef
fa
f3
f6
ec
02
ec
f7
07
f5
fd
05
f4
f0
f7
e9
1d
e6
e4
1d
fc
e7
10
dc
eb
08
da
ef
fa
df
f9
04
e7
f1
00
e1
f7
fe
e1
f3
fc
d6
07
0b
cb
06
16
dd
fe
1c
f8
0a
0d
f8
08
0d
f9
07
07
f7
f1
08
fd
f3
0d
05
f0
ff
08
e1
f5
0d
db
fa
