e0
f4
ef
fe
f4
e7
08
04
f9
f8
04
f6
fb
f8
f1
e9
ef
ef
11
f6
f0
12
f8
fc
14
12
05
09
07
f2
08
0c
eb
f7
f0
ec
d9
03
fa
cf
0e
14
e4
f8
fe
ee
fb
0e
0b
19
fe
fd
17
28
f7
f9
f4
ef
0b
ea
ef
04
f2
f2
f4
f3
f0
f6
f8
06
f3
03
ec
de
da
ea
f0
dd
06
f3
fc
14
ec
03
ff
e0
e7
0a
eb
f8
ef
d7
c5
e8
d2
de
da
ea
fa
e8
06
13
de
04
00
e4
f2
0c
00
0b
f7
06
fc
f5
f8
f2
f6
fa
f1
e2
05
fa
e9
07
03
ec
01
ed
e7
19
00
e8
0a
05
e9
fd
f4
f8
10
f3
dd
fa
f3
e5
ee
01
f3
02
f9
fc
10
0e
02
fe
0a
05
08
03
fc
f7
fe
04
1d
0d
0b
2d
08
fa
38
1f
09
00
0c
f4
14
07
06
0b
16
09
f5
f2
0d
e3
02
19
dc
f1
fb
f8
12
05
13
22
0f
1f
1d
33
f2
f3
f4
01
fb
e8
f0
02
ef
f3
ee
fc
e0
f4
0e
e8
ed
f9
f5
fc
fc
f4
f2
ef
0e
06
0c
f2
f2
f1
e4
f4
eb
f2
d8
e4
cf
f5
fa
e2
df
00
e2
05
ff
f6
03
f7
e8
15
0c
d4
ff
07
ff
fd
f5
02
0b
00
02
0e
02
0b
fc
fd
fc
fe
f3
14
07
03
ff
f6
f2
0b
04
fe
16
13
0e
05
f8
02
04
fb
fb
f6
f5
fa
14
00
02
06
09
00
04
00
00
0e
11
0d
05
f5
03
fe
ee
f8
0e
11
05
14
0a
05
0c
12
10
0e
f1
f1
00
f9
ff
03
ff
03
0a
05
0b
04
01
14
08
13
12
13
05
16
01
15
18
0d
fc
1d
ff
00
fb
ff
fe
f3
04
fd
09
fb
10
0d
ff
00
04
f7
ff
06
22
0e
00
06
21
0e
14
21
0d
f2
16
1d
f2
ff
18
ec
fc
08
f2
f6
11
da
d5
f8
ef
f2
08
03
11
14
0c
12
0b
08
0d
0f
00
00
01
06
fd
fa
fb
fc
fe
07
03
ff
14
0f
f8
fa
ff
ff
20
02
08
18
01
fb
00
02
0b
12
02
13
0a
f5
09
f9
f0
f4
07
05
04
01
f9
f5
f0
fa
e9
05
0a
00
f1
fb
ff
02
f6
f5
02
f8
0a
f8
f9
fd
f1
f2
fc
0d
f6
f9
ff
fe
fe
fb
02
f9
f9
0b
fc
ff
13
09
09
06
00
ec
f6
e2
00
e2
fc
f6
f2
ec
f9
f0
f5
e2
e9
ed
ef
03
08
fd
00
0c
ec
ff
10
ef
07
04
f8
eb
fa
08
eb
02
01
ed
f1
ec
f3
04
e2
09
00
f6
fe
02
fe
f6
e5
f9
ea
ea
fe
ea
ec
03
07
0b
fd
18
0f
05
13
15
04
01
09
f9
f9
fb
02
f5
fb
05
fc
05
07
00
05
fb
fa
f5
02
03
0a
fe
f9
0a
f9
ef
f2
0f
fd
07
f8
f5
ff
fa
f3
f3
ea
ef
f6
e9
e7
ee
07
ec
f1
f4
fa
fe
ef
f2
fd
03
00
08
fb
12
21
f4
07
02
0e
fa
f1
ec
ee
02
f2
00
f8
fd
09
fd
e6
02
09
05
f1
00
00
0d
ef
ec
ff
26
0a
f3
f6
22
19
e4
d8
e3
ef
fb
d8
e0
12
0e
e3
f3
f7
00
1d
05
eb
fa
11
ea
e9
fa
ff
f7
fa
01
25
13
f2
0c
f1
ff
0f
19
ec
f4
13
ed
f6
fe
1f
09
11
13
f2
14
06
e4
f0
13
00
f2
f6
08
01
f0
0f
f3
df
fc
1c
ef
02
fe
19
11
fd
f7
fe
20
ff
00
0b
19
09
0a
01
00
28
0b
02
0c
19
09
04
f3
ff
1f
f3
ff
0e
13
03
ed
f4
06
e1
f1
f8
f5
f0
f5
f7
ed
fc
0b
0b
08
1b
20
f5
f2
f0
0a
ee
f6
fd
05
00
ef
f4
04
f9
ee
f9
0e
fd
fd
f3
ef
e8
0a
11
df
f6
f4
d3
10
ee
df
ff
04
d1
26
0f
f4
14
01
ed
fa
e8
ed
f2
e3
d7
04
f9
e0
06
07
d3
fc
fe
d4
04
f1
01
03
eb
df
16
f4
e0
07
09
d7
fd
23
e7
04
04
cb
e0
ff
f5
e9
f6
f2
f5
f3
e2
f0
fd
ec
0c
fd
e6
01
f7
e2
fe
19
11
00
0b
1a
00
0a
0e
ff
0f
24
04
ff
20
04
07
2b
ff
0e
f5
00
fe
ee
f8
04
0a
f2
02
fe
07
12
0b
11
15
29
f1
f5
f2
e9
f7
f5
ef
f0
fd
05
02
06
01
f9
f8
06
fa
05
00
f7
05
eb
02
f0
f5
00
f1
05
03
ee
f5
f6
eb
f6
ec
ec
fb
fa
0b
07
07
08
f9
ff
09
f1
f3
f4
da
f7
de
f9
f8
f7
da
de
cb
fa
eb
f8
e8
ef
f9
fc
f5
f9
e9
f7
03
f7
ff
0b
d8
ee
e4
c8
dc
ed
e4
f7
e6
e6
ed
02
e2
f5
0a
eb
ff
fd
17
02
02
d7
d1
dd
ef
e2
f6
12
01
0b
10
fd
ff
09
fb
09
fb
03
ff
04
07
03
02
f9
ff
fd
fd
fb
fa
fb
ff
f6
fc
05
0e
fd
01
09
01
0c
01
06
fd
08
04
00
0b
00
00
05
06
f7
05
f9
06
04
ff
02
ef
f7
fa
fb
fd
04
fb
fb
fa
f3
f9
f9
0a
0a
11
0c
12
23
0d
09
10
00
fc
06
10
18
03
07
06
0a
ed
e6
f4
f3
df
e5
f0
e3
f8
fa
02
1b
0a
e4
0d
0a
fe
1a
07
03
03
fe
e1
ea
0f
05
16
fd
f3
f0
e6
ef
e2
fa
f1
f2
10
ff
eb
f7
06
fb
12
f2
17
f8
ef
f5
f0
f2
ef
e7
e4
f4
ff
f2
e2
ea
f8
e1
12
fb
fa
e7
f4
f9
ed
ec
e0
ef
f6
fb
f8
fc
fc
f6
00
f8
f2
06
02
fc
f8
f3
f7
f5
f4
ff
07
02
f1
08
f3
fc
0a
07
04
03
03
08
0a
fa
fb
01
0a
01
02
04
f3
f6
f4
01
e4
ed
fb
ec
f3
ff
f8
07
f7
f4
07
ed
fc
06
fb
ea
ee
ee
e6
fc
e1
ed
f8
0d
f4
03
02
f7
fa
ec
f8
0b
fd
0a
f4
fb
08
f4
fc
06
fd
ff
c2
01
e3
c0
e6
fe
f0
ed
17
dc
08
00
d4
07
f9
f6
0a
07
10
f6
02
11
02
f7
06
06
03
e5
ff
e6
d3
c8
ea
eb
08
f1
01
f6
fc
07
1a
f7
01
0d
33
f0
f5
02
e2
ef
e4
eb
fb
ff
00
fc
0a
15
f6
07
09
ff
0a
ff
12
09
fc
09
00
fe
09
0c
08
1d
fb
00
06
f7
f8
f9
0a
01
10
f9
f2
06
f6
f3
ee
0b
ff
0b
f4
02
18
f5
fe
02
eb
f0
ef
f5
eb
e4
04
04
fc
02
f7
fc
04
fd
fd
fa
f7
04
04
fe
fa
fd
fc
f3
02
f5
f1
fb
06
f7
f3
f6
fc
fd
f0
fd
ea
f0
df
ec
f8
fb
eb
fc
e4
01
f9
04
11
0a
00
12
12
1b
e8
e9
ec
10
04
f2
f5
ef
f5
ed
e6
e8
f0
e5
ee
e3
e2
f1
f4
ea
f8
f8
f2
f6
04
eb
d5
fc
f6
e2
f0
e7
e6
f5
ec
ec
f4
ff
0d
ff
05
f2
ff
28
ee
ee
e9
ec
eb
fb
e6
e2
ec
e8
09
09
fa
ff
fc
fa
0d
05
07
f2
f7
fa
fa
f5
f9
03
fd
f8
07
02
0a
fb
0b
f9
08
03
ff
0c
0b
f4
f8
0c
01
12
05
0b
e6
e9
e9
f4
ed
e5
e7
e3
f9
0f
f5
f4
f8
00
f4
f7
01
fd
17
04
0b
03
05
02
ff
fa
f6
04
16
f5
12
13
15
15
0a
04
fc
ee
f6
e9
f7
ef
f3
fd
0b
06
e7
fd
02
f8
03
13
e8
fa
f2
01
f9
00
02
f9
13
f9
16
08
00
01
10
fc
01
f1
fa
04
f0
ec
f5
e9
ee
eb
e7
fd
09
03
f3
eb
fc
ed
e8
f6
f1
fd
23
f5
ec
07
f1
da
04
ea
f4
f2
f6
eb
e5
e7
f2
f5
13
fc
fe
fb
fa
fc
1d
09
11
f6
f8
00
00
f5
02
10
12
00
f7
fe
f5
fd
fb
13
12
12
0b
fb
fb
f9
f7
f6
12
16
15
09
0b
fa
01
f8
f6
05
fb
ed
fe
02
fa
08
ff
0f
ff
04
2a
09
10
1d
0c
eb
ee
07
f0
ee
fd
e1
f5
ed
fa
f5
f5
f9
e1
f4
01
f8
03
07
de
05
14
d7
05
02
f9
f6
f4
0c
08
d0
de
0c
d9
de
09
d2
df
11
d2
ef
04
e9
f9
01
03
e8
08
13
f0
09
0e
e9
ec
fb
f9
e1
e5
de
e9
f0
ee
f3
09
e1
f1
0c
e4
f7
14
ea
04
fb
22
f6
f3
16
05
02
ff
f8
fc
c5
05
16
d4
04
fe
f5
0f
05
20
05
0d
33
03
08
1e
fb
09
2a
fa
0a
30
00
07
0d
06
14
15
f3
00
21
04
0b
08
04
08
15
07
0d
31
06
0e
1c
de
ef
e1
ee
f1
e2
07
04
ef
f9
f6
f8
f9
f8
10
fb
00
13
04
ec
f1
ef
e3
e8
f6
ee
ed
f6
e5
e7
01
01
f3
ea
02
0d
ec
c4
ea
09
19
ed
f3
fa
11
f2
e3
10
09
f6
e3
16
e9
ea
fa
d3
c0
05
fa
db
12
ee
f5
0c
d4
e7
00
17
f8
ed
fc
14
f2
f1
f7
f0
fc
d4
f0
f9
e6
08
c4
e7
f6
13
09
ef
02
20
ff
0c
04
ef
00
21
f2
ec
0d
f2
d8
ee
01
08
e3
05
00
09
16
2d
e7
05
01
2f
04
00
05
20
3f
04
ff
06
3d
f9
ee
09
1d
2c
ef
fc
0a
40
f4
fa
01
0b
1d
ed
07
0e
2b
f6
f8
0d
05
fd
fd
00
ff
f6
f5
f3
f7
fe
01
ff
09
06
f5
0e
01
0a
f9
fb
02
fc
fa
0a
fb
05
09
fc
fd
06
fc
08
fa
f4
fa
f9
07
0c
01
09
fe
fa
f7
ff
fc
ef
00
da
fb
e8
d4
f8
f4
e1
fa
f6
ed
ec
ef
fe
fe
f1
f0
e7
f7
0f
ea
ff
0f
ff
0b
08
09
e4
f2
08
f4
f3
f2
04
fa
ea
fc
16
ec
f5
11
f3
07
10
10
01
fb
f4
f0
f1
04
e0
f7
07
14
07
07
02
0e
06
fb
02
fe
03
03
fa
fb
01
fb
09
ff
f5
f3
f8
04
fd
05
fa
00
04
fa
f8
f8
fe
03
f8
ff
fc
06
f5
fb
04
fb
f3
05
0f
09
09
f2
f3
ee
fd
f6
fa
fc
09
05
07
fa
f8
fd
09
05
f4
fd
fa
fd
f3
ef
04
f9
ee
0a
f3
fc
2f
2e
1b
1a
fa
01
12
00
f8
e5
d8
df
0a
02
01
10
0a
fc
e2
f1
d6
e2
f3
eb
e3
d9
fa
e8
e3
f2
e4
f4
02
eb
e6
0c
06
08
eb
09
15
0a
ed
13
12
ec
fb
ed
e7
dd
ec
f1
ff
f0
07
eb
e4
0a
f8
05
01
0a
0c
f6
ed
ec
f8
08
0d
1b
05
10
db
d2
d4
14
05
0d
f9
1b
0a
23
2e
2e
ff
02
fc
07
ef
f9
15
20
2f
09
03
07
0f
fc
f7
1a
22
31
fa
04
01
fe
ed
f3
15
19
1e
07
08
fa
f1
ea
f4
f5
f8
fc
03
02
fa
ff
07
01
08
fe
04
0a
00
0c
07
03
05
0e
fc
06
1d
09
0c
0e
fb
f9
e9
e2
e8
f5
f2
04
fe
f9
05
fe
fe
f7
f0
02
00
0c
fd
08
05
12
20
1d
02
20
24
2e
1a
f9
f4
fc
fd
f6
11
f6
ff
0a
fd
05
ff
fd
fe
f9
f1
00
03
f5
ff
fa
03
01
f6
18
05
07
fc
fd
ea
f4
02
f0
f5
f1
07
fe
01
f0
ee
f9
ee
e8
dc
03
f6
f2
eb
04
0c
f7
f8
f8
ff
f5
ff
fd
f8
f6
f7
fc
00
00
f4
fe
fa
f2
ed
f1
fc
f6
fe
06
f1
f8
f0
ea
f2
fa
fd
0c
00
0a
05
00
07
07
05
f1
fa
06
08
ff
03
07
07
1e
10
20
ff
fa
f7
10
fc
17
22
1e
2a
fa
f7
f1
08
f9
ee
fa
f1
f6
e4
f9
eb
ec
fe
fb
ee
e2
fb
0c
0b
06
01
0e
e7
d4
d9
ca
0f
f9
f5
f6
e3
ea
1d
e8
0d
19
09
e7
0c
ed
f2
ee
df
c0
ef
f8
11
0b
16
02
f6
f2
c0
17
0b
f8
1c
f4
fa
f2
e7
e8
f0
0b
0f
f3
0f
0d
fa
f2
d0
02
de
ee
e5
f3
0e
dd
ee
ef
18
12
fe
05
0d
f0
de
c6
c3
ed
fc
f8
0a
f8
1c
01
f7
f6
f9
ff
fa
03
08
16
03
01
0c
ed
f6
12
21
01
fc
13
0c
fb
ee
f7
fd
11
01
1e
23
32
2c
f4
f0
fc
ea
01
08
08
0d
0a
00
00
f0
0f
07
03
f8
1e
f9
03
10
03
0d
0b
08
26
f6
fd
18
12
07
0a
fd
f3
0e
00
07
03
ee
04
eb
07
fd
d3
f8
f9
e3
ed
fc
e2
d2
f5
e2
e9
dd
db
0a
fc
d2
ff
ff
e6
fc
ef
00
e1
06
f6
ee
f5
02
ff
07
ea
ff
f6
e1
f8
0c
c9
d4
fc
fb
f6
10
f4
f0
0c
09
07
fb
eb
f8
08
de
f1
f7
e0
e9
16
02
f8
0a
f8
06
0a
d2
fe
f5
0e
0d
f4
12
0d
fc
09
fd
07
0d
05
f7
02
ff
00
fd
04
f6
0b
fd
01
19
0d
fd
29
1c
fb
01
fe
ea
1b
12
01
1c
1c
02
f4
fb
07
fb
05
06
fa
f6
f7
03
ff
0a
fe
fe
01
03
05
0d
ff
04
02
f3
f6
fa
ea
fa
f7
ec
f8
01
f7
f3
fe
ec
fd
f4
03
0a
ff
00
0d
04
00
fa
05
fa
ee
e2
03
f0
d5
e7
e9
ef
04
f8
f1
07
fb
05
ff
fc
f1
ef
00
10
eb
f7
11
f6
09
10
ee
e5
f5
e4
ec
f2
f6
08
f8
eb
f3
0e
e4
03
09
ee
01
08
ef
ee
f3
f5
ed
e1
f2
f1
fa
10
1b
0f
02
06
03
00
0b
fb
ff
02
02
f8
f2
01
0e
ff
0b
03
02
06
fc
fa
01
06
00
fd
f0
01
0a
f1
fc
f5
00
04
f6
ff
fc
fe
f6
f8
04
04
01
18
ec
f9
f4
ee
f8
02
e2
e9
d9
06
f3
f4
ff
06
f7
f0
07
1d
05
03
0d
0a
ff
ff
f8
f9
f7
ee
f2
f6
0b
f7
ef
00
f0
ed
f4
0b
09
f4
f9
08
07
f4
f0
fc
ee
0c
fe
e5
dd
f7
ee
14
ef
0c
fc
1c
01
d4
01
fb
ea
06
f6
f5
03
f8
06
07
0f
02
f6
0f
18
04
e0
13
ee
da
ec
09
01
fc
21
ef
0a
06
0b
09
0b
16
14
12
fc
10
0b
e6
04
f6
08
03
e2
fc
0d
05
f9
e7
f1
02
01
09
16
fa
f5
0b
0f
f1
ee
14
0d
03
08
ef
0a
06
04
fc
10
09
09
11
f8
0f
22
f4
fe
07
05
11
09
09
06
14
f9
f4
f8
ff
f0
ee
ef
f3
ea
05
06
f9
07
f7
fe
00
f8
09
fc
f9
fc
f7
01
f4
eb
f9
01
02
ef
f6
fa
02
02
e8
f9
02
01
08
03
13
0c
01
04
fa
09
0b
fb
ee
03
e9
f7
fb
00
ed
00
e8
f5
e9
ef
04
f3
f8
f3
ea
ff
06
f7
05
fd
fa
0b
0a
0b
ff
dd
e6
e2
df
f3
e6
ee
ea
fe
fd
e8
06
0e
f8
f5
12
0a
dd
de
f9
e4
fa
e3
ff
f3
08
15
0b
0b
18
0d
10
11
0a
01
f7
05
ff
f2
09
fa
f7
02
09
fd
09
02
fe
fe
f7
fd
f6
0a
01
14
00
f2
09
f8
f7
00
f9
03
0f
06
f7
f9
fa
fa
03
05
01
0e
ff
03
f1
d3
de
d6
07
07
15
f9
f1
03
fe
ec
ee
10
fc
fc
e8
f2
04
ea
f1
00
fe
fe
f9
05
05
09
f1
06
07
02
03
f9
02
fa
fc
10
1b
18
f7
ed
f6
eb
ed
10
de
f3
f3
f4
0c
08
f3
0b
1e
f8
02
05
f1
f6
07
f7
01
02
04
12
12
12
0f
fa
03
23
09
f2
03
e9
f4
fa
01
eb
fe
0c
f4
08
14
ec
ff
03
f2
ec
0a
fb
ed
03
fa
04
f7
09
fe
ff
02
1d
12
00
04
0c
03
f9
00
11
f6
fc
07
fb
00
0e
00
fb
04
03
f4
07
f1
04
ed
00
05
06
fb
ea
ff
04
fc
eb
e6
f3
fc
ea
f6
f9
04
03
01
f9
fc
05
fc
ec
fa
ff
fa
f9
02
ff
f2
fb
04
e5
fa
00
ef
fd
fe
f2
f9
f3
e9
f8
e6
f0
f6
f3
f4
fd
e7
09
fd
f4
0c
0f
fe
f1
f8
f6
f3
fe
e8
d8
f2
dd
05
f4
e3
e4
e1
fe
d8
e1
eb
05
e8
ef
f6
05
01
ee
0a
02
02
10
06
fd
ec
ff
f2
e4
ea
d9
e9
f1
e0
f3
ff
e4
0b
04
f6
0a
07
01
fd
d7
f3
f7
eb
f9
fc
e8
04
07
00
08
03
05
ee
09
08
ef
01
05
f0
fc
ff
fd
fb
04
f6
f6
07
f8
f4
fc
f7
fe
0b
f5
fb
01
f9
ee
fd
00
f7
fd
01
f2
fd
f5
00
02
f7
fe
08
e6
ea
e3
ee
f3
e7
f0
e9
ed
fd
ff
fe
ec
f6
06
f9
f2
f9
0b
14
0b
01
0e
10
fc
f8
08
06
0b
03
01
1a
02
17
0d
11
f2
f7
dd
f9
da
f9
da
14
00
f2
d2
dd
cb
eb
f8
07
d3
08
ef
e9
ed
d8
14
f7
23
dc
15
06
ff
ed
07
ff
fa
f0
10
f9
f2
e2
fe
e2
e9
e7
e6
c0
e8
fd
ff
ff
0a
fc
f8
f2
06
fc
f2
f8
02
f6
ea
fa
f9
c9
d9
fa
f2
e1
03
e4
f9
db
16
f5
00
fb
fe
ee
f9
02
07
ec
fd
09
fd
fe
f1
f9
f8
06
fa
ea
04
0e
fc
ed
0a
fa
f5
f1
f8
00
03
0c
f1
03
fe
fa
f9
fe
e1
f3
f4
f1
fa
f0
f9
fd
ef
fc
f3
f8
f2
fc
f9
fc
05
fd
f6
04
f2
fe
f7
f8
e7
ee
06
fd
07
f1
f7
f6
f2
f7
fd
0d
f7
f3
01
04
e4
e6
03
07
f5
03
e5
fc
09
cd
dc
13
ec
1e
d3
02
eb
ef
f2
d4
1b
0d
08
fb
03
02
01
f5
e5
f7
15
0e
f9
06
fb
f1
fd
ec
0b
0b
e1
f6
f3
02
00
f1
f2
ec
12
0f
1f
0c
f4
fe
0a
e8
fb
08
f8
e4
f2
02
ef
f3
e6
fb
08
f3
f6
f6
e3
07
02
f6
01
fb
05
fc
ff
fd
fc
0a
00
fc
fc
0a
fc
e3
f2
11
0d
fa
fc
f0
0a
fc
ea
e1
15
0d
09
04
f7
0e
f7
eb
fc
dd
e3
df
df
e1
01
fd
05
19
24
2c
21
fc
0d
fd
ea
f8
f6
f7
eb
00
f4
eb
fd
ee
ef
00
ff
04
06
f2
fe
fe
03
08
0d
d7
c7
c7
e8
0e
0c
ed
00
00
0d
02
1e
22
29
31
ef
dd
12
e0
d5
fd
ee
fe
fb
f8
01
11
e4
e4
d3
f8
f8
f0
e8
fa
05
fb
de
f6
ff
05
26
e2
10
18
f7
e7
d4
f2
e8
e5
fd
0e
04
e5
ea
fa
ea
0d
fb
fa
0d
f6
da
c7
ca
ec
01
16
fd
07
04
ff
fa
01
f7
01
f5
08
0c
fd
fe
ff
04
0c
04
fd
02
ff
03
0c
fa
07
0f
04
fd
01
fc
06
0b
1e
12
01
01
f9
fe
f0
ea
f9
fe
fb
04
12
03
fb
06
06
ff
06
0c
02
03
04
f6
f6
f4
eb
ed
f2
f1
e4
e7
e0
ef
f5
e4
fa
f2
f8
eb
e7
ff
00
d6
fd
fb
e2
fe
f8
db
1c
fd
fc
02
08
e2
24
2b
09
ef
f5
fd
11
f7
e3
f1
e6
d7
03
ff
db
06
07
d1
0a
fd
d3
11
f1
f5
0e
05
e8
07
0d
e8
0b
10
e4
01
18
cc
05
fc
e1
f3
ee
e4
e5
e4
ef
ed
f3
dd
ff
f7
e7
09
fb
e7
0d
f5
d6
f4
07
16
f3
0e
1c
0e
0d
21
02
fd
19
01
0c
20
05
12
30
f5
04
00
ee
06
04
fd
16
06
f2
fd
05
f5
0d
1f
f8
14
15
04
ef
00
03
ee
00
f9
fb
f6
00
0b
f2
f9
23
07
09
1b
09
02
f8
05
0a
02
fb
10
f7
f4
0e
21
03
0f
17
f5
07
10
fa
02
ef
04
0e
c9
17
01
c9
06
22
e3
e7
0f
eb
c6
18
01
d1
13
1d
09
e0
27
ea
07
2b
ed
04
04
09
04
e7
05
fb
fc
05
08
f3
fb
fa
d7
01
02
eb
e6
0a
05
f6
0c
f4
0e
0f
f1
f2
13
40
1a
17
0f
05
0a
0e
f4
f6
e5
02
00
cf
18
ee
cc
07
f8
21
f8
f1
24
fa
05
23
f3
fa
f9
09
fe
ff
fd
03
f6
fe
06
0b
0d
00
09
05
fc
02
0c
f8
12
fd
fd
07
03
02
08
08
f2
e2
e0
f7
f3
ef
ee
f1
f3
f7
f4
fb
fc
00
03
03
fe
f3
fc
fc
02
0b
05
06
0d
03
fe
ef
f8
ec
f7
07
f9
07
04
e7
ee
e7
f2
f6
e8
f4
f8
f8
ee
2f
0f
ff
ff
08
ef
36
1d
02
fe
fd
f7
f3
e5
d6
03
07
03
f3
f6
f2
01
f6
f1
05
fa
e8
fd
f1
fe
0f
f0
f1
24
15
10
e7
e2
f4
f1
e3
de
03
e4
e9
ee
fe
09
f8
ed
f5
fd
fe
f6
e4
f6
eb
f9
ee
f8
0f
09
e9
0a
00
f6
f7
f8
f6
02
0b
0d
00
ff
ee
f9
fd
f3
07
02
15
08
fb
f2
fd
01
fb
0f
0f
14
ff
f5
f9
fe
fb
f6
01
0c
02
03
05
fc
01
f0
00
fc
f3
f2
f8
ea
04
04
0e
34
14
40
18
fc
06
f5
05
01
08
f3
eb
ed
04
00
08
07
f8
f8
f7
f0
f7
00
0b
ff
10
0d
da
f1
cf
ee
f7
0e
f1
06
f4
cf
06
12
fa
13
ec
f1
fb
d2
dd
d2
c8
f8
f1
04
16
07
1d
ed
04
f4
f1
06
fd
e6
ff
fb
f8
e6
d7
f7
ec
fe
1a
f6
33
fc
17
ea
e9
01
06
0b
f7
0b
15
17
2c
19
f6
fa
f8
01
0d
cb
fc
d2
dc
0b
fa
06
06
0f
2f
15
24
08
03
ff
12
12
07
18
18
0a
f0
ea
03
1a
14
ff
f3
07
0b
ff
00
f6
0f
00
09
2c
28
34
01
03
fc
fb
f7
fe
fa
02
00
fd
0e
0b
fd
fc
f9
eb
05
fe
07
f5
03
f4
f0
03
fc
f7
f0
fb
f4
fd
f2
f9
ee
f7
00
ec
ed
0b
16
12
06
0a
f7
01
fa
f2
fe
ec
f5
fd
ff
f0
03
f6
e7
fa
e9
f2
f4
f4
f8
fe
fb
06
e8
03
08
eb
f4
0d
fe
f6
01
f7
f1
f4
e3
e3
e2
e7
f9
ef
f0
f3
0f
dc
fd
10
e9
09
0c
0e
f0
f2
03
fd
ef
fb
ed
f5
03
1b
06
09
0e
11
fb
03
f4
0a
01
f3
f9
fb
f4
fc
f7
02
09
fd
fd
fb
f8
ec
f4
ff
f2
fc
09
f8
ee
ff
f0
0a
fd
f5
ff
05
f7
fd
fe
ea
f8
09
fd
fb
ef
f7
f0
f8
ec
ef
ea
f3
09
0a
02
f6
f2
f9
ff
00
05
ff
0a
f3
f1
fa
fb
f8
01
f3
fb
ff
f9
02
f2
f4
eb
01
07
02
0d
0f
02
09
0a
0e
0e
0b
fc
df
dd
ee
f2
dc
ec
06
e6
f1
f0
da
e3
fe
f8
fc
f1
fc
f8
05
02
ed
fd
02
ea
00
0d
03
ec
fa
f2
ff
ea
f8
f8
e4
f8
03
fc
ec
01
0e
f0
fb
0c
f7
06
02
ef
df
f6
e7
e7
ec
05
0b
09
03
09
04
fa
08
01
02
03
02
fb
fc
07
08
fb
f8
fb
01
ff
f6
03
f9
fb
fd
fe
fe
0b
10
ff
09
f4
f6
02
07
02
07
04
0a
06
08
01
f8
02
13
04
01
fa
fb
fa
fa
01
ef
f9
02
fb
fe
06
f6
f1
fa
ff
ef
fb
fa
fb
fd
0f
dc
ed
09
09
09
f5
fc
0c
14
f0
04
f8
07
f8
f0
ee
de
da
e6
d5
f6
0e
d6
08
00
c8
d8
08
c8
ec
04
09
f8
d4
dd
dc
f3
fa
f8
08
08
f8
f4
f0
dd
01
ee
f3
08
f6
04
0f
f2
fa
04
e8
e0
fe
03
ef
fa
fd
f0
f8
e5
ee
03
08
e6
18
03
e3
17
f9
07
fd
fd
f9
e6
f4
cf
ef
fe
e9
05
01
f7
f5
00
ee
fb
fc
f8
01
01
00
f8
f3
f6
04
f8
03
ef
ed
eb
01
fe
03
04
fb
03
07
01
fd
fd
09
00
f6
05
f0
f8
fc
01
fb
01
f7
ff
fc
f4
03
f9
f3
fe
04
04
02
fc
08
f7
fc
f8
fb
f8
ff
fd
01
02
df
f5
fb
e5
f7
ec
01
f9
f3
ff
fa
03
fb
0c
f9
0b
fe
fc
f8
07
f7
06
f0
de
05
f6
05
f8
e5
f6
f7
e3
ee
fc
f4
e3
f7
fb
0f
fa
06
03
f4
0c
15
f7
04
e8
f5
fc
de
f5
db
d1
f0
06
08
ed
08
14
fa
08
0b
fa
f0
de
ef
fa
f1
fa
fe
fc
01
14
09
0f
08
01
f4
10
08
f6
f3
04
00
f5
0f
03
fa
04
fb
00
04
02
00
fb
05
03
09
f1
f2
f9
00
f5
0a
f6
f6
f0
fd
ee
00
f8
fe
06
09
fa
13
01
06
00
05
fe
fb
f9
fb
ec
0c
fd
fa
f4
fb
fc
f8
01
04
00
03
04
fb
05
00
fd
02
08
fb
f5
f2
e7
f9
06
f2
ff
09
0a
07
fb
02
12
08
06
02
04
0c
fb
fa
fa
04
05
f5
f2
ee
e7
f2
f4
fc
f3
06
ee
09
fb
f8
f6
04
f2
01
13
00
0b
0b
00
0b
f7
f1
f5
f8
f4
f8
fd
f4
05
12
dc
06
03
ed
06
11
f3
e0
ed
f1
d8
ee
eb
e9
f0
03
14
00
09
17
17
04
08
09
f8
fe
fc
fd
03
05
fe
04
fd
03
01
f9
08
ff
03
fc
09
05
0c
f2
03
fb
fd
07
05
f6
f7
fc
03
01
f7
f9
02
00
00
16
17
14
05
fd
e7
eb
ef
e9
f3
0e
f8
00
f0
ea
fe
01
fc
fd
0f
f5
ff
f4
fb
f5
fc
ef
05
fb
f9
fb
f3
fb
f4
fa
fe
06
fe
e4
ff
06
01
f5
f2
04
eb
2f
1e
ee
f6
f1
d5
ff
e9
ed
00
02
f6
d6
fa
f4
00
f4
fa
fb
ec
fb
ef
0b
f6
fb
f8
f2
eb
da
ef
06
e6
e3
f5
f9
09
01
fa
f1
f5
06
03
f9
f3
e2
d6
dc
d2
0b
f0
d3
f1
e7
ea
e7
e2
f0
06
10
02
fb
00
f3
f5
ff
01
ed
f6
ed
f2
ec
f6
02
0e
11
ea
e7
f1
fa
fb
ff
0e
14
05
ee
ed
d4
0b
ff
01
04
11
f8
fd
fc
f6
ff
fb
ef
e2
e8
eb
dc
c7
df
ee
ed
fc
f5
01
f9
01
0e
fe
15
0d
16
03
e9
fe
fe
de
ef
ee
d9
fa
f9
09
e4
f7
05
f4
07
fc
0a
ff
ff
03
f3
e8
f7
07
01
0a
ff
01
f9
01
ea
0c
fb
0b
10
dd
ee
f4
f4
1a
f7
13
f4
04
01
02
fb
15
ea
00
f3
05
14
07
00
fa
e7
da
06
f2
09
21
f7
0e
0f
1c
ef
f3
f0
f5
10
00
fb
eb
0f
00
f6
0f
16
08
14
f5
01
e9
f2
f3
ee
0d
05
e8
03
00
0d
26
0c
0e
01
fa
f7
04
01
05
27
0c
03
01
f9
e4
ff
0d
0e
2b
0b
02
01
03
ff
ff
0f
10
26
11
05
01
f6
e7
fe
f2
f7
ff
00
fd
f1
f9
08
06
02
fe
ff
f9
fc
fb
1e
ee
fd
fe
fb
f7
02
07
0f
10
ec
d9
f7
e5
db
02
0f
fd
ff
02
f0
fe
06
08
06
0b
02
f4
10
00
11
18
11
0f
2c
1e
30
07
de
f5
fc
d6
01
f5
cb
eb
00
fe
07
fc
03
0c
05
07
fa
ee
f6
0e
f6
ee
13
04
fc
fa
fd
e8
09
f8
fa
01
0d
05
02
ea
e7
01
e5
fa
04
e2
ee
f4
f9
f3
12
fd
0d
01
f7
ef
e6
fd
ef
e2
fc
ef
ee
fa
ec
fc
f8
e9
e6
fb
e1
e4
fc
f9
f3
03
ff
04
f1
e3
e0
05
0e
12
08
f3
e7
fa
f9
e6
ec
fa
0f
ef
e6
e5
e3
d5
eb
e9
e5
f1
14
07
01
ff
01
fc
fa
fb
fd
07
0c
11
0a
fe
06
fd
f6
f2
1a
16
0f
0b
12
15
0a
17
0e
f5
e5
f5
f3
cc
ef
01
0e
fb
e4
ec
0e
e3
e6
db
08
ed
09
f1
f4
f7
dc
02
f3
1e
18
03
f8
fc
ff
f9
ff
ee
00
15
0c
f3
03
fd
e6
ce
d8
ef
f8
f0
fa
01
ef
06
02
f2
ff
f5
02
21
00
15
f5
13
eb
0f
04
0c
fd
df
f3
de
c8
f6
f8
07
01
f6
f2
f5
fa
17
08
09
0d
08
01
ff
02
03
16
13
04
02
07
f8
f3
0c
17
25
18
f9
02
11
f4
f0
f5
08
19
04
04
0f
06
df
ec
ed
e9
e5
e9
fc
ee
e7
fd
ff
08
fd
f5
0c
fc
f1
e5
15
f7
f8
08
f5
fd
f9
00
fa
34
02
01
01
f4
03
f5
f7
03
dd
05
09
03
10
00
0f
00
f9
0d
f5
ff
ee
f6
e0
f3
e8
f9
16
f7
ed
fb
04
ed
01
ff
eb
f7
06
fe
f3
f5
09
ed
f7
0c
fa
e9
fa
d4
e4
df
e9
f6
f1
1b
05
fe
ec
02
03
ed
f3
0c
00
f1
22
e5
dc
fc
fa
f6
e2
da
f8
f1
08
01
03
0d
00
07
25
0d
0f
0a
02
fd
fc
06
01
17
10
0e
f7
00
f7
02
fd
f5
24
06
13
06
02
ff
03
03
fe
1a
09
0f
0a
fd
07
ef
f7
f7
f6
f3
fc
f0
ee
f4
f6
fc
04
03
02
f9
0f
10
08
06
3c
1e
0c
ff
13
20
09
07
21
fa
fc
02
01
f3
ff
02
fc
1b
f4
02
01
fd
10
ec
12
0e
fe
c0
08
34
fc
de
00
ef
fa
19
f4
f1
00
13
fa
ec
19
ea
ed
0e
d2
1b
09
f7
f9
02
fd
0a
f6
05
e6
fc
06
de
e1
03
d7
ca
f6
0f
1b
fb
fa
11
fc
0c
f9
08
f4
fe
fc
09
13
0b
15
ed
02
fe
0d
0b
e4
ff
03
f5
c2
03
f7
13
fe
02
15
0c
f3
1b
0c
ef
f2
fe
f4
f7
0e
fc
00
06
07
ff
06
09
00
1a
05
27
13
f1
0a
0a
0b
0e
10
fb
32
15
f6
f2
f2
f1
f5
fe
08
03
ff
0d
04
fc
ef
ef
f7
ec
ef
01
01
09
12
12
0a
05
10
04
04
f9
eb
f6
0e
0b
11
07
fd
01
fa
ea
fe
13
fd
fc
03
02
f8
11
f7
fd
2d
1a
03
3a
00
ed
fa
e3
db
02
09
f8
f6
fe
ea
fd
01
f4
07
0e
0b
fd
1b
08
07
f9
fe
2e
16
0d
21
10
08
0b
f6
eb
f7
1e
09
f1
16
0e
03
ff
2d
1d
f8
17
ec
db
11
fa
ec
09
0b
f3
03
0d
08
05
06
21
00
fa
fb
06
f6
f7
f6
13
0d
f8
09
f7
01
fe
02
08
26
22
05
e8
ed
0a
00
ea
0a
17
1b
fb
f3
f0
0c
eb
dc
fe
fc
fd
0f
07
00
fe
17
01
f4
f9
04
f8
02
f7
fe
0f
12
0b
eb
f1
07
ff
fb
08
05
09
fd
fc
ef
ff
07
09
14
f7
f8
ef
02
03
fb
03
12
04
df
f8
04
fb
f5
0a
d8
e1
fa
11
1c
17
e7
0c
f4
e3
e1
ef
f7
e6
d9
f8
08
f9
f3
f8
00
f9
04
02
f4
f3
f9
f1
e9
f7
ec
e5
d7
04
f4
f9
ef
09
fe
15
0c
f9
da
e1
e7
10
fc
eb
0f
ea
fc
09
08
ff
10
10
05
db
f7
fe
ee
0b
f6
10
f7
08
00
fd
0e
02
07
fe
0d
fe
07
03
f8
07
ef
ee
f7
0d
fe
0b
22
14
0d
ea
fb
e7
12
f6
01
10
1d
14
e6
f2
f2
dd
f2
fd
e0
eb
ec
fb
fd
01
fa
fc
fb
04
10
fc
2a
16
04
0d
04
09
0e
f2
04
40
14
0b
25
0b
01
07
f9
fe
c7
01
00
e6
0c
f9
fd
0b
00
e9
d7
db
e9
f2
f9
df
d5
04
06
0a
f6
13
ee
fd
2b
04
1a
14
09
03
06
ff
fd
fe
05
fe
e8
ec
0a
cb
04
06
ce
f8
04
2a
11
f1
1b
f8
fc
1e
00
f9
12
0e
ed
ed
01
f7
eb
fd
f3
cc
05
fb
e3
06
02
f2
04
08
2b
0f
f5
19
07
f9
14
05
09
ff
fe
fb
fc
0c
04
08
08
04
20
0a
fd
0b
13
f7
07
fb
fb
25
15
f4
2d
15
07
25
09
06
0c
03
0e
fa
fc
f7
f4
ed
ec
0c
0c
f5
fe
f0
f1
01
f2
fb
01
0e
0d
fa
10
0c
03
03
0c
ff
f3
04
ff
0c
02
f3
0b
02
fd
09
00
0b
0e
00
06
03
fe
18
0a
e4
ef
e7
da
e2
df
fc
08
f5
00
eb
ea
fc
0b
06
14
f0
ff
00
f5
05
0d
f9
07
03
06
05
f6
fe
01
fa
15
07
04
f6
f5
ff
ed
06
1b
ee
fb
0b
ec
ef
e1
ce
e6
e1
fe
fe
f8
0a
09
05
f7
05
f6
fb
ff
0a
08
07
f8
07
05
03
fb
07
08
fa
05
fa
fd
0a
fe
fd
09
f0
ff
02
fd
0a
fb
04
0c
01
04
0d
fe
fa
09
03
f5
05
f8
f2
f2
00
05
ed
f6
f5
f7
ed
e6
0e
f2
ec
13
01
07
03
1a
0b
04
01
04
24
0b
03
40
0c
f7
08
01
fa
0d
12
0a
0e
10
fb
fa
f4
0c
e1
fa
f9
e7
f0
05
fb
e8
ea
14
dd
ea
1e
02
0b
02
12
fc
e8
10
05
f5
f8
f4
04
f5
fb
f2
06
06
f4
fa
0a
d0
fa
0c
ed
ff
f8
00
f2
e6
f8
f2
f7
06
01
f9
f3
f1
06
e0
fb
f4
ed
0d
f1
e7
f2
13
ff
f6
f6
e5
0e
0a
d6
f0
0d
1f
09
fe
11
06
04
04
0d
06
f5
07
f9
00
fb
f8
f9
fe
ff
0e
03
fb
24
0c
f8
19
13
07
0d
ff
05
14
04
f5
f9
0f
02
fe
f1
fd
e9
e9
fd
f3
f1
10
10
09
03
05
06
01
02
0a
0a
0d
03
1c
fe
f5
0c
18
f6
02
03
19
0c
09
18
0f
07
f0
ff
fa
e7
06
e9
ed
0a
f5
f8
fb
05
ed
07
eb
d8
e7
08
ff
ec
e6
33
04
d2
12
e9
fa
21
16
0f
f8
00
f7
f5
04
f3
f6
fd
d4
e9
f5
d0
cb
0d
e3
d0
14
0f
06
05
f4
03
f8
f2
04
e9
06
17
1c
0a
eb
14
0a
df
1a
fc
d6
05
e5
e9
ff
f4
f3
0d
fd
12
0f
f1
15
05
ff
0e
fa
fa
06
11
f3
fc
0b
04
f7
fc
06
0c
1c
02
14
11
00
fc
12
ff
22
04
f9
20
09
00
12
f7
f2
e9
ef
fe
e8
f1
e9
e9
f8
f5
0c
fb
fa
06
fc
06
1c
f2
01
fa
03
04
f9
f5
fe
01
fb
03
fb
fb
f3
04
fb
f1
f3
fa
07
ea
09
05
07
e7
f6
ee
0d
d8
f8
f5
d3
eb
0d
f9
ee
fb
06
02
f7
dd
cf
03
f1
ec
0b
0b
f5
01
0a
03
f4
03
f1
0a
d7
d7
0a
df
cf
f2
e8
cd
e0
fd
e9
e8
fe
0a
f3
11
ef
f1
12
05
05
e5
f1
04
fa
06
ed
09
e1
f0
05
f5
ea
00
e2
f4
04
11
f4
f5
f4
fd
fa
14
f5
07
1d
fe
f7
f8
ec
06
f9
f2
01
20
f5
fd
00
fa
0c
f8
05
11
1a
ef
08
09
00
fc
15
f9
db
ed
e3
ed
e4
e6
f8
e2
e6
11
eb
f0
05
22
0d
fd
18
23
ec
fc
09
0e
f8
02
09
f4
eb
fc
ed
fc
fb
e4
ed
04
ee
fa
e5
04
07
fb
f1
04
0e
fc
ce
04
08
ef
2e
fe
f9
23
3a
0d
20
ee
f0
0d
f6
d0
0f
f9
e4
fb
f6
fd
1c
ef
ff
01
1b
db
ec
0c
10
09
db
00
fe
f1
c8
0d
ed
00
14
f4
ec
fb
1a
e5
f1
07
f6
0a
15
07
f0
0b
f0
f6
07
ff
f6
f7
03
0c
fe
d2
17
01
01
f3
27
02
ee
fa
20
11
03
01
fd
1e
00
f7
00
0a
17
fa
0a
07
23
0d
fb
0f
2a
19
11
fa
f7
34
fa
fc
1d
3a
e7
fb
ee
e7
e6
e2
f1
f1
df
fd
fd
f4
ed
11
f7
f4
f2
02
fb
f9
ff
f3
f4
f2
0d
ff
ed
f9
f8
e9
f7
ed
f5
04
01
eb
e9
11
f9
ff
dd
08
ed
de
fa
18
dd
ed
23
1a
f3
0e
f5
f6
df
ea
c7
cd
05
dc
e6
fa
d7
00
f9
f2
14
ea
f4
f6
f6
00
e2
de
f9
de
e9
ef
e0
d8
d8
05
f9
eb
14
de
e6
00
f7
ef
ea
fc
00
09
fe
06
d7
f8
f0
eb
0c
08
f9
da
fb
f0
e6
fc
06
03
01
e2
1e
fd
fc
08
f5
f7
f0
fa
f7
f9
0a
fa
fe
f2
13
02
fb
f0
06
ff
ff
fb
fe
02
04
fb
e3
25
0f
fa
0b
f7
fa
fa
f6
03
08
00
1d
1b
10
fd
00
f9
00
07
0a
fe
19
06
0a
0e
05
1d
06
0c
26
19
13
0f
0a
fe
f8
fb
04
f9
04
03
eb
04
0a
e9
01
0c
c2
f0
00
c1
d0
01
ef
e3
23
ec
fb
1b
d7
ea
f0
e5
f3
e6
d5
f0
fc
ed
f0
fe
04
fc
f9
e5
da
02
f7
e1
ff
f4
f7
f7
e0
f0
10
09
e6
03
0a
f2
f3
0c
e7
ec
f0
fb
e2
f1
e8
f4
00
f8
fb
fa
05
0c
e9
06
14
d0
e6
07
07
06
ee
f9
06
f5
fd
08
f9
12
09
01
06
11
06
0a
10
05
1a
09
03
1e
17
fd
0a
18
fc
09
01
ee
15
0b
05
12
1e
03
f5
fe
08
f7
fe
0b
ec
fe
fc
f8
f7
f7
10
00
ef
f3
0e
07
ee
05
0a
04
fd
03
08
e4
fd
0e
f6
fb
03
f1
ff
fb
fc
07
03
0e
fd
fb
18
f6
f3
01
01
ea
ec
18
f9
cd
dd
02
02
15
ef
fe
1d
e6
ea
f4
fc
f6
05
fe
f6
f5
e3
03
00
25
00
f8
ed
f8
0e
dd
de
f8
c2
f6
0c
19
f7
fb
e6
f1
fa
2c
02
ed
17
e6
ce
e9
e5
d1
0a
d2
d4
f3
04
fb
f5
13
00
07
02
f6
0c
00
fa
1e
f7
03
0d
fa
fc
00
04
fc
03
f6
f2
02
f5
08
08
0d
f5
26
03
f2
1b
0c
17
11
05
f1
24
01
f9
f5
18
02
fe
fc
e6
fe
f5
f6
ef
f3
f0
fd
02
fe
f5
fc
0f
f5
10
26
f6
f0
eb
eb
ec
f3
fd
f9
f4
f6
e8
f9
f7
f6
ef
f3
fa
f6
f0
f7
c8
0b
08
e0
f5
04
eb
f5
02
e3
f4
0b
d4
fd
08
ec
f8
f4
f4
ec
df
f4
0a
e9
fd
f7
02
c3
f8
11
ed
f4
0c
e9
e9
f7
fa
f6
fa
f8
26
0f
f6
f4
11
c0
eb
0f
ec
f2
14
f1
ea
f9
eb
ef
01
f1
f8
f8
07
ec
e8
c0
11
0d
f0
f4
f9
fa
ff
0a
31
f5
f9
24
fc
00
16
03
10
40
f2
f4
15
04
ff
15
03
2b
0c
07
03
02
06
0b
0a
0d
0c
1d
f9
fb
25
fe
04
22
ea
ef
fb
ed
f9
f2
00
fe
f6
fa
ed
fc
02
0e
fa
06
f5
04
f4
f6
e9
e9
ed
eb
eb
eb
eb
e9
fc
fe
f4
fe
fc
03
00
f7
08
fa
e8
ea
df
f9
0a
02
ec
e8
16
2a
fb
f5
0a
14
ee
16
e8
f0
0b
dd
ec
dc
fc
f3
19
0b
07
ec
e8
e5
f6
f6
07
fc
06
07
19
ff
e5
10
08
07
e4
fc
00
f9
f3
e3
02
e3
17
0c
e6
fc
1c
e7
fb
10
0a
13
23
ff
0a
f8
e2
e3
ed
09
00
f4
07
06
ff
0b
0a
eb
09
fc
fa
fb
0d
12
05
07
01
fa
fe
08
f4
fe
07
17
11
fa
01
fd
1d
12
0d
08
09
0e
e3
fb
00
fe
f0
f6
f9
f9
e6
ee
f2
f9
f5
04
f7
fe
fd
00
02
00
04
fc
08
09
fa
09
09
0b
ff
fc
06
fe
f3
fd
ff
03
02
02
fe
fc
e1
ef
ee
ed
e2
e8
ed
e8
f0
0d
e2
f4
02
e4
03
0a
ef
0c
ed
fe
f7
e4
eb
fc
00
0c
f5
f1
f4
f3
f5
f1
e4
f7
ed
f6
e8
e6
05
fd
02
f3
dd
f6
f9
fe
fd
e9
fb
f5
f7
f1
f1
f4
f1
e1
e3
f1
ec
fb
03
f4
0c
f5
f0
f5
e8
ed
de
e4
f3
fb
02
fc
fc
01
f8
02
01
0e
0d
01
fc
03
fc
03
f8
ff
0b
fb
fb
f7
04
ff
fd
0e
0e
0c
04
fd
0a
ff
f4
f7
f7
05
09
06
f4
f6
e5
fd
f8
f8
fe
05
fe
fe
0c
fa
f7
11
0c
f6
0e
14
05
fb
fb
fd
f5
ea
e5
ea
f0
eb
ee
f5
00
ff
e7
f6
01
fd
fc
ef
f9
0b
0c
d4
fe
02
d4
f2
23
ff
f7
f3
e1
12
09
0e
f3
ee
e9
f6
00
eb
09
e0
f7
ff
09
f0
0e
0f
d6
0e
11
d2
f1
ec
f3
fb
eb
db
0b
f4
e8
03
1e
ee
fe
1c
d3
05
1c
e8
f4
0c
0b
ef
13
f2
f8
e8
f7
00
f1
f1
f7
0a
e2
f2
02
cc
00
18
0e
05
0c
21
fc
07
14
01
11
26
01
10
34
02
05
26
0d
0b
f9
f5
fe
f8
00
06
fb
08
16
fb
07
18
1e
fe
1a
18
ed
f8
f3
ea
eb
ed
ed
f9
eb
0c
06
fc
f4
f2
f0
fb
f6
02
f0
fb
fe
e6
f5
ec
ee
fe
01
08
00
f9
f5
f8
04
ee
00
08
f8
02
08
ff
0f
0a
0b
03
f8
ee
ea
fa
e3
ea
d3
f7
05
dd
ee
ed
e5
f4
ec
f8
fe
ed
fa
f3
00
fd
e8
f1
00
f5
fc
06
f6
df
f8
e1
e6
d9
e6
dd
e1
f6
fc
05
e9
fd
03
f0
fe
11
0d
e8
f1
ee
e4
e5
e4
e1
fd
0f
f9
04
16
01
0a
05
00
0e
fe
03
0e
05
fb
03
fe
fa
03
fe
0b
06
f3
f7
f7
f4
ff
05
05
0d
12
fa
fc
f9
f3
05
f2
0c
0a
0c
06
03
f8
f6
fe
00
fa
d5
e0
fc
db
e9
f5
f9
ff
f4
0c
0f
04
3a
f3
09
fd
0b
fd
fa
fc
01
f6
f1
f6
ff
f6
f6
f5
fc
06
35
fe
0e
f8
02
19
10
e5
0f
c1
14
f7
fe
00
f5
ec
ec
1a
db
02
2f
09
ef
f4
d9
ec
e9
fc
f2
de
06
f5
0e
26
ff
22
ee
08
fc
fc
10
fd
f1
de
db
e6
fa
f5
0c
0a
ef
3e
00
28
f6
08
07
f1
fe
15
03
04
26
23
ed
20
e5
f0
09
14
ea
13
cb
0a
eb
01
03
00
01
0f
f6
40
f8
0a
f6
ea
0a
0a
13
04
06
04
f7
eb
ec
fe
06
0c
15
19
09
f7
eb
ec
fe
07
12
07
40
01
19
ec
f9
18
0d
00
f3
00
00
e3
c0
dd
06
fd
fc
fc
fb
f4
10
0c
28
eb
04
06
f0
f8
01
f4
eb
ee
e0
10
ef
f6
f3
eb
fe
eb
f4
f7
01
0b
f4
ff
02
12
14
e9
ef
1f
16
ed
17
26
04
0e
26
e6
0f
15
d0
0e
f2
f3
f0
df
ed
05
0f
f2
f8
ff
11
18
fb
05
1c
12
0e
08
f4
f5
de
f0
ef
f9
17
d6
fe
0a
08
20
fd
e1
ed
f5
fd
e3
01
01
f4
1c
03
f8
f6
08
fd
f6
10
11
f5
e4
fc
ed
ff
04
f3
09
f4
21
0b
fe
e9
05
fd
fa
fa
02
09
f0
f9
e4
fd
02
fb
1a
18
fc
f2
f7
f0
0b
f0
fb
1c
0f
37
dd
d7
d5
d6
f2
fa
e7
f5
03
06
fc
05
fd
07
f9
f7
fe
fb
fe
04
f6
03
f2
f7
17
fb
09
04
16
f7
0f
07
00
ff
f0
f7
e3
f0
ef
eb
f3
fb
09
00
02
da
ef
1f
07
00
1f
ff
13
0e
e2
e0
d9
e4
ff
06
0c
f9
0f
fb
ec
eb
05
01
f2
f7
f7
f4
f6
fb
ed
eb
f3
ed
f5
fd
27
f9
04
e6
10
f0
e3
f8
f2
01
14
f7
ea
f6
f1
f5
f4
ee
ff
e1
e8
dc
e1
ed
fc
f2
11
0b
f1
f8
04
00
fd
f1
0e
04
fb
f6
06
03
ea
f9
05
f5
fc
02
05
04
fa
08
fd
10
05
f4
ee
f6
00
0a
f9
03
19
02
07
0b
fe
fe
00
03
f0
03
11
fd
00
03
0b
0d
f7
fd
f4
fd
ea
e7
16
12
18
0c
11
0b
11
04
13
f6
0e
0b
16
17
0a
22
13
11
00
06
f5
00
fd
02
10
05
fa
06
07
de
1a
f9
ea
f3
03
e2
00
24
08
e9
05
e6
04
0c
fa
fa
08
05
fc
17
ff
f9
13
13
09
21
20
21
0f
20
16
ec
09
fc
18
0a
fc
0d
0b
ec
10
0f
fc
fd
fc
f8
f9
f2
2f
f8
01
fe
01
06
08
0e
0d
f6
fe
04
eb
f7
f8
ec
fe
ff
03
01
fc
e8
f3
fc
f5
f7
fe
0c
0d
0e
e0
ec
f0
f3
fe
17
03
eb
f3
f8
00
11
e9
03
07
f0
f3
ed
fa
ed
ee
f3
f2
f7
f9
fa
fe
0a
02
f2
f9
fa
fd
fd
f2
f4
f1
fb
02
e5
00
08
f5
f7
f5
f3
f6
f9
fd
f6
ed
fc
ee
fd
0f
f9
07
ff
f7
fa
fa
09
03
d9
d5
d2
e0
fb
dd
f9
ea
e1
e6
fc
e2
eb
f2
e9
03
e5
e9
f3
00
ff
e7
f6
0a
ef
00
00
db
f2
e9
e6
f4
e6
e5
f1
ef
df
f9
02
ea
f5
10
ee
fc
06
10
f4
00
10
fe
04
00
f0
fa
0c
06
04
f9
01
05
0e
10
f7
05
00
f1
02
fc
02
08
fd
f1
f7
f7
f4
fa
f4
f4
01
f6
e9
fd
f6
fc
00
06
04
f3
f3
f4
fb
f3
f6
01
fc
f8
0e
f9
fb
11
07
20
0a
fc
0d
e8
ef
f7
0f
07
ee
fb
18
14
f7
08
10
21
03
08
0f
19
1f
00
18
1e
05
0b
01
07
10
12
fd
fb
f6
fd
18
09
cc
d0
0c
fc
d7
ea
fe
e4
fe
09
f7
08
fe
fd
07
0b
1f
1d
ec
e5
ec
fb
05
fa
fd
f3
f5
ed
ef
e4
00
f4
e9
12
12
37
08
0c
0a
04
f2
00
ff
fe
ff
fc
f1
e9
12
ee
f8
ee
d8
fc
e4
ef
fd
ee
0f
f2
ef
16
08
d0
e9
02
0a
ec
e4
0e
fd
fe
f7
0b
01
f8
ff
f1
01
fe
0d
f3
ff
fa
fb
02
06
18
03
f9
11
25
14
f8
01
17
17
0b
09
05
31
09
ed
09
16
f1
fd
f8
fb
f9
f9
fd
fb
02
ed
01
09
fd
04
04
f2
06
04
05
0b
f7
16
11
1c
19
03
0a
1e
27
19
2f
0b
0a
13
04
07
db
de
09
d1
00
0d
f7
07
09
fe
e4
0a
e6
e0
27
e3
ee
25
e4
00
15
fa
e8
e9
f5
f6
12
fb
fe
05
eb
01
fb
f3
fc
fd
0c
f4
06
0b
1a
10
de
fe
f9
09
05
f7
f3
f5
0e
03
fe
fd
06
00
fc
ec
00
00
fd
f8
fd
df
e2
0b
da
08
0e
e7
00
f9
00
12
10
12
0a
f7
01
f9
0b
f2
fd
19
ff
07
ff
0e
0a
0b
fc
19
0f
11
0a
fc
13
f8
08
f7
12
10
0a
07
0c
10
14
09
1c
0c
05
15
01
e8
29
0f
01
e2
e3
e9
e7
f2
fd
f8
fc
f8
c4
c7
c0
dc
cf
da
e4
da
da
05
f8
07
0e
f7
f8
04
fa
10
dd
01
fd
db
07
01
eb
f6
0d
e6
ed
08
ef
de
03
01
12
1f
d6
f1
f7
e5
ee
00
f5
f5
ed
13
00
e2
19
f6
ed
11
ff
f6
fd
e2
ee
e1
f5
f5
fc
f9
09
d6
fd
09
e0
10
00
e9
ff
0d
cd
0a
fd
d4
11
10
eb
06
02
f2
f0
ed
06
fd
f5
03
ee
04
02
01
fc
01
02
f6
f6
02
fd
e2
fb
02
ca
02
00
db
f8
0a
25
15
00
12
02
10
f1
e2
0b
d5
fa
fe
db
fd
12
df
f3
fc
0e
08
07
16
15
0a
40
0f
15
f4
03
02
fc
04
fd
fb
06
03
e1
ea
f4
ef
ed
f2
f3
ec
0a
19
02
f7
12
07
f2
0b
fa
fc
ee
01
fa
e8
0f
0e
d8
fb
fd
fc
f9
04
10
19
11
10
15
17
f9
f8
0f
ed
01
f6
f1
f0
f5
08
06
f5
21
f7
fb
22
0d
0e
f4
ec
f2
ec
02
00
e1
f1
03
e4
02
08
f1
12
0f
d7
fb
01
e8
fd
08
e5
f7
09
dd
ff
0e
08
05
fe
12
10
06
0e
10
0b
04
08
fc
fa
ee
ef
f1
f4
f4
f0
fb
02
e8
00
12
d8
ea
01
fd
1a
f3
fa
12
0c
ff
19
07
f7
ff
f9
db
12
1a
ea
f6
03
20
29
02
19
19
0b
fa
00
fd
0f
0a
01
0e
02
fc
0c
03
03
f3
ea
f5
fd
fa
e6
fd
1e
0d
17
07
00
09
f9
ef
09
fe
fb
00
0d
05
fe
03
03
0c
0e
fa
f8
05
1c
0b
18
15
13
07
25
0b
1a
1a
14
15
10
00
01
fc
09
04
ff
0b
05
02
fd
fe
f4
08
0b
0e
ee
05
04
ff
03
19
fc
07
13
0b
11
0a
04
06
fb
12
1c
11
00
0d
08
fb
f7
ec
fd
f4
eb
10
05
fe
06
06
06
f5
f8
ed
f0
fd
e7
04
05
f9
04
0b
12
00
10
09
08
08
fd
17
0f
fa
17
1e
f2
e5
f0
11
0e
0b
0f
10
0b
0f
13
11
0d
f4
00
f3
f6
08
07
ea
f8
06
07
ff
f8
fb
fc
f0
f8
f3
f9
f8
e9
ec
ef
ff
ef
fe
06
ef
07
00
fd
f9
f2
ed
e8
fa
fa
04
f6
09
fd
0e
12
08
fa
07
f8
e8
fb
09
fb
19
e9
f5
fc
fd
fd
f7
fc
09
05
f9
f3
e8
11
fd
03
f8
fe
07
fd
04
01
f5
fe
fd
f6
ff
11
f2
ff
0a
f4
06
f9
0f
fe
0b
0d
0c
06
ff
10
05
0c
ff
03
06
f5
f4
01
06
f6
fc
fb
fe
fe
01
fe
f5
00
02
f1
04
f9
fa
fb
05
f6
04
fe
f9
fb
12
0b
0e
fe
f9
e5
de
0f
f3
ec
ea
02
e6
03
f5
05
0b
0a
10
fa
00
0b
0d
07
04
f5
f3
0b
ef
07
0d
ff
f6
fb
ff
f6
ee
08
08
fa
d8
de
0a
03
f2
f4
23
1f
ee
fe
f4
0b
f1
fa
f8
f3
f8
02
eb
f1
fd
06
ec
f3
06
fb
e0
f2
0a
23
ff
0b
0a
00
10
ff
df
ff
0e
14
fd
06
fa
17
f2
11
f3
e5
f2
15
ea
f9
00
14
f2
f0
f6
06
00
ec
06
08
de
ef
f3
06
ff
f7
f5
fa
0a
f6
e5
ef
16
29
16
05
ef
0a
00
fa
ff
0b
03
04
f8
00
13
eb
ea
ed
f8
ef
f0
e9
f5
ff
df
e2
f7
04
11
f0
fc
f7
06
e5
12
fe
0a
1d
14
f7
dd
02
ff
e3
f7
16
1a
f1
f7
01
04
e1
f7
d8
e6
f7
cd
ec
f3
dd
e7
fc
f3
f8
fc
f9
ff
0c
03
17
01
01
18
0e
e6
f9
06
e6
fa
ea
ff
f8
08
ed
e7
06
f1
f7
01
f4
ef
05
0d
f4
fe
05
d7
f8
05
06
0a
00
eb
fc
08
0c
00
f6
e4
01
0a
f1
f4
03
f6
fd
09
13
f2
08
2b
05
0f
1c
02
03
cb
fe
02
de
fe
fe
c0
04
fb
de
02
09
eb
02
f6
e3
fc
f5
e8
0a
19
ef
fc
08
00
00
f4
f3
ff
ff
fe
07
06
f3
00
da
de
01
c8
d6
ed
ca
e2
ff
f1
f0
07
05
e6
0a
fe
dd
f9
0f
f7
f1
10
d8
d6
f2
e9
00
ee
e6
08
02
de
f6
fb
da
f3
f5
f1
f7
02
fc
e7
f2
fd
fc
01
f8
01
00
f9
f6
03
f2
d1
d1
cf
ef
e2
e3
fb
e6
dc
02
0d
fd
fd
03
fb
f6
eb
f0
fe
01
09
08
ff
0d
ff
02
fe
e3
e8
fb
e0
fc
fc
d1
e5
fd
0f
07
07
ff
05
04
fb
fd
f9
05
fc
04
ff
f7
fa
10
06
01
ea
03
fe
f8
f8
08
f1
fd
0d
05
01
05
01
fe
fb
0c
09
f7
0c
03
05
00
00
00
f8
e8
e8
fe
f8
f9
f7
f4
fd
fd
fd
f6
e9
e3
e6
f1
f2
f0
ee
ec
f4
01
04
fe
0e
0c
07
fd
f6
00
ea
e8
d7
eb
f0
f8
10
da
ef
10
09
07
0b
fe
02
ff
05
03
10
ea
14
ee
de
fe
ed
ef
0c
07
fe
fb
00
00
f9
f9
fd
06
fd
0f
fd
10
fc
e1
0c
02
0d
05
0c
1b
fc
f7
17
0f
00
1a
e7
f4
04
e9
ea
fb
fc
ee
f4
0a
2d
31
0b
17
09
2b
28
26
f3
f1
ee
f7
e8
ef
f2
ea
fd
f1
fa
f6
f3
fc
fb
fc
ff
06
e7
ee
fc
f1
ee
f5
fc
f7
ef
f0
e9
f6
ea
de
de
f9
ec
f4
f8
e5
e7
e9
fc
f2
fb
f9
07
04
02
08
16
18
19
0d
05
0d
eb
f6
f1
ef
ff
00
fc
0c
10
ed
e6
ff
de
e2
ee
f6
ed
fa
f8
0a
05
1f
02
15
11
fe
eb
f0
ec
e6
df
d3
de
fe
ef
fc
e3
ed
f5
e9
ed
01
ee
f5
ff
03
de
ed
03
e4
e0
00
f3
e0
14
e2
d4
fa
f3
df
15
fe
f9
19
fb
05
ff
fb
0d
fc
f9
fa
f0
05
04
07
0b
06
f4
0c
f8
01
e7
10
ec
ec
10
f5
fa
11
fa
f6
f2
06
0e
03
06
02
fa
03
0d
24
02
05
fc
f5
f7
fa
fd
05
fb
f4
ff
11
f9
fe
12
01
f9
e9
03
04
ff
06
09
fd
fa
f9
0a
f5
ff
08
fb
ed
02
0d
f2
ef
f7
fe
fe
f8
f8
fb
fc
eb
13
e9
f5
06
fc
01
07
ef
0a
fe
fb
10
fc
ff
fb
f3
15
08
cc
14
e6
ed
0d
ff
de
01
f9
ec
fd
fc
fc
0b
0a
04
15
fa
f0
15
fe
07
1c
0d
01
01
f5
01
01
02
0c
fe
02
f9
f5
ef
e9
01
0b
f2
fe
0f
04
0b
0a
16
12
0b
0c
1b
0f
04
e2
e6
ec
f4
ef
f4
e4
ec
e8
09
ff
05
00
07
0c
1d
20
19
e3
f5
f8
eb
eb
e8
ef
e0
e9
00
fa
fa
fc
02
ff
02
fe
04
ec
e8
e0
e9
d8
e7
e9
e3
ea
d7
de
f3
ee
e7
ed
e9
f5
f9
f9
e3
ea
ed
e1
fa
f9
ed
f1
fa
ff
f5
fe
0f
09
11
06
fd
0c
00
ee
02
ff
f1
f8
02
e9
e2
ee
e3
f5
e4
e8
e9
e5
f0
14
f3
0f
fc
f0
ff
0b
e8
fd
dc
e0
df
fd
fc
f5
f4
f8
e5
01
fb
fe
fd
fa
f1
f5
f9
e8
0b
f3
f6
fb
f1
f4
f7
f9
05
f4
ed
ed
f7
fa
f5
03
19
08
22
0e
11
2d
26
19
12
02
ff
f7
fe
f7
ea
f7
ef
07
f8
04
fd
12
04
02
13
f4
0a
f7
01
fd
f3
e9
ed
07
f5
00
03
0f
e9
ee
fc
0a
16
15
0d
02
01
fd
fb
f5
fa
fb
00
fe
f9
0e
f4
fc
fb
f4
ee
f9
fd
02
fe
f2
e6
ee
ee
f6
01
05
0f
fc
0e
07
fe
1a
26
0d
04
05
ff
ef
02
ed
e9
02
f5
04
03
f5
f2
e8
fc
f2
f7
f6
00
07
f4
2c
21
1a
08
05
e8
0f
04
f3
f9
f3
ff
ee
e9
fa
09
05
f6
de
f6
ee
e0
f0
ee
0a
eb
ec
00
07
f9
0c
fb
f9
0a
10
f6
f6
02
ee
eb
f7
d7
01
f4
f5
df
ff
04
e6
e2
ed
ea
de
ee
00
02
e9
0d
03
df
fc
f7
ee
e8
08
0c
fc
f0
f9
e7
e0
05
1b
02
ef
1b
07
06
03
fb
07
02
1d
20
04
09
24
0e
f7
06
f7
fe
ea
fc
15
e4
05
0b
fa
0d
f6
e8
11
05
dd
11
05
e8
12
02
e9
fb
0c
f0
f7
f5
0d
f5
eb
fc
fa
07
e4
01
06
f8
f1
e0
dd
f7
ce
dd
f6
f9
e9
08
f6
e4
f9
fd
de
00
f6
f1
f2
01
e1
db
e3
d1
04
d2
cf
04
fc
e3
0b
0c
e1
0b
05
f1
f1
f0
f0
f4
fc
f2
f4
f4
fd
00
ee
f6
05
07
f3
fb
f7
f1
e7
dc
eb
f4
06
e6
ff
fc
04
0b
f8
ef
fc
fe
04
07
fe
05
f1
d4
eb
08
0e
f6
f4
02
03
df
f1
f7
e3
ed
ea
f4
fe
ed
fe
c8
f3
ff
13
fe
06
05
12
19
31
f4
0e
0c
2f
06
00
06
ff
d5
ea
02
10
eb
fe
08
12
f1
d2
e8
f9
17
e5
fe
01
fd
fa
d0
e1
fb
1c
fb
03
ef
02
1d
f8
ee
fe
fd
f3
f1
ff
0a
d6
e9
c8
f7
f7
d5
00
fa
f0
f8
d4
f2
02
06
e6
f0
fc
fb
e2
02
e3
d9
fc
00
e8
cc
ef
e8
c4
e8
fe
18
e2
03
f3
09
fb
f0
ff
fa
fa
f6
fa
fc
03
06
ff
fd
00
f7
02
06
02
fc
07
e7
dd
14
08
dc
f5
f3
f5
01
e8
fb
fb
e8
f8
e5
ed
f1
01
08
0c
0d
0d
0f
f7
fa
04
eb
ec
e3
fa
f5
fb
ee
f8
fc
0f
0d
00
0d
01
fc
f9
ea
f9
fb
00
fe
00
fd
03
09
ff
08
f9
05
0d
f6
f9
06
06
05
09
0d
0a
08
fb
03
03
fe
0a
02
07
11
f8
f9
ec
ed
f8
e8
f7
fe
e8
ec
f8
f3
fd
f4
07
07
f9
ff
ee
ea
f3
fd
fe
f3
f9
f8
04
04
fd
00
ff
01
02
08
d9
de
d1
0a
ec
db
e5
07
df
04
08
09
12
0c
fb
08
ff
f8
e0
fd
03
f1
ef
f6
0a
f1
00
f2
f9
01
fa
f3
01
f4
ef
01
f8
03
0b
06
f8
01
17
18
17
3c
40
22
13
13
09
08
fc
00
de
e7
d9
f9
0e
fe
fe
16
0a
07
f9
ff
09
ff
09
13
02
0c
c6
d8
d7
08
05
f8
f9
07
0b
2c
2f
2a
01
f6
f3
f8
f4
fb
05
0b
f1
0a
0a
fc
f4
07
0f
df
d6
d5
06
0a
00
03
06
f9
db
d6
e9
06
1f
0f
0b
12
09
40
3a
23
08
04
f9
fa
04
fd
fb
fd
f0
f7
f6
e4
f2
eb
e9
dc
e0
ea
fb
0c
f9
fd
0c
0d
02
f3
ea
fc
f5
00
f0
0b
0c
e0
d9
e4
0d
0b
fc
fa
0e
01
14
09
04
0c
fc
04
10
f2
f0
02
fa
08
08
07
01
0e
0f
08
ed
ea
00
09
0a
03
0b
fc
f8
0e
fd
0f
05
ff
05
06
f3
02
eb
ee
ec
f4
fb
f6
f9
05
f2
1d
10
13
2b
36
3b
3c
1c
2f
ec
ff
f0
0a
0d
04
ff
fd
f4
f7
f8
f9
fa
f9
f8
06
01
f4
f1
fb
f1
ea
04
fb
f4
f6
f6
e5
f6
f4
ee
06
fa
00
0a
07
fe
f0
f3
03
0a
0b
f8
00
f8
15
09
fe
0a
fa
0a
18
06
05
ee
f7
f7
f7
ef
02
f5
f1
f8
e8
ef
f3
ed
f6
f4
f5
f8
f6
09
39
1d
1b
31
30
22
26
05
ee
f3
fb
05
fc
fc
00
f8
0a
0d
1a
1e
0d
ec
ef
12
01
ee
00
f7
04
09
08
17
1d
21
40
0a
05
f8
f0
f7
1d
e7
ee
e4
e3
f7
01
ff
f0
09
f4
f1
e4
10
10
fe
0d
0e
e8
ea
db
c3
01
12
f1
04
e9
e9
01
dc
d1
0f
06
ff
e9
f4
de
df
ea
f0
e9
f6
05
17
08
20
37
2d
1f
fa
01
11
09
06
f9
f2
e2
c9
0d
fe
f9
08
11
f4
e0
ce
c0
0b
f0
f8
07
0e
ec
f0
ee
fa
ed
fc
fa
f6
f8
fc
fb
f1
f4
01
f9
f7
ef
df
e7
cb
cc
c0
00
0a
fc
12
12
f4
ed
e4
d1
01
ed
f5
fd
d2
ef
f5
16
e4
05
00
00
fe
11
e4
db
cd
c9
05
f9
02
1c
00
0e
26
14
fc
f4
fa
ec
f0
04
f9
e0
f2
fb
ed
de
e6
e5
d9
f1
df
d5
d0
fb
02
f8
e8
e3
ee
e6
ef
fe
01
07
10
f3
0d
03
e1
02
08
f5
fc
04
f2
fb
f6
db
e0
f5
f3
08
10
f6
0c
f8
e7
fc
ed
0a
08
f9
1c
fa
01
2f
1a
f7
f6
eb
fe
01
02
fe
fe
00
ff
f2
04
fe
e7
03
08
d9
f0
fb
07
05
08
f4
14
fa
ee
10
f1
04
fd
f0
ee
fc
f5
fb
fa
00
fb
0a
06
e3
e9
06
d9
e6
f5
f9
08
09
ec
01
09
e5
07
08
fb
07
ed
fb
d3
f2
08
fd
f3
fb
f9
02
f8
08
f9
d7
ff
f2
ff
02
f4
f5
f2
f1
ee
fb
f6
09
fd
f8
08
06
f2
09
fd
04
f6
ff
f4
06
f2
df
07
f9
f0
f9
ea
ee
01
f1
fc
f9
ec
ef
0c
0d
0c
10
09
08
fe
fb
01
f7
fa
f2
f9
05
02
00
f2
f9
05
03
08
10
07
f4
fd
ee
ef
fb
f7
0a
f9
ff
0b
05
f5
01
ee
04
12
f6
02
16
04
0a
01
0a
0b
06
05
01
0b
0f
fa
0b
17
fe
0d
fb
fe
00
04
e6
01
f0
f6
eb
fb
fe
ef
f5
fb
f6
e7
f0
fe
ec
f9
f7
02
00
fe
12
15
06
06
06
f7
04
02
f5
e0
e9
cc
dc
fe
e8
fa
e4
f1
11
09
fb
0c
0d
fc
0c
0a
f4
12
18
05
0a
02
11
04
fd
08
00
01
02
f1
ee
f2
f1
f9
f3
d0
c0
ed
d9
ce
ee
f4
d7
c1
fe
f6
01
0e
f9
ea
f2
14
10
f7
0a
03
f4
ff
09
08
06
02
fa
05
13
13
f0
e4
e8
00
10
f8
10
06
f0
00
fb
0a
03
00
ff
f4
fb
fa
10
0e
fe
09
14
03
f6
fb
0b
f8
04
10
04
f4
ef
09
03
e9
fe
09
fb
f5
ed
f7
05
ee
f3
f3
07
fe
fd
0c
fc
ff
f7
04
f5
06
06
01
fb
e2
f8
f9
f2
f7
f7
ef
e0
f6
e1
f5
ff
e1
f9
fd
fe
f3
f2
0e
ff
0d
fe
f4
ea
db
eb
07
e8
11
0c
f4
06
05
fd
fd
06
f4
ee
f4
ff
fe
fb
ea
f1
f5
fe
01
fa
02
03
fc
fd
03
fa
f7
fb
ee
fc
e7
f5
eb
ed
e4
02
f2
01
fd
f9
f3
fe
f4
f0
08
0a
01
04
fd
0f
fe
08
06
f2
f2
e9
fb
f4
0e
f5
f0
fd
0d
08
f8
07
04
f9
fa
01
ee
03
04
08
f6
01
fb
fa
f5
f7
ef
f9
07
ec
f9
08
f2
0d
0f
07
0e
08
05
ff
fa
01
12
0d
0e
01
fc
f9
f2
00
f1
f8
f3
fd
fe
f0
fe
fc
f8
0a
01
f5
fa
ee
f2
e6
f4
ff
f1
02
ee
11
0d
01
fd
05
0b
01
09
fc
e2
f4
fa
13
ee
e0
03
07
db
10
fa
08
18
0e
f9
0a
03
06
ef
fc
09
e7
ed
00
f1
f2
f5
07
0d
04
0d
05
fe
f0
df
f1
14
13
13
05
0f
0d
ed
f6
f7
f9
08
f2
ff
fe
fc
f9
f5
0a
f8
fb
ff
0d
06
08
09
20
0a
f9
fd
f7
04
0d
f2
0d
fe
0c
0c
0b
12
0f
08
fb
f4
00
f0
0e
04
07
fa
05
fb
fb
f3
f5
fb
fe
04
f4
02
0d
08
1b
17
fc
fe
f6
02
09
fd
14
16
13
fa
fe
13
01
f3
e9
12
ff
fa
11
02
fb
ff
ff
02
03
02
fe
0e
16
08
15
15
02
f5
e5
fc
fc
0a
08
0d
ff
ff
0c
19
0c
d3
dd
fd
f8
fa
f4
ea
da
f6
f8
ff
fa
08
f6
01
0a
0f
13
f2
e5
f1
f5
f2
ef
f2
e6
f5
fc
f6
f8
f6
00
f8
f2
fb
fb
ed
f8
ec
00
f7
dc
0b
ed
cd
ef
f8
f2
fa
f0
f1
f5
e3
f6
03
fd
fc
07
0c
01
f2
ff
00
ec
f2
02
f8
fa
ed
ee
ed
f1
00
0b
03
0a
f5
ec
ef
eb
e9
f4
fa
08
fa
05
01
01
04
02
ed
f7
04
f5
fa
06
f3
10
06
0e
03
fe
08
f7
fe
01
06
0a
0e
0f
fa
f5
f4
03
e9
e8
06
f3
e8
f9
ed
f9
0a
f1
ed
fd
ea
f5
fa
e2
f0
ee
ed
ec
01
fd
11
f6
fb
0e
f7
ef
f5
f8
fe
ed
e4
10
db
fa
03
f4
0a
fb
fe
f1
fb
0f
00
f1
fb
f7
f1
fb
09
e8
fc
13
0c
ec
fb
ed
f5
fa
f2
ef
f6
fd
ee
f4
ee
fc
df
ed
eb
f7
ed
f0
f9
0c
0d
17
02
20
1c
25
fd
28
f6
f8
f9
fa
e9
05
db
ff
03
f8
03
10
e2
2d
ee
11
05
06
f6
ec
e7
04
f5
f3
eb
fb
02
fb
01
03
f9
ff
fe
02
00
fb
03
fa
f4
04
f6
fa
f9
03
01
01
e9
e9
02
f4
ec
e4
03
02
06
ed
fd
13
f1
f9
e1
04
f7
04
fc
ff
fb
0d
02
fb
04
03
f6
f9
ef
e4
f9
f5
0c
df
0a
00
f2
ed
ff
e8
f4
d5
f5
f2
fa
01
17
fd
1c
01
ec
e8
df
f4
eb
ee
05
ec
f4
cd
03
f4
e3
e8
fd
eb
ef
fc
de
dc
fd
02
fe
f6
05
f9
ee
08
05
fb
0e
ee
f8
25
0b
e5
34
1f
fe
02
ee
0e
0a
fc
01
ff
03
08
fe
01
08
f8
eb
ee
ff
08
ff
f4
24
0e
1c
16
0e
0c
1d
0c
fc
02
fb
00
ed
e9
fc
08
00
f6
fd
ef
06
08
ee
04
f7
fe
fa
f9
f1
fa
eb
e9
06
fb
06
ee
ee
09
f7
ec
f6
01
01
f8
06
f6
02
07
02
eb
04
fd
ff
05
ed
04
04
02
04
f3
03
f2
d9
fa
f4
e9
ef
f3
e6
ff
ff
fb
ee
f6
03
e5
f6
fd
fd
f8
01
27
f6
06
0d
f0
f5
16
02
ee
eb
09
fa
e7
fa
04
fa
fc
ff
04
12
fa
e1
ec
15
0e
10
ee
08
05
f1
03
02
07
0b
0d
e8
e9
eb
cb
da
de
e4
f8
f9
12
fd
02
0c
05
0a
0e
16
0e
fd
04
05
e3
d9
d7
f1
09
08
04
f0
24
fd
ec
06
2d
1a
0e
fd
0e
09
e9
00
f2
f0
ff
09
0a
06
06
00
02
07
0d
09
06
e6
03
08
f8
df
ce
f0
05
00
ff
0e
08
d4
d7
d6
f0
04
10
f7
f7
f7
fa
01
ef
f8
0f
0b
ee
04
fa
f7
f8
f4
09
06
fd
f5
de
f0
fe
fb
e5
0e
09
01
04
ff
f1
d1
c3
d0
e1
f9
f8
0c
f5
f6
25
1c
2d
fb
f0
f0
10
0f
09
e9
d7
d1
ec
00
14
ee
ec
f6
e4
dd
e9
07
f7
d1
0b
fd
fe
0c
08
1e
0f
1a
29
05
0a
10
03
0c
27
0e
26
1d
fd
fa
f8
fc
f2
f3
12
01
f0
08
fa
e7
02
00
db
09
fc
d8
0c
06
0c
1c
1b
13
11
05
f9
03
03
e1
f5
f9
e4
e1
e9
eb
fc
10
20
e9
09
36
fa
10
2a
f8
02
d8
08
04
d3
17
09
cf
01
fb
df
0f
fe
df
fc
f5
d1
0e
01
d4
04
06
e8
ee
e8
ec
f4
ff
f9
17
18
fd
14
12
f6
e0
ef
e7
e6
ee
db
ef
d4
cf
08
fa
e7
02
05
e0
0c
eb
cb
1d
1c
18
38
fa
f5
02
ff
d5
13
f9
e6
07
01
cd
04
f4
cf
f6
e6
05
f3
f0
02
16
de
fd
04
fb
f2
fb
f6
f2
0a
fa
f9
13
01
04
03
ee
ec
11
e2
00
02
0f
f6
f3
05
f9
06
05
e1
09
f2
0e
00
dd
fe
f8
e2
ff
01
0b
fe
e1
29
04
0a
fc
02
f3
f8
01
05
f6
0b
fa
ea
fb
f4
ff
04
fc
12
f9
fa
fb
fd
fd
f7
0e
0e
f0
0c
f9
f1
08
02
ed
07
0d
c7
ff
05
cb
09
04
ff
0c
0e
e4
02
f6
f2
f5
09
0e
fb
04
ef
08
0b
ed
fb
ee
d6
f5
e3
e8
ed
f6
dc
db
09
f8
fc
fd
c3
fe
f9
d3
f0
03
13
e7
fe
23
f7
0e
f7
e5
0d
f9
0a
fd
c0
16
fe
d3
f7
05
fb
f7
ed
f3
e5
03
fe
ee
0b
fb
05
06
04
f0
16
0a
0a
06
f8
02
f1
01
03
18
22
0d
00
07
02
02
f3
f2
07
fe
06
f6
f2
ef
f6
ed
f0
08
00
f7
2c
25
11
2d
25
1f
40
2f
1a
f3
e9
f8
01
ed
f9
fb
f7
f3
f8
fb
fd
09
fc
fd
0a
00
0a
e9
e1
f7
fb
f0
f1
08
01
e8
e8
f4
f6
f3
f6
e4
01
09
fc
f1
ee
fe
fa
eb
f5
09
08
eb
fd
02
fd
07
01
f2
0f
03
09
f3
f4
e4
f2
f4
f9
07
f3
f2
e7
e3
e9
ea
e0
e5
ff
03
ed
01
02
fb
27
0c
2a
15
1c
ed
ea
e6
ea
f9
ef
ef
02
01
fd
16
0b
08
06
e1
da
0d
fe
f2
00
04
04
fc
05
05
17
27
01
01
11
f9
14
ea
f2
f0
e4
06
e3
e7
f6
ef
f3
ea
04
f6
fd
09
04
0b
02
10
e2
05
d9
e8
f6
f4
ef
f5
ee
f7
ff
ff
f6
11
00
f3
f9
f3
ef
ec
f5
09
fa
07
0e
0f
07
2f
13
18
05
01
ff
17
06
1c
eb
12
ec
da
01
fa
00
fd
12
d2
fb
d4
de
e9
ff
f1
0c
f8
fa
05
0d
0c
02
fb
fc
02
fb
fc
f5
04
03
10
ed
e1
01
de
d7
db
eb
ec
fb
09
02
08
01
dd
fa
d2
d5
00
e1
f5
fb
03
e6
0b
ea
1c
0e
06
fd
0c
0b
e5
00
d0
e2
f1
03
f9
ee
fd
01
e2
e8
ff
08
03
f5
fd
f6
f6
01
f8
fe
eb
f1
e6
ec
e1
e2
06
ea
f1
ff
f3
f3
f3
f6
f2
ea
e0
fc
08
0f
10
03
03
0d
f6
f6
09
e0
e5
ee
f2
f2
e1
e5
e9
df
0d
0a
07
0b
0d
02
fb
fa
ea
04
fc
00
ff
03
f8
fa
09
0a
e9
f9
03
f3
04
11
f9
0a
13
15
14
0c
f9
08
fd
f3
fc
f2
13
08
05
00
fd
f0
00
e6
01
fe
f4
fa
ed
fa
ff
ff
f5
05
e7
f7
fa
f8
f0
f7
ef
f0
06
0c
10
0b
09
f8
00
f5
06
ff
e0
f0
da
df
ff
f8
ec
d9
0b
00
10
fc
04
07
03
04
f0
fe
e8
fa
f1
ec
00
05
e1
ec
fc
06
f6
f4
f9
fd
ef
00
f9
f6
ff
dd
d6
ea
f6
f5
fb
f3
f6
02
fb
03
01
02
f5
f1
fb
03
09
f7
06
0b
fa
09
f8
0a
fc
f3
e6
e3
ed
e6
fe
e4
e5
f3
04
fc
05
0a
fe
f5
0c
f6
f6
0e
04
0a
fa
0c
07
0a
ff
08
f9
03
fe
fc
04
0d
02
ff
10
fb
08
f8
12
02
0d
08
fd
07
0e
0b
05
07
f9
f4
02
ee
e9
07
fd
02
f7
05
f7
fa
ff
fe
f2
ef
f1
ee
f2
e9
e9
f2
04
ff
06
0e
02
f9
0c
05
05
02
d1
ce
f4
f0
e3
e0
fd
05
00
ff
fc
f7
12
00
05
13
02
03
ff
f1
fb
c3
c6
dd
eb
d5
f9
09
09
fb
f6
f5
f2
f9
02
ff
3b
14
00
24
03
eb
2e
06
ef
f6
f3
1e
02
fc
f6
fe
fa
11
fb
00
f3
ec
f9
e9
ed
eb
fe
14
1f
0b
17
0a
04
23
15
07
ee
e7
f2
f4
e6
dd
e0
e6
f4
f4
fe
f8
f7
ef
00
f4
ff
fd
06
fd
f1
fb
fb
f1
fe
eb
ea
f2
eb
e7
f8
e4
db
e9
df
f5
dc
f3
e5
e7
f8
f9
eb
de
f7
f0
f0
ff
10
fe
0f
fd
02
fd
f6
06
f3
f3
fa
0d
e6
17
08
08
ff
f7
eb
ea
e2
f8
e6
f5
13
20
14
20
20
1d
09
00
ea
08
e5
ef
f2
d9
db
f4
df
e4
e8
04
ff
f9
f7
f3
f9
f2
ec
fe
00
00
fc
fc
f6
02
ff
f2
fb
f4
ed
f9
e7
e4
f3
f0
e1
ea
e1
ef
fb
eb
ed
f5
f2
ff
0a
0b
0e
ff
09
0c
fb
02
04
eb
e8
f4
00
eb
0d
ff
f6
ea
03
02
08
fd
03
fc
04
f8
f8
fc
f9
03
f9
09
08
07
fc
16
f8
ff
14
fd
0a
11
04
0b
09
0e
fb
f7
ff
07
09
fe
05
f5
0f
03
f1
f6
e9
ee
f9
ea
f3
ee
e9
ec
f8
05
09
00
01
f8
e9
f6
01
ff
fe
f7
04
00
ea
0a
10
01
fa
ff
0b
08
0c
f8
02
ee
e5
0d
01
fa
ef
e2
f0
14
fe
0d
01
f7
0c
fd
fa
fc
f2
fa
fe
f7
f4
f2
e3
f7
ef
05
05
fc
00
f7
00
00
06
f7
fc
ee
f4
fe
f6
e9
08
0d
f6
08
fc
f6
fc
eb
eb
f0
f7
ee
0c
ff
12
fd
06
07
0d
07
fc
05
ff
fe
1a
01
1f
06
03
11
08
10
05
0a
08
00
f8
fd
f0
fe
f6
ff
02
f7
0a
fe
0b
fb
ec
ff
0f
f2
07
17
fe
fd
03
09
08
fd
0a
06
03
02
0d
fe
13
09
05
f7
eb
fb
ff
f6
fa
f7
fb
f2
02
04
09
01
01
00
e3
f7
09
e4
fe
ef
fb
f4
fd
fe
06
09
fa
fe
11
06
f7
00
07
dc
ea
02
01
fa
0d
de
03
0e
0a
0e
0e
04
05
0f
fc
fd
21
1a
fb
ff
ed
d4
15
0f
05
fd
fb
f7
f5
e9
ea
0b
06
0b
e1
eb
c5
d6
ea
d8
05
0c
f8
2d
13
0d
00
f6
f4
1b
07
0f
f7
df
fe
00
09
f7
f5
05
f6
12
2a
0e
f1
ec
da
ee
e4
e4
fc
ee
f3
12
0f
fe
fb
18
05
06
ee
f7
fc
ff
fd
fe
07
e8
03
fc
00
fc
fc
03
ff
07
fd
f4
e1
ea
f8
10
01
f9
fe
f6
f1
d8
f4
12
16
ff
02
fb
f4
ff
0b
f0
f7
fa
ff
0c
fc
f3
f2
ef
e9
02
f5
f4
17
1a
21
eb
ed
ed
0a
0b
f7
f3
08
f7
00
09
f5
db
0f
fd
31
01
f6
ff
e8
fe
04
14
f6
f3
0b
ee
fb
fd
f0
12
fd
06
13
08
15
fb
f0
f5
f7
fd
f5
f5
fb
0d
ec
d6
ca
eb
d8
d1
ea
0d
10
05
04
03
13
2a
10
fb
11
f5
ff
fc
f8
f6
f4
0c
ef
0f
07
e7
04
07
d2
da
ff
fe
fe
0d
06
ef
f0
f5
fe
19
04
11
05
ec
fd
01
fe
1e
f7
0b
f6
f2
fe
07
0e
0f
ee
06
fc
03
1b
04
f3
f2
f2
f1
03
fa
05
02
fe
f4
f9
ea
10
1d
f7
0a
f5
f8
f3
03
ff
0d
0b
03
fa
f4
d6
eb
e9
d6
ee
eb
0f
18
fd
0b
f0
ee
f3
e8
fe
f7
f9
08
d5
e2
dd
e9
1a
fb
01
ec
0c
02
f3
f1
fc
e8
fb
f3
0a
f9
24
2c
21
2c
1f
1f
1b
01
03
f8
00
12
00
05
0d
ff
02
0f
e5
dc
f6
e9
f0
00
ff
ef
f2
0c
15
13
07
ff
14
fd
06
15
ee
04
04
02
0b
08
f5
f8
ee
fd
1b
14
03
1c
2a
07
ff
22
fa
0f
10
f6
10
f2
f8
10
06
fd
f7
ea
fb
f7
f6
ff
13
ff
fd
f0
10
f9
fb
f9
00
00
fb
f7
ee
0c
ed
fa
fd
fe
f9
f1
0b
ff
09
f9
f7
f9
f8
01
02
06
fe
07
08
0b
07
05
10
01
f3
fa
05
e6
e8
fd
ee
e5
e5
f8
00
0c
e9
fd
f9
e9
ea
f1
18
29
26
08
28
22
f4
12
0b
07
07
0f
f7
16
fc
fd
0f
fb
ea
ed
10
f2
0e
0b
02
f8
ed
05
f8
04
fe
f8
f1
04
f8
ef
00
e8
f9
f4
ea
e2
18
14
fa
22
06
12
23
1b
13
08
01
04
f4
f8
ef
ed
d6
fc
fd
fc
08
05
06
e9
f4
ff
f7
f7
fd
ed
ec
e8
f7
f3
e0
f4
06
0f
0e
f7
f5
f2
0d
07
fb
06
fb
04
f7
04
f1
06
ff
e8
07
10
01
ee
f5
f8
e5
d2
f8
fa
09
00
03
d7
f7
ea
d3
07
00
10
fa
0e
0b
00
0c
1b
0d
0f
11
08
f2
02
f8
e9
f6
fe
f9
02
ed
fa
e1
ee
e1
c8
e8
f7
f8
f6
f3
fa
20
ed
20
09
e1
d9
e0
f7
e6
e9
f8
d5
ee
11
10
05
e8
07
fd
e9
f0
06
ee
ea
ec
f4
ef
fb
ee
f3
f8
f2
ef
e0
f0
d2
e2
e7
dd
e8
fb
f8
ee
1d
07
fa
fa
f9
f3
f6
f9
fd
e7
f3
f9
05
03
03
05
fc
fb
d1
02
0b
da
e9
fb
f7
ee
fa
ed
fe
fc
18
05
ff
00
fa
f9
2a
14
0a
05
f8
06
06
f2
01
fb
f6
f4
eb
04
08
fe
05
10
f1
fe
07
0c
fd
01
06
04
00
eb
0d
0a
18
05
04
10
ed
f4
2a
15
08
f8
02
f5
01
ff
f5
f6
f2
f6
f3
fc
00
ff
0c
f8
e7
fd
0a
0b
fd
fa
09
f7
ff
ff
ef
dd
e0
05
ef
14
e4
05
de
04
f1
fa
0e
fc
0c
08
04
29
ef
06
15
06
fe
2b
0f
2d
02
01
00
f9
ff
05
f9
eb
ff
12
0a
07
f5
e1
f0
02
dd
fb
04
f4
ea
f4
f5
fb
00
f4
ff
0a
fc
05
e5
00
fa
fb
cb
0e
08
e9
f5
0d
f1
f8
fb
02
23
01
04
0c
fa
12
08
05
ec
0f
ef
08
10
16
18
fe
f9
3c
14
f7
07
fd
fc
f9
02
fa
f1
18
0d
02
05
e6
ff
04
f3
c8
03
15
0c
f9
ff
23
0b
00
eb
08
03
08
fb
03
f7
0c
14
e9
13
ed
ea
e2
e5
e1
f3
f8
de
f9
00
04
0b
e6
04
0a
fa
c0
ff
06
dc
f3
f8
ea
df
17
e7
f0
fb
fc
0f
ed
03
0e
ee
c0
12
22
1e
25
ff
fa
16
1e
0e
05
06
fd
f2
03
09
fc
03
0d
fc
02
cf
cf
05
f8
e9
fe
17
03
f7
f9
04
1b
19
10
04
02
11
f4
e7
fe
ff
04
fd
0f
01
f7
dd
ec
06
ea
f0
fa
f6
fe
04
fc
e4
06
09
fa
0f
04
0f
f0
20
1c
06
fc
f4
18
f0
f8
04
02
f3
ff
07
0e
03
01
15
fe
02
f7
f3
12
02
f9
ff
0f
fe
f5
e6
05
0e
10
06
0a
f5
ff
f6
f6
fa
02
01
fa
0d
08
ff
f2
f1
ef
01
f7
ed
00
f6
db
f3
f3
f9
02
f4
01
10
fe
ed
00
0b
e4
1a
1a
03
fc
00
d3
02
ef
07
10
03
03
02
05
fa
ee
ed
05
e1
e8
f2
26
fd
00
f2
f6
f7
eb
ed
fd
f5
01
11
17
0f
02
09
ee
f4
0c
eb
e5
e8
f4
01
ff
eb
ff
f1
f5
01
fe
fd
fa
fd
03
f8
e3
f2
0d
03
1a
fb
e5
f7
02
0e
25
07
06
05
07
fa
f4
e7
fd
f5
00
e8
f0
fa
14
0a
fd
24
0c
03
ff
07
f6
f6
0b
09
03
0e
17
0a
fb
fc
0e
0d
fc
ec
f0
0b
ff
0a
ed
f6
ff
f4
00
f6
21
ef
09
0a
0b
0a
02
00
ec
f7
e7
f2
01
f5
f7
f7
df
f7
f4
fe
0b
ff
03
02
f9
de
f2
fd
e8
02
cb
13
f1
e4
1c
1d
06
ff
fc
03
03
0c
00
d6
ee
09
f3
fc
0e
00
00
fc
0b
f8
ff
0b
ec
fc
fa
e6
f5
f2
e2
e1
ee
fd
e0
cd
ec
eb
f5
0f
f3
40
0c
fb
05
01
08
f3
eb
fa
cb
fa
04
eb
0b
0b
f5
0b
09
d1
ef
e1
dd
f9
f5
ff
ff
fd
d1
0e
09
ef
19
04
fe
07
ff
3c
18
00
2e
f4
ef
28
0b
f9
0c
f5
fe
fd
f7
03
04
f9
05
d0
f6
0c
f3
19
fe
fe
11
fd
c0
03
04
fe
10
09
0f
fb
ff
40
18
fa
1a
fe
ff
fb
05
09
e9
03
f6
e3
0a
fa
e5
f2
10
cd
0a
04
f2
05
02
ed
fc
00
06
e1
13
12
f4
ef
0c
ee
cf
c3
f1
ff
e2
12
09
ef
fd
f2
0a
06
07
e1
fe
fa
eb
f8
fb
fe
ef
f6
09
01
eb
ff
01
f8
0d
08
f8
f7
f6
ee
21
ff
e7
01
ed
fd
04
fa
01
01
fd
00
10
0b
07
04
01
08
04
04
fe
f0
fd
0c
0f
f7
29
0f
0f
0e
07
09
00
05
04
f6
fc
f2
eb
f9
05
f9
ff
fd
f8
02
00
f7
f8
f9
0b
ea
09
15
fc
ff
0b
fa
f7
01
fc
05
0b
0a
07
0b
12
f8
f6
04
fc
02
fa
e9
ef
f8
f8
ec
05
01
0f
f2
0a
09
f6
f8
09
ec
05
fc
10
0c
0b
0a
06
00
04
06
05
00
10
fd
0a
04
f3
ed
08
04
f1
01
db
0f
f6
f7
f9
fa
0a
fb
06
04
0d
0e
0d
28
00
13
32
11
1c
f8
f3
f9
f6
fa
02
ef
fa
f1
e1
f9
02
ee
00
ea
f2
d7
e0
f9
f9
01
ff
f6
ff
f7
fc
f9
f5
fe
f9
e7
ff
f8
e6
f8
04
f4
de
eb
ef
ff
0b
01
14
0c
fc
11
04
f5
0a
02
de
f7
ef
0f
ff
08
18
04
f9
17
08
00
f3
f1
fd
ed
0e
ff
f6
fd
06
f5
0b
02
ed
02
fa
e5
ef
02
f1
f7
04
e2
f4
f7
ef
ef
08
f1
08
00
08
0d
10
ff
f7
09
fc
0e
fd
ff
13
10
eb
02
fb
f1
f6
0a
f2
fc
0a
e6
00
fb
f0
f8
e4
16
18
16
04
19
00
ff
03
ff
f2
fb
08
e1
f8
fd
01
f7
20
fd
f9
10
18
06
18
fc
ff
fc
f2
f3
f1
f8
f7
f4
ee
fa
08
ef
e8
02
ff
0a
11
0b
14
13
08
10
08
04
e1
f7
ff
e4
fc
eb
f4
01
ee
03
0c
f8
e7
f2
ea
ff
f7
06
eb
00
f7
e9
08
f8
f5
0b
f7
0c
07
00
01
0c
f5
17
0c
fd
01
05
0b
f9
08
f7
02
ff
ec
fe
f5
08
d9
ff
ee
e3
05
ee
f8
05
fa
db
15
f5
f8
04
e9
14
0c
ff
14
06
0c
10
18
1b
fc
06
e3
ea
ff
e8
f1
fe
ed
01
11
fa
e2
f7
e8
e6
0c
f2
0d
05
fd
06
ef
26
0d
02
ed
0c
f4
f5
eb
0d
e8
e9
f9
f3
fb
f2
ed
0f
0a
dd
04
18
0f
fd
f8
03
fa
f5
fe
ef
00
ff
f8
00
fb
f6
0d
ff
dc
05
f6
ee
03
fc
10
f4
f2
00
29
0d
19
0f
f6
e9
08
06
06
ef
04
e8
02
27
20
00
fb
0c
17
fb
f3
06
02
f4
03
05
06
fa
fa
f3
05
f8
05
f4
06
fb
f5
04
f4
fc
f9
f8
07
02
0e
f7
07
f6
04
07
e2
07
ff
0b
e6
fb
f0
f4
ff
fe
fd
06
08
fa
fe
fd
fe
fb
ee
fa
03
02
f7
fc
fb
f2
fe
f5
fb
d6
e7
01
f1
f9
f6
fc
ef
f3
03
ed
f8
03
f3
f7
09
17
fd
f7
e3
15
00
eb
0c
fe
f4
00
fe
f9
f8
fd
ee
01
0f
05
0d
16
14
12
20
17
20
f4
f1
f6
fa
ef
ee
08
ef
f4
f1
de
fa
e6
e0
dd
0b
f0
e6
eb
df
f2
f7
fb
f3
00
fc
fa
f3
00
0b
00
ea
04
f8
0d
cf
e0
fd
f9
e0
ee
05
08
fa
05
f0
0b
09
0c
fa
f5
13
12
04
22
0a
0a
f9
35
f1
f0
fd
1f
fc
fd
fe
15
f5
01
06
0b
e3
ee
fd
0d
fb
00
fa
10
0e
d9
f4
09
f6
16
fc
fd
fd
23
ff
f3
f9
00
f0
f5
fe
ff
f7
f4
d8
e6
f1
f1
db
e8
f4
e6
eb
ef
09
fc
ee
f6
01
f9
f3
d7
ea
ef
d9
12
e4
dd
c0
d3
e9
f7
02
10
fb
ee
03
14
15
d5
10
f9
f2
f0
26
02
05
0d
0a
ea
ef
fe
f3
03
03
f0
f8
01
dc
d9
d9
d9
e8
f2
ea
db
dc
12
02
ec
fd
1f
20
20
08
fa
ed
02
0c
05
d8
0d
eb
e8
f6
16
e6
f8
ff
0b
01
04
11
19
fa
10
fc
08
df
fc
ff
ea
00
05
05
02
e5
21
ff
05
04
00
ec
fd
f2
08
e6
fc
f5
ed
fc
e6
15
03
03
d7
fb
f4
ea
fb
ea
f2
ef
15
e4
ee
fd
ee
02
ff
f5
fc
0d
f6
fb
fc
04
fc
f7
0d
04
f0
01
f5
04
f3
fe
ed
0d
ed
f1
dd
06
f1
ef
eb
22
f1
f9
01
ec
1f
ed
09
19
ef
19
f8
fa
d1
fa
e7
ee
eb
12
1d
0d
21
17
0d
23
19
0f
f2
fd
f9
ef
f6
fc
eb
00
07
f1
d6
dd
01
f8
d8
fd
e6
df
fa
fb
f9
e1
fc
0b
fc
ff
0a
eb
08
12
ed
08
08
c0
fa
00
01
e7
f8
fc
e9
f2
e8
f3
f1
ea
f8
02
dc
f1
ec
e0
f6
ec
14
fe
f3
22
0e
fe
2d
2f
0a
fb
f0
0a
f3
f5
01
d8
de
f1
ff
ff
16
f1
0f
0a
d0
e8
05
f1
16
07
f9
15
fc
cd
08
f7
00
ec
fd
fe
f7
f9
f3
fd
03
f7
f1
05
ee
05
ff
da
f4
f8
e7
09
15
e1
02
05
d7
f5
04
07
0d
19
02
08
f5
15
fa
e6
ed
0f
00
e3
01
08
ca
e4
f5
e5
fb
12
ee
e2
f6
f8
e3
10
f8
e8
fa
f2
ed
f6
ec
eb
ff
db
f4
08
e8
f7
f4
dd
ed
f7
07
0b
fe
11
ef
fb
fd
e9
f5
f9
0a
12
f8
12
01
fb
05
05
ff
12
0b
f0
f3
00
e8
f5
fa
04
ff
08
03
02
fb
02
0c
f1
10
f9
f1
15
09
f2
11
10
f8
fc
f2
fc
f7
fa
00
0b
fd
0f
f1
fb
0a
f4
ff
f7
05
03
fd
00
04
00
ff
0e
fc
19
ff
eb
0a
05
ea
fa
09
f6
fe
ee
05
d9
01
f3
de
f4
f8
cf
fb
17
06
f7
0b
f6
08
fe
00
f9
04
e2
03
e7
0c
e0
df
27
ee
01
f3
08
f5
ee
09
07
f5
fd
fa
f3
e0
d8
e6
f0
e4
fa
ff
ef
04
f9
ff
02
f2
f7
02
f8
12
f9
1e
1a
0c
fd
0a
02
fc
f7
0b
f2
f3
ee
fb
f0
f8
f9
f1
fc
ea
d1
08
0c
ea
03
05
ea
f3
00
11
f5
04
0f
04
f7
fa
f9
02
c0
0d
06
eb
e8
fc
06
10
13
40
07
f0
20
08
0d
1f
f6
fa
c6
03
06
d9
03
0a
e6
fc
f3
cb
0c
01
ef
06
06
ea
fa
05
da
fd
20
fb
f2
10
09
04
0f
f1
f7
fc
06
09
0a
fa
06
ec
e5
fb
ec
e9
fa
e1
ee
fe
f4
c9
04
0c
e7
fb
09
e0
e8
04
f5
db
f9
03
e9
00
ef
04
ef
c3
11
13
d8
f9
06
ed
fb
f7
ec
f6
db
cf
f8
fe
f4
0b
fe
0b
f3
f9
02
fa
04
02
f8
0c
1f
f2
0b
07
17
20
17
f5
f1
f3
16
f1
d6
f6
0f
0f
0c
01
f7
e2
d5
f4
f5
05
ef
f0
1b
30
07
f5
f2
f2
15
1e
04
fc
ee
f0
e1
09
0c
0a
08
f8
01
f7
10
02
f3
0d
f7
09
fe
07
ed
f9
f0
f8
01
0c
01
06
04
e8
d7
df
f9
f9
ff
ef
01
06
e7
f7
ee
fd
0f
0e
ed
ef
f1
f7
f9
f7
f4
04
0a
03
d2
e7
ec
ee
05
f5
f0
0a
ed
ee
ff
ea
d3
dd
f3
fe
f8
f7
fc
03
1e
ec
16
f5
f4
12
03
f5
08
e8
e7
d6
f9
00
12
f5
09
fb
f4
ea
f6
eb
0b
ff
07
fc
ff
04
06
05
03
fa
f5
fa
fb
01
fa
f8
07
f1
f4
0f
fb
0e
0f
19
19
01
f9
23
1d
1b
f0
e1
e9
eb
ef
e5
eb
e6
f2
0f
05
0e
15
fb
08
24
10
15
e9
f4
f1
f2
ee
e2
fa
ed
e5
06
f4
fa
f4
f7
f5
0c
fb
01
f7
ed
e3
eb
f6
e5
ef
f3
f8
e3
e6
f2
e3
ec
f1
e9
f7
f0
f9
de
f6
eb
e9
f8
eb
f5
fe
0a
0c
f7
12
02
10
11
0f
ff
ec
f1
f6
f2
03
ff
ef
f7
ec
df
ee
ec
f5
e4
e4
e3
eb
f7
fe
15
11
01
13
10
07
f5
03
f1
f2
e9
ed
f8
e3
f3
e4
f1
f9
f5
db
de
db
d6
f0
dd
ed
09
fd
03
f8
03
13
ff
01
1c
06
03
06
f8
f9
0d
11
f1
0e
dc
ee
e3
ed
f8
de
ff
ea
e5
fd
fa
ee
05
fe
dd
fe
f2
db
01
0f
fb
fc
15
0d
f8
04
12
0f
f9
eb
fe
0f
e4
f1
fb
ee
08
0e
1a
f5
10
2a
07
09
1f
00
08
db
0a
10
d7
02
12
c2
10
00
f0
01
02
df
ff
00
d7
13
ff
ee
f4
0a
e7
ed
0a
f7
f5
fb
fb
05
f1
eb
06
01
f6
f5
da
e3
e2
c7
cf
e7
ca
cb
0a
f8
f9
f8
01
d5
02
f5
c6
0e
23
e2
fb
06
f9
f5
07
0a
0a
f1
ed
07
0b
e1
07
f8
cb
e2
00
f5
f0
e8
ed
da
fa
e8
fc
fc
f5
fb
fa
f4
fa
f5
fa
e9
dc
d4
f7
f4
f3
e7
e2
eb
fc
fd
05
00
f5
f4
f0
fd
ed
07
fe
02
fe
07
00
fd
07
0b
e4
df
f6
f0
ed
fb
ed
dc
ef
fc
09
07
01
fe
f6
fc
f4
eb
01
0c
10
0a
00
03
fa
08
fd
ef
00
04
fa
fa
11
fb
f9
12
f9
0c
f4
0a
08
0e
13
fb
0d
03
0a
0a
0b
f0
fe
05
ed
fa
09
02
fe
fc
05
02
06
01
fc
e1
f9
e9
f1
ee
eb
f2
01
f0
f8
0b
00
05
05
05
f9
0d
f5
e5
d8
ed
f5
d5
e5
fa
db
e2
ff
00
0a
18
0c
0f
06
06
fe
f0
e1
00
16
f7
03
1b
12
03
08
fd
ff
10
05
fc
14
e7
fe
0b
eb
d9
07
ff
f3
e5
f8
15
1b
02
32
1d
27
11
13
01
f7
11
0d
e6
0c
d3
19
ec
03
f7
fd
e9
fc
f0
f1
01
04
e6
ff
06
03
ed
fc
ec
17
01
1e
fc
00
12
0e
fe
31
06
08
00
fa
07
23
f4
22
f2
05
fa
fc
04
10
14
ef
fe
d3
01
e6
01
fe
f9
0e
04
ec
ec
1b
04
29
01
04
07
14
02
2d
0f
00
04
02
e6
da
d5
e5
e1
d3
e4
ee
ff
10
0a
ea
10
d4
0d
ee
12
05
02
11
24
ed
ee
df
fd
2e
14
07
01
ed
04
c1
05
f5
12
03
07
09
f5
e6
f9
eb
ff
1e
01
01
09
01
fb
f6
ff
f7
01
1c
16
1c
fa
01
fd
07
f8
de
e4
f5
fe
f7
ea
f5
e2
06
0c
10
ff
fd
03
f9
fb
fe
0e
0b
ec
0e
0c
f4
01
f4
f8
08
0e
f0
15
19
0c
0d
f7
ed
ec
ea
e4
f1
02
f6
fe
04
03
0d
09
12
ef
08
07
eb
fb
07
11
0f
f8
ff
f9
05
f5
01
0b
0d
fd
fb
0b
f1
04
09
f2
ef
1d
14
15
ed
01
0b
01
06
f9
04
f4
02
05
06
fd
08
ed
f1
e8
d2
ef
06
fc
09
f8
00
0a
09
05
f8
db
e2
d7
da
e8
e2
fd
08
14
09
fb
06
09
fd
fc
fc
ff
fa
fb
fa
05
07
06
fe
fc
0b
ec
fe
f4
ff
f9
f4
fe
fb
ff
06
d1
db
cc
e8
e3
e1
05
fb
05
17
1d
25
20
19
11
0a
02
0c
e8
e0
e8
e9
fb
08
06
04
06
fe
e7
f7
fe
01
02
1c
02
16
f1
e8
e2
fe
00
08
fe
0a
07
e9
ff
08
04
10
09
20
0a
04
f1
f9
dd
0c
f0
f4
f8
ea
f4
dc
e2
e4
ed
fd
01
fe
08
06
dc
e0
e6
fe
07
1d
16
07
f2
0a
22
19
09
09
f6
fd
ff
01
ec
ed
ee
eb
e8
fb
ff
fc
f6
eb
e9
eb
e5
f0
f7
fe
f9
ff
e6
1c
fe
e2
0b
f5
ef
da
ee
ef
e8
dd
ef
ea
06
ee
00
fd
13
0f
0e
00
e7
02
2c
02
18
05
12
0e
03
fc
03
fd
e9
e4
06
13
fe
ed
fc
04
fd
e7
01
0e
15
10
13
08
fa
ff
04
18
10
f4
fd
06
fb
06
06
00
03
19
15
0c
08
08
fc
f3
f6
ff
10
00
0a
17
0b
00
0d
f4
fa
f7
04
05
f7
fa
fc
0a
02
f3
f2
06
11
fd
08
08
ff
0e
03
0c
f9
fe
ff
fc
08
06
f2
f9
18
fe
02
ef
de
03
f2
ef
13
f0
06
10
15
09
0b
16
14
09
02
f7
fd
f3
f8
f2
f2
ef
0a
12
04
02
03
fc
ff
f8
f6
0d
ef
ee
f7
fc
e5
ee
fb
08
d7
0f
ff
02
00
fe
fc
07
ff
01
e8
fb
ee
f8
f6
f4
f2
01
f3
fd
f5
ef
f3
00
f3
fb
f9
f2
fb
f2
e9
fa
ef
fc
dd
da
ec
06
03
03
ef
f5
f1
fa
f3
fc
05
fd
05
03
fc
f7
07
07
ff
e9
da
de
e2
e7
d5
e7
f3
d8
fc
ff
00
07
00
fa
06
f4
ee
fe
f9
f4
02
fa
06
fb
04
fe
e8
f5
0f
f8
f4
fc
f0
fa
12
08
09
f8
03
f9
f1
01
fb
03
14
0c
f5
04
f7
ed
06
fb
fd
02
f2
f2
f8
00
fb
ef
f2
04
f5
02
f1
e8
f3
f8
f0
f8
f9
0e
05
06
0b
04
fa
f9
fb
f8
ea
f8
e9
f8
de
fc
f6
e9
f8
0a
f8
06
0e
f6
f4
03
01
02
20
1b
1f
e8
ea
f6
07
f0
0b
fb
fa
fb
ff
f8
06
07
00
0d
fd
0b
0f
fb
df
f2
f2
ef
ef
0d
fb
0b
f8
f9
00
13
fc
11
ef
03
07
db
d8
09
f8
e1
ef
01
0d
fc
e9
14
1a
06
1a
04
f3
09
ff
e8
eb
f5
ff
e9
f1
17
01
02
0f
27
06
ed
02
11
fc
f5
f1
ed
e9
fd
f9
f8
eb
ee
03
fe
cc
c8
0a
f3
d5
e3
e9
0f
f6
e5
f1
f5
13
f5
f6
03
01
07
0e
10
1c
02
0f
10
fd
07
07
f6
05
00
05
07
fd
fa
17
01
ce
e8
04
fb
c8
e3
fa
0f
da
33
0d
36
21
0e
10
ea
09
0a
db
cf
11
f7
d4
e4
f4
01
0c
f8
ee
07
15
f5
0e
fa
01
0b
f3
07
13
f3
05
0b
fa
0e
ff
05
0e
07
16
17
18
09
34
11
18
16
19
f5
fd
09
eb
e2
fc
e0
0f
0f
ef
0b
fc
01
0a
03
05
0f
0b
0e
25
2c
e0
dd
f2
dc
11
03
f3
00
f9
08
1c
06
1f
08
04
13
07
ff
ff
f6
03
e4
f7
fb
f5
f0
06
ee
d6
07
cd
09
fe
e3
01
05
d0
e7
01
c7
23
14
00
1d
f1
18
2f
1c
17
08
0f
04
fd
0f
e4
f7
f5
f6
05
03
f9
00
04
e5
ee
00
dd
0e
07
e9
03
fc
ff
1d
1e
fd
11
2f
f6
03
f1
d7
e2
f9
d2
0a
05
f1
fe
0a
18
03
fa
2b
02
f1
19
0d
02
08
fe
f1
16
f5
e3
fc
f7
ed
00
d4
d3
ed
00
07
f0
ee
15
e8
e0
f8
f0
00
c0
16
fc
d1
f2
f6
00
e1
04
01
e9
fe
01
f4
ff
08
f1
11
02
fc
fe
0f
0b
f5
06
fe
01
02
09
01
ef
f2
ed
fc
03
e8
e9
0f
0f
0a
f3
e1
f3
ee
f3
0a
01
04
15
fd
ff
f7
e9
0b
ef
fd
f9
f9
f3
ea
e8
f4
f4
e4
ef
f8
f0
fb
01
fc
04
e9
06
03
ff
fc
df
f9
05
ce
04
11
ee
f7
07
ea
fa
f8
d8
f9
0a
e0
ef
f7
fc
f9
d1
fa
ef
fb
00
f8
17
de
00
fa
d8
07
0c
e7
fe
fa
15
0e
05
1a
fc
f9
21
0d
ff
07
fa
01
07
07
ff
04
0c
05
13
01
ed
eb
08
13
d9
f8
0f
e3
f8
d1
17
fb
14
0e
05
e5
ea
f6
09
e2
07
0e
e5
f5
fb
f8
f3
f7
e7
04
07
db
f6
05
30
20
17
1b
1b
09
30
08
03
0c
02
11
09
fe
11
0c
0c
15
f4
09
02
f8
04
13
02
0a
21
fb
f4
ee
f3
f0
f4
ed
01
f9
f6
00
f3
fa
07
f7
08
00
08
15
0b
1f
0e
06
18
32
24
14
f1
01
f5
ed
0e
04
d4
eb
02
ec
f9
06
e8
fe
11
ea
fb
fe
01
e8
e9
fb
f3
06
cd
da
f9
e9
03
0e
dd
00
06
dd
fe
fa
0f
fe
05
02
09
ff
fb
f4
fd
07
01
04
08
04
fc
04
f5
fc
19
20
12
de
06
20
e3
07
0d
f7
fd
e8
10
d2
df
16
f9
f0
11
07
0b
ff
0d
0f
0b
03
fc
05
0c
06
ff
05
02
04
0b
0f
f3
f4
f8
01
1a
0f
fd
1b
11
fb
20
17
1c
1d
1c
e7
02
fc
15
f9
15
19
19
0c
0e
05
06
01
f4
03
f8
02
f8
01
09
fc
0b
f8
02
14
f8
f9
f7
fd
fd
f8
10
03
fc
12
04
0e
1d
1c
0e
0f
0d
07
10
0b
11
10
03
fa
11
0f
0a
fe
02
00
01
fd
0d
12
20
03
fa
10
ec
06
1a
06
0f
08
f9
ff
11
0f
0d
06
0d
01
fe
05
00
f8
ff
fb
05
0b
04
04
f8
02
fa
f8
f2
fb
ea
f7
ff
eb
f4
03
00
02
12
0f
d8
f2
0d
d7
04
16
11
ee
f6
07
03
12
0c
03
03
0d
0c
ff
fb
00
03
fd
0c
05
10
0b
04
06
ed
00
06
09
f3
fb
07
0a
03
f5
02
09
03
ea
f8
ff
06
01
f5
02
f4
ec
fe
f4
e4
05
02
f3
f2
f4
f3
f4
f5
03
08
00
0b
ff
04
f9
07
fd
f7
f5
e5
fa
dd
ff
fd
ef
f1
03
fa
01
ff
07
fb
fb
00
fa
fd
fd
05
f9
0d
0b
ff
10
0e
0f
0b
fa
00
f1
05
00
f3
f9
03
02
f7
00
f9
0a
08
0f
11
0d
f7
0a
fe
f1
00
0b
fb
fa
ff
12
f6
ed
fa
18
f0
f6
09
03
16
fe
0c
26
1e
f7
f1
2c
f8
f9
27
1e
28
1b
fe
fc
10
38
e7
fa
00
02
ff
fd
fc
0b
e4
e8
f6
0e
0c
ef
ee
03
04
e5
fe
05
26
fe
ff
f6
fa
f4
ec
05
f6
15
18
f5
0c
1b
fd
eb
1f
11
03
1a
27
0c
09
1f
22
e1
eb
f6
f0
e2
f3
04
f4
e3
10
fe
f5
f8
2d
02
f6
05
21
03
03
18
ee
08
fd
1d
ee
ff
e7
f0
12
18
ff
fe
0b
f5
e0
ef
01
02
02
f5
fc
07
02
ea
12
0a
09
2b
21
ef
f7
3a
e0
ee
f3
06
0a
f2
fe
04
02
ec
03
04
fe
06
f6
01
fb
0c
fc
ff
0c
03
fc
02
01
06
09
12
e4
0f
f7
05
21
03
04
27
dc
fa
d8
dc
08
fa
e8
00
f7
f9
03
f3
f2
08
0b
ef
0b
04
d6
04
fd
e6
01
04
e6
f5
f3
e5
00
f6
0f
0a
e4
e6
06
f3
e9
23
fd
ef
0f
f6
f4
04
e9
02
05
0e
00
0d
f9
e9
04
f4
f9
fe
f5
ed
06
ee
d3
00
ef
e4
08
0d
04
fd
0d
0e
0c
0b
13
01
04
fd
f8
ea
f1
07
06
f4
03
f0
e0
fc
00
eb
f4
01
d5
f4
fb
ee
fe
06
ed
ff
fe
da
02
0c
fc
fa
2e
f5
fc
15
ea
f5
ed
e4
ff
04
e2
f4
f1
da
07
fd
09
f8
fc
f6
03
01
f7
04
01
ff
06
06
ff
00
06
03
fe
f1
ee
ec
f4
07
db
fe
ff
e7
e2
d5
f4
ce
e8
e9
d6
12
01
0c
0e
fc
07
09
07
f6
03
00
0b
02
05
04
09
0a
0c
0b
e0
df
eb
e1
e8
ff
d9
eb
fb
c5
e5
dd
df
f0
e7
d5
eb
e4
fe
0a
0e
f7
fa
06
e6
fe
08
de
df
eb
e3
e8
f0
dd
fc
ec
00
fe
fb
fb
08
04
f8
f7
04
fd
ee
fa
d6
f1
f6
d5
d3
e2
0e
04
0c
00
0d
0f
07
06
00
fb
01
00
01
06
ff
03
00
02
0e
fa
f7
f5
dc
fa
f4
f9
0f
0a
fd
01
fd
04
fe
0c
fd
04
fd
fb
ff
f8
ff
f2
f6
fb
fc
ff
01
03
fa
fa
04
f7
fd
08
f9
e8
ec
ed
f5
e8
05
e1
ef
e9
ea
f1
f6
ee
1d
2a
da
e6
f1
fc
fc
ec
fa
f5
00
fa
05
fc
e1
fa
f2
db
ed
ef
e5
fd
14
2b
0c
f3
07
f8
03
1f
06
0b
f2
0c
24
fc
0a
05
ee
05
09
f9
01
25
12
1e
15
fb
0e
f7
fe
0e
f5
f2
fe
00
ef
08
ef
06
f9
fb
0b
fb
f6
02
04
04
fe
fa
01
f4
f3
14
06
09
ef
ed
f4
ea
db
e4
f5
ee
f4
fc
ec
f4
e6
eb
e8
fb
ed
f0
f6
e7
f4
fe
e6
d9
e7
e6
e3
f3
f1
fb
e9
e5
e3
fe
ec
f2
00
ed
09
fb
ff
00
f2
f9
ff
0a
08
0d
02
02
12
f4
ff
fc
15
fb
f8
e7
02
07
eb
fb
fa
d6
ce
ea
02
05
d5
d4
15
f1
f2
f9
f3
04
03
fd
01
04
01
04
fe
00
03
10
ff
f9
fe
f9
ec
d6
fa
fb
f2
f3
f9
02
09
f8
c4
dc
f8
e1
d2
08
f2
f2
16
08
17
0e
f5
16
fa
e9
05
f6
d9
00
f1
f0
0d
04
e6
0f
02
03
1a
fa
fd
0e
f5
02
01
fe
d6
e1
e4
cd
c3
e5
d8
d9
ff
f6
fd
12
05
f0
07
02
08
fe
fd
ff
02
fe
fb
ff
f9
04
2c
f4
e2
fd
04
15
e3
ef
0b
03
0b
ea
06
12
ff
fb
0b
f8
06
04
08
0a
04
02
00
08
05
02
09
fc
05
09
fb
05
08
09
08
f1
06
e1
d9
e0
02
e1
f5
05
1f
07
ee
1d
2f
27
10
ea
e3
f5
e4
ec
f0
ec
fd
e6
f0
e0
e8
f7
ed
f1
e9
f1
e5
f8
1b
0b
09
1a
06
11
1a
0a
0b
0b
04
08
fb
03
f9
06
0e
02
00
f7
09
0f
02
fe
0f
f8
04
f2
ea
e8
f3
ef
f2
03
fd
f1
0c
03
f4
04
02
f7
00
05
f3
f4
01
ee
06
fe
0c
1d
17
f9
d9
ea
e9
e3
e2
f2
df
e0
ec
ec
e6
f2
f4
f1
fb
e8
e6
f4
ea
e7
07
ec
e1
e5
ff
cf
f1
e0
f0
e6
eb
f3
f6
e4
e7
ed
f9
0d
0b
0c
0e
0d
03
0a
09
f0
f9
f6
09
16
13
08
fa
fd
08
f4
f0
1a
16
06
02
fd
f0
1a
f1
1a
0f
ff
02
1a
f3
ef
f4
fe
f4
fb
fd
f0
fe
fa
f5
f6
ec
fb
eb
f0
fe
f4
02
00
14
13
f1
fc
06
ea
0a
02
e7
f8
ec
02
02
e6
00
e2
e2
ef
09
f7
e6
16
1f
0d
f9
da
eb
dd
df
ff
f3
e8
f9
fa
f0
07
f4
02
03
13
1d
16
06
ee
fd
0e
ef
ff
e4
f5
ec
0c
ff
fa
f8
fa
f3
eb
f7
fc
03
02
02
fe
ee
fd
ed
f9
f2
fe
03
ff
09
10
f3
01
fe
eb
1a
0e
10
02
f6
00
f6
f1
fd
0a
0e
02
ff
f6
f5
0f
f9
fb
06
f4
f2
09
07
14
07
06
29
06
06
0d
11
e9
ea
02
04
e7
09
1a
f4
ff
1e
f4
0b
f9
e0
0e
24
fd
fa
04
d2
f7
05
e2
f4
fb
f6
0a
06
dd
0a
12
e5
05
fd
fa
e3
f7
f9
00
e8
d7
fa
e6
fe
f3
f1
dc
06
e9
d7
18
08
e7
1c
1a
12
10
fe
1a
09
f5
f6
f3
dd
e2
f7
d9
c8
fb
e8
e7
05
0d
1d
07
08
33
fb
0a
0a
fa
e8
f7
06
fc
ec
16
04
f4
14
02
df
10
0d
d2
fe
fa
e3
0f
04
e3
09
17
e8
fa
02
f0
f5
f0
ea
ec
f2
d3
e6
09
ed
12
0c
d8
11
18
e7
0f
0a
ea
ef
f7
ea
0e
fd
09
0e
02
0b
11
21
e5
ff
07
26
ff
fb
03
15
e8
fe
ff
16
ff
f9
0d
21
0e
0f
f0
2e
04
21
06
fc
fb
ed
cd
fb
fc
09
e6
f4
f7
03
ea
d8
f8
04
06
ea
f9
00
0c
02
ea
fd
ed
ec
db
11
f3
01
f9
c9
e6
f7
e6
d0
00
f4
df
2a
40
0c
f3
ec
39
f3
f5
fd
e4
d4
dc
f2
eb
e4
06
f2
ff
16
35
00
0e
09
3b
f3
fa
0b
ea
e3
ec
04
e7
ee
f9
e3
d6
f9
d5
f3
05
01
df
09
02
fe
f8
d1
f0
08
14
e7
00
06
0c
30
f3
f7
0a
05
02
ec
15
1e
e8
cd
ea
fd
0f
e4
f9
01
0c
f2
06
05
f4
fc
08
fd
05
05
f7
ff
fd
f4
00
fc
03
03
03
dc
ef
f2
fd
ec
11
f4
f1
14
f7
fe
d3
de
0a
01
de
d5
d5
04
03
0f
10
0c
12
f9
0d
02
09
fe
09
0d
0c
0c
07
fc
07
db
e5
e2
ea
fb
f2
f8
0c
ea
f3
f9
e2
f9
fe
f4
f0
f5
e9
ea
f0
f9
fc
ff
eb
04
fc
f6
ec
ee
f4
f4
f6
fb
f5
f3
fb
fd
fe
f8
f4
f7
fd
08
0c
fe
f1
06
e5
02
fc
fe
fb
01
fb
04
fa
fb
f8
f6
fc
05
fe
fe
07
09
02
05
09
02
02
09
01
ff
ea
12
f5
00
04
ef
0f
1e
fa
13
f8
08
09
01
02
08
f5
1b
16
04
1a
0c
0d
03
fb
08
1b
28
25
04
01
fb
f9
f5
f5
0f
f9
01
18
1c
21
ee
06
17
18
11
09
fa
f1
32
26
fa
15
dc
ea
d7
fc
19
01
ff
0c
10
dd
e4
e9
fe
0f
0a
02
05
0d
16
0d
1b
12
fd
07
10
07
1d
24
08
0a
05
12
fc
02
0c
ff
f4
ee
fd
02
01
06
fd
e9
fe
05
f0
f1
04
f9
e6
ff
f5
ed
32
33
38
01
fb
f8
03
eb
f8
fd
ed
db
0e
f6
ed
18
13
05
e3
d6
e5
05
02
05
02
05
0c
e6
e2
e2
ff
11
06
fd
0b
07
23
0b
f6
18
24
07
e7
f5
1e
dc
dc
e1
0a
15
0d
fb
07
04
00
0a
06
0a
0c
01
07
14
fd
06
01
ff
f6
f3
00
0b
fd
fe
f7
02
f7
fb
fb
0a
0d
12
11
27
ed
1b
1f
ec
f7
15
e4
f6
fa
fb
fa
f3
11
08
fe
06
03
f5
eb
f1
fd
f6
f2
fa
04
ff
07
0f
14
1c
21
24
23
18
06
0d
14
13
20
17
14
18
fc
08
ef
02
05
15
10
10
20
06
1e
f1
ee
f7
f8
f7
fa
02
f5
02
f8
fc
06
f4
f7
fb
fe
fd
f4
01
02
0c
03
f5
f2
05
0b
ee
fc
ed
ec
ee
fe
fa
fb
f3
f3
ea
f2
f1
f8
fb
f7
fb
08
07
02
0c
ec
fd
fa
e6
03
00
09
fc
ed
ef
f9
0e
08
fc
08
0a
e2
f5
08
10
01
fd
26
1d
06
ea
f6
f3
09
03
14
10
11
08
f4
03
0d
2b
25
1f
17
ed
c1
01
01
f0
de
dd
1d
f8
0f
0e
0e
00
fa
08
0f
eb
e7
d8
d0
01
fd
04
08
0e
f1
f2
e4
d5
02
ec
fa
f0
d9
d9
e7
dc
d3
fb
f1
01
0c
f8
e1
00
00
f4
00
0e
02
08
02
08
0d
fd
fa
18
fd
06
fb
e4
ee
ff
e9
ee
ee
f5
f0
0b
00
00
01
fd
ee
16
14
1a
fc
0f
0e
0c
fc
f5
0b
08
f7
09
03
f6
da
d9
c0
05
03
fd
01
0f
f6
d8
d7
d1
ed
fa
0b
23
21
15
17
fb
d2
03
04
09
0b
03
e7
d3
de
d0
0f
07
fd
21
0b
fc
36
22
ff
06
02
f6
14
03
00
16
0a
05
03
f8
f4
11
38
fe
f0
17
2a
16
15
00
17
f8
ea
14
dd
cf
f6
f5
0f
fc
0d
ff
d2
f8
f2
03
f6
fa
ec
03
01
dc
02
00
03
0a
04
f0
04
03
db
d6
e6
f6
d1
01
ea
f2
f7
e5
e1
04
f5
f6
e0
ef
eb
f3
d5
de
fe
fd
09
fa
de
f8
01
e3
ef
01
0d
1a
f2
08
02
f5
fa
03
fc
10
12
16
04
f0
12
da
ef
fc
ee
f4
0e
e3
0a
0a
dc
f1
08
fc
f1
06
eb
05
00
e8
f7
f9
04
fe
fd
f5
19
16
f7
19
24
fe
f9
09
e6
08
fb
d0
fc
fd
fb
fd
0b
fa
f6
03
04
fe
fc
fb
f2
0c
f5
fb
04
fb
06
09
eb
fa
02
e6
fa
18
ef
11
0c
f9
ff
db
dc
05
f7
ec
1e
f7
fc
0e
08
03
0f
04
0d
0a
f8
11
0a
01
fc
0f
08
fd
04
fa
e1
f8
e2
f3
10
f6
f1
08
ef
e7
fe
de
ee
f4
f2
fd
f5
e7
f9
fc
ff
f5
f5
eb
07
06
04
fa
f1
ee
ee
fc
ee
ff
f4
ff
01
ef
05
fc
ec
f8
fb
fe
0d
e2
f5
02
fe
0e
f4
f1
ee
e5
0d
fb
02
08
f8
fa
08
f5
07
09
0f
fe
0e
fe
06
05
fc
04
f1
e9
fc
e7
ff
16
e7
09
11
0e
0e
09
0d
05
f8
05
05
f6
09
f1
fa
fe
14
00
0b
05
0e
fb
ff
00
01
12
0a
f8
0e
14
fa
f9
de
de
e9
00
09
e9
15
04
d2
0d
f9
16
f3
05
22
26
ef
01
07
e2
ed
fb
f0
e5
e6
ea
03
0a
ee
07
0b
0b
f6
f7
02
00
25
de
ed
ea
e9
f8
06
eb
dc
f3
f5
e3
e0
e0
f1
17
01
16
20
1f
07
f0
f3
02
1a
e9
f5
0d
f8
ec
13
ed
cc
e7
f9
0e
08
1b
0e
f4
f3
0b
09
09
14
0a
06
ff
f1
e9
ef
ef
f6
06
10
02
0e
10
0d
03
f5
ed
01
09
ef
0a
11
0b
00
f9
07
ff
fc
05
ee
08
16
10
fc
f0
03
04
ee
00
0e
0b
f6
f5
f7
f5
06
fa
f9
05
fd
03
f7
01
f6
0a
00
f4
02
fe
f5
02
f3
00
f6
e4
f5
10
f2
f5
10
ca
0d
e5
cc
e6
e4
f1
f4
e8
0c
12
f8
03
15
01
11
0f
0e
00
05
00
0b
01
04
0f
ff
ff
e4
f8
e1
ff
06
ed
f3
0b
fa
f3
f0
d7
01
13
01
f9
f9
01
fe
ef
0a
f2
ed
ed
fe
f6
ec
f9
f4
f9
ff
fb
f5
fd
f7
fe
07
f7
09
fb
00
fb
fc
fd
03
e5
e8
ea
f7
08
f9
f0
09
f6
10
08
04
09
0a
09
0f
01
08
0e
fb
07
12
04
fc
0e
ff
01
ea
01
02
ee
eb
fa
f0
ff
13
07
07
05
01
0f
02
01
0d
02
07
00
0b
f7
fa
0b
03
f9
ed
06
fd
ff
f7
f8
f9
06
f7
07
0d
e6
ee
d7
e4
f4
fa
20
21
06
d9
17
06
e2
fc
d2
04
f1
fb
0c
fa
02
01
06
08
25
1b
03
08
f9
05
07
fc
14
0f
0e
0e
12
0f
02
08
03
09
0c
17
23
1f
1a
0d
1a
15
fb
f4
f4
06
f6
05
02
02
ec
0e
07
0b
11
13
ff
00
03
0d
e5
f3
f2
08
06
fc
fa
f3
f7
02
fe
01
e0
01
ea
01
05
07
f5
f7
f5
f7
07
fe
0a
02
fc
13
14
13
fd
ff
f9
04
f7
01
05
0a
0c
0c
ee
f5
e6
e8
f3
f5
28
3d
f4
fd
f9
00
01
fe
03
1c
11
f7
01
fb
ff
06
ff
0d
ff
03
fd
01
fa
fa
f9
ff
f9
06
ff
ec
eb
f4
fd
10
03
da
f6
09
00
d1
0e
dd
d0
0a
17
d7
15
08
08
f6
00
10
04
04
fc
ff
fc
07
04
f9
f9
f9
fc
f9
09
e2
f3
ef
e7
fa
dd
ea
e6
f1
f8
d5
ee
df
ea
e4
e7
dd
ec
08
ff
ff
08
e3
df
fd
ec
f4
f9
f6
fa
ea
e5
fe
fd
f1
ee
f7
fd
fc
f6
fc
0a
fb
02
06
e1
de
f1
d7
ee
e4
f6
e9
dd
04
f6
f3
05
07
04
fd
fd
01
fc
07
f3
fd
02
f8
02
fa
fe
02
f9
f5
ec
fb
0e
e8
06
17
01
09
f6
04
00
04
f2
f6
01
0e
06
04
fd
0a
03
16
ff
f1
fb
f9
fe
e8
01
f7
f9
f2
ff
fd
fb
ee
d9
e0
e4
fd
f1
d6
17
fa
e5
ef
0b
fb
dd
ea
e5
fa
ea
f5
01
de
fd
eb
0a
fd
fc
f1
f9
01
eb
06
de
09
0c
f6
11
14
f3
1a
f4
19
f4
16
ed
ec
eb
ed
ee
fc
ef
da
f7
ee
e8
f1
f0
1c
f6
fc
e5
0a
df
de
ee
da
da
e5
fc
e0
e7
01
05
0d
f9
09
ee
f5
f1
f4
ff
f7
ea
f6
05
03
06
e6
f9
fa
e7
e0
fc
e3
f3
df
fe
f3
fc
f9
f5
f4
e3
f9
e3
02
05
fb
fd
e8
00
e9
ee
ed
f0
dd
f4
e8
ef
09
e0
f6
d3
0d
fa
0e
03
05
01
fc
ff
0b
05
08
f9
f3
ec
00
0b
fc
fe
f7
fd
ec
06
ea
0f
0c
e5
0d
26
03
17
e4
06
e1
de
df
dd
f9
fd
f7
f5
06
fb
ed
fc
ff
09
06
fb
ee
05
f6
eb
ec
03
fd
fa
0b
12
ff
09
fe
f0
0e
10
f6
06
c2
ec
14
f0
07
16
e5
fa
25
f0
ff
1e
09
08
0b
dc
ff
f6
f2
fb
fd
e5
f9
0e
04
0a
f7
ec
f6
03
0e
fd
fe
ed
f5
05
db
f6
0f
ce
e4
02
d9
ff
eb
e9
ff
ff
ed
ec
ff
fb
04
f4
fc
08
f5
eb
f4
ff
0e
f6
0a
f0
fb
02
e9
00
10
1d
01
fe
f1
03
f1
e3
f5
05
0c
04
05
02
f6
05
f6
fb
fa
fc
ec
f5
00
09
04
0b
0c
fa
07
f5
e1
e9
0e
09
f7
c8
f0
e0
c6
fd
e9
f3
f8
19
0a
2c
1e
1e
f8
06
f5
dd
d2
d5
f6
02
ff
02
0c
fb
e7
d8
db
f9
10
fe
ff
f6
04
04
fb
0a
f7
fa
fb
de
ee
ed
05
19
f8
05
0b
0d
fb
ef
1b
0c
15
1a
0e
ff
04
f0
ed
f6
ef
de
f8
01
f1
01
06
05
08
0d
11
16
0c
00
f9
0b
0c
08
ee
e5
e2
05
ea
07
04
0b
fc
db
d9
e6
ea
11
02
0c
0d
0c
d8
da
d8
eb
0b
11
d5
f9
27
f8
f4
cd
f9
fd
d4
00
0f
04
db
d9
d4
f9
12
0a
f1
f9
f4
f2
fe
05
eb
00
0b
fa
0a
fd
fa
0b
04
f8
0c
06
e2
f8
f2
14
00
cd
0e
15
db
0c
de
e9
da
fb
03
1f
0c
ce
14
03
da
07
fe
e2
0c
f2
db
fd
04
e9
02
0a
e7
0c
ee
e6
19
00
0b
09
ec
08
08
e6
f6
11
18
0d
15
01
07
04
00
ff
f1
01
f8
f9
05
03
0c
06
0e
00
fb
e9
f5
f3
e4
01
08
f2
fc
0f
1a
01
0a
10
00
0e
03
06
08
fe
06
fb
fa
0d
01
e3
03
f2
db
ff
05
e5
ff
f6
dc
0b
f9
df
03
08
df
fc
f5
db
f2
fe
f9
13
01
cb
09
0f
dd
fd
00
e7
11
00
e7
fe
ea
dd
f8
0e
f4
fd
1c
07
00
12
05
fb
0f
05
fc
12
f7
02
0b
fc
f2
0c
e3
ff
fa
fb
04
ed
fe
e8
f8
1a
24
ee
f1
00
fd
28
f3
ec
08
f5
df
03
01
dc
ef
fc
fc
fe
fb
d6
10
ff
d3
01
f8
e2
ea
e5
03
e1
f5
e8
ed
20
fd
e9
03
f5
06
0e
e7
0a
1a
fd
fb
04
0d
e7
fc
fb
d6
05
eb
eb
ef
dd
eb
fd
e7
e9
0a
1e
01
fe
14
00
08
fe
fc
0e
ed
e9
14
f3
fb
1b
e5
ef
06
e9
05
07
c9
0d
0a
c9
08
04
f2
02
01
ca
06
fd
ca
fe
01
18
e7
03
ea
00
ff
f8
fd
00
ef
14
01
d2
03
02
d0
07
fd
fc
f6
fb
f6
f3
08
f7
fc
f9
f5
f4
fd
fd
f8
05
04
fc
ee
fa
02
0d
ed
ef
ea
00
e7
ff
e5
1f
e2
e8
f7
34
05
26
ed
f1
f2
fe
e9
e6
fd
00
00
f2
ef
ea
e7
e8
e8
fe
f5
f6
29
1c
05
25
19
0a
17
1b
04
29
13
ff
14
02
04
0c
0a
0c
14
f3
01
17
08
05
09
f8
0f
e3
d9
e5
f4
e2
f2
fa
fa
e6
fa
00
f1
03
ff
fa
01
05
02
19
f2
0d
fb
f6
ed
14
07
12
ed
f4
f8
f4
e2
f0
ff
03
ef
f7
ed
fc
ef
e9
ed
0f
0a
f5
ec
e4
f7
05
09
e8
f5
03
e7
f0
f1
ee
fc
f7
fa
10
03
f7
fb
05
fa
18
fa
fa
0f
fb
0e
05
04
06
06
00
23
16
24
0c
ec
0a
32
f3
30
1c
22
00
ea
e6
1e
dc
e2
25
fe
1f
f1
0d
01
05
00
fe
11
d6
ed
cf
e3
fc
fd
06
fb
10
e2
f0
d1
e2
0e
f5
e0
ee
c0
d6
f1
e8
ef
f7
ec
f8
0b
10
ff
00
04
03
07
f9
fe
1e
f9
f7
f5
e8
eb
06
f1
ef
f5
e8
d8
f2
db
e6
0b
ff
16
07
05
14
07
0f
06
08
f4
ea
15
ee
e4
01
e8
01
01
0f
0b
fb
04
e3
06
db
e5
00
0d
fd
fc
0c
de
ff
e1
df
cc
06
3f
f8
40
fa
26
ff
f5
01
0c
ff
08
13
e7
fd
d3
eb
f4
f9
fb
f1
fc
ff
fb
03
f9
01
f8
ff
fa
f9
f6
fc
04
01
0b
00
05
dc
02
f6
fb
0a
0d
f4
ea
e2
d1
ef
f5
d1
de
e2
01
03
0a
fa
09
10
04
09
01
0f
11
05
fe
04
02
06
0a
08
dd
e3
e2
d8
e9
e5
f1
e7
e7
ec
d9
db
e1
fb
f2
de
eb
ea
ef
fe
02
06
05
fb
ea
f7
fb
f0
ee
f4
eb
f4
f3
01
f0
fe
f9
f9
fc
f7
04
f1
fc
05
f6
e7
f2
01
e8
07
02
f3
e5
f1
0f
06
03
01
03
00
07
fd
fb
00
0f
0d
07
09
06
f7
fb
f6
0b
01
f9
e0
02
07
f9
09
0e
fa
05
06
02
0b
0d
f3
f9
fd
ff
00
fc
fe
fb
05
09
06
00
09
04
01
06
00
02
06
fc
02
e9
fe
ee
f8
f9
0f
e5
06
11
f3
eb
d3
15
da
d2
f7
1a
f8
fe
0d
02
00
fa
12
08
07
fb
fb
0b
0c
0c
05
10
03
0d
0d
dc
f2
d6
ef
f7
04
ea
01
0a
ec
ec
ea
e8
03
f7
ee
05
f7
fd
fb
09
ed
ef
f5
f2
ee
f5
ee
f2
f0
f6
fe
e8
e4
f8
ff
08
fc
0a
fd
04
fe
ff
04
ff
e6
ef
ed
e7
ec
ed
d0
fa
ef
0a
f5
0c
11
f9
0c
fb
05
02
09
fc
f8
0c
f9
0b
0d
fe
07
03
ec
06
e2
05
0e
f4
06
11
00
f8
09
11
08
06
04
0a
09
13
04
08
02
f1
f8
0a
f6
fe
02
06
fe
00
fa
f8
f0
f7
fe
0c
13
ed
0e
01
02
0d
e8
fb
21
f3
de
12
fe
fd
00
08
24
08
f4
f4
fd
00
ed
ea
e6
ea
02
ee
fe
f1
e3
ee
f0
e0
ed
13
04
03
07
08
f8
0b
f3
f9
16
e4
fb
26
f8
03
11
e9
e7
16
ea
0b
27
f2
fb
0d
ea
f3
28
03
10
fd
eb
f4
14
fc
10
f9
01
f1
05
02
04
fb
02
f9
fa
cc
f3
e6
ca
cf
05
e6
03
fe
ec
ed
e7
da
e4
f9
d8
f5
fd
ff
fa
f1
f6
dd
ed
f2
eb
13
05
fc
05
fd
01
f5
02
f0
f8
fa
f7
f6
f3
ec
eb
ea
f2
fb
04
00
fb
fe
fe
fb
fd
fd
f7
f5
fe
01
f8
ff
02
f8
09
fc
ed
0a
f0
06
14
ff
08
1d
f0
e2
07
e5
d3
fd
f6
e9
11
0f
09
0f
13
09
fa
ff
09
ff
07
fd
09
00
05
0f
ff
fd
fd
e0
ea
e4
fb
fa
dc
00
f8
de
f8
e8
d3
01
08
e9
f3
f7
d6
f7
03
f5
f4
ff
e9
fa
fe
f3
04
ff
f7
f6
ff
e8
02
ec
e1
f4
ec
07
fe
fd
0b
fe
fc
fd
e4
01
fd
04
fc
f2
f9
e8
e1
00
f7
09
0f
03
fd
fd
f5
0a
fb
fd
f7
0a
f8
0c
06
0b
05
e6
df
f1
f7
03
07
01
17
24
0a
02
06
09
0a
03
05
01
f9
04
f8
fc
fd
fc
fe
05
fb
ff
02
fa
02
02
f2
02
08
00
09
ea
f7
00
ed
07
fc
fd
f5
19
f3
f0
00
0d
14
d6
e9
dd
02
11
0c
03
12
0f
0a
fd
fc
06
05
0b
0f
03
10
01
0c
08
04
ea
fa
ec
ff
10
f9
05
0d
0e
fc
0d
fb
08
07
f8
f5
fd
f5
ef
fb
fb
fa
ff
ea
0c
11
07
f1
f8
f7
ff
eb
fd
f3
f5
fa
02
f0
05
fc
f7
fa
00
0b
03
f0
fb
f4
ef
09
04
e4
0a
07
05
09
0d
0a
03
fa
04
ff
fa
07
0e
00
0c
01
07
05
06
07
02
ea
00
f9
f1
03
e8
fd
22
0e
00
0e
02
01
0d
04
06
01
09
05
ec
e8
fd
f2
07
02
f8
fc
0d
f7
f6
f4
f6
05
f6
f7
00
f5
f3
fa
04
fa
d9
f0
e4
e8
ec
ef
f3
0a
1d
e0
da
c4
f0
da
e9
04
fc
f3
ee
00
03
f3
ee
f8
00
09
09
04
0e
fc
e5
e3
d5
fa
0c
01
06
18
15
01
e5
e5
f9
e6
d7
04
14
0d
1a
1d
10
07
02
ec
f6
f1
0c
01
e8
ef
e8
e2
e7
f5
fb
03
17
19
fc
fc
ee
eb
0b
0e
fe
28
0f
0b
f0
df
de
0a
ff
f7
f7
df
fd
ff
10
0a
fc
fe
fe
f8
f2
f2
02
fe
03
00
08
fa
1b
0a
00
f5
ed
0e
fa
e2
e0
f5
e8
f6
01
0a
f8
fb
03
ff
f6
04
fd
04
10
f9
13
fc
f3
f0
fc
00
0a
2c
03
10
ff
fd
ea
f4
13
f3
fa
06
f2
fb
04
0f
11
da
ef
ea
24
29
f8
15
f8
fd
ea
eb
e4
fc
f0
f7
01
fe
09
06
fd
ec
02
fd
01
0b
f7
fb
fe
c6
df
f3
c2
ed
f2
d6
c4
d7
fe
f8
ff
21
0a
39
04
fe
fe
06
19
fd
e9
d5
ef
f7
e6
f7
db
d5
f7
f9
18
05
fe
03
05
10
2f
0c
06
f4
f4
0c
dc
e8
f9
e4
e4
f7
f3
02
0f
05
00
f9
ef
0a
08
09
0a
05
fa
04
fc
fe
05
06
06
0a
f9
12
0a
27
e0
f1
05
f0
fc
01
0a
02
05
ef
fa
fd
06
03
0c
04
f1
01
04
fc
03
05
0a
fc
fe
ed
f3
f5
f1
f1
f7
fe
04
ef
f7
fa
e4
f6
22
04
fd
04
d9
f5
05
1c
ec
ec
f1
e6
f5
03
0e
f9
ff
fd
f1
ef
f3
fe
02
08
f0
f9
f4
00
ff
f8
04
06
0b
08
0a
27
03
f7
17
07
0b
24
f7
00
03
06
fb
07
fb
0d
0d
08
12
18
13
15
13
dd
f4
02
e8
e5
02
e7
e5
e6
ff
df
e1
e5
e8
f3
e7
ed
fd
f5
17
18
04
fd
13
18
10
05
ed
01
0c
f9
fc
f4
f9
04
ef
f1
f9
01
f8
01
0a
f8
fd
fa
14
dd
01
f8
eb
08
02
f8
00
f1
f5
12
f4
12
f9
07
ff
f6
f9
fe
00
06
0f
01
13
13
01
f5
ff
f0
06
1a
02
01
00
02
09
e2
f4
0a
e2
f5
fc
f7
00
3a
f5
1e
fd
ea
f1
14
29
15
ed
f9
ef
f6
d6
00
fa
0b
fd
f4
ed
fb
ea
d4
f3
0a
02
0b
02
09
0d
f8
f9
f0
02
fc
e2
f8
e6
fb
ff
e6
d7
01
e3
ef
f0
f5
05
18
21
1e
e4
ec
f3
e4
dc
f7
e4
e5
fa
fa
e2
01
09
05
0c
0d
28
10
08
04
fd
14
03
00
ef
f3
ec
10
16
f1
f1
e5
f6
e5
c9
e6
01
01
0a
f0
f1
f3
f2
cc
f2
0d
01
02
09
ed
f5
01
e9
f2
fe
05
11
f7
e9
fd
e4
db
ff
0f
0b
06
2f
01
01
0f
01
fb
fe
fa
03
1b
0f
07
07
f8
fe
01
04
fe
19
fa
f4
02
de
f4
e4
fc
16
14
f4
07
cc
e9
f7
c1
e4
d4
e4
f8
fb
10
ff
f7
03
fd
f9
ef
05
f8
fd
0a
09
03
fd
00
0e
ef
08
fd
fe
f4
01
02
fc
e8
e0
f6
e7
ed
e5
e9
02
ed
1d
0d
12
fa
ef
f5
f4
ee
ff
f5
ed
ec
f2
f0
02
f6
07
f3
27
0d
fe
f9
fa
04
00
04
fa
e2
fe
00
de
dd
ea
f3
e1
e6
e0
f3
fe
fd
10
04
02
00
06
ed
f8
03
02
f8
f5
00
f9
03
2e
fc
f2
f6
f9
f5
08
0a
01
e3
f3
ff
01
08
03
fc
03
0a
ff
04
fa
1e
15
fc
06
39
12
f3
06
fa
fd
13
fe
00
31
08
06
06
e3
f5
03
eb
f7
e6
18
36
f1
f4
0e
1b
0a
f9
1c
ec
f9
f6
f7
f4
0b
fb
ea
cc
0f
03
f5
09
e4
01
09
f0
c0
08
f4
0d
00
f5
e9
04
f6
e3
c9
0a
e7
f8
00
fc
04
18
f4
13
06
f8
04
f8
f7
f8
00
f3
fa
f9
f0
f3
e5
f1
fd
f6
e8
07
fd
15
ff
f7
1c
06
f3
25
01
40
f7
f9
05
e5
02
11
cf
f2
02
f7
08
ec
fd
0e
f0
c0
02
fc
00
fa
e2
0a
04
ff
c0
08
0e
1c
d2
13
fa
02
06
f4
1e
01
05
06
ee
01
0e
ee
c0
0b
07
12
ff
f3
f3
01
f7
01
0e
12
19
fc
f4
fc
07
ed
f3
04
12
13
1a
03
0b
0e
f1
07
0b
04
fa
fe
11
dd
e6
f7
12
ed
f8
e8
f3
03
0a
fc
04
09
ea
00
e8
fa
04
ff
ff
fe
09
f8
e3
ed
f2
10
fc
ef
10
fa
e1
ed
f4
f8
08
03
f7
06
08
fa
22
27
20
fa
f4
f7
15
1e
15
01
e2
01
04
ef
f5
f5
f5
f1
1c
25
08
02
05
0a
fc
f3
05
23
15
12
36
1b
1b
32
09
16
ef
e9
ff
0e
00
02
ff
01
fd
fa
ef
fb
00
0a
fa
0d
11
fc
1e
18
ff
02
18
21
ea
0f
01
f3
f3
06
0b
09
06
0f
0f
fc
03
fc
03
1d
0c
f8
2f
15
fd
f5
03
f5
10
02
00
00
0b
09
ff
ed
d1
12
0e
0b
03
24
18
f9
ea
e9
eb
e2
d4
2b
21
02
0f
fa
f7
f9
fe
f9
e4
fa
00
0b
fb
fe
00
10
fd
de
fa
08
e7
0e
02
f3
cc
f0
f7
ee
f6
fb
ed
fe
f0
e0
0d
06
e5
19
21
16
f6
09
fe
10
08
d9
f2
03
f6
04
ec
ea
ea
f9
e9
e2
f6
f5
f7
00
fc
0b
fa
00
11
f5
f3
10
ec
e4
01
f9
d6
de
fe
06
06
03
ff
03
e2
eb
f9
fb
fc
f7
04
04
fa
ec
ec
fb
f6
df
d0
ff
05
0d
0a
22
1b
01
0e
05
00
0d
00
e6
ee
00
3c
07
f8
2e
fd
f6
24
f7
f6
2a
11
f9
20
0d
fd
1b
ff
fe
1e
fc
f6
f8
f7
ee
e9
07
fa
ec
1c
d7
07
04
f5
e4
30
e2
d8
fe
fd
f9
0d
fb
f8
0a
f1
cc
09
0e
f0
09
03
f6
10
06
17
1c
01
fb
11
09
fb
06
10
f0
e9
ff
ee
fc
0d
ef
e7
f4
f2
fa
00
e0
ed
f5
02
ef
f8
e6
ec
fb
e8
f7
09
ee
f1
fb
18
15
fa
23
04
08
08
f9
01
dc
fc
03
f9
0a
ff
e7
f2
ff
c4
f4
01
e1
09
04
f6
01
f6
cc
05
03
f6
0f
0b
ef
0a
fe
1d
00
ee
fd
0c
f0
08
0a
f9
cd
02
0a
f9
0b
07
f6
0f
07
01
06
02
fc
00
00
f6
fa
fb
03
04
fa
03
00
fd
fc
08
02
f1
dc
ef
ea
f9
09
ee
15
17
e6
ed
d9
f2
d9
f0
03
0b
d8
10
10
08
fb
0b
09
fd
08
0f
09
fe
fc
0c
08
09
03
0d
fe
02
0d
05
02
1b
f8
0d
1c
ff
0e
06
09
0a
03
0f
fb
ed
e2
0b
ef
04
08
05
e7
f3
13
f2
06
05
09
fb
f3
f9
08
fd
00
09
0c
f8
09
f8
fe
f6
f6
ff
dd
e7
ee
e3
fa
00
f8
08
0a
0e
f5
f2
0c
f8
00
04
fc
fe
0c
fc
01
00
03
08
09
04
0a
00
e7
01
ff
ff
02
e4
fd
24
fb
fe
03
fb
03
00
f7
0f
0d
10
08
f6
21
0e
fe
1d
0d
05
0e
06
fb
0f
08
fc
03
08
09
11
16
f5
f0
0f
16
ef
f7
40
e1
f4
fb
df
e3
fe
fe
1c
fe
fe
ff
f1
f8
02
0a
f0
f3
0f
00
02
04
eb
05
01
e4
fb
fa
05
11
0d
f5
19
01
0b
fa
f4
f8
f3
f5
f7
07
18
00
f3
0e
05
f1
ed
05
f9
fc
f7
f1
f6
fa
10
03
de
00
fb
dd
eb
fc
1e
ff
f2
fd
01
f8
f5
08
0f
08
0a
06
f8
0b
0b
10
0b
0d
ed
0a
08
ed
f9
f6
db
ee
06
fd
04
05
f0
fb
07
ef
f7
fa
fe
08
d9
ed
01
15
f2
f8
1a
ed
06
0c
e5
0a
f7
e9
fa
01
f8
0e
05
ff
15
05
0c
0f
0c
fc
16
fe
02
1d
04
0b
0e
ff
24
f7
fb
08
13
00
eb
01
09
25
f4
f3
0d
f9
00
ef
0e
33
f4
e1
06
f2
f1
0a
fa
02
f2
f8
f1
01
f4
e7
03
f7
f7
fb
f9
fa
f6
dd
da
e9
fa
f0
eb
ef
fc
f0
f7
02
04
10
fd
16
f5
f0
e8
fa
f1
03
f3
d8
ce
eb
e8
02
f0
da
02
f3
f5
19
10
2f
0f
ff
22
0e
f9
0c
07
14
03
f3
03
f2
f7
1a
f2
16
f3
e4
0d
ef
f1
09
f1
fc
fb
f7
e2
05
ef
e8
0a
fb
f5
06
1a
0b
e2
05
fa
02
05
fb
ed
00
e2
ff
ea
f3
07
f9
01
07
06
f9
f6
fc
08
00
fe
fb
06
0d
17
f3
fa
fb
f7
f6
09
fc
06
e5
fb
fe
02
02
fc
fd
ed
10
10
0d
22
12
20
09
02
0b
f0
f0
f9
f3
eb
f7
f6
e3
06
f7
e9
01
fe
fd
f1
f9
e5
fa
ee
f0
f4
dd
f9
0c
0b
e8
05
f0
fd
fb
fb
f1
00
0f
fa
fa
10
1a
f6
ef
eb
1d
ed
ed
04
e0
f9
00
e4
d7
ec
f0
ed
f4
15
2d
ee
ed
ff
f1
08
13
fc
0f
21
ef
ea
f7
fe
02
f6
f5
06
f6
f7
04
ff
e5
f9
f1
fb
04
f6
04
0a
fe
ea
fb
f4
ff
05
fe
ea
fa
ec
e1
1d
f8
f6
05
e8
0b
0c
0b
f5
07
e3
0a
0a
f7
fe
f9
21
14
fa
f8
10
1c
08
04
03
20
f8
f7
06
22
03
fa
0a
13
0f
14
1c
3b
d8
3d
04
ff
ee
f9
31
26
1a
14
ea
fb
04
ee
f2
0c
fd
f6
e4
f4
00
0c
fd
f7
07
03
03
d5
e9
e5
22
e1
e7
e9
fe
ed
e0
06
ee
ec
04
09
11
24
0d
12
11
0b
f4
0d
23
f8
e1
fd
04
e3
ec
f8
01
e5
ef
0a
ef
e0
28
10
02
fc
29
03
ff
0a
2a
21
fe
06
01
ff
14
15
f0
f1
fa
08
10
f6
fd
09
0c
09
d3
f3
ff
12
09
f8
0a
0b
05
da
37
0d
ea
28
06
f8
fb
32
cb
fb
12
12
07
fb
0c
04
0d
da
13
09
ea
f6
25
fa
04
00
fb
04
0b
09
e1
11
09
01
04
f2
f4
fa
e2
d7
eb
10
05
01
f5
2b
06
ef
ee
2c
11
27
ff
29
f9
fd
ee
eb
e3
fd
f2
e7
e7
f9
04
01
0c
e9
0f
f9
ef
fc
e8
fd
09
e2
1c
f2
f3
f3
fa
fc
fb
f9
eb
fd
e9
03
05
04
f9
fa
f3
ec
10
fa
03
04
16
e5
ff
fa
e3
db
e9
f6
e4
f7
0e
13
00
db
16
0c
f1
fa
fa
20
0a
02
ef
f9
06
ef
e8
03
fa
08
0f
fb
e0
02
f8
d6
f4
ef
0c
0b
ff
d7
fd
f4
ef
fd
fa
02
d7
f4
e6
ff
f8
f8
e4
fa
0b
f9
0c
e1
fd
ed
e7
f4
1c
06
fe
34
0e
f6
40
29
fd
07
ff
fb
0d
09
fd
02
0a
ff
1b
07
f1
0a
1f
24
e5
01
27
17
e5
fa
f0
1e
e7
15
fc
da
00
06
14
f0
04
01
c9
f9
fe
ef
06
04
ea
05
10
cc
fb
00
04
f4
ed
ea
ec
fb
f4
f5
ea
e0
d4
03
df
df
f7
eb
e2
08
ef
ef
fe
f7
e9
04
f2
ff
02
f9
00
f3
08
01
09
fc
fd
08
01
0d
ff
04
06
fc
ff
05
05
fc
0a
1c
05
f5
10
12
08
12
f9
fc
00
df
00
0d
ca
f2
fe
f1
0a
0c
ee
06
0a
c8
f2
ec
1c
16
09
02
17
21
dd
01
04
fa
13
0e
dc
06
0a
cb
ea
ef
0c
ff
f9
1d
01
fe
1b
00
12
12
fe
f4
21
03
fc
0f
01
fc
0b
ee
d1
ff
f1
f9
21
03
f6
0e
d4
f9
04
07
07
ee
e6
ec
f5
07
05
02
16
fe
06
f8
f7
01
0d
0e
f7
05
03
07
ff
00
f3
ec
05
db
ec
03
e8
08
fc
e7
d4
f4
f1
e1
fb
e7
e0
05
ff
f4
11
05
e3
05
e5
c9
ef
f8
fc
ff
e2
df
fa
d7
e5
0d
07
09
f5
1f
08
f0
f7
fb
0d
ee
01
24
f3
f5
0a
d3
ed
f2
fb
08
09
ee
03
04
fd
fc
fc
fc
06
04
fd
09
f8
fc
f7
02
16
f0
f4
ed
f9
09
35
ff
04
f7
ff
04
f9
15
00
06
ff
f0
0c
ff
0f
0c
ff
0a
fe
04
0c
07
0c
1d
f8
00
20
fc
08
10
fb
0f
fe
f1
18
0d
de
1b
13
f7
f2
c7
e6
ff
c2
0e
09
c5
f3
f5
c0
0e
16
f7
ff
ff
e4
02
f5
e1
0a
09
e7
fa
fb
e4
0d
f9
14
0a
ff
0c
0c
0f
fe
19
16
00
19
01
f4
f9
03
07
f0
fe
2e
f6
07
22
0f
07
07
f6
f6
e7
f1
f0
e9
fb
ef
e8
09
1e
34
fe
06
1a
f8
03
0f
fe
f3
ec
e3
f8
f4
f7
0d
07
f3
f3
d6
fe
0e
e9
ff
07
ec
f4
fb
cf
ff
07
f3
fb
04
ef
0a
1e
fc
e8
0a
08
e9
1b
03
f2
ef
dd
02
10
e6
fb
f9
ef
f9
00
0a
fa
02
f9
00
05
02
02
ff
00
09
fe
de
02
00
01
00
02
e3
e8
f0
ef
db
f7
eb
e5
f1
e6
0b
15
00
ea
e1
06
e9
f9
fa
e8
e0
f1
ed
f4
00
0f
0c
fb
ea
e1
fe
06
11
fa
05
11
0a
f4
f5
08
dd
20
21
fd
d8
f1
0c
02
ed
ff
f0
0a
0b
f8
17
23
15
0c
f8
0a
2d
f6
e8
13
e9
f0
fd
eb
06
12
06
f7
02
1b
10
ec
08
fd
01
d3
e1
f8
e3
e9
ec
fa
0c
15
fb
f8
eb
f4
d4
ed
08
0b
f3
fe
06
e9
df
de
ff
06
0d
fd
e8
0a
e1
fd
fa
ea
e5
ff
07
fd
0b
e7
dc
e6
fc
09
09
fa
fd
05
00
04
fb
02
f8
02
04
02
03
00
03
fb
fb
12
10
03
ef
01
fe
ff
ee
fc
fd
eb
e6
11
23
fc
fe
12
f1
db
e8
1e
ea
e4
ea
ea
f0
e4
f4
eb
ff
e9
eb
e7
f3
ec
ec
f0
ee
e9
ff
12
18
f1
01
fa
0b
15
0a
09
02
12
11
04
02
04
f8
0a
16
fc
15
09
f9
0a
1a
0f
15
f7
f0
00
e4
da
f0
f9
e5
fd
f9
02
0a
f9
05
00
0c
0f
04
00
eb
02
05
04
0d
1c
08
0a
e3
ee
e5
e6
e9
e5
f4
e6
e2
f4
e5
ee
f5
ef
e9
eb
f7
f3
05
f7
e9
fb
f5
e1
ff
e4
e2
f3
e6
e7
f7
e7
ec
e4
f4
f1
f6
00
04
fa
fa
04
e9
05
fb
fa
10
fe
07
0b
0c
fa
0e
0c
f7
27
f4
ef
36
d7
14
3b
dd
da
06
dc
0a
dd
f7
f9
e3
e0
fc
fe
ef
07
09
d7
00
fb
c8
f9
f3
fd
01
09
de
04
03
e0
ed
f1
07
01
fc
f6
0d
ea
04
0d
02
f9
01
02
eb
07
ea
04
03
1a
0a
0b
20
fe
0c
0a
f4
fb
ee
e0
fd
ed
e5
00
f2
db
08
1b
0c
fe
09
16
fd
fc
f9
ff
f4
ff
ee
f1
e6
05
fd
f0
00
f5
e9
f9
0a
e0
00
f4
cb
0d
f8
ed
02
fd
e5
fe
f3
cf
01
1b
fe
e3
3e
dd
f5
22
c7
fe
ee
f2
04
fe
e3
fc
fb
df
fc
07
06
f6
04
02
fb
fc
04
0a
08
09
fd
07
05
05
02
04
f1
f6
fb
fc
e6
f0
fa
00
0d
d0
0f
08
d8
0d
e2
f5
f5
e9
03
0c
03
13
10
fb
14
0f
04
09
f8
00
06
05
0d
02
fd
07
f3
e2
da
e9
e9
f1
fa
ef
ed
e4
dd
d5
f3
fe
e1
ed
02
f3
fb
06
0b
e9
de
eb
f8
eb
e7
fb
f5
f0
e4
fd
f7
ea
fe
f3
0a
0e
04
ff
fb
f5
fb
f7
fe
d5
df
f0
ce
fa
ee
e0
e2
f4
03
f4
03
fc
00
03
08
fd
07
09
fc
fb
06
fd
01
fc
fd
fe
0a
f9
eb
e8
ec
fe
e5
f1
1a
03
f7
f4
01
12
0b
ff
0f
0a
e8
eb
f5
e7
09
03
02
01
01
ff
04
0a
f7
40
f6
0b
ef
f4
f3
38
f7
36
15
0a
2b
10
e6
20
0d
10
ef
0f
1a
e0
ef
19
0c
08
e7
02
c4
0d
ec
04
fd
01
0d
f3
06
d4
11
f0
0d
0a
02
ef
e3
da
f8
e1
ff
e6
e9
ea
da
da
03
e4
ee
14
fb
f1
ff
fc
f0
0b
ee
da
06
ea
d0
f4
dc
dd
e3
da
da
f7
f0
07
0d
13
13
07
40
fe
11
fa
f4
0c
db
ed
18
cd
ee
17
04
03
13
0c
ee
12
d3
07
e6
fb
04
0e
0b
e5
11
cf
0d
e9
11
f8
fb
3e
01
39
0a
f8
1d
f4
05
01
11
e7
05
d7
09
eb
15
0c
f0
03
06
ef
04
01
18
0c
fd
eb
fa
ed
00
fd
fd
16
09
24
ec
d7
f7
d9
fa
26
28
22
1d
e2
d8
10
1a
f0
06
f4
18
f6
04
04
0a
f4
ff
01
08
02
e9
fa
04
05
09
02
01
07
f9
f6
0b
12
0b
08
05
fd
fb
f5
09
0d
0b
05
0f
08
0a
0a
0c
0c
12
02
04
01
10
16
01
f7
00
17
01
0a
02
f3
fb
d4
c0
cd
ed
fe
ed
f6
f8
f2
fb
07
15
10
0c
09
f6
09
03
ef
fd
dd
01
ff
ff
ff
fd
0e
06
07
fe
f7
0b
07
08
f7
0b
ff
06
ed
e5
d6
03
d7
f6
1c
16
26
1b
07
fd
00
f6
f0
0b
0d
0d
eb
f2
f6
ff
f5
08
ff
0d
ec
f0
f0
fc
fd
f8
06
05
0d
fb
01
ff
dc
dc
05
f7
da
d6
e2
fc
fb
1d
f1
07
eb
0d
d9
06
d7
e2
e3
ee
ef
f4
ff
fe
06
fc
e7
eb
ef
f6
f7
02
f6
01
07
0b
06
1d
10
f9
09
14
fa
0c
e2
d6
06
ea
ee
f4
e1
e0
0f
e6
f4
02
f8
f5
15
e7
ef
fb
f3
e3
f2
f1
00
09
ef
00
03
f5
09
11
01
0c
11
06
fd
f9
fc
de
f0
f1
e9
ea
03
fe
10
dd
e8
f1
f3
f3
06
04
0c
00
ef
e2
e8
e7
fc
03
f2
0d
fd
0b
fd
f8
ee
0a
f7
dc
e6
e3
f1
eb
ea
f2
fb
fc
06
0f
03
f8
fa
f3
f8
fd
f8
00
f9
f4
ea
fa
fe
f2
02
03
01
f5
ea
0d
fb
1b
0c
12
05
ee
26
04
f8
e2
e0
23
fa
01
1c
db
f4
07
04
02
fe
12
f4
fb
f9
f6
04
03
f7
0f
fd
fd
fe
00
03
12
24
15
e6
fd
e0
05
01
ec
23
10
0b
18
10
14
15
ee
fa
e8
fe
fe
1a
14
0a
11
04
ed
01
04
f5
00
f0
f1
10
06
05
e6
f9
fd
eb
ff
fb
02
11
ff
1e
f8
df
21
0d
e9
1c
ff
f5
10
f8
03
06
04
06
0f
04
09
03
02
f9
0b
0c
f9
03
fa
08
05
11
28
f2
12
02
f3
16
17
04
01
fe
04
0a
fb
00
f8
04
f4
03
05
f8
03
01
09
06
f8
f9
01
ff
fb
fc
00
07
f5
f4
e7
f1
f9
ee
e2
f3
eb
02
05
ff
07
ea
f7
ff
01
ef
f6
1a
0a
00
09
0c
fa
f8
ff
04
01
fb
fc
0b
03
fe
ff
fb
01
06
e8
e9
d9
e9
f1
e5
e1
fb
dc
e0
d7
e3
f0
fa
e8
dc
f5
e8
e2
f5
e7
f2
ff
f7
e3
e3
e5
f0
f8
00
f0
f2
f5
e7
ea
ed
01
fd
f4
fd
05
fb
fb
f8
ee
e0
ee
f7
e9
f5
eb
d6
fb
e1
04
f4
fc
0a
f5
06
f6
09
fd
04
06
02
0d
fb
f4
02
0a
04
f1
df
e9
eb
eb
fa
07
fa
1b
02
00
05
09
f5
fb
f6
07
f9
1e
02
fd
0e
20
fe
f6
14
05
0b
02
02
04
17
09
ef
fd
fd
07
1c
06
06
f4
25
f9
da
df
f8
f3
10
fd
e7
ed
f6
fe
e7
fe
06
03
d5
de
0f
01
e5
ee
f8
15
08
d3
de
07
f5
da
f2
fd
fc
02
f9
f2
f1
0b
ff
00
f9
ee
0c
21
05
40
08
fa
06
00
01
08
28
1e
1a
0b
03
ff
14
05
22
fe
ee
02
f4
ee
fa
fc
08
07
f5
11
fe
f3
04
f7
ef
eb
ff
ec
de
f0
ff
ed
f7
f1
02
fb
d7
dc
0b
fa
e2
e2
f8
06
fb
dd
e4
fa
09
df
e8
0f
1b
09
e8
05
1b
06
e5
f8
f2
11
08
d7
dd
f7
04
ea
ea
13
14
f8
2c
04
fa
23
f8
f1
f4
0e
11
13
fe
fe
13
07
06
ef
e3
f4
f8
f1
01
fe
ed
fe
fd
09
11
12
28
f1
e7
1d
1e
de
f0
ff
d5
06
12
fe
13
08
eb
ec
04
e7
05
0e
ea
fa
02
1d
1c
04
0f
f9
04
29
04
1d
ff
e7
14
15
fa
19
07
07
0c
f6
e2
fa
04
fd
f8
08
ea
04
05
ff
ff
f8
ef
ea
f9
ec
fe
ee
1a
17
03
0f
08
fa
05
08
f1
d0
f8
07
ea
f0
0e
e3
f9
df
e3
09
de
06
0d
ef
fe
fe
ee
e8
f9
e3
ff
0f
f1
00
06
f8
13
18
fe
ed
19
e8
03
01
ec
eb
f7
cf
ff
04
fa
fe
ff
02
07
fb
d7
03
08
e9
fd
07
f4
fc
08
fe
fd
09
0b
fc
f7
f2
ef
e2
f8
00
e7
ee
f2
f1
e3
fa
09
dc
fe
08
ea
fb
f9
ee
06
ef
d7
09
08
da
fb
02
f8
f3
f2
00
07
0c
fb
04
03
06
f6
f7
16
02
f5
0e
06
00
16
fe
f5
21
fc
ec
10
05
fa
01
e2
eb
fd
f6
ef
01
0b
fb
f3
fa
f7
ea
f9
09
e5
f6
07
f5
01
f0
02
fa
f1
f2
fa
f4
dd
f9
05
d8
0a
fd
dc
02
f7
fb
02
ec
ef
f2
e8
fe
ec
f3
d9
e6
dc
d7
f1
e8
f3
10
04
d7
c0
cd
de
e2
cf
e0
ef
e8
12
0a
fb
1d
04
f9
21
0b
f3
fb
fd
f6
e5
0a
05
df
f5
10
f1
fe
fd
e7
f6
03
ed
fe
f3
fa
01
fc
01
0c
fa
fc
f5
07
f2
f3
03
f5
fd
0f
e8
f5
09
ff
fa
f6
e9
0c
0f
e4
ff
12
0e
1b
12
11
14
05
1d
01
05
02
fd
fc
03
00
fc
11
11
00
0d
0c
fc
13
04
fe
1f
0b
04
fa
05
04
fd
0b
15
03
06
fd
ea
f5
fd
f6
10
14
dc
f6
12
04
06
00
00
fb
f5
00
fd
fb
e4
f0
02
e6
02
15
e6
f1
0b
0b
15
0c
fc
fe
06
06
fc
fe
f1
e5
dd
e7
e4
e2
f6
01
02
e9
e7
ff
fb
ec
f9
f2
02
fa
0c
fc
07
15
01
fc
1d
0c
f8
03
02
f9
03
08
fd
09
0d
09
07
13
1a
fd
0a
11
f9
f0
fd
18
f7
00
0c
f6
ec
fe
f4
f4
0e
0f
03
f8
0c
0a
0b
0a
02
04
18
0c
01
f8
fe
0d
03
04
fc
10
ff
12
25
1a
0f
09
15
11
fe
0b
fc
0b
0b
ff
fd
01
04
05
fc
11
0b
f9
ff
f9
05
ff
05
1d
07
11
02
ff
00
05
08
fd
09
06
fe
0f
0d
13
0e
0c
09
0d
07
0b
03
ff
f5
f2
01
06
15
ff
03
0b
f9
07
0c
0d
05
f4
07
0e
fd
01
10
0c
0a
05
ff
fa
ed
f0
fe
f7
f5
1f
13
17
0b
0f
ff
f3
0d
ff
03
f9
fe
f8
0c
01
03
f7
fe
f3
fb
fe
0d
f6
fa
0f
ff
11
fa
06
06
fa
02
fb
f4
eb
fd
ff
eb
f4
eb
f7
f4
f7
f1
06
05
09
01
01
fe
fd
11
13
04
ff
06
ff
0f
fd
f8
15
fe
f2
fa
ff
04
fa
f9
f9
f3
02
f6
f6
f3
f5
f5
fb
fa
ff
f4
f3
0a
03
05
07
02
fe
ff
06
fc
0c
f5
07
e7
f8
f0
f8
f3
f5
f3
e8
f4
fc
f7
07
06
04
15
0a
fa
fe
fa
f8
00
05
ef
f9
04
07
f9
fe
09
0f
0e
fc
0e
f1
fd
f1
f3
03
00
03
03
0a
0c
f7
eb
f7
ea
f7
05
f9
e9
f2
fb
da
e8
e8
ed
05
e5
d4
ff
f7
09
fb
04
0a
fe
fc
07
01
02
0b
0e
06
13
09
07
fb
f0
f9
03
0b
02
e9
f5
04
eb
07
12
07
16
03
fe
10
19
fd
ea
f2
03
0c
f5
f8
0b
04
ef
0a
08
0f
23
0d
15
03
1e
01
f1
e7
09
f2
ff
05
fd
21
f2
fb
08
f6
eb
03
09
ff
f1
04
ff
f9
fc
00
13
00
05
13
08
22
1c
1c
23
22
18
fb
0b
02
f8
08
03
06
05
10
08
05
f3
08
fe
f4
fd
22
f9
f8
fe
15
e3
f9
06
19
f6
06
ff
00
f4
fc
f7
0b
0c
fa
03
19
08
ff
f8
eb
f2
e6
f5
f1
00
fd
12
00
02
1c
fb
16
0b
e9
fe
0b
f1
f7
09
de
ea
0d
fc
e5
fc
ef
01
fe
fb
00
fd
0b
04
d9
04
0e
df
05
12
e3
fc
04
e4
13
0b
15
0f
0e
00
07
1e
14
02
f8
ec
0e
02
f2
fb
f4
e2
04
f6
04
03
0c
f5
0a
05
01
fb
00
f6
02
ef
e9
f9
f3
f8
04
02
fe
04
04
06
04
0c
03
01
0c
fe
02
01
f7
0e
13
02
00
f4
fa
fb
ec
e5
f2
ed
f4
f1
02
e3
05
0d
ef
0b
0b
cf
fc
10
fc
f9
09
04
fb
0f
03
00
f1
ed
0b
fd
e3
f9
fc
e8
07
09
ed
fc
f2
ea
05
f3
ec
08
f9
09
f2
f2
1a
f6
03
1e
fd
f6
0f
14
06
11
16
12
28
f0
e2
dd
f4
ef
d9
f3
ea
ed
f2
f8
f1
fd
fc
f9
00
06
fe
08
05
07
03
f3
03
ef
ec
f4
0c
fd
e7
03
f9
f4
f8
f7
05
02
00
03
06
05
00
0d
04
08
fb
f8
ed
fa
ef
f9
0b
f4
ee
eb
eb
e8
e9
f1
f0
d7
df
e7
f5
05
f9
02
03
06
02
05
ff
fd
02
ff
01
02
fc
fe
04
0f
20
07
10
f6
01
f8
e1
f0
ef
00
f4
00
fc
f3
f9
fe
0b
11
01
05
0b
00
02
fc
06
01
fe
f7
fb
0c
06
0c
09
04
0a
fb
e7
e2
e6
da
e9
f6
09
06
fb
fd
f2
f9
f1
fd
f9
f2
f0
02
ea
ee
f1
f5
fe
f0
e7
ea
e6
ec
f1
ee
f6
f8
fa
ea
f5
fd
fa
f8
f7
e8
e9
fb
00
e8
fd
f2
ed
f7
fe
f2
f6
f9
fd
f6
10
04
f8
0e
08
fc
0a
04
f1
f5
f9
f3
e5
e8
f3
04
f8
ee
f7
fd
fb
f1
f5
fe
ff
fa
10
1a
36
24
f4
0b
0c
10
1b
04
07
08
03
fc
0d
fe
06
ff
07
f6
fb
fc
fe
fe
05
f8
06
fd
11
0b
23
0e
14
1c
17
03
11
ea
e7
ee
f5
eb
ff
00
e1
f7
f8
02
ff
fb
0a
09
f6
fb
fd
e9
ea
e8
f2
d1
e7
ee
f1
f6
0b
ff
09
fe
01
f5
01
05
12
f8
e9
f6
e9
e5
f4
09
f6
f5
fd
fd
f2
0a
15
06
f9
e2
eb
04
12
14
f6
fa
fc
00
11
08
fa
fc
13
f9
f2
f8
f4
f9
f5
0d
08
ef
fb
04
0c
00
f5
ff
04
f8
f2
fd
f7
06
fa
ee
0a
fa
0a
ee
02
06
f3
f6
ff
fd
ff
f7
08
01
ee
fe
04
f8
ea
db
eb
ed
dc
fc
fe
e5
ec
09
01
07
fc
fe
f9
01
ea
f2
fc
04
fe
0c
ff
07
0c
ee
07
09
11
02
0e
f7
eb
f9
e1
e9
fe
fb
f5
f3
fb
ff
f7
ff
05
fa
fa
01
11
f3
f9
08
f8
fd
fb
f5
f6
f9
0a
01
f7
fd
fd
00
08
ef
eb
ee
fc
eb
00
f3
fb
1b
e1
00
0f
dc
fd
ff
e0
f9
fe
f6
ee
e1
e2
ed
f6
db
ce
e8
ec
ff
f4
f6
fe
eb
f1
fa
ea
e5
ee
f3
ed
eb
f6
e9
f9
f2
f4
f9
ed
f9
f7
f3
f6
fc
09
06
fb
03
08
f7
0b
fe
07
e4
ee
e4
ef
f4
fc
e4
f1
ef
df
f2
f8
e6
ee
e8
ea
e3
f2
08
f4
08
04
f5
fc
0d
f8
f7
f8
f4
f5
f5
fd
f0
f7
ff
ee
03
06
fd
0a
0b
f5
fe
fc
02
0a
ff
0e
1f
18
22
16
1a
1b
f0
e7
ea
f8
dc
e8
ec
e0
ef
ff
04
fd
01
fc
f2
02
fe
01
df
df
e9
f9
f1
f5
e5
e6
ed
09
f3
06
19
19
08
02
0a
ff
e0
e2
e8
fa
f8
f2
00
f8
fd
f5
00
0b
fd
f7
fc
0a
16
fa
fb
f3
f4
02
05
f0
06
02
f0
fa
05
00
04
08
10
0e
06
fd
f8
f1
f1
f9
03
fa
fb
04
fe
0b
fe
ee
05
13
f1
1a
06
f7
fb
ee
ef
ee
00
f0
f7
0a
0a
f2
0b
f5
01
03
08
1f
0d
fc
0a
07
f8
14
17
06
06
03
f2
03
fb
fd
fa
fc
06
02
0b
01
fc
fa
f0
17
20
0a
11
fb
05
24
1c
26
12
17
1f
fb
ee
fd
01
ee
01
08
f9
fc
02
fe
0a
fb
09
fe
fc
00
0d
f6
05
f1
ef
e8
f3
ee
02
f5
06
11
03
1f
0b
f7
01
f9
06
fd
ff
08
e7
e7
f3
ef
e9
ea
f0
f7
0a
0e
fc
00
f7
f1
f4
e1
e0
e7
f1
fc
11
fa
11
0a
fc
09
15
03
f9
02
fd
02
e7
f9
02
f7
00
05
f1
f7
0d
ee
f9
f6
05
10
01
1a
14
14
15
10
04
15
ff
fa
e6
fd
0c
df
0b
0b
ed
01
f8
00
02
00
fe
06
f0
01
ee
00
05
fa
f4
fb
e3
ea
f4
f5
fe
1a
03
05
0f
05
f6
fe
0f
0c
0c
0a
fc
18
f8
0c
17
1e
21
15
f7
04
ef
ff
05
eb
07
02
eb
fc
02
e7
00
fc
fa
fe
12
16
fd
09
22
0f
06
02
01
01
d2
0c
11
d7
0b
fb
f1
02
f4
f3
ed
03
e2
00
ee
e0
03
00
1c
f6
04
1c
05
fc
26
0f
22
0a
f0
09
f4
ef
e1
f2
f3
dc
f1
e6
d9
e7
e8
db
e9
0b
04
1b
04
01
04
f6
00
fc
05
e5
dd
fd
0f
f4
fe
fb
0b
ff
0b
02
0f
05
04
02
02
14
f7
cb
ef
01
13
f2
02
05
02
fc
03
0b
03
f9
08
fa
f9
f9
f2
ec
fa
eb
e6
eb
04
f2
f7
fa
02
01
0f
03
18
19
06
08
17
11
fa
0f
08
26
f8
fa
01
12
1d
0d
01
f9
1c
f7
eb
f8
fa
e6
0b
f1
06
00
f8
04
ff
0e
25
f9
00
fc
28
09
ff
07
eb
cf
f7
00
02
f2
04
fa
0a
20
ff
fa
06
04
fe
01
f3
02
fd
03
ef
01
f2
2b
ff
fc
12
11
0b
04
fb
fe
1d
f2
de
f2
d6
d9
d9
e7
dd
ef
03
f0
f4
fb
f3
fc
09
fd
f6
ff
08
07
0a
0b
12
f5
fc
06
f1
f7
ff
f9
e6
f2
ee
ed
ff
f6
01
0e
06
ff
03
0a
0c
03
04
09
f6
00
00
ef
0a
04
ec
09
f8
ff
f0
fd
f6
fa
02
f3
e2
ef
f0
f3
03
01
fd
02
02
0b
04
f7
ff
f5
f9
ef
03
01
f1
05
ff
ec
f7
ff
fa
f6
e7
04
f8
02
f8
f1
f6
fe
ff
01
09
02
0f
03
02
02
f8
f5
f9
00
02
fd
08
04
00
0c
06
09
00
f8
03
f1
db
e9
f7
eb
f2
07
0c
f6
01
f8
ff
06
f6
00
14
f5
02
0d
fa
f4
f3
ef
ea
f9
00
ec
ed
f3
02
fc
06
fa
04
fc
01
ff
0f
0a
09
00
ee
04
07
f7
e8
ea
ed
0c
0e
0d
ff
0e
03
09
f4
ed
12
03
fb
0d
0f
07
ea
df
dd
fe
0d
fc
02
08
fa
db
ec
fa
14
1b
f9
0c
ff
f6
1d
17
0c
0b
0a
01
0e
0f
0e
f6
07
05
00
f8
08
fa
03
01
2c
2c
16
08
02
f7
ff
f7
f4
fc
02
fb
00
07
f4
0a
fc
ff
f1
f1
f0
f8
f5
f1
fc
0a
ff
fd
03
0a
02
05
fd
fd
fd
f5
e1
e4
d8
0c
03
01
03
0d
fb
19
27
23
f6
f6
07
05
ff
04
fb
f8
e5
03
f7
f4
02
ec
fe
f4
fe
df
e9
04
0a
07
09
ee
f4
f0
f7
07
08
ff
f2
01
f3
fd
ff
fc
ef
f3
ff
f1
f3
f4
00
f7
fe
fe
09
10
f9
f6
0d
f8
f2
03
f4
06
f3
fb
e9
f8
f6
f8
fa
f8
fc
fc
ff
fa
08
fb
0a
f7
00
05
fd
00
fc
fb
0b
12
0f
16
09
18
17
0e
0f
01
fb
fe
05
00
02
fc
06
f4
01
02
f8
f6
f5
f4
f9
07
f9
f7
fc
ff
02
f7
16
0b
f1
02
01
05
03
f2
f6
fd
03
0a
09
00
0c
05
07
05
ff
02
fb
00
ed
ee
f7
fa
03
05
ff
02
05
1b
16
12
08
01
0c
03
09
10
ec
ec
f6
fe
e8
04
08
02
f3
09
f2
0d
ee
ff
fe
11
06
15
03
ec
04
ff
ef
02
fb
f7
04
07
fd
03
11
1d
07
f4
e6
d0
01
ff
10
fd
fe
f3
f8
fb
f0
08
fb
00
f3
ef
0c
e2
e5
05
0d
0c
08
03
0e
f8
d7
d6
cb
f8
f9
e3
1d
0f
f2
e8
ec
ec
15
10
07
fa
f6
f2
ec
d8
d0
f0
ff
0d
07
f9
08
19
10
0e
e6
fe
ff
0f
07
13
fc
f6
fb
00
f6
e6
0f
fa
f6
f2
eb
eb
07
01
0e
02
0e
f3
ef
e3
d1
fb
05
02
0b
01
00
10
0f
00
00
04
fe
ff
11
ee
e3
cf
c0
f3
fe
f6
04
02
e9
e9
e7
dd
0c
00
02
fd
f5
25
26
1f
3f
1e
13
fa
15
0a
18
15
1a
17
eb
f5
ff
0d
e2
ed
1d
f8
df
12
f6
eb
00
17
fd
c7
04
02
f9
09
13
f4
f8
f4
06
0d
f7
17
26
fb
12
14
08
12
05
f9
f8
fe
08
ed
fb
ff
e3
ef
f2
0c
ff
f3
07
14
fb
d8
08
0e
f9
18
02
ed
0e
f8
d9
eb
f8
03
05
03
12
01
f7
30
17
fb
0e
f9
fc
12
fe
06
1a
07
02
f1
eb
f6
f2
eb
00
e3
eb
da
05
f5
fa
04
02
fe
d5
f7
10
03
00
01
03
07
fa
0c
19
f5
f8
f6
fa
e5
03
09
d9
ec
f5
f5
f1
e7
e5
e7
f9
ec
e7
fd
fd
fd
ee
fc
01
fd
eb
10
11
ea
dd
e9
ed
f6
01
d7
f5
df
fe
00
0f
0d
fd
ff
31
17
08
ed
f0
f6
04
f7
f3
0e
03
0c
0b
ff
0e
01
ff
0b
fa
ef
fd
f7
e9
08
e7
fd
f6
fa
fb
0a
0b
0c
fc
0c
0e
fd
0b
00
08
02
f6
f0
0c
f7
e3
0a
ff
ee
f0
fe
e6
06
12
f6
f8
ff
e4
01
fd
03
f5
fa
02
fe
f5
fe
f7
f3
02
ed
fb
f9
f2
ff
00
f9
ee
f4
ed
f1
e7
09
04
fa
fa
fd
f4
fc
fa
f9
0b
08
fd
fb
f9
06
f7
fa
fc
03
02
07
0c
12
0a
09
01
f8
fe
08
fc
e8
de
e0
f2
f5
e7
01
f6
fd
0a
09
00
0b
ef
fc
0c
f9
06
1a
03
eb
f4
ff
ee
09
f8
ea
f7
ff
f6
01
fd
f9
ef
f3
ed
fc
0c
f0
f5
0e
0f
05
04
fd
02
05
02
04
f3
00
02
08
fa
02
01
f9
fd
02
f8
fb
ef
e3
ec
0d
00
f5
09
13
0b
f9
f1
f4
1a
e4
e5
08
0a
ed
f7
11
fa
06
0b
ee
f3
e0
dc
fd
f4
0a
f6
f9
f4
0d
f4
eb
fa
07
ff
10
fc
11
0f
02
fb
00
07
1f
23
19
0d
06
e8
e2
f4
18
fa
0e
f7
03
06
16
03
fc
0a
f9
f1
00
04
0b
f8
f0
04
1c
ec
fc
fa
e2
fb
08
0d
01
ee
da
ea
f2
eb
f5
f6
fa
ed
05
e3
f1
02
f7
e8
f3
e4
f2
fd
ff
0f
fc
0d
f9
0b
05
26
f9
f6
06
03
fb
fb
01
e1
df
ef
f1
f4
fe
fc
f4
04
06
fd
ff
fd
00
09
f8
f5
fc
fd
f4
00
06
da
f7
e9
e4
03
f4
e0
0a
02
ff
03
0c
fe
0c
ff
0a
ff
00
f3
ee
11
ee
e6
14
ff
ff
fe
f1
f8
ef
07
ff
ff
fc
e4
01
00
04
f8
f4
fa
02
fe
f2
fb
fb
0a
ff
f7
09
f8
f9
07
fc
fc
ff
f8
fa
e5
f8
02
f9
f3
f1
01
06
f9
03
04
0d
11
fb
ff
08
07
f9
04
0b
02
f9
0e
fb
f4
02
09
0d
03
0d
fe
e8
e8
f9
f5
06
f5
fa
0d
f7
0c
fe
fd
08
ec
f7
f2
f3
ec
f4
01
fc
02
fa
e1
f6
f1
e5
fe
f4
fa
ff
ff
f6
f2
fa
f3
ee
e0
eb
0a
f5
e8
1f
10
15
0d
0c
03
01
f1
fb
fd
00
07
08
10
f8
f6
e2
fb
01
fe
00
05
fd
06
0a
09
ff
08
10
11
0c
fe
fe
fe
fa
e1
1c
17
04
0c
07
fb
0e
0f
05
00
09
0e
03
f8
02
e6
f3
f8
f9
ef
f1
0b
05
fc
f6
fc
fe
09
01
08
f4
f3
f5
f8
f9
f7
0b
ff
03
ef
e8
f0
09
02
03
0e
16
17
08
07
fd
fb
01
fa
03
f2
f6
f9
f8
f5
00
0a
fe
12
20
12
03
0b
20
0a
18
0b
ef
03
f7
0a
fe
fc
0f
f6
f6
f0
dc
d5
e8
f8
ea
00
f6
e6
f5
e6
ec
0f
00
0c
f3
02
00
e8
f0
fb
fc
f1
ed
09
01
02
0d
05
11
05
0a
07
fb
fa
f9
ee
eb
fd
f9
ec
05
e8
f4
ea
f8
e6
04
fc
0e
fc
fb
0e
f9
f6
06
04
06
01
fe
05
fc
ee
05
fe
fb
e5
04
03
e5
fe
f1
db
f5
f7
f1
07
ff
02
fe
f9
02
08
f4
f4
02
ff
f6
fb
fd
f1
f4
01
ef
f4
fd
fb
fc
fe
f9
fd
fc
f2
f1
01
05
0a
0a
0a
fd
10
fc
07
01
f5
f7
f6
03
fc
02
06
ff
fd
fa
0d
ff
fd
fd
fb
e4
e1
dd
e4
ee
de
0c
fd
09
0e
f4
f5
06
f4
f4
fc
f6
fa
f7
eb
f0
f3
e5
e4
f0
f4
ee
f1
fc
0d
f2
f9
fb
f9
f1
ff
fd
f4
ea
09
ed
f9
ec
fc
04
00
f6
f5
ff
ed
07
f1
02
fa
0f
0a
0f
fb
0a
08
1f
f6
fb
f9
fb
ea
02
eb
fa
e5
0d
f4
f3
ed
f4
f1
e6
f8
df
fd
eb
ee
03
05
ee
06
03
04
ff
02
02
ff
fe
03
0e
06
00
01
f9
fb
f3
03
f2
0a
02
0a
f4
10
02
10
1f
ff
24
1d
13
ec
04
ff
fa
e4
04
d8
f3
d9
05
fe
f5
01
10
f0
08
09
fb
fa
f7
f8
f5
e6
06
e2
f4
d4
ff
f7
04
ff
00
00
f8
04
f7
e7
00
e9
e2
db
d7
de
dc
e6
e5
f5
00
e8
fd
e6
ef
ed
d8
f6
f3
00
04
19
fa
0f
0b
0d
08
12
ff
06
05
00
00
ff
f9
f8
fe
fd
fa
fa
11
fa
f3
0b
0e
fc
0a
f9
f0
13
fe
fb
1a
0c
06
f7
f7
f6
ff
ee
e8
07
0d
06
ee
fc
f8
f5
08
fe
f6
03
00
ed
fc
f5
09
1b
f9
ee
0f
07
02
05
ff
fa
0e
f9
04
0a
ff
01
f5
ee
0f
0b
fb
fe
03
08
12
ed
05
19
0a
26
f3
e8
09
fa
f2
f8
02
ee
f7
f9
fb
fa
f8
f7
f8
01
0d
fa
f6
f9
fa
f0
ee
f8
f5
ee
fa
f5
f7
f6
0a
f0
03
16
0b
01
ff
05
09
01
fd
f0
01
f9
fb
20
09
ff
e5
14
0e
09
21
f7
e0
11
07
ee
e7
ec
e2
f6
f4
f2
f0
fe
0c
00
03
e3
e8
f2
ff
01
f8
ff
09
05
fa
f2
f2
f9
0e
06
f3
f1
f5
fe
ee
0e
0b
f0
eb
0b
03
f7
ea
e3
d0
f6
0f
0d
12
00
fd
e0
e8
eb
f3
f9
ec
f1
f4
08
ff
f0
06
04
07
0c
04
f9
06
00
f7
f0
00
fb
f1
04
fe
fd
ef
0c
16
03
fa
ef
f4
f8
0a
33
40
2a
1d
1c
1d
05
05
04
ed
ef
ec
ff
fc
f9
f8
00
04
1d
2b
19
09
07
fc
fb
ff
07
d6
d0
d5
ee
fd
0f
00
ee
f1
18
1d
1b
12
18
13
fa
ee
ec
e7
ec
fb
eb
fb
04
03
f2
02
f6
f6
f8
f9
02
09
ff
ec
db
f5
e5
e6
fa
ee
e4
f0
00
f5
0e
06
dd
0e
f6
dd
06
02
ee
02
0a
df
f8
f4
e1
f3
fb
0c
05
03
08
f5
f7
05
fe
08
dd
08
03
e9
f9
fa
e3
f3
ec
f6
07
fa
ea
14
f7
e8
f6
fb
f8
05
0c
f5
05
02
f7
04
fd
fa
fe
fd
0e
f1
04
fd
f7
02
fc
00
02
ff
fc
04
f6
01
fd
ef
f8
0f
04
f7
01
f4
fb
03
ec
fd
fd
d8
08
ff
d5
fb
fe
f6
ec
05
f9
f6
06
f9
fb
05
e4
16
fe
da
fe
fe
d0
00
fc
f4
05
fa
eb
0c
fd
f5
f9
f7
21
fe
fc
2b
fc
02
32
07
03
1a
2a
26
34
23
1c
24
ef
e6
de
ef
f0
d4
ee
dc
d7
fb
01
f2
06
f1
05
fb
ee
08
fe
e5
05
09
f6
0b
09
f8
00
0c
3a
04
0b
26
0a
1b
3a
03
ff
f7
11
01
d3
01
fd
d7
08
04
07
03
fd
f0
0a
fa
e8
0b
1c
07
f9
05
e9
e9
1c
ed
f3
fc
0e
fe
07
0d
fc
07
12
fc
fa
1d
03
f7
10
f5
09
08
01
26
22
0c
0d
f9
02
05
fe
e3
0b
0c
fd
0b
df
fd
0c
cf
fc
fe
02
04
f6
14
00
ff
01
04
fb
f4
01
fe
c1
02
f5
c7
fb
0b
e0
f1
fc
e3
f9
05
d9
04
ee
ed
ef
ff
08
f8
01
05
ff
08
ec
0c
0e
f6
02
06
f8
1c
fb
fc
f4
e0
ec
ec
f7
e6
f8
fb
f9
fe
f1
fc
f6
eb
f5
ec
ec
fb
f5
04
fc
f7
18
00
02
fa
05
01
06
0e
0a
f7
0e
08
f9
f4
ff
ee
ee
f4
ff
03
f5
f3
f7
00
f1
ff
04
ff
ee
fa
0c
0b
fd
18
15
0d
13
1b
07
ff
04
ee
fa
07
09
01
09
fa
fe
ff
f5
03
08
f5
fe
06
ff
12
04
0a
16
0f
12
11
07
07
f8
f2
f7
f9
f1
00
f6
ff
e9
fd
f8
f5
07
04
02
05
05
fe
e5
f6
f2
f5
ee
f2
05
f4
f1
0f
0b
01
11
03
08
1c
13
20
f2
dd
d8
fb
e2
e9
ff
f0
f3
0e
fc
06
17
1e
0d
03
f6
02
fc
f1
f3
f1
f5
ec
fc
fe
f3
f2
f7
09
01
16
f1
00
f7
e1
fc
07
18
f4
05
06
0e
f3
fd
08
05
03
16
12
16
0f
25
10
06
05
02
00
0e
dc
f1
d6
f0
ee
f0
0d
14
09
02
15
06
0e
07
04
07
ed
e8
de
e9
d9
e9
02
11
0b
ff
fa
f3
16
f4
ec
0e
fe
02
06
fb
16
09
29
07
fc
ec
fe
0d
f5
f1
1a
14
e7
01
fd
0d
fd
0d
f2
fd
df
e1
f7
01
17
0c
00
16
1d
1d
fa
09
0f
01
0e
02
e8
ee
e4
e6
f6
ff
f3
ee
e6
d1
fc
ed
e8
fe
ee
f1
06
f1
2a
14
3f
fc
0a
ee
eb
25
03
08
0d
f1
f4
0a
02
fb
f7
e5
f1
00
de
ee
f3
f5
ec
fe
f4
f2
05
f9
05
0f
0f
09
f9
fd
fd
f3
f6
f1
08
fe
fd
fd
f9
f7
eb
f5
04
0e
10
0b
f9
04
04
05
fe
01
02
02
f5
11
00
f6
07
fb
fa
da
f9
e4
e5
fa
ed
d9
ee
de
f5
01
03
f3
ff
fe
0d
fe
06
fa
05
00
f7
fa
02
01
fd
f9
04
f7
f6
fa
f2
f0
fa
f7
f8
03
f7
fd
fe
f4
fe
07
06
0b
fe
f9
f8
f7
fb
f6
02
ff
f8
01
06
0a
04
fd
02
f9
f7
f1
df
ee
ee
e7
e3
dd
01
0a
06
06
ee
fd
fd
ed
f7
04
f4
f6
09
fa
fb
fb
e9
de
f3
f9
ef
ea
f2
f8
02
f3
03
ff
02
00
f9
ee
f6
fc
f7
f9
ff
05
02
05
0c
07
02
fe
f8
f5
f1
fd
fe
f8
f4
f1
02
00
e8
ea
0a
fa
fe
05
00
07
0e
03
0d
0a
f5
ff
f8
0c
01
f0
14
f5
fa
ee
f7
e7
ea
ed
fb
f6
f1
f3
f9
00
ff
01
f7
fb
00
f2
f5
08
0a
00
07
ff
03
00
05
04
0f
fd
0f
ec
f3
f4
ff
ec
f9
00
f7
00
05
fb
07
0e
0a
00
09
fd
02
fa
f6
fc
03
05
04
f6
04
03
02
08
0b
fe
09
fa
f6
f9
ef
f9
ec
f2
00
04
06
08
fa
f5
fc
fd
ea
fa
f2
e8
fd
ec
ed
de
f4
e1
fb
e6
ec
f6
f7
f4
fa
f4
f6
e9
ef
f2
f9
03
0f
f3
f7
ea
f1
e8
fa
f6
f5
ef
fe
f9
ee
f6
ec
f8
fb
f4
00
fa
f7
f4
0c
f8
fb
f2
fb
eb
f9
fd
ec
ef
f3
f3
f8
f8
0b
eb
ef
f1
e4
f6
05
0d
2a
03
f1
01
f4
f4
0c
0e
f5
05
04
f9
02
f9
00
0e
0d
fa
f7
fa
ee
f3
f6
ee
f5
f8
ff
e4
14
11
ef
03
01
fa
0b
fb
f7
fc
f2
f1
f9
f3
e2
e0
f0
fd
f6
f1
01
fc
ee
05
f9
ef
ef
ec
ec
e2
e6
f3
e8
f4
ff
ea
02
ee
f0
ee
05
04
13
26
09
0b
00
f8
e7
0d
05
f8
05
08
de
fd
0e
08
ea
f1
e8
1d
fd
08
ef
ea
04
fd
f7
0d
f7
ea
fb
fa
f4
07
09
0b
11
00
06
06
f4
f7
ff
fa
f5
0c
f1
dc
ef
f5
e2
f1
f8
e5
0a
fd
0d
f7
ff
07
f8
07
07
ff
0c
ed
01
f9
ed
f5
12
f4
f4
f7
f6
06
f7
fc
e6
f2
f9
eb
03
01
01
ff
03
09
fb
01
02
f3
ef
f9
01
f7
05
f6
f6
08
01
f5
fd
f8
03
f5
f9
fd
ff
f3
fa
01
07
f8
00
03
01
08
fd
fe
f9
03
02
fc
09
02
01
04
fa
fb
fa
05
05
04
05
fa
f3
f0
df
f8
fc
e9
07
f8
f2
fe
06
f2
fa
01
fc
0f
f7
fe
f3
f6
f9
f1
ed
f2
f8
f8
f1
04
fb
06
ff
02
f9
f6
f4
e0
01
ef
fb
01
ff
08
0e
06
0c
08
0a
0c
f3
fa
01
f0
f2
fb
04
f4
f6
f4
ef
fe
f0
ee
fe
fd
06
0c
08
10
fc
10
0f
09
01
04
00
02
f6
fa
16
f8
05
f9
fe
0d
fd
00
02
ff
05
fa
00
fa
fd
f4
fa
02
f9
f4
fb
f6
f5
05
ff
fb
f8
f8
fd
fa
fc
01
06
f5
f0
fa
04
01
fc
02
fd
f6
fc
02
08
11
14
0f
03
fb
04
01
00
fd
09
ff
fa
01
fc
fe
09
04
02
08
0f
fb
fa
f4
ea
fa
0d
f4
09
0b
05
03
fb
fd
fd
f9
f8
09
f7
fe
08
fb
01
00
f5
fc
08
f8
f4
f5
01
05
ee
08
fe
ea
f0
fc
fb
f4
08
06
0a
03
ed
fb
f7
fd
e7
f8
0a
02
06
00
01
fd
fe
fe
f1
f4
f0
f7
f1
f5
e2
ee
e6
fa
03
02
02
04
fe
00
f3
eb
05
0a
fb
e3
e5
fe
fc
07
1c
ed
f2
db
e3
07
0e
0c
08
f9
f9
f5
f8
f1
fc
02
fe
06
18
fb
f4
f3
ef
0e
0f
06
1c
1e
21
fe
e7
dc
0e
10
16
f3
f2
fb
fd
0a
fc
f5
04
ff
01
0e
0b
ee
f3
f2
0b
1a
0a
eb
ee
f8
05
05
01
04
0c
fc
e2
ef
e5
ef
e7
dc
1b
22
23
04
0d
00
df
df
de
eb
fd
f9
ea
e5
f2
ee
e5
ea
f6
e4
f7
04
04
08
f8
fb
f1
fe
0e
0e
0d
0b
ff
0a
f6
04
f9
03
02
f9
fb
f7
f3
0e
0b
fc
f7
f2
f8
01
0a
03
24
f6
14
0a
ea
10
fb
f3
f8
f3
07
02
02
fe
01
f1
fd
e6
0c
16
f9
ff
f2
ec
fd
e6
e0
e8
fc
de
fc
09
ef
fd
fb
f2
04
f5
ed
eb
fd
ec
f5
0c
10
27
0c
12
ed
fe
16
f2
ef
17
19
06
e8
f3
f7
0a
0b
fc
04
f4
02
ff
04
00
f3
fe
fe
02
1a
0e
f6
08
06
14
09
05
fe
f6
05
fd
03
fc
fc
d9
e2
04
05
05
ff
13
08
ee
f3
02
fd
e1
ea
05
ff
1c
e7
f5
f0
ea
f4
03
e2
fe
ff
ed
ec
ed
e3
dd
e0
f9
ec
f4
00
ff
fa
04
15
0b
ff
00
08
02
00
0a
03
fe
00
f9
06
fe
01
dd
da
f1
ef
f3
f7
f0
dd
fb
03
05
f1
03
0a
01
fc
fc
f7
06
f2
fa
0e
01
05
fe
08
f1
0e
0e
fa
08
10
04
f5
05
f4
f7
fa
fb
fd
fe
ff
07
07
05
f0
e2
e9
fa
fd
01
fe
05
05
11
14
05
fd
0c
0f
0c
1d
03
01
13
f9
0f
0a
0b
fe
07
07
fe
fd
fc
f4
e3
02
0d
11
f1
fe
fe
00
0b
08
f2
fc
f1
11
09
0b
0c
14
01
07
09
00
e1
d5
ec
e2
d4
fd
e6
dd
eb
f1
04
f7
e6
f9
00
0a
15
19
f3
fd
ff
ec
f5
fd
ec
e7
e6
f4
ff
f9
11
fc
13
0c
f8
07
fe
e6
ec
fc
e1
fa
0b
09
06
0e
07
fa
12
1c
fe
16
0b
04
f5
f4
f2
f2
d7
fc
03
03
05
ee
ee
10
03
ec
20
0f
fe
01
12
0b
fb
0e
14
f9
f8
02
f1
08
0d
06
f6
05
06
f6
06
00
05
fd
02
03
18
0b
fe
fa
05
2b
2c
27
19
32
2d
ff
f7
fd
fb
fc
06
12
00
fd
0b
fc
0a
fd
ff
09
fe
09
0b
01
ff
00
f6
e7
f7
ef
ca
e8
00
09
0c
05
f7
ff
f8
fa
07
05
09
13
f1
f4
f9
e6
f4
f5
f0
e4
ed
02
fa
11
01
06
eb
c9
d8
df
ec
0c
09
ec
fe
06
eb
07
06
fb
fe
04
fa
00
ef
05
f9
06
fc
0e
07
0b
05
ff
07
f6
ff
21
00
03
03
fe
f1
fc
fa
ef
e6
02
05
fc
0c
02
fd
0a
ff
f7
fb
0d
09
f1
e5
09
03
f7
f6
ee
fa
f1
e4
f3
f8
04
04
ef
02
09
01
03
fb
03
f7
f5
2e
0a
02
0a
07
04
